tree
version=v3
num_class=1
num_tree_per_iteration=1
label_index=0
max_feature_idx=12
objective=regression
feature_names=EXHAUST NUM_TRAVEL YM_MFG INSIDEVU CAREVU SOU SalesMonth COLOR AveragePrice BRAND_TYPE_TOYOTA_ALTIS BRAND_TYPE_TOYOTA_CAMRY BRAND_TYPE_TOYOTA_RAV4 BRAND_TYPE_TOYOTA_YARIS
feature_infos=[4:3556] [0:395300] [0:18.135240160409083] [2:6] [0:9] none [1:12] [0:6] [54.333333000000003:113.14285700000001] [0:1] [0:1] [0:1] [0:1]
tree_sizes=2697 2699 2703 2703 2720 2686 2734 2703 2726 2706 2729 2734 2733 2737 2712 2742 2712 2754 2734 2731 2735 2769 2741 2744 2751 2736 2758 2743 2738 2716 2756 2759 2764 2746 2740 2728 2752 2779 2729 2742 2737 2740 2750 2734 2746 2739 2753 2707 2719 2745 2699 2739 2735 2713 2716 2733 2736 2740 2742 2729 2724 2694 2709 2690 2694 2688 2699 2680 2750 2700 2715 2730 2693 2736 2644 2697 2714 2725 2718 2658 2682 2732 2713 2700 2677 2661 2696 2699 2634 2716 2693 2711 2659 2710 2722 2665 2687 2677 2684 2674

Tree=0
num_leaves=31
num_cat=0
split_feature=8 0 1 1 1 1 10 10 4 1 1 2 1 4 2 3 0 3 2 0 1 7 4 6 4 2 4 2 2 4
split_gain=2.23755e+07 4.2987e+06 3.16226e+06 2.24786e+06 1.3404e+06 1.19182e+06 682485 639551 777681 545065 514158 455975 407178 398039 363688 308166 253962 232249 210830 203919 182532 155765 140165 137962 135076 221529 122569 302407 117741 103582
threshold=77.000000000000014 1689.5000000000002 99267.500000000015 94702.500000000015 30204.500000000004 38727.000000000007 1.0000000180025095e-35 1.0000000180025095e-35 2.5000000000000004 45630.000000000007 151260.00000000003 7.2119526891690233 99721.000000000015 1.0000000180025095e-35 6.9654914779035151 4.5000000000000009 1998.5000000000002 4.5000000000000009 4.2092129864428882 2494.5000000000005 61879.500000000007 4.5000000000000009 1.0000000180025095e-35 4.5000000000000009 1.0000000180025095e-35 7.0503088441011474 1.0000000180025095e-35 8.4641215795616063 9.6312448253757559 4.5000000000000009
decision_type=2 2 2 2 2 2 2 2 2 2 2 2 2 2 2 2 2 2 2 2 2 2 2 2 2 2 2 2 2 2
left_child=1 5 4 6 18 15 -2 -5 17 24 -4 -10 28 16 29 -1 -11 -9 -3 -18 -6 -17 -20 -22 -8 -26 -12 -28 -7 -15
right_child=3 2 10 7 20 12 9 8 11 13 26 -13 -14 14 -16 21 19 -19 22 -21 23 -23 -24 -25 25 -27 27 -29 -30 -31
leaf_value=625.18461574271089 647.78502606701943 643.7698446287294 630.75931204540518 644.6237065012192 634.87891959455203 627.82893822133883 645.67818372367924 636.22684360495941 636.77661349592108 641.27050436730474 628.32451204491463 629.60253736506297 625.16815896093442 635.98455592084031 636.82924450864164 630.88146738648891 645.67255317634363 639.86675364163682 639.81729671197286 640.91719278133564 634.61046548102343 636.29444113189015 636.41021140384737 633.03088243125853 644.59859767288037 639.04567015371538 627.99845951960162 619.55342791035537 630.07652314094366 641.54690649351437
leaf_weight=36 225 87 1488 111 1884 999 387 281 161 760 205 197 580 36 312 70 311 466 298 127 840 221 203 1618 243 102 110 69 304 478
leaf_count=36 225 87 1488 111 1884 999 387 281 161 760 205 197 580 36 312 70 311 466 298 127 840 221 203 1618 243 102 110 69 304 478
internal_value=634.98 632.172 633.416 641.011 634.745 628.34 642.489 637.388 636.661 642.057 629.917 632.829 627.372 641.211 639.523 633.913 642.376 638.498 639.226 644.294 634.138 634.992 638.437 633.571 644.396 642.957 626.655 624.743 628.353 641.157
internal_weight=0 9012 6802 4197 4930 2210 2981 1216 1105 2756 1872 358 1883 2024 826 327 1198 747 588 438 4342 291 501 2458 732 345 384 179 1303 514
internal_count=13209 9012 6802 4197 4930 2210 2981 1216 1105 2756 1872 358 1883 2024 826 327 1198 747 588 438 4342 291 501 2458 732 345 384 179 1303 514
is_linear=0
shrinkage=1


Tree=1
num_leaves=31
num_cat=0
split_feature=8 1 1 0 8 1 1 10 10 4 1 3 2 4 2 1 1 0 3 1 0 1 1 2 4 0 0 2 1 1
split_gain=1.81242e+07 3.495e+06 1.82077e+06 1.76434e+06 1.21383e+06 874942 817784 552813 518036 629922 462134 403050 369340 345211 335477 298560 213333 210254 188121 185193 179391 178142 174842 159959 108613 102422 135112 100459 100037 93606.5
threshold=77.000000000000014 75522.500000000015 94702.500000000015 1689.5000000000002 62.958333000000003 123608.00000000001 28105.000000000004 1.0000000180025095e-35 1.0000000180025095e-35 2.5000000000000004 36551.000000000007 4.5000000000000009 7.2119526891690233 1.0000000180025095e-35 6.9654914779035151 31604.000000000004 188440.50000000003 1998.5000000000002 4.5000000000000009 99721.000000000015 2494.5000000000005 14895.000000000002 109706.50000000001 9.4641215196694777 4.5000000000000009 1998.5000000000002 2494.5000000000005 10.381815559263739 123608.00000000001 151260.00000000003
decision_type=2 2 2 2 2 2 2 2 2 2 2 2 2 2 2 2 2 2 2 2 2 2 2 2 2 2 2 2 2 2
left_child=1 4 7 22 15 19 11 -2 -4 18 -9 -6 -11 17 24 -1 -7 27 28 -5 -19 -13 23 -3 -15 -20 -27 -12 -10 -14
right_child=2 3 8 5 6 16 -8 10 9 12 13 21 29 14 -16 -17 -18 20 25 -21 -22 -23 -24 -25 -26 26 -28 -29 -30 -31
leaf_value=-0.5465302308616431 11.52425163184272 -7.6330770340342982 8.6790640139364985 -1.516533785903543 -8.3989798784255978 -5.2835487560884467 -0.38100934814231757 9.3725775295385603 3.1553819848940923 1.6166801082236426 7.0874554890191526 7.63983631607086 -3.3627560646887176 0.94650543678638555 1.9323274602075253 -5.1502036058714307 -10.049549077198192 9.7395800898241447 3.1732074041228864 -3.3263558621435125 5.4935826149582869 3.3443036620755464 -9.4911331348529124 -4.6730559188175977 6.1594250921113991 7.6872447994020252 1.4096890404489306 4.933169564091358 -0.62880370002116592 -8.0565430548883263
leaf_weight=184 225 708 111 1472 26 824 3041 432 130 161 397 126 135 43 357 601 106 344 277 918 140 413 347 246 567 144 45 476 151 62
leaf_count=184 225 708 111 1472 26 824 3041 432 130 161 397 126 135 43 357 601 106 344 277 918 140 413 347 246 567 144 45 476 151 62
internal_value=0 -2.52786 5.42794 -4.44753 -0.507638 -3.22435 0.268107 6.75823 2.16679 1.51261 6.36913 3.76185 -1.93629 5.81083 4.36705 -4.07113 -5.82677 6.83967 3.1655 -2.21169 8.5114 4.34845 -7.56896 -6.8698 5.79196 4.39781 6.19259 5.91284 1.12189 -4.83999
internal_weight=0 9012 4197 4621 4391 3320 3606 2981 1216 1105 2756 565 358 2324 967 785 930 1357 747 2390 484 539 1301 954 610 466 189 873 281 197
internal_count=13209 9012 4197 4621 4391 3320 3606 2981 1216 1105 2756 565 358 2324 967 785 930 1357 747 2390 484 539 1301 954 610 466 189 873 281 197
is_linear=0
shrinkage=0.1


Tree=2
num_leaves=31
num_cat=0
split_feature=8 1 0 1 1 1 0 1 10 1 10 4 3 0 1 2 1 8 1 4 4 8 7 4 2 1 1 6 2 2
split_gain=1.46806e+07 2.86081e+06 1.82142e+06 1.48938e+06 868643 649230 511135 467950 427012 353887 341899 345736 333234 211792 203936 191397 184748 181405 171570 164783 162886 238339 159513 154037 261748 147978 101577 98184.4 89772.8 88234.2
threshold=77.000000000000014 66575.500000000015 1689.5000000000002 91541.000000000015 123608.00000000001 31604.000000000004 1791.0000000000002 151260.00000000003 1.0000000180025095e-35 60796.500000000007 1.0000000180025095e-35 2.5000000000000004 4.5000000000000009 1998.5000000000002 99267.500000000015 7.2968841749144202 161602.00000000003 73.550118933333351 99721.000000000015 2.5000000000000004 2.5000000000000004 70.642856500000008 4.5000000000000009 1.0000000180025095e-35 7.0503089130228851 19389.000000000004 36551.000000000007 4.5000000000000009 3.5024778345884795 9.6312448253757559
decision_type=2 2 2 2 2 2 2 2 2 2 2 2 2 2 2 2 2 2 2 2 2 2 2 2 2 2 2 2 2 2
left_child=1 5 18 8 14 12 -7 10 -2 23 -5 -12 25 22 27 -13 -6 20 29 -9 21 -14 -11 26 -25 -1 -10 -4 -19 -3
right_child=3 2 4 7 16 6 -8 19 9 13 11 15 17 -15 -16 -17 -18 28 -20 -21 -22 -23 -24 24 -26 -27 -28 -29 -30 -31
leaf_value=-11.85081430616833 10.475469153084106 -6.3655079128378533 -0.26204809653759004 8.2221503020264208 -4.333191018547045 -4.0378598908630519 -0.23200203831837518 0.08093259027915313 9.6701640522009455 2.2229204142765258 3.6499093401687364 1.8421864574124829 1.8028554115343738 6.9111764126843589 -2.9745851100092229 -3.1975157154285734 -7.424939563718155 9.6084827423095707 -7.9860584900502509 -5.4163522559542994 0.1697898193443422 7.1672862436460409 4.8757324194699008 7.1551256070440674 2.6886375171284342 -1.2326514104434423 7.1386550620886 -1.7000386032124244 4.3220056976465626 -4.1502394411326442
leaf_weight=21 213 708 725 112 656 421 2181 149 228 355 677 169 296 311 942 136 274 44 580 86 278 115 627 424 190 35 520 1376 119 241
leaf_count=21 213 708 725 112 656 421 2181 149 228 355 677 169 296 311 942 136 274 44 580 86 278 115 627 424 190 35 520 1376 119 241
internal_value=0 -2.27507 -3.69815 4.88515 -2.56942 -0.0443786 -0.847785 2.11783 6.1675 5.82189 2.98751 2.39048 2.25789 4.63697 -1.75199 -0.405025 -5.24409 2.74903 -6.63107 -1.93084 2.03931 3.30385 3.91672 6.94678 5.77299 -5.21446 7.91029 -1.20383 5.74903 -5.80294
internal_weight=0 9012 5502 4197 3973 3510 2602 1329 2868 2655 1094 982 908 1293 3043 305 930 852 1529 235 689 411 982 1362 614 56 748 2101 163 949
internal_count=13209 9012 5502 4197 3973 3510 2602 1329 2868 2655 1094 982 908 1293 3043 305 930 852 1529 235 689 411 982 1362 614 56 748 2101 163 949
is_linear=0
shrinkage=0.1


Tree=3
num_leaves=31
num_cat=0
split_feature=8 1 0 1 1 3 1 8 10 1 4 2 4 1 2 0 0 0 1 7 1 0 0 7 2 1 7 7 1 7
split_gain=1.18913e+07 2.3199e+06 1.41181e+06 1.21507e+06 687582 559622 677664 446106 444982 481246 275612 267705 248008 192439 191194 189597 165856 155702 142339 134863 129853 103292 181146 96269.9 96065.5 95503.3 93577.9 108928 87180.4 79230.1
threshold=77.000000000000014 67999.500000000015 1689.5000000000002 112702.00000000001 129915.50000000001 3.5000000000000004 23906.000000000004 62.958333000000003 1.0000000180025095e-35 60796.500000000007 1.0000000180025095e-35 7.2119526891690233 2.5000000000000004 99267.500000000015 7.2119526891690233 1795.5000000000002 1998.5000000000002 2494.5000000000005 104506.00000000001 4.5000000000000009 188440.50000000003 1998.5000000000002 2494.5000000000005 4.5000000000000009 9.296884130440171 36551.000000000007 5.5000000000000009 4.5000000000000009 41358.000000000007 4.5000000000000009
decision_type=2 2 2 2 2 2 2 2 2 2 2 2 2 2 2 2 2 2 2 2 2 2 2 2 2 2 2 2 2 2
left_child=1 5 18 8 13 -1 15 29 -2 19 21 23 16 -4 -14 -7 -5 -18 24 -10 -6 -11 -23 -12 -3 -21 27 -17 -9 -8
right_child=3 2 4 12 20 6 7 28 9 10 11 -13 14 -15 -16 26 17 -19 -20 25 -22 22 -24 -25 -26 -27 -28 -29 -30 -31
leaf_value=-14.189651007311685 8.9211634532336532 -5.9231006115871816 -1.1126600154838573 0.34185787980903443 -4.5298716285811151 0.71790301010984447 -4.4156630373103871 0.80549632133002957 4.7920852179035407 4.0295954135766801 1.4985353389561502 -1.1691574125466022 1.6013934939544887 -2.7563431453369223 -4.1506585439046226 2.7179484325225154 5.5223316893435843 -1.1769939753142269 -7.456584013482197 8.398813118216891 -8.3021003980681591 7.3265642971828076 2.495869941137872 4.349119000810953 -3.7579835666283916 6.231010391508776 2.3483957218496427 7.3554454874533874 -0.43940541593677795 -1.7627293794537371
leaf_weight=28 290 757 1988 268 656 184 290 816 432 734 183 176 94 1110 150 75 164 44 456 300 106 290 106 336 281 630 114 156 1811 184
leaf_count=28 290 757 1988 268 656 184 290 816 432 734 183 176 94 1110 150 75 164 44 456 300 106 290 106 336 281 630 114 156 1811 184
internal_value=0 -2.04757 -3.37376 4.39663 -2.3635 -0.106497 0.00213339 -0.562194 5.17091 4.82966 3.76808 2.2011 0.657534 -1.70158 -1.9347 3.31022 1.98633 4.10517 -5.98392 6.2521 -5.05462 4.73185 6.0335 3.344 -5.33698 6.9303 4.69279 5.84976 -0.0527134 -3.38583
internal_weight=0 9012 5354 4197 3860 3658 3630 3101 3477 3187 1825 695 720 3098 244 529 476 208 1494 1362 762 1130 396 519 1038 930 345 231 2627 474
internal_count=13209 9012 5354 4197 3860 3658 3630 3101 3477 3187 1825 695 720 3098 244 529 476 208 1494 1362 762 1130 396 519 1038 930 345 231 2627 474
is_linear=0
shrinkage=0.1


Tree=4
num_leaves=31
num_cat=0
split_feature=8 1 1 0 8 1 1 1 10 3 7 10 4 7 1 1 0 2 4 2 8 2 4 6 1 4 2 1 1 6
split_gain=9.63194e+06 1.89386e+06 1.01721e+06 867898 765174 461282 450653 339136 284938 274444 252247 232914 232877 208489 165196 146951 130100 128469 111759 163248 111164 190655 109154 97441 92785.4 90792.3 265943 80613.1 79453.2 75047.2
threshold=77.000000000000014 77501.000000000015 91541.000000000015 1689.5000000000002 62.958333000000003 23906.000000000004 147250.00000000003 151260.00000000003 1.0000000180025095e-35 4.5000000000000009 4.5000000000000009 1.0000000180025095e-35 2.5000000000000004 4.5000000000000009 36551.000000000007 99721.000000000015 1998.5000000000002 8.2119526420174491 1.0000000180025095e-35 7.8832997149488522 72.65011893333336 10.843573603762374 2.5000000000000004 4.5000000000000009 93602.000000000015 1.0000000180025095e-35 8.4641215795616063 45630.000000000007 35456.000000000007 4.5000000000000009
decision_type=2 2 2 2 2 2 2 2 2 2 2 2 2 2 2 2 2 2 2 2 2 2 2 2 2 2 2 2 2 2
left_child=1 4 8 20 13 9 15 11 -2 -6 16 -4 29 -1 -12 -5 27 -14 -16 -20 21 24 -9 -7 -3 -8 -27 -10 -15 -13
right_child=2 3 7 6 5 23 25 22 10 -11 14 12 17 28 18 -17 -18 -19 19 -21 -22 -23 -24 -25 -26 26 -28 -29 -30 -31
leaf_value=-4.3432290648493286 8.5358060492036483 -4.8935968973060362 6.730885356026036 -1.2277137521482004 -7.5657481740821497 0.51655744922864089 -4.1153639417371632 -0.13932026176644652 4.6037024806231956 3.9063274161482697 7.5589318204720817 4.2929660177941242 0.95113749452021923 0.57048605227930438 5.7362651501815547 -2.6914657467921859 5.7281844196083789 -3.5488159770435761 4.5863007026319593 -0.27391249348845664 -10.465975070529515 -2.7169194260543144 -4.6134849245118543 -0.61020291008769656 -6.8727262114816243 -4.2572617518599145 -11.854185565312704 2.1086623841393668 -2.5553992128072505 2.1250379377313688
leaf_weight=530 213 422 112 1340 22 1204 243 149 172 400 300 258 215 149 846 1405 182 90 552 79 45 216 86 2117 540 128 72 524 179 419
leaf_count=530 213 422 112 1340 22 1204 243 149 172 400 300 258 215 149 846 1405 182 90 552 79 45 216 86 2117 540 128 72 524 179 419
internal_value=0 -1.84281 3.95697 -3.32335 -0.423409 0.194021 -2.45455 1.66999 5.01673 3.30826 4.73441 2.41036 1.91759 -3.11693 5.41956 -1.97692 3.34773 -0.376718 4.98502 3.97781 -5.58806 -5.40172 -1.77667 -0.201706 -6.00454 -5.41414 -6.99215 2.72525 -1.13541 2.95122
internal_weight=0 9012 4197 4411 4601 3743 3188 1329 2868 422 2655 1094 982 858 1777 2745 878 305 1477 631 1223 1178 235 3321 962 443 200 696 328 677
internal_count=13209 9012 4197 4411 4601 3743 3188 1329 2868 422 2655 1094 982 858 1777 2745 878 305 1477 631 1223 1178 235 3321 962 443 200 696 328 677
is_linear=0
shrinkage=0.1


Tree=5
num_leaves=31
num_cat=0
split_feature=8 3 1 1 8 0 4 0 0 1 4 1 4 2 11 8 4 3 2 2 2 2 7 4 2 0 2 4 8 0
split_gain=7.86895e+06 1.34613e+06 767513 726178 686678 575616 308434 243168 234143 261101 233950 229689 226294 454801 218124 205208 203628 173130 145521 143008 136530 134447 126056 120784 120146 115519 103175 97650.8 96320.9 91515.5
threshold=73.550118933333351 4.5000000000000009 94702.500000000015 52203.000000000007 77.000000000000014 1689.5000000000002 2.5000000000000004 1998.5000000000002 1689.5000000000002 151260.00000000003 2.5000000000000004 41953.500000000007 1.0000000180025095e-35 8.4641215795616063 1.0000000180025095e-35 70.642856500000008 5.5000000000000009 2.5000000000000004 7.2968841749144202 3.5024778345884795 14.217431983192325 15.21743193982473 4.5000000000000009 4.5000000000000009 14.217431928750974 2428.0000000000005 6.7161764060894908 2.5000000000000004 109.60003963333334 1998.5000000000002
decision_type=2 2 2 2 2 2 2 2 2 2 2 2 2 2 2 2 2 2 2 2 2 2 2 2 2 2 2 2 2 2
left_child=1 8 4 10 16 -5 21 11 17 -10 15 -6 20 23 18 -3 -2 -1 -8 -18 24 29 -13 -14 -7 -9 -27 -11 -28 -4
right_child=2 3 6 5 7 12 14 25 9 27 -12 22 13 -15 -16 -17 19 -19 -20 -21 -22 -23 -24 -25 -26 26 28 -29 -30 -31
leaf_value=-14.301956575567074 -1.6599912280344258 0.81326137187302838 1.703510937891187 -3.9869765422224912 5.8040291168032185 -0.55597230006374521 -0.079103877475219117 7.8321533401587091 -2.6496418159161781 -4.864862600231171 -0.7982787148443361 2.2375935970597127 -4.2733240031025899 -8.631741001536545 5.5822572873188898 4.4581734140503864 6.9878253149765515 -5.3084029022825581 -3.4572393666184142 1.6154404321521174 -5.3254147414503432 -3.325087933540344 4.019099203237551 -1.3621101142968359 3.7915338136933068 10.1116088671562 5.5385417084978981 -9.3738975255917278 2.1660262503644283 3.9227749103627367
leaf_weight=22 190 743 449 1033 504 1724 392 237 959 125 750 621 163 103 52 195 54 791 189 601 58 40 1102 1134 66 39 368 78 110 317
leaf_count=22 190 743 449 1033 504 1724 392 237 959 125 750 621 163 103 52 195 54 791 189 601 58 40 1102 1134 66 39 368 78 110 317
internal_value=0 -1.98702 2.99808 -1.23824 3.73854 -1.93084 1.02936 4.45181 -4.25006 -3.33931 0.518299 3.92628 -1.2769 -2.2359 -0.622669 1.571 1.22228 -5.55177 -1.17802 2.05835 -0.550395 2.32679 3.37701 -1.72798 -0.395673 6.004 5.16596 -6.5974 4.76244 2.62193
internal_weight=0 7944 5265 5969 3826 4281 1439 2981 1975 1162 1688 2227 3248 1400 633 938 845 813 581 655 1848 806 1723 1297 1790 754 517 203 478 766
internal_count=13209 7944 5265 5969 3826 4281 1439 2981 1975 1162 1688 2227 3248 1400 633 938 845 813 581 655 1848 806 1723 1297 1790 754 517 203 478 766
is_linear=0
shrinkage=0.1


Tree=6
num_leaves=31
num_cat=0
split_feature=8 1 8 1 8 4 4 2 1 11 8 8 2 10 4 2 4 7 2 0 0 1 3 4 2 2 2 4 1 4
split_gain=6.37385e+06 1.10599e+06 656038 648424 481118 377572 324354 418729 242619 241828 240187 211009 182832 176999 195708 293483 167767 154682 149716 145789 260389 134101 131781 126403 244257 117899 114706 109726 98825.8 87797.5
threshold=73.550118933333351 90407.000000000015 62.958333000000003 82571.000000000015 77.000000000000014 1.0000000180025095e-35 1.0000000180025095e-35 8.4641215795616063 31604.000000000004 1.0000000180025095e-35 72.65011893333336 62.958333000000003 7.2119525999351408 1.0000000180025095e-35 1.0000000180025095e-35 6.9654914779035151 4.5000000000000009 4.5000000000000009 7.2119526891690233 2494.5000000000005 1998.5000000000002 126405.50000000001 4.5000000000000009 1.0000000180025095e-35 8.3790759509298116 14.217431983192325 2.9627518377753272 4.5000000000000009 36551.000000000007 7.5000000000000009
decision_type=2 2 2 2 2 2 2 2 2 2 2 2 2 2 2 2 2 2 2 2 2 2 2 2 2 2 2 2 2 2
left_child=1 2 17 4 16 19 10 11 -4 18 12 -8 -3 -6 28 29 -2 -1 -7 20 21 -5 -14 25 27 -10 -18 -25 -15 -16
right_child=3 6 8 5 13 9 7 -9 23 -11 -12 -13 22 14 15 -17 26 -19 -20 -21 -22 -23 -24 24 -26 -27 -28 -29 -30 -31
leaf_value=-3.6681820069486841 -2.0540715719832749 -11.347653180076962 1.7149305203113148 2.5159113864778053 7.4077370650840528 0.12586254254965507 -5.4743451294757559 -9.5115474521319072 0.066539346355428949 5.482917872684844 -6.5717452640681309 -2.6731523349203172 -2.9866948339050294 6.7315643528051545 2.7733289313461138 0.77523075540145991 8.0364724477132157 -1.2979345022122042 -2.8740498489491517 -1.1903089255702739 5.0554903179318735 -0.70136573463624219 -1.1175599661386479 -3.6697132053258628 -7.4754280430371658 -6.9880521714687349 1.696162678659511 -0.68893505085759033 4.4364249030770111 5.1534694830385543
leaf_weight=830 122 21 547 525 165 588 472 150 1834 68 129 625 682 228 247 378 30 412 232 98 353 172 844 138 61 24 584 1175 1059 416
leaf_count=830 122 21 547 525 165 588 472 150 1834 68 129 625 682 228 247 378 30 412 232 98 353 172 844 138 61 24 584 1175 1059 416
internal_value=0 -1.78832 -0.888045 2.69828 3.5795 1.3007 -3.33477 -4.55601 -0.232742 -0.247673 -2.42614 -3.87841 -2.08044 4.24274 4.01841 2.99894 1.33296 -2.88192 -0.722893 2.49839 2.84267 1.72198 -1.95291 -0.562376 -1.28961 -0.0245856 2.00595 -1.00222 4.84302 4.26675
internal_weight=0 7944 5021 5265 3229 2036 2923 1247 3779 888 1676 1097 1547 2493 2328 1041 736 1242 820 1148 1050 697 1526 3232 1374 1858 614 1313 1287 663
internal_count=13209 7944 5021 5265 3229 2036 2923 1247 3779 888 1676 1097 1547 2493 2328 1041 736 1242 820 1148 1050 697 1526 3232 1374 1858 614 1313 1287 663
is_linear=0
shrinkage=0.1


Tree=7
num_leaves=31
num_cat=0
split_feature=8 3 1 1 0 11 4 8 3 3 4 4 8 4 2 2 1 4 0 8 2 1 4 2 8 8 2 7 0 0
split_gain=5.16282e+06 955988 545076 505777 403293 379543 372372 344682 195052 190497 179378 167945 165875 162138 257362 205419 154569 131967 131014 127868 127347 115551 99514.8 163750 87453.8 87117 86298.3 81291.5 78092.6 70792.3
threshold=73.550118933333351 4.5000000000000009 73301.000000000015 48358.500000000007 1689.5000000000002 1.0000000180025095e-35 2.5000000000000004 77.000000000000014 2.5000000000000004 4.5000000000000009 7.5000000000000009 2.5000000000000004 70.642856500000008 1.0000000180025095e-35 8.296884110633977 7.2119525999351408 100081.50000000001 4.5000000000000009 1998.5000000000002 72.65011893333336 9.2119526619519281 31030.500000000004 1.0000000180025095e-35 8.4641215795616063 70.291666500000005 60.141983933333343 2.9627518377753272 4.5000000000000009 2494.5000000000005 1998.5000000000002
decision_type=2 2 2 2 2 2 2 2 2 2 2 2 2 2 2 2 2 2 2 2 2 2 2 2 2 2 2 2 2 2
left_child=1 8 7 11 -5 6 9 17 -1 28 20 12 -3 15 -15 -10 22 -2 21 25 -8 -9 -6 -24 -18 -17 -19 -23 29 -4
right_child=2 3 5 4 16 -7 10 18 13 -11 -12 -13 -14 14 -16 19 24 26 -20 -21 -22 27 23 -25 -26 -27 -28 -29 -30 -31
leaf_value=-12.293451934814454 -1.85644096915211 0.80776132316517657 -0.2438395157898382 -3.2284617075243802 0.0055474045272427101 5.3526652108200574 -1.006630874678754 5.5954515129448925 -12.149141962631889 2.9405010666994271 1.1837297786813263 -0.58824033864613434 4.2222531799124097 -3.8782494371117182 -9.5582517147064205 -3.6292771880148615 -0.39132664149987356 7.232824999491374 5.4816964396004835 -6.9392981426532465 -5.964018680338274 2.1709846012502143 -0.99181013129091444 -6.5492592590195802 -2.5752804538382188 -1.8231731858930855 1.7114866259236974 3.8067194194950056 -4.3968814387465969 2.9308887470960618
leaf_weight=25 105 665 236 1049 1370 220 570 246 23 906 436 662 181 527 94 389 243 30 485 65 57 466 996 56 747 852 502 873 33 100
leaf_count=25 105 665 236 1049 1370 220 570 246 23 906 436 662 181 527 94 389 243 30 485 65 57 466 996 56 747 852 502 873 33 100
internal_value=0 -1.60949 2.42845 -0.978474 -1.51367 1.38174 1.00809 3.41754 -3.51659 2.16042 -0.374057 0.604757 1.53828 -3.40407 -4.73802 -2.78075 -0.986468 1.3834 4.0435 -2.61576 -1.4573 3.60342 -0.556153 -1.28764 -2.03922 -2.38931 2.02284 3.23745 0.24511 0.70102
internal_weight=0 7944 5265 5969 4461 2558 2338 2707 1975 1275 1063 1508 846 1950 621 1329 3412 637 2070 1306 627 1585 2422 1052 990 1241 532 1339 369 336
internal_count=13209 7944 5265 5969 4461 2558 2338 2707 1975 1275 1063 1508 846 1950 621 1329 3412 637 2070 1306 627 1585 2422 1052 990 1241 532 1339 369 336
is_linear=0
shrinkage=0.1


Tree=8
num_leaves=31
num_cat=0
split_feature=8 1 1 0 0 1 1 1 10 7 7 1 10 4 2 3 1 2 8 4 2 4 2 6 4 7 8 2 7 4
split_gain=4.1916e+06 943257 534128 389081 359451 300952 230462 220375 180920 161392 142564 111677 85064.4 85930.7 160041 81844.2 80379.7 96251 74260.3 73339.8 133331 68126 208810 65334.9 64969.2 60020.3 87753.4 86545 61210.3 55118.8
threshold=77.000000000000014 78913.500000000015 129915.50000000001 1689.5000000000002 1689.5000000000002 21209.500000000004 60796.500000000007 129915.50000000001 1.0000000180025095e-35 4.5000000000000009 4.5000000000000009 198676.00000000003 1.0000000180025095e-35 1.0000000180025095e-35 7.0503089130228851 4.5000000000000009 121908.50000000001 9.6312447890226611 107.38750000000002 1.0000000180025095e-35 8.2119526420174491 1.0000000180025095e-35 9.3790758870137036 4.5000000000000009 5.5000000000000009 4.5000000000000009 70.291666500000005 14.217431928750974 5.5000000000000009 4.5000000000000009
decision_type=2 2 2 2 2 2 2 2 2 2 2 2 2 2 2 2 2 2 2 2 2 2 2 2 2 2 2 2 2 2
left_child=1 4 6 16 9 -6 12 25 -8 -1 -10 18 -2 -14 29 -11 17 24 -4 -12 -21 -9 -23 -7 -3 26 27 -5 -27 -15
right_child=2 3 11 7 5 23 8 21 10 15 19 -13 13 14 -16 -17 -18 -19 -20 20 -22 22 -24 -25 -26 28 -28 -29 -30 -31
leaf_value=-2.9518475921554943 7.0922847470784767 -5.0084655787285604 3.2117596341852557 -0.9006657237534027 3.3689033973323448 0.53886433809701006 5.0372267839749867 -2.3779624376631854 0.93823287755032414 -3.7370196129195392 3.241485880965933 -5.0159805432805484 4.5144658208650386 -0.76188084871872608 0.50633754474931936 0.13142472082263532 -6.0015424499448571 -1.8858628340644028 -0.70323815270566348 2.4099082685732349 -2.105375139512025 -3.0826188244664943 -9.6675480276851342 -0.37039179618557444 -3.1512989596385075 -0.035627560995923825 -2.1028151237235035 3.7222906150699906 -1.6580121078639216 4.271928412879717
leaf_weight=601 83 387 57 259 280 1239 230 441 716 64 862 53 748 23 190 376 151 264 323 434 77 262 59 2182 367 626 1036 48 370 401
leaf_count=601 83 387 57 259 280 1239 230 441 716 64 862 53 748 23 190 376 151 264 323 434 77 262 59 2182 367 626 1036 48 370 401
internal_value=0 -1.21566 2.61033 -2.29379 -0.244847 0.216901 2.99296 -1.70771 2.37528 -1.88647 2.0822 -0.715757 3.98422 3.79482 2.91812 -0.431258 -3.84851 -3.52915 -0.115988 2.67877 1.72952 -3.18466 -4.29293 -0.0410821 -4.10451 -1.22654 -1.66278 -0.177858 -0.638321 3.99887
internal_weight=0 9012 4197 4270 4742 3701 3764 3101 2319 1041 2089 433 1445 1362 614 440 1169 1018 380 1373 511 762 321 3421 754 2339 1343 307 996 424
internal_count=13209 9012 4197 4270 4742 3701 3764 3101 2319 1041 2089 433 1445 1362 614 440 1169 1018 380 1373 511 762 321 3421 754 2339 1343 307 996 424
is_linear=0
shrinkage=0.1


Tree=9
num_leaves=31
num_cat=0
split_feature=8 3 1 1 8 0 7 3 4 2 4 1 1 0 4 4 8 0 1 0 6 11 0 0 4 2 1 8 4 7
split_gain=3.43431e+06 672444 380065 351306 326978 281714 172774 153596 146982 282536 135909 118427 117967 123314 117887 105514 123042 105213 97797.6 96525.1 86518.7 83479 79922.9 85580.1 75870.8 84464.9 69150.6 65362.1 64803.1 64924.2
threshold=73.550118933333351 4.5000000000000009 109706.50000000001 37146.000000000007 77.000000000000014 1689.5000000000002 4.5000000000000009 2.5000000000000004 1.0000000180025095e-35 8.5463133262546815 7.5000000000000009 198676.00000000003 151260.00000000003 1689.5000000000002 4.5000000000000009 2.5000000000000004 70.642856500000008 1998.5000000000002 31030.500000000004 2494.5000000000005 4.5000000000000009 1.0000000180025095e-35 1998.5000000000002 2428.0000000000005 1.0000000180025095e-35 7.3790759424816263 28105.000000000004 72.65011893333336 2.5000000000000004 4.5000000000000009
decision_type=2 2 2 2 2 2 2 2 2 2 2 2 2 2 2 2 2 2 2 2 2 2 2 2 2 2 2 2 2 2
left_child=1 7 4 15 10 27 21 -1 20 14 -2 17 13 -9 -10 16 -3 -4 -8 -19 -7 24 -20 -24 -6 -26 -12 28 -5 -30
right_child=2 3 11 5 6 8 18 12 9 -11 26 -13 -14 -15 -16 -17 -18 19 22 -21 -22 -23 23 -25 25 -27 -28 -29 29 -31
leaf_value=-10.700663604736329 -0.4436025473990558 1.0292415698785335 -0.32439315290184029 -1.5269109001140633 2.2511080355278645 0.65534105322284064 5.3516906575450021 -3.4775811321211068 -3.3832041610762023 -6.2908704139090874 4.1351370370871319 -4.4082571842052323 -4.87863716202334 -1.765938358271697 -0.7528675103851461 -0.23355158641934395 4.511090533584631 2.9165851023048166 2.732710504645004 -2.06803360898444 -0.64698984895495615 4.4725525239413537 6.0067898484187978 3.3233759470340574 1.2065521772108263 -2.3908905052108529 1.2583929390067885 -7.4711020102867707 -3.9411844602392776 -1.8459354097862168
leaf_weight=25 486 400 596 479 622 798 217 752 194 111 111 54 242 956 1400 400 136 224 1480 47 1414 108 170 395 336 81 338 26 360 251
leaf_count=25 486 400 596 479 622 798 217 752 194 111 111 54 242 956 1400 400 136 224 1480 47 1414 108 170 395 336 81 338 26 360 251
internal_value=0 -1.3127 1.98064 -0.78347 2.37185 -1.11431 2.82622 -2.91216 -0.714967 -1.41269 0.715237 0.135432 -2.81231 -2.51954 -1.073 0.995496 1.9127 0.41843 3.33316 2.05209 -0.177162 1.82647 3.11897 4.13077 1.55142 0.507768 1.96957 -2.51595 -2.39775 -3.08045
internal_weight=0 7944 5265 5969 4344 5033 3409 1975 3917 1705 935 921 1950 1708 1594 936 536 867 2262 271 2212 1147 2045 565 1039 417 449 1116 1090 611
internal_count=13209 7944 5265 5969 4344 5033 3409 1975 3917 1705 935 921 1950 1708 1594 936 536 867 2262 271 2212 1147 2045 565 1039 417 449 1116 1090 611
is_linear=0
shrinkage=0.1


Tree=10
num_leaves=31
num_cat=0
split_feature=8 1 1 8 11 4 8 4 2 8 2 3 1 2 8 4 0 7 4 1 4 2 4 2 6 3 0 2 2 2
split_gain=2.78179e+06 574058 335314 290803 220562 222540 180810 167864 229309 148856 138818 132810 123761 115558 109031 96561.9 85765.6 79321.8 76382.4 73300 71906.7 145266 83112.6 80283.9 64205.7 61290.3 60769.2 59004.3 58394.6 56888
threshold=73.550118933333351 91116.000000000015 72938.500000000015 62.958333000000003 1.0000000180025095e-35 1.0000000180025095e-35 77.000000000000014 1.0000000180025095e-35 8.4641215795616063 72.65011893333336 7.2119526891690233 4.5000000000000009 31604.000000000004 7.4641216424348622 62.958333000000003 4.5000000000000009 1998.5000000000002 4.5000000000000009 7.5000000000000009 24605.000000000004 1.0000000180025095e-35 8.2119527262550402 4.5000000000000009 14.217431983192325 4.5000000000000009 4.5000000000000009 2494.5000000000005 3.5024778345884795 14.72165568355223 7.5463134308430844
decision_type=2 2 2 2 2 2 2 2 2 2 2 2 2 2 2 2 2 2 2 2 2 2 2 2 2 2 2 2 2 2
left_child=1 3 6 17 5 11 15 9 14 13 18 26 -5 -3 29 -2 19 -1 -7 -8 23 22 -22 -14 -13 -15 -4 -17 -26 -9
right_child=2 7 4 12 -6 10 16 8 -10 -11 -12 24 20 25 -16 27 -18 -19 -20 -21 21 -23 -24 -25 28 -27 -28 -29 -30 -31
leaf_value=-2.4184118388388396 -1.6826052188873293 -7.6307095363222324 0.37612843701527238 1.2826907603652431 3.9899889561655293 -0.56473601491339664 4.9384359791187142 -3.6213886303599603 -6.9216640140465788 -4.9564140019199208 -2.3511955816647534 3.320946920077716 0.13844653581098845 -1.9749216755953705 -1.8223582721810663 4.7699658923678925 4.1926239229194309 -0.73257872096801124 1.3969450936791885 2.4591657035863328 -2.9399008067980619 -5.3609912975974705 -0.37905238211546743 -5.3539502143859865 1.8816899378367358 -0.68168754616093341 -4.1209271839170745 1.2808164850570436 -1.7955392627005882 -9.0740075492858896
leaf_weight=844 105 29 336 547 221 462 130 442 146 126 267 336 1860 660 612 54 479 417 348 1442 142 69 1179 27 532 824 33 473 47 20
leaf_count=844 105 29 336 547 221 462 130 442 146 126 267 336 1860 660 612 54 479 417 348 1442 142 69 1179 27 532 824 33 473 47 20
internal_value=0 -1.18143 1.78257 -0.544015 0.969072 0.6863 2.56545 -2.31512 -3.20326 -1.65403 -0.373761 1.57546 -0.109752 -1.37901 -2.69778 1.0866 3.02115 -1.86092 0.27806 2.66419 -0.34218 -0.887969 -0.654329 0.059859 2.22132 -1.25685 -0.0260473 1.63834 1.58319 -3.85743
internal_weight=0 7944 5265 5085 2582 2361 2683 2859 1220 1639 1077 1284 3824 1513 1074 632 2051 1261 810 1572 3277 1390 1321 1887 915 1484 369 527 579 462
internal_count=13209 7944 5265 5085 2582 2361 2683 2859 1220 1639 1077 1284 3824 1513 1074 632 2051 1261 810 1572 3277 1390 1321 1887 915 1484 369 527 579 462
is_linear=0
shrinkage=0.1


Tree=11
num_leaves=31
num_cat=0
split_feature=8 3 1 7 1 0 3 8 0 4 8 4 2 2 10 1 8 4 2 1 6 7 4 1 1 4 4 4 6 7
split_gain=2.25325e+06 475846 278061 252939 249473 175861 126153 114382 105643 99203.7 98440.2 92606.2 150440 145506 88817.7 88065.5 80674.3 79284.2 165956 75616.6 71175.4 68260.5 67901.4 66934.7 63519.3 57073.8 54742.4 53228.7 50890 45972.2
threshold=73.550118933333351 4.5000000000000009 129915.50000000001 4.5000000000000009 48358.500000000007 1689.5000000000002 2.5000000000000004 77.000000000000014 1798.5000000000002 2.5000000000000004 70.642856500000008 1.0000000180025095e-35 7.2119525999351408 9.296884130440171 1.0000000180025095e-35 51223.500000000007 72.65011893333336 1.0000000180025095e-35 8.5463133262546815 31030.500000000004 4.5000000000000009 5.5000000000000009 5.5000000000000009 68393.500000000015 198676.00000000003 5.5000000000000009 5.5000000000000009 4.5000000000000009 3.5000000000000004 4.5000000000000009
decision_type=2 2 2 2 2 2 2 2 2 2 2 2 2 2 2 2 2 2 2 2 2 2 2 2 2 2 2 2 2 2
left_child=1 6 3 8 9 -6 -1 19 27 10 -3 12 -8 25 -9 -16 29 20 22 21 -7 -5 -19 -10 -4 -13 -11 -2 -25 -14
right_child=2 4 24 7 5 17 11 14 23 26 -12 13 16 -15 15 -17 -18 18 -20 -21 -22 -23 -24 28 -26 -27 -28 -29 -30 -31
leaf_value=-9.4672870044708244 -3.0542846473466074 0.64854261348906317 -0.27036727872608163 4.4988603492963666 -2.1263312092205391 0.58180260283070406 -9.8644971806070085 4.7248556734974851 2.0522443344926131 -2.8248401458004873 3.2789392972735492 -4.1268679546478184 -1.942804630807871 -8.1885266065597531 3.4851282039979177 2.1099359223899348 -5.14021657540248 -2.3174676325294996 -5.0490304330220592 0.51674810500484913 -0.68077386928010963 -0.4600219174435265 -0.55550404749996962 2.160124690113943 -3.9081118592509521 -2.056776807810579 -0.078762749007489655 -0.028402667796733429 0.099325796886302178 -0.63706132578616492
leaf_weight=25 70 665 432 103 1049 699 23 194 612 83 181 215 845 56 648 1655 65 273 104 462 1236 38 1100 158 54 350 579 343 496 396
leaf_count=25 70 665 432 103 1049 699 23 194 612 83 181 215 845 56 648 1655 65 273 104 462 1236 38 1100 158 54 350 579 343 496 396
internal_value=0 -1.06328 1.60432 1.83607 -0.618093 -0.99397 -2.40878 2.37147 0.847526 0.493835 1.21131 -2.31828 -1.84721 -3.32642 2.66998 2.49688 -1.70602 -0.645832 -1.19758 1.13539 -0.22468 3.16242 -0.905843 1.30058 -0.674561 -2.84451 -0.423059 -0.541264 0.597195 -1.52615
internal_weight=0 7944 5265 4779 5969 4461 1975 3100 1679 1508 846 1950 1329 621 2497 2303 1306 3412 1477 603 1935 141 1373 1266 486 565 662 413 654 1241
internal_count=13209 7944 5265 4779 5969 4461 1975 3100 1679 1508 846 1950 1329 621 2497 2303 1306 3412 1477 603 1935 141 1373 1266 486 565 662 413 654 1241
is_linear=0
shrinkage=0.1


Tree=12
num_leaves=31
num_cat=0
split_feature=8 1 1 8 0 4 2 7 4 2 2 8 1 11 3 2 6 1 8 0 0 7 2 2 4 8 4 2 2 11
split_gain=1.82513e+06 412817 234051 222804 146887 144523 128596 113417 108161 144346 103060 102533 94737.4 93729.7 87563.8 86353.3 77742.4 77585.2 73862.5 67618.6 96790.5 60504.6 57291.8 61471.5 53094.6 76987.6 51820.8 50873.9 49146.8 46133.5
threshold=73.550118933333351 97413.500000000015 81815.500000000015 62.958333000000003 1998.5000000000002 1.0000000180025095e-35 9.5463132983150718 4.5000000000000009 1.0000000180025095e-35 9.3790758870137036 15.21743193982473 72.65011893333336 37146.000000000007 1.0000000180025095e-35 4.5000000000000009 7.4641216424348622 4.5000000000000009 31030.500000000004 70.642856500000008 2494.5000000000005 1998.5000000000002 4.5000000000000009 14.217431983192325 14.217431928750974 2.5000000000000004 70.642856500000008 7.5000000000000009 9.6312448253757559 8.9654914596575548 1.0000000180025095e-35
decision_type=2 2 2 2 2 2 2 2 2 2 2 2 2 2 2 2 2 2 2 2 2 2 2 2 2 2 2 2 2 2
left_child=1 3 4 21 7 10 13 -2 11 18 16 15 24 26 -9 -3 -4 -16 -10 20 -18 28 23 -14 25 27 -7 -5 -1 -19
right_child=2 8 5 12 -6 6 -8 14 9 -11 -12 -13 22 -15 17 -17 19 29 -20 -21 -22 -23 -24 -25 -26 -27 -28 -29 -30 -31
leaf_value=-2.5288845112826674 0.75092164629826663 -7.1496112624804189 2.6901421855520651 -0.98664324291582628 3.3974418317711597 -0.99607786430950918 -4.6894476932192601 -0.086480894610285769 -3.4189812714993759 -7.1107315429269455 -3.186672492325306 -4.3152277698162305 -0.36901900759916517 3.5540746390819553 3.8022807767026521 -1.0933679751076875 0.36081306277121089 1.9293442323884482 -1.6608132275333443 -2.247804736431505 2.8830801659360015 -0.61672299213325699 -4.3680016578946796 2.4031803435123553 -0.064950662383999297 3.5330897417474301 0.66948498583295279 1.7137726959062591 -0.98121082487189215 6.2695274887084969
leaf_weight=640 902 24 388 112 596 459 63 160 456 73 48 116 3260 68 304 1238 442 1202 502 61 232 444 35 82 334 141 315 185 302 25
leaf_count=640 902 24 388 112 596 459 63 160 456 73 48 116 3260 68 304 1238 442 1202 502 61 232 444 35 82 334 141 315 185 302 25
internal_value=0 -0.956956 1.44389 -0.481381 1.98184 0.617525 -0.331569 1.65646 -2.04965 -2.82431 1.35103 -1.47006 -0.114679 -0.00550462 2.13948 -1.20854 1.54498 2.37211 -2.49769 0.94046 1.22901 -1.5791 -0.343151 -0.301 0.884736 1.60893 -0.318233 0.695434 -2.03271 2.01778
internal_weight=0 7944 5265 5535 3189 2076 905 2593 2409 1031 1171 1378 4149 842 1691 1262 1123 1531 958 735 674 1386 3377 3342 772 438 774 297 942 1227
internal_count=13209 7944 5265 5535 3189 2076 905 2593 2409 1031 1171 1378 4149 842 1691 1262 1123 1531 958 735 674 1386 3377 3342 772 438 774 297 942 1227
is_linear=0
shrinkage=0.1


Tree=13
num_leaves=31
num_cat=0
split_feature=8 3 1 1 3 0 7 1 1 8 10 4 2 4 3 1 2 11 8 1 8 8 6 8 2 3 1 2 7 4
split_gain=1.50842e+06 414147 249844 238804 188148 148168 113570 97137.9 73279.8 76377.1 62587.3 62761 181132 66020 65230.5 67945.9 60352.9 59221.7 56775.5 52297.5 51627.7 51317.2 48790.1 47778.9 47729.9 42701.1 41536.9 40745.9 50391.1 40637.6
threshold=77.000000000000014 4.5000000000000009 23906.000000000004 129915.50000000001 2.5000000000000004 1689.5000000000002 4.5000000000000009 89566.500000000015 110749.00000000001 62.958333000000003 1.0000000180025095e-35 1.0000000180025095e-35 7.2119527462971007 4.5000000000000009 4.5000000000000009 37146.000000000007 9.5463132983150718 1.0000000180025095e-35 107.38750000000002 177020.50000000003 108.42500000000001 108.42500000000001 4.5000000000000009 70.291666500000005 14.217431983192325 4.5000000000000009 28105.000000000004 9.6312448253757559 4.5000000000000009 1.0000000180025095e-35
decision_type=2 2 2 2 2 2 2 2 2 2 2 2 2 2 2 2 2 2 2 2 2 2 2 2 2 2 2 2 2 2
left_child=1 4 -3 6 -1 24 17 22 9 -6 -8 14 13 -13 -12 -16 -14 20 -5 25 -2 -17 -7 -9 27 -20 -22 28 -4 -10
right_child=3 2 5 18 8 7 10 23 29 -11 11 12 16 -15 15 21 -18 -19 19 -21 26 -23 -24 -25 -26 -27 -28 -29 -30 -31
leaf_value=-9.692697826508553 1.4704903445915132 1.7743117478299959 -2.2990699065106734 2.2535663921257547 -2.267066203825189 0.4946187611299972 3.9379933810111178 0.12869358834203656 -2.0992032620769279 -0.74510781282512406 0.9306701242654033 -1.0517550919272682 -0.31475791736497538 2.558898117140239 4.8065865770183711 3.0277371537201736 -5.241542790138296 3.1840152402708339 -1.799451776239134 -3.1648128657411507 3.7458121776580811 1.5094038154224496 -0.27641457573481348 -1.2173759846259335 -5.2025622122427997 0.67566963633856725 -0.081598207317076524 -0.30546550805482903 -0.80021250844241543 -3.6643085855164417
leaf_weight=31 602 510 572 58 583 1281 194 333 468 759 221 55 222 639 148 652 28 118 126 93 30 338 2284 1267 34 156 517 264 369 257
leaf_count=31 602 510 572 58 583 1281 194 333 468 759 221 55 222 639 148 652 28 118 126 93 30 338 2284 1267 34 156 517 264 369 257
internal_value=0 -0.729264 -0.355838 1.56591 -1.9599 -0.525478 1.82175 -0.289891 -1.84392 -1.40629 2.21303 2.06772 1.44137 2.27275 2.50281 2.80812 -0.866558 1.05062 -0.658077 -1.10841 0.831526 2.50936 0.000638357 -0.937225 -1.50757 -0.430236 0.128315 -1.40331 -1.71131 -2.65401
internal_weight=0 9012 6914 4197 2098 6404 3764 5165 2067 1342 2497 2303 944 694 1359 1138 250 1267 433 375 1149 990 3565 1600 1239 282 547 1205 941 725
internal_count=13209 9012 6914 4197 2098 6404 3764 5165 2067 1342 2497 2303 944 694 1359 1138 250 1267 433 375 1149 990 3565 1600 1239 282 547 1205 941 725
is_linear=0
shrinkage=0.1


Tree=14
num_leaves=31
num_cat=0
split_feature=8 1 1 3 0 1 1 1 0 0 2 1 2 4 7 8 7 7 8 2 2 4 2 3 2 7 7 7 7 8
split_gain=1.22182e+06 343330 193447 192256 188913 122183 108174 100088 76208.5 138775 78082.3 56452.2 54390.6 71251.8 50401.5 48987.9 48722.9 58095 47264 62443.5 43955.9 45206.4 48976.2 42549.4 41294 41248.2 42949.8 35189.1 62950.1 34334.7
threshold=77.000000000000014 61879.500000000007 131229.50000000003 3.5000000000000004 1689.5000000000002 123608.00000000001 21209.500000000004 50243.500000000007 1998.5000000000002 2494.5000000000005 11.718915950059545 120902.50000000001 6.7983682151312976 3.5000000000000004 4.5000000000000009 107.53333300000001 4.5000000000000009 5.5000000000000009 70.291666500000005 14.217431928750974 9.6312448253757559 5.5000000000000009 8.0503087729727429 4.5000000000000009 9.2119526619519281 5.5000000000000009 4.5000000000000009 4.5000000000000009 5.5000000000000009 72.65011893333336
decision_type=2 2 2 2 2 2 2 2 2 2 2 2 2 2 2 2 2 2 2 2 2 2 2 2 2 2 2 2 2 2
left_child=1 3 7 -1 11 16 -5 -2 14 10 12 20 -10 -14 -9 -4 18 -18 19 -6 21 22 -3 -11 -15 26 -7 -8 -29 -22
right_child=2 4 15 6 5 25 27 8 9 23 -12 -13 13 24 -16 -17 17 -19 -20 -21 29 -23 -24 -25 -26 -27 -28 28 -30 -31
leaf_value=-8.3589014420142558 2.5189507461325404 -3.4956417323483127 0.8305159378771475 1.7940760685419275 -0.38098765828665471 -1.9188608063354247 -0.37634436840337027 0.35044168799571163 5.4915350248647297 -3.8416521795864762 4.53831507360748 -3.8231556793876518 2.467103581802518 0.48894883773543624 1.386902809930632 -1.4396434438328318 0.49227741074271747 -0.80789987404281838 -1.0316859632272057 3.0398485155288992 -0.62286865228798094 -1.4102692583587511 -1.7113787726751306 0.35680447725786107 -4.5137158033522695 -3.1636340409689558 -0.2364767689399776 1.1671567024713776 -0.1621030417176178 -4.7900818370637444
leaf_weight=26 956 346 147 407 298 547 1139 739 43 29 191 157 306 66 1285 269 852 576 1609 65 338 479 277 144 22 173 210 588 904 21
leaf_count=26 956 346 147 407 298 547 1139 739 43 29 191 157 306 66 1285 269 852 576 1609 65 338 479 277 144 22 173 210 588 904 21
internal_value=0 -0.656338 1.40932 0.203638 -1.09934 -0.754837 0.276919 1.63451 1.33521 2.16083 2.85168 -2.02127 2.1145 1.74595 1.00847 -0.637448 -0.477017 -0.0321638 -0.799152 0.231559 -1.82764 -2.14071 -2.70232 -0.346983 -0.761717 -1.77052 -1.45215 0.0422238 0.361761 -0.866633
internal_weight=0 9012 4197 3064 5948 4330 3038 3781 2825 801 628 1618 437 394 2024 416 3400 1428 1972 363 1461 1102 623 173 88 930 757 2631 1492 359
internal_count=13209 9012 4197 3064 5948 4330 3038 3781 2825 801 628 1618 437 394 2024 416 3400 1428 1972 363 1461 1102 623 173 88 930 757 2631 1492 359
is_linear=0
shrinkage=0.1


Tree=15
num_leaves=31
num_cat=0
split_feature=8 3 4 4 3 4 4 2 2 1 2 4 2 1 11 6 3 0 8 8 4 1 7 8 11 1 6 2 1 1
split_gain=999572 244795 161886 165596 157166 193573 223466 117759 105699 83829.9 77589.2 76055 75826.9 70315.3 66979.1 66452.3 66300.8 63904.2 61198.3 59617.8 56788.6 53559.9 51077.9 50549.7 45298.2 43705.9 42765.8 41617.2 39204.3 38832.4
threshold=73.550118933333351 4.5000000000000009 1.0000000180025095e-35 5.5000000000000009 4.5000000000000009 1.0000000180025095e-35 7.5000000000000009 8.5463133262546815 14.217431983192325 37146.000000000007 8.6312448479596107 4.5000000000000009 7.2119527462971007 49201.000000000007 1.0000000180025095e-35 4.5000000000000009 2.5000000000000004 2428.0000000000005 70.642856500000008 108.42500000000001 7.5000000000000009 164749.50000000003 4.5000000000000009 71.933333000000019 1.0000000180025095e-35 164749.50000000003 5.5000000000000009 6.2119526711912831 48813.000000000007 31604.000000000004
decision_type=2 2 2 2 2 2 2 2 2 2 2 2 2 2 2 2 2 2 2 2 2 2 2 2 2 2 2 2 2 2
left_child=1 16 8 -4 14 13 10 20 9 18 11 -7 17 -6 25 23 -1 28 -3 -15 -5 22 -18 -11 -13 29 -21 -22 -8 -2
right_child=4 2 3 7 5 6 12 -9 -10 15 -12 24 -14 19 -16 -17 21 -19 -20 26 27 -23 -24 -25 -26 -27 -28 -29 -30 -31
leaf_value=-6.7903315865993505 -4.4895857978434792 0.70489724256789188 -2.5371016017925205 -1.0124951052861844 3.1789275326742525 -1.6311547453399287 2.5846266011709833 -4.034901122463511 -3.2173425078709075 0.42201171946321286 -3.5454825535842356 0.20971774757104744 -0.089450959231365812 2.162062772140267 1.8873881117805191 -0.4380029614404537 -1.8383066305092233 5.9744570587810726 3.1680258266572601 1.9090485473828658 0.84345049692643925 -3.337141238461907 -0.71453868854258318 3.4648739370806467 3.8892788750784741 -2.799408743063609 -0.0075109808176974241 -0.39804926265381257 1.3256025105859608 -0.12162435575868827
leaf_weight=25 21 399 534 906 435 249 397 94 94 930 70 759 220 1035 138 1636 1167 38 135 203 417 164 619 58 35 75 273 766 656 661
leaf_count=25 21 399 534 906 435 249 397 94 94 930 70 759 220 1035 138 1636 1167 38 135 203 417 164 619 58 35 75 273 766 656 661
internal_value=0 -0.708193 -0.388881 -0.958631 1.06854 1.3158 0.719473 -0.572509 0.0871365 0.185497 -0.322588 -0.106287 1.60415 2.05861 -0.138739 -0.0469281 -1.67324 1.94567 1.3276 1.73608 -0.41671 -1.60764 -1.44883 0.600641 0.371915 -0.508099 0.809845 0.0395715 1.80028 -0.256122
internal_weight=0 7944 5969 2717 5265 4370 2424 2183 3252 3158 1113 1043 1311 1946 895 2624 1975 1091 534 1511 2089 1950 1786 988 794 757 476 1183 1053 682
internal_count=13209 7944 5969 2717 5265 4370 2424 2183 3252 3158 1113 1043 1311 1946 895 2624 1975 1091 534 1511 2089 1950 1786 988 794 757 476 1183 1053 682
is_linear=0
shrinkage=0.1


Tree=16
num_leaves=31
num_cat=0
split_feature=8 1 3 1 7 7 0 7 1 8 0 1 1 0 0 2 1 6 7 8 2 7 4 2 4 8 1 1 2 8
split_gain=815234 252419 149063 141551 109953 106932 95937.2 93207.3 63797 66450.6 58783.1 57011 50853 50367.3 85308.7 46758.9 46366.1 44601.2 37570.7 43664.2 41465.7 39023.5 35455.7 43888.3 33380.2 43013.4 38894.6 33234.9 42173.5 33441.8
threshold=77.000000000000014 83304.500000000015 3.5000000000000004 151260.00000000003 4.5000000000000009 5.5000000000000009 1689.5000000000002 4.5000000000000009 37146.000000000007 67.857142500000023 1791.0000000000002 147250.00000000003 68393.500000000015 1998.5000000000002 2428.0000000000005 7.050308818160766 60003.000000000007 4.5000000000000009 4.5000000000000009 70.380952000000022 8.4641215795616063 5.5000000000000009 1.0000000180025095e-35 8.211952606406939 3.5000000000000004 107.38750000000002 49201.000000000007 132547.50000000003 10.843573603762374 72.65011893333336
decision_type=2 2 2 2 2 2 2 2 2 2 2 2 2 2 2 2 2 2 2 2 2 2 2 2 2 2 2 2 2 2
left_child=1 2 -1 7 10 8 27 12 9 -6 -4 18 -2 16 -15 -16 -9 -14 19 -8 -21 -20 23 -7 26 -26 -17 28 -3 -30
right_child=3 6 4 -5 5 22 11 13 -10 -11 -12 -13 17 14 15 24 -18 -19 21 20 -22 -23 -24 -25 25 -27 -28 -29 29 -31
leaf_value=-6.6816834604038924 1.282056049140532 -2.1550815860000543 -1.2784413684080369 -1.233379281489773 0.75651720531075917 2.1712616905851188 -0.24831695465262765 1.9860893866238372 0.55359550072012642 3.1947419816612181 -0.20731781149139464 -1.890994325677112 1.1749936635189868 3.844768008784238 4.9950168532294201 3.7617005811349764 0.9678718442698786 -0.50243257305621192 0.30062891012824988 -0.95447476986833168 -2.4426350791744156 -0.99859213091453247 -0.73289783010245191 -0.059875594358180323 3.5863781064748768 -1.707383569284822 1.200212953594707 -3.7533205782373749 -0.059757209197207041 -4.1104566947273593
leaf_weight=34 613 724 706 235 214 106 499 731 844 234 1868 443 235 249 37 74 1152 487 619 596 273 369 661 524 20 66 298 96 179 23
leaf_count=34 613 724 706 235 214 106 499 731 844 234 1868 443 235 249 37 74 1152 487 619 596 273 369 661 524 20 66 298 96 179 23
internal_value=0 -0.536124 -0.082064 1.15119 -0.0385528 0.42239 -1.15298 1.29263 1.06556 2.03005 -0.501107 -0.850203 0.612239 1.63839 2.33499 1.57553 1.36315 0.0435441 -0.654502 -0.993872 -1.42199 -0.184606 -0.221275 0.315522 1.29928 -0.476276 1.70976 -1.98223 -1.79861 -0.520975
internal_weight=0 9012 5191 4197 5157 2583 3821 3962 1292 448 2574 2799 1335 2627 744 495 1883 722 2356 1368 869 988 1291 630 458 86 372 1022 926 202
internal_count=13209 9012 5191 4197 5157 2583 3821 3962 1292 448 2574 2799 1335 2627 744 495 1883 722 2356 1368 869 988 1291 630 458 86 372 1022 926 202
is_linear=0
shrinkage=0.1


Tree=17
num_leaves=31
num_cat=0
split_feature=8 1 3 4 4 8 4 2 4 2 2 4 4 2 2 2 4 8 2 7 0 0 0 2 0 11 2 6 2 2
split_gain=660784 176506 119024 140553 171223 85396.7 66649.5 109269 65075.3 62997.2 61005.7 60523.9 58039.7 89499.2 62740.4 57352.9 55384.1 54198.2 54129.9 52653.4 51204.8 59123.5 49847.2 70558.2 52373 45890.2 45280.9 53392.7 37944.5 36150.4
threshold=73.550118933333351 91116.000000000015 4.5000000000000009 1.0000000180025095e-35 7.5000000000000009 62.958333000000003 1.0000000180025095e-35 9.3790758870137036 5.5000000000000009 7.7983681692759612 8.6312448479596107 4.5000000000000009 1.0000000180025095e-35 8.2119527262550402 8.4641215484391719 14.469600960473128 7.5000000000000009 72.65011893333336 7.4641216424348622 4.5000000000000009 2494.5000000000005 1998.5000000000002 1998.5000000000002 10.299623797032437 2428.0000000000005 1.0000000180025095e-35 8.9654914596575548 5.5000000000000009 12.129760767337375 4.2092129864428882
decision_type=2 2 2 2 2 2 2 2 2 2 2 2 2 2 2 2 2 2 2 2 2 2 2 2 2 2 2 2 2 2
left_child=1 5 20 15 10 -1 17 8 -8 25 11 -5 14 16 -7 22 -14 18 -3 -10 21 -2 23 -4 -24 29 -16 -28 -25 -6
right_child=2 6 3 4 9 12 7 -9 19 -11 -12 -13 13 -15 26 -17 -18 -19 -20 -21 -22 -23 24 28 -26 -27 27 -29 -30 -31
leaf_value=-0.93599453417792577 -0.49423908192281413 -4.9006793400336957 2.2366621524148473 -1.5048247787009281 2.6626710852239159 1.3056921300910203 -2.6727019766478666 -5.435825153714732 -1.7300212415077885 -0.57833074341217683 -3.1941242992558649 0.28205696175939943 -0.895790830598579 -3.9658157846202027 -1.3624821810871364 -0.44929282556409422 0.30038574418728858 -2.7805515600013595 -0.53831266972733383 -0.09210325838120785 -3.6339163256854548 1.4318378101612601 3.4481982055453608 -0.2047417309370626 1.7123801028609276 4.6601974502522898 0.80121236391309092 -0.40070591417139917 1.4309201703965666 1.1981011591506701
leaf_weight=1261 642 29 563 249 207 521 343 76 457 150 70 794 758 69 200 115 791 126 1484 344 41 212 324 269 375 47 792 693 300 907
leaf_count=1261 642 29 563 249 207 521 343 76 457 150 70 794 758 69 200 115 791 126 1484 344 41 212 324 269 375 47 792 693 300 907
internal_value=0 -0.575803 0.868791 1.08396 0.575822 -0.222359 -1.20444 -1.76407 -1.52014 1.35021 -0.336331 -0.144533 0.0129693 -0.441932 0.346618 1.71692 -0.284961 -0.787874 -0.621927 -1.0266 -0.181835 -0.0161029 1.85298 1.44297 2.51697 1.59938 0.0500739 0.240317 0.657646 1.47024
internal_weight=0 7944 5265 4370 2424 5085 2859 1220 1144 1311 1113 1043 3824 1618 2206 1946 1549 1639 1513 801 895 854 1831 1132 699 1161 1685 1485 569 1114
internal_count=13209 7944 5265 4370 2424 5085 2859 1220 1144 1311 1113 1043 3824 1618 2206 1946 1549 1639 1513 801 895 854 1831 1132 699 1161 1685 1485 569 1114
is_linear=0
shrinkage=0.1


Tree=18
num_leaves=31
num_cat=0
split_feature=8 3 1 1 3 10 7 0 2 6 6 1 8 0 1 6 0 1 8 8 7 7 1 8 7 7 8 0 2 1
split_gain=547169 185077 110987 108615 103323 68859 71138.4 60739.7 57945.2 42080.1 41416.3 40417.4 38640.1 36635.2 39167.8 32171 63296.2 31670 29491.9 28700.6 27519.3 40890.6 27387.8 23757.6 23340.4 45748.8 23993.2 23172.2 22694.6 22324.9
threshold=77.000000000000014 4.5000000000000009 129915.50000000001 40968.500000000007 2.5000000000000004 1.0000000180025095e-35 4.5000000000000009 1689.5000000000002 8.7983681492084909 3.5000000000000004 4.5000000000000009 14895.000000000002 70.291666500000005 1795.5000000000002 182173.00000000003 4.5000000000000009 2494.5000000000005 198676.00000000003 108.42500000000001 108.42500000000001 4.5000000000000009 5.5000000000000009 66575.500000000015 107.38750000000002 5.5000000000000009 4.5000000000000009 67.857142500000023 1791.0000000000002 8.211952606406939 136329.00000000003
decision_type=2 2 2 2 2 2 2 2 2 2 2 2 2 2 2 2 2 2 2 2 2 2 2 2 2 2 2 2 2 2
left_child=1 4 5 11 -1 8 15 -5 -2 -8 12 27 -9 -6 -15 -7 18 23 -17 -11 -12 -22 -21 -4 25 -13 -27 -3 -20 -14
right_child=2 3 17 7 13 6 9 10 -10 19 20 24 29 14 -16 16 -18 -19 28 22 21 -23 -24 -25 -26 26 -28 -29 -30 -31
leaf_value=-6.9923022296159507 3.7073250054816409 0.23949302212989076 1.6285810916047347 -1.0523773188116436 -1.6062177178840515 1.1072041211181625 2.0351550823520448 1.2631871181175762 0.95487981875588135 1.4394315623846212 -0.72299878827731434 -0.044564223836416027 0.071378571572827135 -0.61192240794629649 -3.2025659966853355 0.77084024470606627 -4.8727810089404775 -2.8630377105946812 -0.046989682010068916 1.2013035385068507 0.43942424722824125 -0.70077561369953345 0.027397329313091086 -0.58581032944877776 -0.14860354743946824 0.68942675121419927 2.2850742239336572 2.8816294282147314 -1.877806317270472 -1.5862038652787263
leaf_weight=31 180 47 57 1096 1011 374 593 276 133 915 1607 361 1230 994 62 376 26 53 283 400 666 596 395 323 457 179 199 113 89 87
leaf_count=31 180 47 57 1096 1011 374 593 276 133 915 1607 361 1230 994 62 376 26 53 283 400 666 596 395 323 457 179 199 113 89 87
internal_value=0 -0.439223 0.94312 -0.189589 -1.2619 1.11754 0.988724 -0.385361 2.53776 1.30928 -0.221522 0.612845 0.187342 -1.17595 -0.764025 0.345658 -0.0223246 -0.573045 0.146274 1.05756 -0.448541 -0.0990537 0.618042 -0.253652 0.413159 0.760554 1.52946 2.1055 -0.485008 -0.03812
internal_weight=0 9012 4197 6914 2098 3764 3451 5558 313 2303 4462 1356 1593 2067 1056 1148 774 433 748 1710 2869 1262 795 380 1196 739 378 160 372 1317
internal_count=13209 9012 4197 6914 2098 3764 3451 5558 313 2303 4462 1356 1593 2067 1056 1148 774 433 748 1710 2869 1262 795 380 1196 739 378 160 372 1317
is_linear=0
shrinkage=0.1


Tree=19
num_leaves=31
num_cat=0
split_feature=8 1 3 1 7 7 1 8 6 7 2 2 1 1 8 2 7 0 4 2 0 0 7 7 0 2 7 0 1 4
split_gain=443207 153151 103985 96903.2 70887.7 76276 61154.6 58330.8 52462.1 46181.9 45686.8 45090.7 37528.9 37391.6 35191.6 34155.7 31850.4 31366.5 30167.5 52653.2 29014 57216.4 28881.7 30479.2 28572.2 37354.1 25610.6 25559 25529.6 26668.6
threshold=77.000000000000014 83304.500000000015 3.5000000000000004 68393.500000000015 4.5000000000000009 5.5000000000000009 161602.00000000003 62.958333000000003 4.5000000000000009 4.5000000000000009 14.217431983192325 12.718915958642595 35456.000000000007 148871.50000000003 67.857142500000023 10.843573603762374 5.5000000000000009 1791.0000000000002 2.5000000000000004 8.2119526420174491 2494.5000000000005 1998.5000000000002 4.5000000000000009 5.5000000000000009 1998.5000000000002 10.46686117315083 3.5000000000000004 1987.5000000000002 23906.000000000004 1.0000000180025095e-35
decision_type=2 2 2 2 2 2 2 2 2 2 2 2 2 2 2 2 2 2 2 2 2 2 2 2 2 2 2 2 2 2
left_child=1 2 -1 24 17 12 8 15 18 27 11 13 14 22 -6 -3 -15 -4 -5 -20 21 -11 -9 -24 25 28 -8 -10 -2 -30
right_child=3 7 4 6 5 -7 26 10 9 20 -12 -13 -14 16 -16 -17 -18 -19 19 -21 -22 -23 23 -25 -26 -27 -28 -29 29 -31
leaf_value=-5.5537452267373313 2.8796928738968242 -1.8325638363523973 -0.94450580495364811 1.70450364423204 0.74047198202727094 -0.17879505220466632 1.1734973919007086 -0.89033343323347036 1.965372887294035 0.29484789502749192 -2.4644322817672548 0.51056489164910612 0.52605173416522355 -1.1389972644918724 2.5462962173798065 -0.031185862831160673 -3.3677712043593915 -0.1620743768801215 1.0672411764080221 -2.7072870319628199 -1.3687591503648198 2.1030661392863057 0.27240587324551646 -0.93593283190996301 2.1116765173673633 0.070236640154899832 -2.0115659312290304 -0.76656214293980796 2.0011431002412876 0.92220528299593652
leaf_weight=34 108 767 706 492 210 1291 31 1192 37 661 134 337 860 261 222 122 85 1868 188 46 68 238 604 319 425 251 136 460 336 720
leaf_count=34 108 767 706 492 210 1291 31 1192 37 661 134 337 860 261 222 122 85 1868 188 46 68 238 604 319 425 251 136 460 336 720
internal_value=0 -0.3953 -0.0416194 0.848808 -0.00527808 0.36483 0.424258 -0.875792 0.564918 0.220252 -0.660648 -0.574262 0.908035 -0.722814 1.66846 -1.58536 -1.68653 -0.376681 1.25995 0.32524 0.622904 0.773553 -0.565157 -0.145211 1.39265 1.17668 -1.42033 -0.563179 1.41527 1.2655
internal_weight=0 9012 5191 4197 5157 2583 2357 3821 2190 1464 2932 2798 1292 2461 432 889 346 2574 726 234 967 899 2115 923 1840 1415 167 497 1164 1056
internal_count=13209 9012 5191 4197 5157 2583 2357 3821 2190 1464 2932 2798 1292 2461 432 889 346 2574 726 234 967 899 2115 923 1840 1415 167 497 1164 1056
is_linear=0
shrinkage=0.1


Tree=20
num_leaves=31
num_cat=0
split_feature=8 3 3 1 3 10 4 2 4 0 6 2 0 0 1 6 1 4 4 2 2 1 6 8 8 2 4 4 4 8
split_gain=358998 131409 87544.2 73895.8 73577.2 62085.7 69717.5 149827 55687.2 41164.7 39709.8 41001.6 37961.6 37225.8 32973.7 32650 28339.2 28047.4 36467.8 31919.4 27474.1 26104.1 27759.1 25385.6 24933.7 23842.5 23403.7 23194.5 22585.5 22233.3
threshold=77.000000000000014 4.5000000000000009 4.5000000000000009 47002.500000000007 2.5000000000000004 1.0000000180025095e-35 1.0000000180025095e-35 7.2119526891690233 7.5000000000000009 2494.5000000000005 5.5000000000000009 14.72165568355223 1689.5000000000002 1998.5000000000002 14895.000000000002 4.5000000000000009 110749.00000000001 1.0000000180025095e-35 5.5000000000000009 7.7161763466338966 9.7161763131117542 36551.000000000007 9.5000000000000018 69.19642850000001 70.291666500000005 4.2092129864428882 4.5000000000000009 7.5000000000000009 4.5000000000000009 108.42500000000001
decision_type=2 2 2 2 2 2 2 2 2 2 2 2 2 2 2 2 2 2 2 2 2 2 2 2 2 2 2 2 2 2
left_child=1 4 9 14 -1 -4 10 8 26 13 -7 21 -5 27 -3 24 23 19 -19 -16 28 -12 29 -6 -14 -20 -8 -2 -9 -23
right_child=2 3 5 12 16 6 7 20 -10 -11 11 -13 15 -15 17 -17 -18 18 25 -21 -22 22 -24 -25 -26 -27 -28 -29 -30 -31
leaf_value=-5.8846686797276622 -0.69705572933275661 1.7902141129970552 2.6995871446650437 -0.86891177529557417 -1.1444456229764592 1.815816541040842 -1.3838302880166526 -3.2518184528118228 1.6515889474999879 -3.2813869232084691 2.3822214362959637 -2.0749640083312992 1.0685138887281602 1.091436475220154 2.2196110769490569 -0.40649551107405069 -1.4802236725533833 -1.792219302191266 1.3564446835141435 0.44040929472089307 -4.0111526368733719 0.78647962817898898 1.5227659073110138 -0.27452797140344559 -0.010000662865646544 -0.12640469279521013 0.4993955350625589 1.589222762049461 -0.76154509868038589 -0.60879956072196373
leaf_weight=31 470 160 198 1055 663 783 83 41 562 41 122 45 260 212 121 2660 725 112 133 605 34 399 350 679 1221 587 322 49 326 160
leaf_count=31 470 160 198 1055 663 783 83 41 562 41 122 45 260 212 121 2660 725 112 133 605 34 399 350 679 1221 587 322 49 326 160
internal_value=0 -0.35577 0.763927 -0.145421 -1.04898 0.980759 0.875296 0.33346 1.00738 -0.198053 1.27402 0.879761 -0.333406 -0.0251159 0.423128 -0.196975 -0.976456 0.282734 -0.113607 0.736943 -1.29169 1.00873 0.824384 -0.704301 0.17934 0.147511 0.11345 -0.481203 -1.03975 0.387115
internal_weight=0 9012 4197 6914 2098 3425 3227 1368 967 772 1859 1076 5196 731 1718 4141 2067 1558 832 726 401 1031 909 1342 1481 720 405 519 367 559
internal_count=13209 9012 4197 6914 2098 3425 3227 1368 967 772 1859 1076 5196 731 1718 4141 2067 1558 832 726 401 1031 909 1342 1481 720 405 519 367 559
is_linear=0
shrinkage=0.1


Tree=21
num_leaves=31
num_cat=0
split_feature=8 1 1 6 8 4 2 4 2 2 4 2 6 2 0 0 11 2 8 6 6 0 4 1 2 2 2 4 4 2
split_gain=291990 99590.3 71466.2 62340.5 49272.2 42352.7 78162.5 41959.6 73074.5 60289.3 56100.9 45587.2 41800.4 41500.9 40885.6 70417.6 43083.1 36724.8 35445.4 35118.1 60735.4 33506.4 30350.2 29697.2 27352.5 27307.7 26171.2 26213.7 25060 51974.3
threshold=73.550118933333351 99721.000000000015 68393.500000000015 4.5000000000000009 62.958333000000003 1.0000000180025095e-35 8.4641215795616063 1.0000000180025095e-35 8.2119526420174491 8.4641215795616063 4.5000000000000009 8.9654914596575548 5.5000000000000009 7.4641216424348622 2494.5000000000005 1998.5000000000002 1.0000000180025095e-35 6.2119526865602577 72.65011893333336 7.5000000000000009 10.500000000000002 1998.5000000000002 4.5000000000000009 161602.00000000003 14.217431983192325 2.9627518377753272 8.9654914596575548 5.5000000000000009 2.5000000000000004 7.2119526654166028
decision_type=2 2 2 2 2 2 2 2 2 2 2 2 2 2 2 2 2 2 2 2 2 2 2 2 2 2 2 2 2 2
left_child=1 4 21 28 26 13 22 9 10 19 -9 -11 -13 -3 15 16 23 -12 -15 -6 -21 25 -7 -5 -14 -2 27 -1 -4 -30
right_child=2 5 3 14 7 6 -8 8 -10 11 17 12 24 18 -16 -17 -18 -19 -20 20 -22 -23 -24 -25 -26 -27 -28 -29 29 -31
leaf_value=-1.3593973641646078 2.9237606048583986 -4.876900556954471 1.3718915778774661 -0.34173933932234607 2.0273062628918681 -2.2861572987355649 -3.6902316555158414 -1.8691324946725503 -2.8600882609324021 -1.3614013644686391 0.74053316944048453 0.63906537565144617 -0.24902463590912038 -0.32727262931865697 -2.1497122397565325 1.1992299485513394 1.8387772397405802 -0.33494843216603631 -2.1691715753726339 -0.15594625540077689 3.5523438273735763 1.7815375738214045 -0.78023232691737299 -2.3776455336229687 -3.6770228842894235 0.74008103022485594 0.033186776082381568 -0.35254678932847561 0.96626652294086135 -1.6203913619506709
leaf_weight=599 59 22 515 1251 261 168 134 179 110 217 465 913 772 1142 92 391 87 1001 115 265 53 425 658 76 24 1950 391 455 316 103
leaf_count=599 59 22 515 1251 261 168 134 179 110 217 465 913 772 1142 92 391 87 1001 115 265 53 425 658 76 24 1950 391 455 316 103
internal_value=0 -0.382762 0.577523 0.235905 -0.160948 -0.947946 -1.44996 0.0102119 -0.364741 0.272903 -0.197879 0.0039185 0.17728 -0.571143 -0.0933674 0.0114435 -0.317004 0.00618318 -0.495784 1.16766 0.462102 0.974862 -1.08652 -0.45834 -0.352381 0.804211 -0.665544 -0.924751 0.904672 0.330406
internal_weight=0 7944 5265 2831 5705 2239 960 4260 1755 2505 1645 1926 1709 1279 1897 1805 1414 1466 1257 579 318 2434 826 1327 796 2009 1445 1054 934 419
internal_count=13209 7944 5265 2831 5705 2239 960 4260 1755 2505 1645 1926 1709 1279 1897 1805 1414 1466 1257 579 318 2434 826 1327 796 2009 1445 1054 934 419
is_linear=0
shrinkage=0.1


Tree=22
num_leaves=31
num_cat=0
split_feature=8 7 7 3 1 4 2 4 2 2 11 4 2 4 8 2 1 8 0 0 2 6 0 1 1 3 0 4 4 2
split_gain=242667 96681.2 75335.5 69031.4 53309.7 49102.8 118233 79014 77428 51568.4 45937.5 50484.1 118044 44355 43200 38801 34353.5 33791.7 31959.3 53856.2 46240.1 34735.8 30960.7 28880.2 27878 27371.1 24680.1 23558.7 22373.1 22326.8
threshold=77.000000000000014 4.5000000000000009 5.5000000000000009 4.5000000000000009 125415.00000000001 1.0000000180025095e-35 7.3790759424816263 5.5000000000000009 6.2119527041892315 14.217431983192325 1.0000000180025095e-35 1.0000000180025095e-35 7.2119526891690233 7.5000000000000009 62.958333000000003 14.217431928750974 41953.500000000007 70.380952000000022 1998.5000000000002 2428.0000000000005 10.299623797032437 7.5000000000000009 2494.5000000000005 112702.00000000001 37146.000000000007 4.5000000000000009 1998.5000000000002 7.5000000000000009 4.5000000000000009 9.296884079737092
decision_type=2 2 2 2 2 2 2 2 2 2 2 2 2 2 2 2 2 2 2 2 2 2 2 2 2 2 2 2 2 2
left_child=1 5 14 22 -4 8 7 -7 -1 15 11 18 13 -13 -3 25 -16 -8 20 -20 21 -5 23 26 -21 -10 -2 -9 -14 -12
right_child=3 2 4 10 -6 6 17 27 9 -11 29 12 28 -15 16 -17 -18 -19 19 24 -22 -23 -24 -25 -26 -27 -28 -29 -30 -31
leaf_value=-5.9756150364875795 -0.064527560106242998 -0.31223819978621969 -0.23774500259065201 2.2637872511464536 -2.0891400480166427 -1.8033501428089662 -4.7176890958528048 -0.65769399432024755 -0.72452145392981704 -2.1220394144941879 3.0952766140262913 0.070363380993126654 -3.3243564867696094 1.432664225096288 1.5767552034916279 1.711224209843647 0.471744486757322 -2.1462367155627602 2.6616784131900779 2.9532135920903904 0.19156409935878915 0.64159678740878456 -2.9001698447436826 -0.90968807884439262 0.52754573243403291 -0.026494803891852943 1.5433196288547411 0.19396492837964596 -0.91023449815558366 0.66780447363853457
leaf_weight=24 332 558 1624 264 172 417 61 634 826 143 127 409 43 575 355 105 1356 315 287 55 647 264 41 265 342 1756 134 666 358 54
leaf_count=24 332 558 1624 264 172 417 61 634 826 143 127 409 43 575 355 105 1356 315 287 55 647 264 41 265 342 1756 134 666 358 54
internal_value=0 -0.292502 0.0688253 0.628075 -0.41505 -0.589409 -0.957304 -0.605588 -0.31961 -0.271644 0.82062 0.734113 0.277075 0.866423 0.451831 -0.173167 0.701013 -2.56341 1.07462 1.61805 0.758267 1.45269 -0.226156 -0.0761774 0.863595 -0.249798 0.397815 -0.221383 -1.16911 2.37106
internal_weight=0 9012 4065 4197 1796 4947 2093 1717 2854 2830 3425 3244 1385 984 2269 2687 1711 376 1859 684 1175 528 772 731 397 2582 466 1300 401 181
internal_count=13209 9012 4065 4197 1796 4947 2093 1717 2854 2830 3425 3244 1385 984 2269 2687 1711 376 1859 684 1175 528 772 731 397 2582 466 1300 401 181
is_linear=0
shrinkage=0.1


Tree=23
num_leaves=31
num_cat=0
split_feature=8 3 3 1 7 7 4 2 4 2 2 0 1 2 8 2 1 6 0 1 2 2 10 1 0 6 4 8 4 7
split_gain=196560 82787.5 59582 56731 51610.9 54117.8 41011.5 58329.4 45403 36922.1 34345.5 40079.2 39134.8 30658 29404.7 35270.3 28747.5 28303.4 23847.2 23740.4 22935.6 22962.4 22331.9 20974.6 21831.8 20166.3 24323.4 20038.5 19899.3 19265.4
threshold=77.000000000000014 4.5000000000000009 2.5000000000000004 86492.000000000015 4.5000000000000009 5.5000000000000009 1.0000000180025095e-35 7.3790759424816263 4.5000000000000009 15.21743193982473 12.381815507644601 2494.5000000000005 210881.50000000003 14.217431983192325 108.42500000000001 7.0503088441011474 37146.000000000007 5.5000000000000009 1987.5000000000002 101797.50000000001 10.050308904811882 10.214692275525378 1.0000000180025095e-35 188440.50000000003 1795.5000000000002 5.5000000000000009 2.5000000000000004 67.857142500000023 7.5000000000000009 4.5000000000000009
decision_type=2 2 2 2 2 2 2 2 2 2 2 2 2 2 2 2 2 2 2 2 2 2 2 2 2 2 2 2 2 2
left_child=1 2 -1 14 6 16 13 8 -8 10 12 17 22 20 -2 18 27 -12 -16 -13 -3 -22 -5 24 -4 26 -17 -6 -10 -24
right_child=3 4 23 9 5 -7 7 -9 28 -11 11 19 -14 -15 15 25 -18 -19 -20 -21 21 -23 29 -25 -26 -27 -28 -29 -30 -31
leaf_value=-5.1650202366853915 1.1556571800535693 -0.30639095377840819 -1.0171990489887799 1.1414047474593951 0.55156608649421546 -0.25863012616431108 -1.8419539808596843 -2.016904344188069 -0.62429528510406351 -2.7720983749086208 2.4546415666054036 -4.2505413198471071 -3.7363029693735061 -1.9718976400698289 3.9299112752079965 1.4301712423473776 0.33198469654115637 0.57022600962785686 0.93385456758829444 0.068388588769095288 1.9334901937029578 0.23356670409791236 -0.84887139903436803 -2.2678764863945973 -0.3530454685984572 -0.45469341438970989 -0.41862688666705283 1.9105832477933484 0.19219220810515039 0.1178285354722378
leaf_weight=31 1421 940 979 145 207 1486 201 287 599 44 145 20 29 79 28 167 1385 177 519 35 88 819 303 87 1001 395 124 228 595 645
leaf_count=31 1421 940 979 145 207 1486 201 287 599 44 145 20 29 79 28 167 1385 177 519 35 88 819 303 87 1001 395 124 228 595 645
internal_value=0 -0.263252 -0.813469 0.565267 -0.0962931 0.189129 -0.357825 -0.718599 -0.451492 0.0830886 0.166897 0.992668 -0.110568 -0.0427566 0.8456 0.488267 0.554718 1.4188 1.08722 -1.50213 0.0397568 0.398499 -0.0143687 -0.748206 -0.681433 0.0106778 0.642367 1.26388 -0.217419 -0.191148
internal_weight=0 9012 2098 4197 6914 3306 3608 1682 1395 1543 1499 377 1122 1926 2654 1233 1820 322 547 55 1847 907 1093 2067 1980 686 291 435 1194 948
internal_count=13209 9012 2098 4197 6914 3306 3608 1682 1395 1543 1499 377 1122 1926 2654 1233 1820 322 547 55 1847 907 1093 2067 1980 686 291 435 1194 948
is_linear=0
shrinkage=0.1


Tree=24
num_leaves=31
num_cat=0
split_feature=3 8 8 4 2 4 7 1 2 2 6 8 2 6 0 1 1 2 4 2 4 8 8 2 11 4 7 8 7 1
split_gain=175372 169040 89588.6 68885.9 132650 106680 55465 63793.3 48579.4 46512.9 45127.3 47732.2 37028.8 32800.2 48882 29995.1 29719.4 29446.8 26788.3 89762.5 59852.1 26633.9 25766 24340.2 23157.7 21220.3 21024.6 20980.9 18374 19472.4
threshold=3.5000000000000004 73.550118933333351 71.261904000000015 1.0000000180025095e-35 8.296884110633977 4.5000000000000009 4.5000000000000009 198676.00000000003 14.217431983192325 6.2119526711912831 4.5000000000000009 71.261904000000015 10.050308904811882 4.5000000000000009 2494.5000000000005 29605.000000000004 47904.000000000007 7.2119525999351408 1.0000000180025095e-35 9.7161763131117542 5.5000000000000009 70.642856500000008 108.42500000000001 6.1270212448214396 1.0000000180025095e-35 3.5000000000000004 4.5000000000000009 70.380952000000022 3.5000000000000004 127402.00000000001
decision_type=2 2 2 2 2 2 2 2 2 2 2 2 2 2 2 2 2 2 2 2 2 2 2 2 2 2 2 2 2 2
left_child=2 3 -1 8 5 25 13 15 10 -7 11 12 -2 -3 28 -8 21 -18 22 20 23 -12 -17 -20 -22 -5 -11 -6 -15 -30
right_child=1 6 -4 4 27 9 7 -9 -10 26 16 -13 -14 14 -16 18 17 -19 19 -21 24 -23 -24 -25 -26 -27 -28 -29 29 -31
leaf_value=-2.7125092248553817 -0.26151967638839047 0.62871951417873306 -10.729372138977052 -3.9245785371823745 -4.4971872279720921 0.39848943759580724 1.6669512936666653 -3.3171414719942294 -1.6674853444360851 -0.82260709782558039 0.078240023521516211 2.4197975018750069 0.71678422978457978 0.21456502026727484 -4.4807801847104676 1.2272914729852458 -4.099390983581543 -0.33623139617518544 -0.15387046490766987 -4.1468886644341225 0.66494725577014857 1.7562564793058106 0.34134723992616905 -2.1722708551820955 2.4455800882516763 -1.6168437420650965 -0.12991790681900015 -2.3464941673597997 -0.38026378410435768 -2.2920963374234864
leaf_weight=46 662 600 20 44 62 883 323 39 171 916 421 115 931 599 27 1048 21 2117 161 43 1148 122 478 95 78 422 840 169 549 59
leaf_count=46 662 600 20 44 62 883 323 39 171 916 421 115 931 599 27 1048 21 2117 161 43 1148 122 478 95 78 422 840 169 549 59
internal_value=0 0.0258208 -5.14186 -0.266527 -0.611854 -0.439859 0.465763 0.704097 -0.0138925 -0.193548 0.0505332 0.45227 0.310232 0.0222337 -0.272654 0.750578 -0.205403 -0.373194 0.653564 0.357154 0.487838 0.455253 0.949781 -0.902886 0.778234 -1.83474 -0.491252 -2.92374 -0.17852 -0.565787
internal_weight=0 13143 66 7896 3336 3105 5247 3413 4560 2639 4389 1708 1593 1834 1234 3374 2681 2138 3051 1525 1482 543 1526 256 1226 466 1756 231 1207 608
internal_count=13209 13143 66 7896 3336 3105 5247 3413 4560 2639 4389 1708 1593 1834 1234 3374 2681 2138 3051 1525 1482 543 1526 256 1226 466 1756 231 1207 608
is_linear=0
shrinkage=0.1


Tree=25
num_leaves=31
num_cat=0
split_feature=3 7 1 8 8 1 7 0 4 2 2 8 2 2 4 2 4 6 6 11 1 2 4 2 1 8 0 2 2 7
split_gain=142051 141721 76942.8 72566.8 68655.2 53079.4 42324.9 34828.8 33071.3 34826.3 28915.2 26665.3 24873.4 23168.8 33320.7 62397.7 36208.4 25166.7 22978.6 20243.9 19419.1 17700.8 17632.8 41181.3 18797.9 17394.3 17061.1 21703 16987.6 16976.9
threshold=3.5000000000000004 4.5000000000000009 148871.50000000003 71.261904000000015 77.000000000000014 94125.000000000015 5.5000000000000009 1998.5000000000002 1.0000000180025095e-35 8.2119526420174491 14.217431983192325 62.958333000000003 14.217431928750974 5.4613818581640041 1.0000000180025095e-35 9.7161763131117542 5.5000000000000009 5.5000000000000009 5.5000000000000009 1.0000000180025095e-35 46596.500000000007 15.21743193982473 1.0000000180025095e-35 9.296884130440171 16131.500000000002 109.60003963333334 1998.5000000000002 10.299623797032437 6.2119526865602577 5.5000000000000009
decision_type=2 2 2 2 2 2 2 2 2 2 2 2 2 2 2 2 2 2 2 2 2 2 2 2 2 2 2 2 2 2
left_child=3 5 4 -1 6 7 11 10 18 -10 12 -3 19 -6 17 16 28 26 21 -2 -13 25 24 -24 -8 -7 27 -15 -16 -4
right_child=1 2 29 -5 13 8 22 -9 9 -11 -12 20 -14 14 15 -17 -18 -19 -20 -21 -22 -23 23 -25 -26 -27 -28 -29 -30 -31
leaf_value=-2.441258307643559 -0.20805250998253078 -0.1644050828373001 -0.074055450711527776 -9.6564349079132086 1.6462575845846825 0.036701465917309294 2.7972074785232546 1.0933241561578031 -0.93385151991151827 -2.7212037384742871 -2.8197938386986898 1.2532474052935916 1.7599113450121526 1.9792017998898197 0.98675747966766358 -4.2142327516309681 0.64565244914980935 0.64330838133194324 -0.81603188510320168 1.9995881938863371 0.44918042947879305 -2.165628876686096 -0.4295386801127844 -4.6325626584390802 0.014154542539667712 2.7299426047801973 2.0871594629411039 0.39720664601260369 -1.9747179732073186 -1.5387476453220987
leaf_weight=46 3769 539 116 20 297 588 25 228 735 128 41 399 67 144 25 31 654 896 662 42 1215 35 813 24 831 25 261 218 86 249
leaf_count=46 3769 539 116 20 297 588 25 228 735 128 41 399 67 144 25 31 654 896 662 42 1215 35 813 24 831 25 261 218 86 249
internal_value=0 0.0232387 0.339277 -4.62768 0.419112 -0.317953 0.150411 -0.108171 -0.718305 -1.19895 -0.178072 0.444582 -0.150143 0.814757 0.708081 0.183993 0.362222 0.982718 -0.401665 -0.183723 0.647955 0.0216543 -0.223688 -0.550055 0.0954353 0.14654 1.47086 1.02651 -1.30772 -1.07326
internal_weight=0 13143 6823 66 6458 6320 3846 4147 2173 863 3919 2153 3878 2612 2315 796 765 1519 1310 3811 1614 648 1693 837 856 613 623 362 111 365
internal_count=13209 13143 6823 66 6458 6320 3846 4147 2173 863 3919 2153 3878 2612 2315 796 765 1519 1310 3811 1614 648 1693 837 856 613 623 362 111 365
is_linear=0
shrinkage=0.1


Tree=26
num_leaves=31
num_cat=0
split_feature=3 8 10 1 8 0 1 8 4 4 2 1 6 3 1 0 0 1 4 3 6 2 6 1 2 4 4 2 7 8
split_gain=115062 116027 68337.4 60684.4 58779.1 38591.5 37744.6 36171.4 35396 29272.3 74199.8 26826.9 26248.4 23334.7 22517.7 22434.8 46970.9 22611.1 22013.3 20891.4 19932.8 20309.1 18758.7 18631.2 17857.4 17793.4 44272.4 26549.1 21008.7 18613.2
threshold=3.5000000000000004 101.49999950000002 1.0000000180025095e-35 62701.000000000007 71.261904000000015 1689.5000000000002 28105.000000000004 108.42500000000001 7.5000000000000009 1.0000000180025095e-35 8.296884110633977 182173.00000000003 3.5000000000000004 5.5000000000000009 120902.50000000001 2494.5000000000005 1998.5000000000002 111310.00000000001 1.0000000180025095e-35 4.5000000000000009 4.5000000000000009 12.801107729425212 5.5000000000000009 210881.50000000003 12.053048380238801 1.0000000180025095e-35 5.5000000000000009 6.2119526865602577 5.5000000000000009 70.642856500000008
decision_type=2 2 2 2 2 2 2 2 2 2 2 2 2 2 2 2 2 2 2 2 2 2 2 2 2 2 2 2 2 2
left_child=4 3 18 13 -1 14 -4 9 12 11 -11 15 -9 25 -5 16 17 -8 -3 -14 21 -7 -17 -22 -18 29 -27 28 -28 -2
right_child=1 2 6 5 -6 20 7 8 -10 10 -12 -13 19 -15 -16 22 24 -19 -20 -21 23 -23 -24 -25 -26 26 27 -29 -30 -31
leaf_value=-2.1971324686122977 0.19573135516589935 4.635453045718811 1.6832580705075282 -0.66345799235317704 -8.6907915002107625 -0.070233527209090083 0.80015859320176674 0.49431384878217294 0.67855547770013214 0.92151550654362246 -1.6907512613847935 -2.653770349648866 -1.549354129530244 1.6744854922046757 -1.936113230980836 0.93035665439522797 1.3307412020624634 -0.51741871440257781 1.8224007122072519 -0.3523187171449278 -0.33537578131923645 0.96019678135050668 -1.7950356575527362 -2.5359991934819099 2.6749878779510783 -1.3007847568554471 0.81931194881084923 -0.40576402145602253 -0.34640854424621281 1.0696298593234632
leaf_weight=46 1140 34 209 1430 20 1276 789 295 494 277 179 22 182 101 154 46 251 156 153 733 2844 225 56 39 163 258 571 544 212 310
leaf_count=46 1140 34 209 1430 20 1276 789 295 494 277 179 22 182 101 154 46 251 156 153 733 2844 225 56 39 163 258 571 544 212 310
internal_value=0 0.0209149 0.466993 -0.176988 -4.16491 -0.364141 0.376363 0.301386 -0.0347436 0.596779 -0.103914 0.812231 -0.325958 0.179175 -0.787188 0.864423 0.971778 0.582654 2.33386 -0.590418 -0.211288 0.084228 -0.565937 -0.365145 1.86 0.129413 -0.102176 0.130861 0.503689 0.382565
internal_weight=0 13143 4039 9104 66 5968 3852 3643 1704 1939 456 1483 1210 3136 1584 1461 1359 945 187 915 4384 1501 102 2883 414 3035 1585 1327 783 1450
internal_count=13209 13143 4039 9104 66 5968 3852 3643 1704 1939 456 1483 1210 3136 1584 1461 1359 945 187 915 4384 1501 102 2883 414 3035 1585 1327 783 1450
is_linear=0
shrinkage=0.1


Tree=27
num_leaves=31
num_cat=0
split_feature=7 3 1 7 8 7 2 3 1 4 2 2 4 8 6 1 0 0 2 2 2 2 2 8 0 1 2 2 1 2
split_gain=104746 94618.1 56042.9 50493.2 45292.7 33524.4 29274.8 26782.5 24036.5 22070 37285.8 25187.2 22045.8 19918.7 18155.7 18087.5 17720.7 42293 20527.4 18630.2 22672.1 15843.7 15065.8 14862.6 16929.3 14378.7 14060.7 14739.5 18999.5 15845.3
threshold=4.5000000000000009 3.5000000000000004 148871.50000000003 3.5000000000000004 77.000000000000014 5.5000000000000009 12.129760767337375 4.5000000000000009 78913.500000000015 1.0000000180025095e-35 7.3790759274399074 14.217431932621443 7.5000000000000009 62.958333000000003 5.5000000000000009 24605.000000000004 1998.5000000000002 2428.0000000000005 7.050308818160766 10.381815559263739 12.053048447164798 13.21469222203975 6.1270212448214396 112.82142850000001 1795.5000000000002 198676.00000000003 7.5463133558588043 11.801107792885606 107750.00000000001 12.466861176545027
decision_type=2 2 2 2 2 2 2 2 2 2 2 2 2 2 2 2 2 2 2 2 2 2 2 2 2 2 2 2 2 2
left_child=3 -2 4 6 5 13 8 14 22 11 12 -9 -11 -3 -5 -6 19 -18 -19 -17 -21 -22 -1 24 -10 -4 -20 28 -28 -29
right_child=1 2 25 7 15 -7 -8 9 23 10 -12 -13 -14 -15 -16 16 17 18 26 20 21 -23 -24 -25 -26 -27 27 29 -30 -31
leaf_value=0.88257265244274208 -5.6367784976959232 -0.11994347262484797 -0.58896018743102529 -0.51172510869096288 1.9103940938607509 -0.18835418046849828 0.88704854758607665 -0.011393337228505064 -0.94213390642191086 -0.83949647537379901 -1.769088017715605 -1.5941938770521018 0.11929901673301171 0.58216832537086316 -1.3805694023396113 0.65877772466572604 2.1335081978697157 2.8379742700713022 -2.2029499508440495 -0.81059595722989108 1.263141543618564 -0.27314064586162567 0.028204778873587924 -3.0152701258659365 -0.08423396328865336 -2.1347486599495538 1.1109831298012496 -2.6353273744936345 -1.2248652711510659 0.13035930693149567
leaf_weight=263 27 539 289 446 115 1693 357 1455 356 530 253 108 438 1614 522 1284 239 35 21 223 145 125 959 22 650 76 269 27 40 89
leaf_count=263 27 539 289 446 115 1693 357 1455 356 530 253 108 438 1614 522 1284 239 35 21 223 145 125 959 22 650 76 269 27 40 89
internal_value=0 0.27132 0.2947 -0.29227 0.362835 0.144588 0.045782 -0.527158 -0.087699 -0.369616 -0.688173 -0.120762 -0.405661 0.406396 -0.980255 0.684188 0.627715 1.04623 0.505977 0.458143 -0.0644015 0.5519 0.212083 -0.444054 -0.387825 -0.910823 0.322973 0.447784 0.808608 -0.513378
internal_weight=0 6850 6823 6359 6458 3846 2607 3752 2250 2784 1221 1563 968 2153 968 2612 2497 720 481 1777 493 270 1222 1028 1006 365 446 425 309 116
internal_count=13209 6850 6823 6359 6458 3846 2607 3752 2250 2784 1221 1563 968 2153 968 2612 2497 720 481 1777 493 270 1222 1028 1006 365 446 425 309 116
is_linear=0
shrinkage=0.1


Tree=28
num_leaves=31
num_cat=0
split_feature=7 3 1 7 8 7 2 1 1 2 4 4 4 8 6 6 2 11 6 6 2 0 4 2 4 1 2 7 1 2
split_gain=84843.9 76640.7 45394.8 40899.5 36687.1 27154.7 23712.6 22563.3 19469.5 18536.2 17933.7 36376.9 26193.2 17328.3 17265.7 17099 16360.5 15661 14938.4 23217.9 14251.5 25849.6 14135.8 26689 17784.2 13816.5 13501.8 13165.8 13861.1 13883.6
threshold=4.5000000000000009 3.5000000000000004 148871.50000000003 3.5000000000000004 77.000000000000014 5.5000000000000009 12.129760767337375 66575.500000000015 78913.500000000015 15.594258413171639 7.5000000000000009 1.0000000180025095e-35 4.5000000000000009 71.261904000000015 4.5000000000000009 8.5000000000000018 9.4641215522409947 1.0000000180025095e-35 3.5000000000000004 2.5000000000000004 8.6312448239908175 1795.5000000000002 1.0000000180025095e-35 7.2968841469192958 4.5000000000000009 31604.000000000004 7.631244883775758 5.5000000000000009 198676.00000000003 12.466861176545027
decision_type=2 2 2 2 2 2 2 2 2 2 2 2 2 2 2 2 2 2 2 2 2 2 2 2 2 2 2 2 2 2
left_child=3 -2 4 6 5 10 8 17 -1 14 11 13 -13 16 -9 -15 20 22 19 -6 21 26 -5 24 -24 -18 -3 -4 29 -29
right_child=1 2 27 7 18 -7 -8 9 -10 -11 -12 12 -14 15 -16 -17 25 -19 -20 -21 -22 -23 23 -25 -26 -27 -28 28 -30 -31
leaf_value=0.1908743793688602 -5.0731006233780471 0.72762932416164516 0.06018805715480241 0.13725679511752853 0.5653934771099417 -0.16951876471453933 0.79834369524102922 -0.2726743665860305 -0.39964875934558564 -3.2491591613601756 0.82372784904946939 -1.3556372481768812 0.021316647824062902 2.3747791608572006 -0.81498992933199066 0.23942763415475687 2.7068046800400083 2.5894404309136529 0.47713400092800068 1.7917206095591671 -0.77747461876999113 2.4316772782335097 -2.2522677436078853 -1.9738475074183268 0.019736373472989094 0.67890870482243348 -1.3734304958268218 -1.2553273711999258 -2.5685747604754017 0.84144624888896935
leaf_weight=1222 27 66 116 669 409 1693 357 930 1028 27 612 186 537 100 1592 60 38 21 1955 248 156 51 38 106 369 290 57 150 59 40
leaf_count=1222 27 66 116 669 409 1693 357 930 1028 27 612 186 537 100 1592 60 38 21 1955 248 156 51 38 106 369 290 57 150 59 40
internal_value=0 0.244188 0.26523 -0.263043 0.326551 0.130129 0.0412038 -0.474442 -0.0789291 -0.64291 0.365756 0.183875 -0.33292 0.640652 -0.615008 1.57402 0.413692 -0.11748 0.615769 1.0283 -0.0834318 0.538813 -0.165572 -0.56049 -0.192392 0.913848 -0.246033 -0.819741 -1.22967 -0.813901
internal_weight=0 6850 6823 6359 6458 3846 2607 3752 2250 2549 2153 1541 723 818 2522 160 658 1203 2612 657 330 174 1182 513 407 328 123 365 249 190
internal_count=13209 6850 6823 6359 6458 3846 2607 3752 2250 2549 2153 1541 723 818 2522 160 658 1203 2612 657 330 174 1182 513 407 328 123 365 249 190
is_linear=0
shrinkage=0.1


Tree=29
num_leaves=31
num_cat=0
split_feature=3 4 4 2 3 8 3 0 4 2 6 2 0 4 2 2 1 1 4 2 2 4 2 6 0 11 2 1 2 0
split_gain=71458 57488.6 113868 71293.1 53211.6 44293.2 41545.8 40863.2 38573.5 37397.2 33994.7 32121.1 36821.1 30675.8 29536.7 50805.4 24998 23045.9 22392.7 79841.2 40228.6 29690.5 23377.8 21598.3 21214 20954.2 18951.3 22114.4 18539.2 18026.6
threshold=4.5000000000000009 1.0000000180025095e-35 5.5000000000000009 8.2119526420174491 3.5000000000000004 71.261904000000015 5.5000000000000009 1998.5000000000002 7.5000000000000009 7.7161763466338966 5.5000000000000009 8.0503088947670101 2494.5000000000005 3.5000000000000004 8.4641215795616063 8.7983681492084909 94702.500000000015 66211.000000000015 1.0000000180025095e-35 7.3790759424816263 7.5463134308430844 4.5000000000000009 15.21743193982473 3.5000000000000004 1791.0000000000002 1.0000000180025095e-35 9.8832996040018983 120027.00000000001 8.5463133262546815 1987.5000000000002
decision_type=2 2 2 2 2 2 2 2 2 2 2 2 2 2 2 2 2 2 2 2 2 2 2 2 2 2 2 2 2 2
left_child=4 6 13 8 5 -1 7 9 -4 16 14 -9 -13 -3 -11 23 29 -6 20 21 -19 -20 -22 -16 -12 -10 -5 -28 -15 -2
right_child=1 2 3 26 17 -7 -8 11 25 10 24 12 -14 28 15 -17 -18 18 19 -21 22 -23 -24 -25 -26 -27 27 -29 -30 -31
leaf_value=-1.5398730756148049 1.3594358304155474 -3.257047539287143 -0.17166461260509591 -1.031357939510035 0.22261506828785171 -7.1768530821800232 2.9094324927481399 -2.8337195203417824 0.42365577932416809 1.6680939065885612 -1.0039776402250353 1.5700709173808227 -0.063758227324232142 -0.86611250405728235 0.31479094028472904 0.44124195515481407 -1.9861127945284052 -4.0533245501773703 -1.619476411621722 -2.5670058481225144 -0.15885999495444095 0.14788973299372529 -2.4481253644694454 -3.1537620431390305 -0.021010571974678718 2.434525723614783 -5.0479178667068485 -0.9112113535404206 -3.0715527975559236 4.4852536897361279
leaf_weight=46 238 63 1557 238 524 20 63 21 2329 179 247 518 188 809 26 1643 21 28 126 219 1474 387 46 58 1976 53 28 24 40 20
leaf_count=46 238 63 1557 238 524 20 63 21 2329 179 247 518 188 809 26 1643 21 28 126 219 1474 387 46 58 1976 53 28 24 40 20
internal_value=0 0.122544 -0.114564 0.103989 -0.441457 -3.24805 0.357052 0.325737 0.215395 0.211175 0.13546 1.02036 1.135 -1.12801 0.445339 0.318603 1.33169 -0.375396 -0.512834 -0.968572 -0.29733 -0.2862 -0.22814 -2.08016 -0.130229 0.468398 -1.40922 -3.13867 -0.97002 1.60175
internal_weight=0 10339 5141 4229 2870 66 5198 5135 3939 4408 4129 727 706 912 1906 1727 279 2804 2280 732 1548 513 1520 84 2223 2382 290 52 849 258
internal_count=13209 10339 5141 4229 2870 66 5198 5135 3939 4408 4129 727 706 912 1906 1727 279 2804 2280 732 1548 513 1520 84 2223 2382 290 52 849 258
is_linear=0
shrinkage=0.1


Tree=30
num_leaves=31
num_cat=0
split_feature=7 3 7 1 8 3 4 2 4 1 2 6 6 3 4 2 4 2 2 8 4 2 7 2 3 2 2 2 6 8
split_gain=65938.9 52417.3 32087 32044 30947.2 22570.4 21954.6 50225.7 37644.3 32382.3 20958.9 19205.5 22150.3 18668.4 18674.2 44623.9 27229.3 20805.2 18049.7 17616.9 17144.4 16823.4 16316.6 15949.2 14657.4 14354.7 13693.5 22189.3 14925.3 13451
threshold=4.5000000000000009 3.5000000000000004 3.5000000000000004 161602.00000000003 71.933333000000019 5.5000000000000009 1.0000000180025095e-35 10.299623797032437 4.5000000000000009 37146.000000000007 7.2968841469192958 5.5000000000000009 10.500000000000002 3.5000000000000004 1.0000000180025095e-35 7.3790759424816263 4.5000000000000009 14.217431932621443 7.9654914229324083 69.19642850000001 2.5000000000000004 10.129760786197656 5.5000000000000009 10.21469230118891 4.5000000000000009 7.5463133558588043 12.053048380238801 11.466861216392394 6.5000000000000009 62.958333000000003
decision_type=2 2 2 2 2 2 2 2 2 2 2 2 2 2 2 2 2 2 2 2 2 2 2 2 2 2 2 2 2 2
left_child=2 -2 19 4 5 22 9 8 -8 -6 -10 21 -13 -4 17 16 -16 18 24 20 -1 -11 29 -17 -15 -22 27 -21 -28 -3
right_child=1 3 13 -5 6 -7 7 -9 10 11 -12 12 -14 14 15 23 -18 -19 -20 26 25 -23 -24 -25 -26 -27 28 -29 -30 -31
leaf_value=-0.022260075737448301 -4.1821485283750075 -0.20998007720900486 -3.1426658058166503 -0.89503318973100243 1.9010137739146284 1.9870309256670771 -0.97877424516064948 -4.7547530889511114 0.6422956557018844 1.7456464896080506 -0.12042123373329101 0.021296090650558472 1.1525753819511997 -2.694884332304909 -1.5251733015260001 -1.5333473189905482 -0.18154457744195876 -1.2308801385303658 -0.029916153002600629 0.14361295335996679 -0.79748601224653581 0.63739392408624651 -0.29592109261454386 -4.4486912918090828 -0.58736554110882355 -3.5217224847702755 1.3396945471370905 -2.6971059765134537 -0.28604223294183612 0.42198114431615158
leaf_weight=510 27 520 25 243 203 57 212 20 1296 201 499 750 225 42 178 304 988 186 1855 1531 245 430 1211 20 154 21 192 28 80 956
leaf_count=510 27 520 25 243 203 57 212 20 1296 201 499 750 225 42 178 304 988 186 1855 1531 245 430 1211 20 154 21 192 28 80 956
internal_value=0 0.215271 -0.231893 0.232672 0.274319 0.0179026 0.45774 0.231736 0.281427 0.710979 0.430265 0.560558 0.282361 -0.419137 -0.400868 -0.67514 -0.386661 -0.218184 -0.126345 0.0375902 -0.361718 0.990419 -0.023869 -1.71331 -1.03898 -1.01256 0.206822 0.092593 0.861537 0.199339
internal_weight=0 6850 6359 6823 6580 2744 3836 2027 2007 1809 1795 1606 975 3752 3727 1490 1166 2237 2051 2607 776 631 2687 324 196 266 1831 1559 272 1476
internal_count=13209 6850 6359 6823 6580 2744 3836 2027 2007 1809 1795 1606 975 3752 3727 1490 1166 2237 2051 2607 776 631 2687 324 196 266 1831 1559 272 1476
is_linear=0
shrinkage=0.1


Tree=31
num_leaves=31
num_cat=0
split_feature=0 3 1 0 1 0 2 2 4 2 6 11 1 1 6 1 6 10 2 2 4 4 2 2 6 2 8 0 2 2
split_gain=55386.7 63821.5 41937.9 38035.8 37060.2 36328.8 31661.6 36210.4 33305.9 27759.8 26055.7 24698.5 20274.5 28007.1 18304.7 17938.4 17822.4 16890.6 14669.6 13231.1 13293.6 58367.1 29640.2 23431.7 17461.9 31247.4 16304.2 13521.2 13061.4 29753.4
threshold=1689.5000000000002 3.5000000000000004 14895.000000000002 1998.5000000000002 110749.00000000001 2494.5000000000005 11.718915950059545 6.7161764060894908 3.5000000000000004 8.0503087729727429 3.5000000000000004 1.0000000180025095e-35 89566.500000000015 99267.500000000015 11.500000000000002 120027.00000000001 1.5000000000000002 1.0000000180025095e-35 8.8832996323102602 14.72165568355223 1.0000000180025095e-35 4.5000000000000009 9.296884130440171 7.4641215110559695 6.5000000000000009 6.9654914779035151 112.82142850000001 1987.5000000000002 10.299623777239857 9.8832995799896945
decision_type=2 2 2 2 2 2 2 2 2 2 2 2 2 2 2 2 2 2 2 2 2 2 2 2 2 2 2 2 2 2
left_child=15 -2 -3 4 10 6 7 17 9 -9 16 14 -7 -14 19 -1 -4 -5 -13 20 23 27 24 -12 26 -26 -23 -22 29 -25
right_child=1 2 3 5 -6 12 -8 8 -10 -11 11 18 13 -15 -16 -17 -18 -19 -20 -21 21 22 -24 28 25 -27 -28 -29 -30 -31
leaf_value=-0.37589680752953775 -4.6763735319886894 1.7213857139684732 -0.030609745114733761 1.5141763761639595 -0.38680966380138482 0.20324321202437085 1.7672929508841202 -2.9191697543859485 -1.0374805178210653 0.89728812252297807 1.9065487740480382 2.4103467238927956 -5.0049123847484589 -0.70966738066266455 0.47681290274676019 -1.4598232240387887 0.60664158591490047 5.1136012174866421 0.026597521276701064 -1.7109966361969713 -1.1440642374169723 -0.22740892867247264 -3.4142622187733651 0.038508152653656265 0.54120617325724696 -0.50922470842707979 -1.7105742695854933 -2.6702167761440463 -0.25474195964674434 1.3290536853400143
leaf_weight=2045 28 158 629 32 1850 150 292 20 145 405 69 67 20 63 637 165 1452 22 42 50 227 771 26 1230 901 413 82 78 931 209
leaf_count=2045 28 158 629 32 1850 150 292 20 145 405 69 67 20 63 637 165 1452 22 42 50 227 771 26 1230 901 413 82 78 931 209
internal_value=0 0.0917883 0.103958 0.0803236 0.0156534 0.624252 0.907845 0.505667 0.271199 0.71769 0.110938 0.000921322 -0.490647 -1.74467 -0.0279745 -0.456823 0.414027 2.98061 1.49184 -0.092452 -0.07606 -0.238204 -0.0579358 0.0900059 -0.0176661 0.211048 -0.369988 -1.53436 0.0371192 0.225947
internal_weight=0 10999 10971 10813 9664 1149 916 624 570 425 7814 5733 233 83 5624 2210 2081 54 109 4987 4937 2498 2193 2439 2167 1314 853 305 2370 1439
internal_count=13209 10999 10971 10813 9664 1149 916 624 570 425 7814 5733 233 83 5624 2210 2081 54 109 4987 4937 2498 2193 2439 2167 1314 853 305 2370 1439
is_linear=0
shrinkage=0.1


Tree=32
num_leaves=31
num_cat=0
split_feature=7 3 3 7 1 8 4 2 4 1 7 2 6 11 6 6 2 2 2 4 4 2 2 4 8 2 3 2 2 2
split_gain=50002.4 37403.6 25602.1 25330 25175.8 24121.6 18020.4 44668.3 28596.7 19549.8 16637.5 15790.2 15281.9 14745 14038.9 17416.1 15574.8 13642.6 13612.4 13518 17518.6 20756.9 15380.6 14601.4 13255 14409.6 12510.8 11677.7 11349.9 11205.2
threshold=4.5000000000000009 3.5000000000000004 5.5000000000000009 3.5000000000000004 177020.50000000003 71.933333000000019 1.0000000180025095e-35 10.299623797032437 4.5000000000000009 37146.000000000007 5.5000000000000009 7.2968841469192958 4.5000000000000009 1.0000000180025095e-35 5.5000000000000009 10.500000000000002 10.129760786197656 12.053048380238801 12.214692233274418 7.5000000000000009 1.0000000180025095e-35 7.5463134308430844 11.466861216392394 4.5000000000000009 67.857142500000023 8.6312448479596107 4.5000000000000009 8.2119525936312829 15.21743193982473 9.9654913660693367
decision_type=2 2 2 2 2 2 2 2 2 2 2 2 2 2 2 2 2 2 2 2 2 2 2 2 2 2 2 2 2 2
left_child=3 -2 4 17 5 10 9 8 -8 27 29 -10 24 26 16 -16 -11 19 -12 20 22 23 -1 -22 25 -5 -14 -7 -26 -3
right_child=1 2 -4 12 -6 6 7 -9 11 14 18 -13 13 -15 15 -17 -18 -19 -20 -21 21 -23 -24 -25 28 -27 -28 -29 -30 -31
leaf_value=0.18557295205408145 -3.5271826443848791 0.070573104890117339 1.6560890609977628 -1.3108399058591171 -1.1362759177319028 2.6264273737416124 -0.86863901508510666 -4.1279379526774092 0.52912805068714264 1.5708208749887393 -0.41754346021515432 -0.13911389083979406 -0.95787219277861502 1.2518359985040581 0.015976677646153115 1.0106558412850295 0.51080455394558721 0.57563294889241978 0.59583759753909338 0.43136781795446244 -1.2244171556899486 -2.0374555742039404 -1.2021589301098352 -0.092308866723183669 0.12726695498961424 0.012817780230125767 -0.42288884532844473 0.98442853197810187 -1.950191788320188 0.77261832522627505
leaf_weight=974 27 1209 119 166 143 66 218 24 1284 203 1085 488 582 46 761 229 437 399 151 447 151 85 87 464 1012 163 1756 126 27 280
leaf_count=974 27 1209 119 166 143 66 218 24 1284 203 1085 488 582 46 761 229 437 399 151 447 151 85 87 464 1012 163 1756 126 27 280
internal_value=0 0.18746 0.20216 -0.201935 0.176352 0.204961 0.366569 0.160417 0.212135 0.594445 -0.0225347 0.345098 -0.3683 -0.521179 0.482022 0.246059 0.847028 0.037498 -0.29374 -0.0597466 -0.184408 -0.572717 0.0717816 -0.370274 -0.101879 -0.655046 -0.556063 1.54887 0.073281 0.20259
internal_weight=0 6850 6823 6359 6704 6561 3836 2014 1990 1822 2725 1772 3752 2384 1630 990 640 2607 1236 2208 1761 700 1061 615 1368 329 2338 192 1039 1489
internal_count=13209 6850 6823 6359 6704 6561 3836 2014 1990 1822 2725 1772 3752 2384 1630 990 640 2607 1236 2208 1761 700 1061 615 1368 329 2338 192 1039 1489
is_linear=0
shrinkage=0.1


Tree=33
num_leaves=31
num_cat=0
split_feature=3 8 10 3 8 4 2 4 2 2 4 1 8 6 2 2 2 1 8 0 3 1 1 6 4 2 2 8 0 2
split_gain=40623.3 35554.8 31480 24674.1 29687.7 18372.4 42853.3 38310 18089.7 21213.4 18026.6 17712.1 17410.1 32071.4 16339 16151 15756.3 19202.4 15101.5 14451.2 13233.8 13232.7 12043.1 12512.8 14782.3 25833.8 16615.9 14363.8 12827.5 11591.8
threshold=4.5000000000000009 101.49999950000002 1.0000000180025095e-35 3.5000000000000004 71.261904000000015 1.0000000180025095e-35 8.5463133262546815 7.5000000000000009 7.7161763466338966 9.7983680619662632 3.5000000000000004 18402.500000000004 71.933333000000019 8.5000000000000018 14.217431983192325 7.8832997149488522 15.21743193982473 228939.50000000003 108.42500000000001 1795.5000000000002 5.5000000000000009 91116.000000000015 55718.000000000007 4.5000000000000009 2.5000000000000004 7.2119526654166028 8.4641215795616063 107.53333300000001 2494.5000000000005 12.801107729425212
decision_type=2 2 2 2 2 2 2 2 2 2 2 2 2 2 2 2 2 2 2 2 2 2 2 2 2 2 2 2 2 2
left_child=3 5 -3 4 -1 8 7 10 21 12 -7 -4 15 -14 20 -10 17 19 -13 -5 -11 -2 -21 24 26 -26 -24 29 -25 -28
right_child=1 2 11 16 -6 6 -8 -9 9 14 -12 18 13 -15 -16 -17 -18 -19 -20 22 -22 -23 23 28 25 -27 27 -29 -30 -31
leaf_value=-0.84554528224727388 1.1312889184787502 1.9043188328686076 1.9731258526684776 -0.53931848535922222 -5.4604873430728915 -2.4854643231346496 -2.0253191347529249 0.22146915609014683 -2.2039942003348294 0.32485884284622107 -0.39012402215300618 0.47443240837046752 1.2291630109966114 -0.6597779987567276 -0.99272807727151735 -0.37306696793789434 -2.1034120278155553 -2.6923037946493427 0.037036927164164048 0.61519584628023627 2.4797878540795426 -1.5442801425606012 3.2647055190542469 -0.30645547799766065 0.38177297957672562 -2.1560699658592544 -0.12452846664481049 1.9223052289811049 -2.8637025311589244 2.1562951495647429
leaf_weight=46 244 127 62 965 20 42 123 1671 51 1647 1832 1660 192 169 94 871 47 32 1505 231 29 20 23 1020 121 60 205 55 20 25
leaf_count=46 244 127 62 965 20 42 123 1671 51 1647 1832 1660 192 169 94 871 47 32 1505 231 29 20 23 1020 121 60 205 55 20 25
internal_value=0 0.0923963 0.360012 -0.332852 -2.24401 -0.0361053 -0.190332 -0.126663 0.134441 0.0657687 -0.437085 0.299235 -0.243841 0.344867 0.290192 -0.474344 -0.287867 -0.256917 0.266445 -0.228318 0.362146 0.928594 -0.0577977 -0.159473 0.257719 -0.459501 0.679201 0.470547 -0.355633 0.123387
internal_weight=0 10339 3354 2870 66 6985 3668 3545 3317 3053 1874 3227 1283 361 1770 922 2804 2757 3165 2725 1676 264 1760 1529 489 181 308 285 1040 230
internal_count=13209 10339 3354 2870 66 6985 3668 3545 3317 3053 1874 3227 1283 361 1770 922 2804 2757 3165 2725 1676 264 1760 1529 489 181 308 285 1040 230
is_linear=0
shrinkage=0.1


Tree=34
num_leaves=31
num_cat=0
split_feature=7 3 7 3 1 0 0 2 11 2 6 6 6 4 11 2 8 2 1 8 2 2 1 8 8 8 1 1 4 2
split_gain=37285 25444.3 19980.1 18787.9 18460.3 17501.9 20104.8 17947 15493.2 12992.3 12864 12192.7 11892.1 11186.9 10932.4 10811.7 10513.1 10382.1 10413.7 11894.3 10669.1 10350.3 11826.5 10347.9 9694.51 13318.4 9023.17 8932.53 10651.5 21208.2
threshold=4.5000000000000009 3.5000000000000004 3.5000000000000004 5.5000000000000009 159045.50000000003 1998.5000000000002 2428.0000000000005 7.2119526403998284 1.0000000180025095e-35 6.2119527474505771 3.5000000000000004 9.5000000000000018 4.5000000000000009 7.5000000000000009 1.0000000180025095e-35 4.2092129864428882 77.000000000000014 12.129760767337375 81005.500000000015 112.82142850000001 6.1270212448214396 4.54357370275532 53141.000000000007 109.60003963333334 67.857142500000023 59.466666500000009 47494.500000000007 23906.000000000004 3.5000000000000004 5.0475690778731197
decision_type=2 2 2 2 2 2 2 2 2 2 2 2 2 2 2 2 2 2 2 2 2 2 2 2 2 2 2 2 2 2
left_child=2 -2 17 4 5 8 -7 -8 10 -10 15 27 24 -13 26 16 -3 18 20 -20 -1 -17 -23 -6 25 -4 -14 28 -12 -30
right_child=1 3 12 -5 23 6 7 -9 9 -11 11 13 14 -15 -16 21 -18 -19 19 -21 -22 22 -24 -25 -26 -27 -28 -29 29 -31
leaf_value=0.69648853018070045 -2.9018936528099908 0.78049358408898117 0.018692390173673631 1.4195014952110645 -0.415509851609843 1.3672385086320222 2.2758772033016856 0.092034355084123054 3.4009574871063233 0.6436246979015845 1.2341579734419401 0.07667719414960554 0.0045290001986189659 0.72718145979518023 1.0696915424388389 -1.7408586187362673 3.1668232440948487 0.53926648045342196 -0.23534060667168513 -2.5874099067666316 -0.005377334120607459 0.7337088224467877 0.1214630665369076 -2.2195639329987604 0.062691354569266403 -1.2594952245399158 -0.56554148805343651 -0.16660410479345814 0.62757949418559367 -2.2710056944805035
leaf_weight=276 27 80 180 119 226 252 41 458 25 54 104 926 322 370 46 25 24 357 946 22 1006 457 1019 37 1039 149 2016 2474 98 34
leaf_count=276 27 80 180 119 226 252 41 458 25 54 104 926 322 370 46 25 24 357 946 22 1006 457 1019 37 1039 149 2016 2474 98 34
internal_value=0 0.161876 -0.174374 0.173999 0.151891 0.185423 0.639157 0.271468 0.125536 1.5162 0.105956 0.0101155 -0.32213 0.262392 -0.456991 0.34517 1.33119 0.0382755 -0.0412151 -0.288797 0.145726 0.276852 0.311027 -0.669312 -0.0871081 -0.560183 -0.487029 -0.11053 0.477292 -0.119026
internal_weight=0 6850 6359 6823 6704 6441 751 499 5690 79 5611 4006 3752 1296 2384 1605 104 2607 2250 968 1282 1501 1476 263 1368 329 2338 2710 236 132
internal_count=13209 6850 6359 6823 6704 6441 751 499 5690 79 5611 4006 3752 1296 2384 1605 104 2607 2250 968 1282 1501 1476 263 1368 329 2338 2710 236 132
is_linear=0
shrinkage=0.1


Tree=35
num_leaves=31
num_cat=0
split_feature=0 3 1 4 2 4 2 6 2 2 2 0 6 2 1 1 0 6 2 4 11 6 6 2 2 2 1 2 2 6
split_gain=32617.5 35551.4 24948 22233.6 101092 58275 25285.6 22182.6 24770 51723 26125.7 21752.4 21029.3 20225.4 28162.4 19770.2 18038.3 17072.6 41696.4 16695.6 16026.2 14793.8 25915.5 15238.8 14742.7 28371.8 14535.7 13317.7 13135 13560
threshold=1689.5000000000002 3.5000000000000004 14895.000000000002 1.0000000180025095e-35 8.5463133262546815 4.5000000000000009 7.2119526654166028 5.5000000000000009 8.4641215795616063 8.7983681492084909 6.8832997734138734 2428.0000000000005 3.5000000000000004 10.381815559263739 119207.00000000001 210881.50000000003 1998.5000000000002 10.500000000000002 9.0503087453225231 3.5000000000000004 1.0000000180025095e-35 7.5000000000000009 4.5000000000000009 4.2092129864428882 11.801107792885606 12.466861176545027 78214.500000000015 15.21743193982473 6.7983681081690808 6.5000000000000009
decision_type=2 2 2 2 2 2 2 2 2 2 2 2 2 2 2 2 2 2 2 2 2 2 2 2 2 2 2 2 2 2
left_child=-1 -2 -3 7 5 19 11 8 10 12 -4 20 -10 26 -15 17 27 -9 -19 -5 21 22 23 -7 -20 -26 -6 -11 29 -24
right_child=1 2 3 4 13 6 -8 15 9 16 -12 -13 -14 14 -16 -17 -18 18 24 -21 -22 -23 28 -25 25 -27 -28 -29 -30 -31
leaf_value=-0.35056682985501442 -3.4882956581456321 1.3270174871517133 -1.8853100030318553 -2.5311440525640703 -2.2977071327646983 1.3921506089039317 -0.30120303562931761 -0.085809999947731724 0.32432092742196156 0.32207731942623208 1.6434449501273276 2.1293063483200969 -2.9389846437902598 -6.024199630903162 -1.8570705979486757 -2.9007608639157336 1.0461342241947491 2.2640707935488553 -0.18290927090815134 -0.73767763514746632 1.957848464684053 0.52127035011682243 -0.85121425956599106 0.24594660068491461 2.5187861512689032 0.082692060651986504 -0.81981166514023307 -1.3829321034411168 0.37767631914967331 0.21273154610339901
leaf_weight=2210 28 158 23 58 97 133 885 2505 28 1812 239 64 67 23 55 23 367 109 441 494 55 1125 468 907 68 161 212 47 186 161
leaf_count=2210 28 158 23 58 97 133 885 2505 28 1812 239 64 67 23 55 23 367 109 441 494 55 1125 468 907 68 161 212 47 186 161
internal_value=0 0.0704385 0.079521 0.0612925 -0.0955539 0.0368081 0.170226 0.192388 0.411974 0.30793 1.33367 0.304855 -1.97717 -1.64696 -3.08584 0.0208769 0.405453 0.0413391 0.450207 -0.926122 0.266382 0.235164 0.061649 0.392528 0.155116 0.806074 -1.28375 0.278971 -0.360578 -0.578885
internal_weight=0 10999 10971 10813 4923 4536 3984 5890 2583 2321 262 3099 95 387 78 3307 2226 3284 779 552 3035 2980 1855 1040 670 229 309 1859 815 629
internal_count=13209 10999 10971 10813 4923 4536 3984 5890 2583 2321 262 3099 95 387 78 3307 2226 3284 779 552 3035 2980 1855 1040 670 229 309 1859 815 629
is_linear=0
shrinkage=0.1


Tree=36
num_leaves=31
num_cat=0
split_feature=7 3 2 4 2 2 4 2 3 1 8 7 4 6 2 1 11 4 2 4 1 2 2 2 2 1 2 6 6 0
split_gain=28916.3 18039.9 16633.7 17311.3 53772.7 34737 33468.8 19176.3 14714.4 13895.9 13561.4 13895.4 12124 11726.2 14220 10676 12677.1 10657.3 29739.5 16897 13198.9 9841.56 10871.2 9530.97 15973.1 14453 11807.7 26772.1 14337.8 11462
threshold=4.5000000000000009 3.5000000000000004 15.594258413171639 1.0000000180025095e-35 7.3790759424816263 6.2119527041892315 5.5000000000000009 10.381815559263739 5.5000000000000009 177020.50000000003 71.933333000000019 5.5000000000000009 3.5000000000000004 5.5000000000000009 7.3790759424816263 103859.00000000001 1.0000000180025095e-35 1.0000000180025095e-35 10.466861231233521 4.5000000000000009 38246.500000000007 12.214692233274418 11.214692300094663 13.718915966083022 12.549052977317379 113351.50000000001 10.21469230118891 7.5000000000000009 10.500000000000002 1998.5000000000002
decision_type=2 2 2 2 2 2 2 2 2 2 2 2 2 2 2 2 2 2 2 2 2 2 2 2 2 2 2 2 2 2
left_child=2 -2 3 5 6 -1 12 -6 9 10 11 -3 -5 -7 -15 16 -8 20 19 -19 -12 22 -13 24 26 -25 27 -22 -29 -28
right_child=1 8 -4 4 7 13 15 -9 -10 -11 17 21 -14 14 -16 -17 -18 18 -20 -21 23 -23 -24 25 -26 -27 29 28 -30 -31
leaf_value=-3.794613096956164 -2.4371929663198966 0.189613795409866 -2.5026959690451624 -2.7008266532059872 -1.1401982221094089 0.2131213466437151 0.1697498449864957 -4.2273077487945558 1.2550073309605863 -0.84199846999628569 1.200619004874562 -0.28675309523672426 -0.71518703795506922 2.0920195187841144 -0.17789035828037694 -0.41200169297720657 2.0472404885936428 -0.67529775357437793 -3.719843225479126 0.25756521256323822 1.2181077929830915 0.49242075652081446 -1.5838806100513625 -0.76507992274156822 1.3384068540642771 0.93125616620256479 -0.46911083511690016 -0.38408234175929634 1.1514975200725508 0.47837350778321491
leaf_weight=24 27 1489 30 33 481 1714 1284 21 119 143 208 1016 451 28 1924 332 37 218 20 1776 344 151 69 161 178 73 281 264 79 234
leaf_count=24 27 1489 30 33 481 1714 1284 21 119 143 208 1016 451 28 1924 332 37 218 20 1776 344 151 69 161 178 73 281 264 79 234
internal_value=0 0.142556 -0.153563 -0.142428 -0.337993 -0.0025651 -0.119211 -1.26934 0.152765 0.133199 0.154454 -0.0161242 -0.850572 0.0222601 -0.14533 0.0949317 0.222337 0.275629 0.117092 0.155577 0.450872 -0.263975 -0.369243 0.35425 0.454315 -0.235881 0.323393 0.594759 -0.0304065 -0.0386034
internal_weight=0 6850 6359 6329 2639 3690 2137 502 6823 6704 6561 2725 484 3666 1952 1653 1321 3836 2014 1994 1822 1236 1085 1614 1380 234 1202 687 343 515
internal_count=13209 6850 6359 6329 2639 3690 2137 502 6823 6704 6561 2725 484 3666 1952 1653 1321 3836 2014 1994 1822 1236 1085 1614 1380 234 1202 687 343 515
is_linear=0
shrinkage=0.1


Tree=37
num_leaves=31
num_cat=0
split_feature=0 3 1 6 6 2 4 2 2 2 4 2 1 2 2 2 1 1 2 4 2 4 2 0 2 6 2 6 8 2
split_gain=25529.7 26321.2 18781.7 16405.2 24153.1 15728.3 16842.3 35408.3 15721.7 14667.8 15407.1 20067 13699 17329.6 13539.4 12765.6 12604.5 11701.9 11615.4 11032.8 23707.4 21035.9 13149.6 23181.8 18729.9 21489.1 21119.9 18560.5 16009.6 15675.9
threshold=1689.5000000000002 3.5000000000000004 14895.000000000002 4.5000000000000009 9.5000000000000018 4.2092129864428882 1.0000000180025095e-35 8.2119526420174491 8.5463133262546815 7.2119527462971007 1.0000000180025095e-35 9.8832996040018983 123608.00000000001 10.466861231233521 12.801107729425212 14.469600960473128 66575.500000000015 110229.50000000001 15.21743193982473 1.0000000180025095e-35 9.2119526619519281 5.5000000000000009 8.211952606406939 2428.0000000000005 8.7983681492084909 6.5000000000000009 10.21469230118891 8.5000000000000018 101.49999950000002 10.718915965786598
decision_type=2 2 2 2 2 2 2 2 2 2 2 2 2 2 2 2 2 2 2 2 2 2 2 2 2 2 2 2 2 2
left_child=17 -2 -3 5 12 -4 8 -8 -7 -6 15 -12 19 -14 16 -11 -10 -1 -16 22 21 -21 23 27 25 -24 28 -5 -26 -28
right_child=1 2 3 4 9 6 7 -9 14 10 11 -13 13 -15 18 -17 -18 -19 -20 20 -22 -23 24 -25 26 -27 29 -29 -30 -31
leaf_value=-0.21322589081255089 -2.9997918726078101 1.1525360732987713 1.2139495762313004 1.292534399413048 0.55722694665081351 1.2227428008807013 0.090363761963030101 -1.5188181656706883 0.48410302835567437 0.28699009445195278 -0.30217355593113893 -3.4651873102500326 -1.0724176736796545 -0.062032329040474121 0.86352438840529189 -1.5513356274519212 -0.13682834079521466 -0.85646018154315051 -0.95559170622574663 -0.94361694182327316 -2.9429788849570535 -0.060683009598921422 -2.2284018532022252 -2.7396294665336609 0.18981408659275623 -0.28507016310724648 -1.7483060280008922 -0.17874476710334419 1.3127428884868342 -0.11134406267000097
leaf_weight=1877 28 158 154 235 830 195 1362 152 550 1202 447 21 353 327 460 39 806 333 38 337 33 1354 77 20 400 218 63 135 186 819
leaf_count=1877 28 158 154 235 830 195 1362 152 550 1202 447 21 353 327 460 39 806 333 38 337 33 1354 77 20 400 218 63 135 186 819
internal_value=0 0.0623171 0.0701322 0.0543161 -0.0348309 0.224504 0.181738 -0.0711922 0.368627 0.212335 0.0448329 -0.444104 -0.172543 -0.586541 0.278793 0.229218 0.115024 -0.310148 0.724716 -0.0999304 -0.288447 -0.236643 0.0510227 0.576468 -0.065213 -0.792313 0.0809004 0.755716 0.546239 -0.22827
internal_weight=0 10999 10971 10813 7096 3717 3563 1514 2049 2539 1709 468 4557 680 1854 1241 1356 2210 498 3877 1724 1691 2153 390 1763 295 1468 370 586 882
internal_count=13209 10999 10971 10813 7096 3717 3563 1514 2049 2539 1709 468 4557 680 1854 1241 1356 2210 498 3877 1724 1691 2153 390 1763 295 1468 370 586 882
is_linear=0
shrinkage=0.1


Tree=38
num_leaves=31
num_cat=0
split_feature=7 7 3 3 7 8 1 1 2 4 2 4 2 8 2 2 1 6 11 3 2 1 2 2 2 2 1 2 0 4
split_gain=22399.7 15247.3 12696.7 11413.4 10111.2 18275.2 14440 11364.8 10266.5 9931.95 17918.7 13314.8 9860.13 9439.93 8781.95 11791.6 8595.88 8199.4 7944.25 11080.2 7927.33 8006.27 17245.7 7868.36 10612.9 16635.1 14779.7 8777.29 9345.46 7515.59
threshold=4.5000000000000009 3.5000000000000004 3.5000000000000004 5.5000000000000009 5.5000000000000009 87.666666500000005 198676.00000000003 125415.00000000001 5.4613818581640041 1.0000000180025095e-35 10.466861231233521 5.5000000000000009 6.2119526865602577 62.958333000000003 6.9654914779035151 9.2119525745996977 16131.500000000002 7.5000000000000009 1.0000000180025095e-35 3.5000000000000004 5.1242814867597435 70282.500000000015 4.3763362624077056 13.718915966083022 12.053048380238801 11.886039304599388 64297.000000000007 8.3790758901694051 2494.5000000000005 1.0000000180025095e-35
decision_type=2 2 2 2 2 2 2 2 2 2 2 2 2 2 2 2 2 2 2 2 2 2 2 2 2 2 2 2 2 2
left_child=1 16 -2 4 13 7 8 -6 20 23 11 12 -11 -4 -9 -16 -1 -17 19 -3 21 22 -7 24 25 26 27 -10 -29 -21
right_child=2 18 3 -5 5 6 -8 14 9 10 -12 -13 -14 -15 15 17 -18 -19 -20 29 -22 -23 -24 -25 -26 -27 -28 28 -30 -31
leaf_value=2.1157873219251635 -2.0387743433316547 -2.4250605121254925 -0.1137855156354961 1.1047983243685811 -0.14073314088129657 2.8601851413233415 -1.7805455615123114 0.62427103918577942 2.0597150024102659 0.80767841555855502 -3.0220069067818778 0.15024931995061841 -1.570493243492785 0.35881391235260374 -2.6754609370773492 -0.046547752893888038 0.03464213631999296 -1.9450025503976005 0.84035718515515334 -0.15273848590502348 2.1396258195241291 -0.50130918311311845 0.21415653610840824 -0.25409026371324483 0.95838219839355565 -2.5276670978182842 -0.033427064071913239 0.41005159613648151 2.127595294846429 -0.44523917098340315
leaf_weight=20 27 24 525 119 1600 36 36 28 49 22 21 533 84 2168 44 65 2587 35 64 2203 42 47 78 199 283 21 488 264 36 1461
leaf_count=20 27 24 525 119 1600 36 36 28 49 22 21 533 84 2168 44 65 2587 35 64 2203 42 47 78 199 283 21 488 264 36 1461
internal_value=0 -0.135157 0.125469 0.134033 0.116801 0.0161719 0.206065 -0.223767 0.238529 0.169753 -0.147775 -0.0533171 -1.07691 0.266681 -0.996171 -1.31126 0.050608 -0.711007 -0.264231 -0.2834 0.916126 0.596952 1.04974 0.326148 0.427346 0.252191 0.321936 0.818834 0.616157 -0.269372
internal_weight=0 6359 6850 6823 6704 4011 2239 1772 2203 2000 660 639 106 2693 172 144 2607 100 3752 3688 203 161 114 1340 1141 858 837 349 300 3664
internal_count=13209 6359 6850 6823 6704 4011 2239 1772 2203 2000 660 639 106 2693 172 144 2607 100 3752 3688 203 161 114 1340 1141 858 837 349 300 3664
is_linear=0
shrinkage=0.1


Tree=39
num_leaves=31
num_cat=0
split_feature=4 4 2 2 4 2 2 8 3 6 2 3 0 0 2 7 2 3 4 2 1 0 2 2 2 2 6 6 6 2
split_gain=20947.1 53617.9 39223.9 35665.5 25512.1 21500.5 19272.4 19609.1 16788.5 16534.6 14909.7 14684.7 13624 25414.1 25336.9 25025.1 13507.6 27390.7 13016.3 12898.5 12277.9 11765.2 19190 11866.6 30965.7 28807.5 34633.5 14419.7 19720 13029.9
threshold=7.5000000000000009 1.0000000180025095e-35 7.2968841469192958 4.3763362624077056 3.5000000000000004 15.594258413171639 7.631244883775758 70.380952000000022 5.5000000000000009 4.5000000000000009 5.2092129868089687 4.5000000000000009 2494.5000000000005 1998.5000000000002 9.6312447890226611 4.5000000000000009 7.7161763466338966 4.5000000000000009 4.5000000000000009 6.7983682151312976 210881.50000000003 1689.5000000000002 8.1270212203446217 8.4641215484391719 8.3790759509298116 8.7983680995982034 6.5000000000000009 7.5000000000000009 10.500000000000002 8.0503088947670101
decision_type=2 2 2 2 2 2 2 2 2 2 2 2 2 2 2 2 2 2 2 2 2 2 2 2 2 2 2 2 2 2
left_child=1 3 4 -1 -3 8 -2 -8 9 -5 -6 -4 13 16 -15 -14 17 19 -12 -11 21 22 -18 24 27 26 -25 29 -29 -23
right_child=6 2 11 5 10 -7 7 -9 -10 12 18 -13 15 14 -16 -17 20 -19 -20 -21 -22 23 -24 25 -26 -27 -28 28 -30 -31
leaf_value=-3.8417363394861641 0.35101901686129211 -2.1691631486173719 -1.6908150037354475 0.30625248598023797 0.21774331078947096 -1.9433548048430798 -3.1776034377515319 -0.22647307158069135 1.7424178498841467 -3.385589542388916 -0.83710739062722483 -0.73897871155978034 -3.8360015869140627 -0.47562962638512823 1.1579295916488206 -0.37471532021744514 -1.8849703354781935 1.1623025488619712 -0.16463719642956123 -0.18513792875935051 -2.5878531587123872 0.61057741457299031 -0.26395932761105628 -3.2266755009851149 3.5206175210637349 -0.018438777162274225 -0.40850827647309729 -0.34678928530725323 2.4180015393665859 3.0816963745281103
leaf_weight=23 2381 64 221 2539 768 51 24 364 63 20 371 608 25 131 345 127 89 204 1284 34 20 119 407 62 30 2306 147 328 28 26
leaf_count=23 2381 64 221 2539 768 51 24 364 63 20 371 608 25 131 345 127 89 204 1284 34 20 119 407 62 30 2306 147 328 28 26
internal_value=0 -0.0648542 -0.397023 0.0897603 -0.198456 0.102494 0.244521 -0.409017 0.117294 0.102641 -0.146403 -0.992725 -0.0135846 0.0193354 0.708358 -0.944006 -0.0665219 0.632183 -0.315384 -1.37049 -0.11713 -0.103179 -0.554826 -0.0296342 0.399922 -0.120328 -1.24452 0.213054 -0.129334 1.05367
internal_weight=0 10440 3316 7124 2487 7101 2769 388 7050 6987 2423 829 4448 4296 476 152 3820 258 1655 54 3562 3542 496 3046 531 2515 209 501 356 145
internal_count=13209 10440 3316 7124 2487 7101 2769 388 7050 6987 2423 829 4448 4296 476 152 3820 258 1655 54 3562 3542 496 3046 531 2515 209 501 356 145
is_linear=0
shrinkage=0.1


Tree=40
num_leaves=31
num_cat=0
split_feature=0 0 2 4 4 4 2 2 2 2 2 1 2 10 2 1 3 2 4 7 2 4 11 1 2 2 2 8 6 6
split_gain=17918.9 22586 23952.7 20703.3 28855 30050.5 27928 21659 20964.6 17713.4 19689.3 17143.6 14540.7 12940.5 12880.9 12766.6 12050.7 11938.6 10939.9 10126.3 10076.2 11647.2 10046.9 9687.35 35120.9 15925.7 24005.1 13567.9 11357.2 11715.6
threshold=1998.5000000000002 2428.0000000000005 6.7983682151312976 7.5000000000000009 1.0000000180025095e-35 4.5000000000000009 4.3763362624077056 15.594258413171639 8.2119526237827181 6.2119526711912831 6.2119527249557018 153605.50000000003 11.718915950059545 1.0000000180025095e-35 7.7161764935912407 86492.000000000015 5.5000000000000009 7.2968841469192958 3.5000000000000004 4.5000000000000009 8.0503087232285342 6.5000000000000009 1.0000000180025095e-35 67999.500000000015 7.2119525999351408 10.214692275525378 10.050308904811882 70.642856500000008 5.5000000000000009 10.500000000000002
decision_type=2 2 2 2 2 2 2 2 2 2 2 2 2 2 2 2 2 2 2 2 2 2 2 2 2 2 2 2 2 2
left_child=3 12 13 4 6 8 -1 16 18 -7 -11 -10 19 -3 -12 20 23 22 -6 -2 21 -4 -5 25 -25 26 27 -8 -27 -30
right_child=1 2 15 17 5 9 7 -9 11 10 14 -13 -14 -15 -16 -17 -18 -19 -20 -21 -22 -23 -24 24 -26 28 -28 -29 29 -31
leaf_value=-3.4575626888190927 -1.25417800453993 0.65898667690344159 -2.6644662666320804 0.29078248443765914 -1.8928657315986257 0.14006882775601839 0.010653905768442273 -2.1522672929366431 -3.6019052145381774 -1.6783618472765998 -0.10001155437787744 -0.45212923685709638 1.3377550494590593 3.695448889732361 -0.82309050370969483 -0.72501183508342726 1.5369186147495553 -0.21818752691989329 -0.58697992739372684 0.61467754360189486 0.38244448283630161 0.28089366041380787 2.2685983680475217 -3.6566805521647137 -0.036960614838382498 0.19351539356657019 2.0068672645230627 0.62505106291554258 -0.98948674203212306 0.18716666692768347
leaf_weight=23 39 32 25 2112 71 1038 798 45 48 112 916 27 297 25 337 241 54 523 665 113 359 29 26 27 3712 405 86 654 239 131
leaf_count=23 39 32 25 2112 71 1038 798 45 48 112 916 27 297 25 337 241 54 523 665 113 359 29 26 27 3712 405 86 654 239 131
internal_value=0 0.375376 0.0247226 -0.0361388 -0.105927 -0.348915 0.0205654 0.0335709 -0.875258 -0.171276 -0.408036 -2.46799 0.930643 1.99077 -0.294487 -0.14663 0.0496801 0.210073 -0.712955 0.135169 0.190876 -1.0827 0.314835 0.0364099 -0.0630993 0.197268 0.383534 0.287387 -0.17238 -0.572888
internal_weight=0 1160 711 12049 9388 3214 6174 6151 811 2403 1365 75 449 57 1253 654 6106 2661 736 152 413 54 2138 6052 3739 2313 1538 1452 775 370
internal_count=13209 1160 711 12049 9388 3214 6174 6151 811 2403 1365 75 449 57 1253 654 6106 2661 736 152 413 54 2138 6052 3739 2313 1538 1452 775 370
is_linear=0
shrinkage=0.1


Tree=41
num_leaves=31
num_cat=0
split_feature=7 7 6 6 3 8 1 6 2 8 2 2 4 2 2 1 1 11 3 1 2 2 2 2 2 6 6 8 2 1
split_gain=15849.5 11789.9 8094.62 16342.3 10721.1 8594.71 8190.53 8184.19 7915.43 7874.16 7765.86 14403.4 7665.42 7527.42 6899.13 6459.06 5934.94 5848.74 7288.85 5960.66 7879.11 7920.91 9546.89 10711.8 7021.54 6579.48 6202 5767.92 5746.97 5371.41
threshold=4.5000000000000009 3.5000000000000004 3.5000000000000004 2.5000000000000004 3.5000000000000004 70.642856500000008 58058.500000000007 10.500000000000002 12.968231021076029 71.261904000000015 9.7983681014818096 11.886039263667785 3.5000000000000004 15.21743193982473 5.7956285032759967 16131.500000000002 11946.500000000002 1.0000000180025095e-35 3.5000000000000004 119207.00000000001 14.217431932621443 11.214692242944684 10.381815559263739 9.7983680619662632 10.549053049651969 8.5000000000000018 11.500000000000002 60.141983933333343 11.053048466512676 52701.500000000007
decision_type=2 2 2 2 2 2 2 2 2 2 2 2 2 2 2 2 2 2 2 2 2 2 2 2 2 2 2 2 2 2
left_child=1 15 3 6 -4 -6 12 13 9 10 14 -12 -2 16 -5 -1 -7 18 -3 20 21 22 23 26 -24 -25 29 -21 -26 -20
right_child=2 17 4 8 5 7 -8 -9 -10 -11 11 -13 -14 -15 -16 -17 -18 -19 19 27 -22 -23 24 25 28 -27 -28 -29 -30 -31
leaf_value=1.839843479394913 0.7789591619458931 -1.9806637664635975 -2.0705407530069353 0.86146618165075783 -0.16970272523943034 1.3398811671882869 -0.14385070642235254 0.41318170677369398 1.875173373475671 0.86980450776020701 1.836735937100346 -0.95178201905003312 -0.049652393232099717 -1.6452088501304389 -0.51934759368562478 0.035820865573561858 0.04749811183464081 0.72058395016938448 0.022173220451855869 -1.4963703715138967 -1.1220805729136749 0.2144227179231144 -1.8832366613284599 0.17273737932001795 -0.18601354864381611 1.4433266765192936 0.44178668931126597 -0.41713539505224539 -1.821812234101472 -0.37122447217987048
leaf_weight=20 241 24 24 48 1323 36 758 788 50 375 59 27 208 26 147 2587 2740 64 456 54 85 506 53 143 105 57 128 597 27 1453
leaf_count=20 241 24 24 48 1323 36 758 788 50 375 59 27 208 26 147 2587 2740 64 456 54 85 506 53 143 105 57 128 597 27 1453
internal_value=0 -0.11369 0.105541 0.280174 0.0378737 0.0481733 0.0566385 0.128466 0.662338 0.569897 0.169664 0.961271 0.395103 0.0483958 -0.179455 0.0496607 0.0642581 -0.227191 -0.243639 -0.232261 -0.172974 -0.145421 -0.220599 -0.163504 -0.910983 0.534855 -0.232071 -0.506657 -0.520609 -0.277254
internal_weight=0 6359 6850 1913 4937 4913 1207 3590 706 656 281 86 449 2802 195 2607 2776 3752 3688 3664 3013 2928 2422 2237 185 200 2037 651 132 1909
internal_count=13209 6359 6850 1913 4937 4913 1207 3590 706 656 281 86 449 2802 195 2607 2776 3752 3688 3664 3013 2928 2422 2237 185 200 2037 651 132 1909
is_linear=0
shrinkage=0.1


Tree=42
num_leaves=31
num_cat=0
split_feature=0 0 2 4 4 2 2 2 2 2 2 1 10 2 8 8 1 1 4 4 4 2 11 3 6 1 2 2 2 2
split_gain=13386.7 19540.2 18896.5 15876.3 23283.5 24518.1 24196 20702 20577.3 16243.3 15295.8 14828.7 12642.4 12587.2 11832 14461.1 11289.4 21775.3 11243.8 10344.7 9700.99 9540.62 9370.84 9018.51 8764.37 10337.7 23028.4 16956.5 12544 12602.6
threshold=1998.5000000000002 2494.5000000000005 11.718915950059545 7.5000000000000009 1.0000000180025095e-35 6.2119526711912831 6.2119527249557018 4.3763362624077056 9.296884130440171 15.594258413171639 6.7161764060894908 153605.50000000003 1.0000000180025095e-35 7.9654914472085858 101.49999950000002 107.38750000000002 89566.500000000015 99267.500000000015 3.5000000000000004 4.5000000000000009 3.5000000000000004 7.2968841469192958 1.0000000180025095e-35 5.5000000000000009 7.5000000000000009 66211.000000000015 7.4641216424348622 8.0503087964631472 12.801107729425212 11.886039263667785
decision_type=2 2 2 2 2 2 2 2 2 2 2 2 2 2 2 2 2 2 2 2 2 2 2 2 2 2 2 2 2 2
left_child=3 2 10 4 7 20 -7 -1 19 23 12 -10 -2 -12 -15 -16 -3 -18 -17 -8 -6 -5 -22 24 25 -9 -27 -28 29 -29
right_child=1 16 -4 21 5 6 8 9 11 -11 13 -13 -14 14 15 18 17 -19 -20 -21 22 -23 -24 -25 -26 26 27 28 -30 -31
leaf_value=-2.9732766949612164 0.56084026556745814 0.027127707004547121 1.1885567112803861 0.27802216601788898 -1.8014440240531133 -1.7370684199272448 -0.79138976180416243 0.35878455544956389 -2.9858253168372011 -1.8604635113477705 -1.120590718071182 -0.66957444422325851 3.6748943155462097 -1.1739011923854168 2.6632250768167003 0.50596393642247917 -4.2992809611558913 -0.51906172614544632 -0.8910723398345104 -0.19770609197114219 0.0087193554876418746 -0.19847031405790361 1.8574126337255752 1.3330188069354607 -0.10982550066039781 -3.075271542867025 1.2985680813006326 -0.03862806313971455 0.36161343984768479 -0.78178607951248846
leaf_weight=23 32 151 297 2138 29 157 391 1309 52 45 77 59 22 52 27 349 20 64 69 1177 1321 523 28 54 2473 24 102 1253 612 279
leaf_count=23 32 151 297 2138 29 157 391 1309 52 45 77 59 22 52 27 349 20 64 69 1177 1321 523 28 54 2473 24 102 1253 612 279
internal_value=0 0.324451 0.531321 -0.031236 -0.0923492 -0.310621 -0.549903 0.0212768 -0.438893 0.0324741 0.220495 -1.75466 1.82953 0.0691222 0.253444 0.420235 -0.489827 -1.41911 0.275353 -0.345748 0.00818864 0.184371 0.047091 0.0464247 0.0349448 0.134978 0.00591875 0.0388433 -0.0210876 -0.173968
internal_weight=0 1160 925 12049 9388 3214 1836 6174 1679 6151 628 111 54 574 497 445 235 84 418 1568 1378 2661 1349 6106 6052 3579 2270 2246 2144 1532
internal_count=13209 1160 925 12049 9388 3214 1836 6174 1679 6151 628 111 54 574 497 445 235 84 418 1568 1378 2661 1349 6106 6052 3579 2270 2246 2144 1532
is_linear=0
shrinkage=0.1


Tree=43
num_leaves=31
num_cat=0
split_feature=7 7 7 8 1 1 4 8 2 1 2 4 2 2 6 6 2 2 1 1 2 11 2 3 6 2 2 9 2 9
split_gain=12206.2 9280.24 8293.59 11531.3 8948.78 7208.05 8800.34 13709.9 7931.23 7763.99 6854.81 6827.16 19973.6 9233.83 6952.12 8358.08 6719.82 7080.2 7267.08 6161.67 5951 12277.4 7748.75 7227.45 7028.54 6934.11 6710.33 6275.36 7750.12 6100.64
threshold=4.5000000000000009 3.5000000000000004 5.5000000000000009 103.01666650000001 198676.00000000003 147250.00000000003 2.5000000000000004 70.291666500000005 4.7956284691041686 54404.000000000007 5.1242814483797234 1.0000000180025095e-35 9.3790758870137036 7.4641215110559695 11.500000000000002 3.5000000000000004 5.4613818581640041 5.1242814867597435 34013.000000000007 23906.000000000004 9.7161762927659847 1.0000000180025095e-35 10.299623777239857 4.5000000000000009 3.5000000000000004 8.4641215484391719 8.7983680995982034 1.0000000180025095e-35 9.296884079737092 1.0000000180025095e-35
decision_type=2 2 2 2 2 2 2 2 2 2 2 2 2 2 2 2 2 2 2 2 2 2 2 2 2 2 2 2 2 2
left_child=1 -1 20 5 16 8 7 -7 9 -4 -10 13 19 -12 15 -15 17 18 -5 -13 21 25 -22 24 -24 29 -27 28 -28 -2
right_child=2 -3 3 4 -6 6 -8 -9 10 -11 11 12 -14 14 -16 -17 -18 -19 -20 -21 22 -23 23 -25 -26 26 27 -29 -30 -31
leaf_value=0.045154649952283125 -0.029453701306053993 -0.20047003117234594 -1.5450408631684009 1.5027052908473546 -1.4074447512626649 0.015718286037445069 -0.16733900984128317 -3.4123083233833316 0.9134921825198985 0.19850616852442426 1.7848680309454601 -1.6555572303136192 -3.1943024704853697 0.35844848409612129 0.97942385371051621 -0.3165237493430974 0.1254839090220706 1.8684429670489113 0.0055815087631344799 -0.1878232909460531 1.268918305371715 1.425507983779283 0.92342178951948883 0.61756720371948659 -0.82106402078306828 -1.0983399962804403 1.5973899986062732 -0.43111429731699008 -0.50704376896222436 0.33214251096010938
leaf_weight=2607 787 3752 74 45 36 20 60 28 67 39 30 30 24 282 67 525 1964 43 116 614 113 74 32 258 83 83 42 138 30 1146
leaf_count=2607 787 3752 74 45 36 20 60 28 67 39 30 30 24 282 67 525 1964 43 116 614 113 74 32 258 83 83 42 138 30 1146
internal_value=0 -0.0997713 0.0926198 0.0015153 0.156259 -0.181848 -0.974728 -1.98396 -0.132971 -0.943286 -0.0771047 -0.119325 -0.361757 0.0598174 0.000605151 -0.0806598 0.182224 0.728491 0.424032 -0.256196 0.225516 0.158333 0.543459 0.323682 -0.335642 0.116208 -0.337123 -0.0362605 0.720543 0.184923
internal_weight=0 6359 6850 4064 2204 1860 108 48 1752 113 1639 1572 668 904 874 807 2168 204 161 644 2786 2300 486 373 115 2226 293 210 72 1933
internal_count=13209 6359 6850 4064 2204 1860 108 48 1752 113 1639 1572 668 904 874 807 2168 204 161 644 2786 2300 486 373 115 2226 293 210 72 1933
is_linear=0
shrinkage=0.1


Tree=44
num_leaves=31
num_cat=0
split_feature=6 6 2 2 2 2 2 8 6 3 8 2 2 4 4 8 1 1 2 6 2 2 2 2 2 6 4 2 1 2
split_gain=11243.3 17370.8 15940.4 15302.4 15802.4 15516.7 13943.8 13227.1 12674.6 12639.4 11638.9 11247.6 10372.3 10042.1 19556.7 16706.8 15014.2 9592.49 9213.99 14172.1 16376.9 15988 11783.9 7504.39 10240.6 7585.17 7088.06 12286.7 6865.14 6785.71
threshold=4.5000000000000009 9.5000000000000018 13.968231019372931 11.968231042750487 12.466861176545027 10.299623777239857 10.050308734642043 107.70833300000002 1.5000000000000002 4.5000000000000009 71.933333000000019 10.050308904811882 10.050308714511681 1.0000000180025095e-35 4.5000000000000009 59.466666500000009 48813.000000000007 114699.50000000001 7.7161763866714717 6.5000000000000009 6.7983681081690808 6.8832996969317231 6.9654914526959741 7.5463134308430844 7.8832997149488522 7.5000000000000009 2.5000000000000004 8.296884110633977 177020.50000000003 6.2119526711912831
decision_type=2 2 2 2 2 2 2 2 2 2 2 2 2 2 2 2 2 2 2 2 2 2 2 2 2 2 2 2 2 2
left_child=8 13 3 5 -5 6 7 28 26 -4 11 12 29 16 -15 -16 23 -11 19 20 -17 -21 -23 -2 -25 -26 -1 -28 -3 -10
right_child=1 2 9 4 -6 -7 -8 -9 10 17 -12 -13 -14 14 15 18 -18 -19 -20 21 -22 22 -24 24 25 -27 27 -29 -30 -31
leaf_value=0.1105372195240731 1.1685100119649654 0.066642351287727553 -2.8395296454429628 2.0877606765378878 0.36096511980206336 -0.45464541258506996 1.6003225509239281 0.69662736985000207 0.34757875560976742 -1.3262502914383298 0.41859003060920152 0.37098899074622876 -2.3723057305812838 -1.037226781732447 -3.0903185558319093 -0.64687674293131803 -0.16372694950255592 1.089676661182333 -0.69856035838208874 0.41373632269683691 0.49977071957710467 -1.9723028434647454 -0.19830360753887705 -1.2010739330450695 0.69412136486452414 -0.1926390550778927 -0.25759774411330422 -1.7877562517749852 -1.7106184493411671 -0.19640068880057238
leaf_weight=480 105 1800 30 79 161 430 69 376 293 42 1562 746 20 336 20 618 2445 27 299 691 156 45 223 45 277 148 551 58 22 1055
leaf_count=480 105 1800 30 79 161 430 69 376 293 42 1562 746 20 336 20 618 2445 27 299 691 156 45 223 45 277 148 551 58 22 1055
internal_value=0 -0.0693059 0.122121 0.164191 0.929369 0.0960991 0.200563 0.156622 0.122816 -1.12593 0.211585 0.0586327 -0.111702 -0.176771 -0.330014 -0.214213 -0.0555981 -0.380888 -0.185905 -0.0974548 -0.41577 0.159454 -0.496177 0.404185 0.233431 0.38532 -0.17683 -0.403327 0.0451826 -0.0781618
internal_weight=0 8444 3036 2937 240 2697 2267 2198 4765 99 3676 2114 1368 5408 2388 2052 3020 69 2032 1733 774 959 268 575 470 425 1089 609 1822 1348
internal_count=13209 8444 3036 2937 240 2697 2267 2198 4765 99 3676 2114 1368 5408 2388 2052 3020 69 2032 1733 774 959 268 575 470 425 1089 609 1822 1348
is_linear=0
shrinkage=0.1


Tree=45
num_leaves=31
num_cat=0
split_feature=4 4 2 2 1 4 2 1 2 1 2 6 2 0 1 1 2 2 8 2 6 2 2 1 0 1 0 8 6 6
split_gain=10220.6 25693 22193.6 19169.5 17976.8 14180.4 10706.9 11562.7 10505.1 11528.2 9363.46 9735.91 16534.6 12119.2 11092.4 9640.39 9370.87 9084.22 8206.21 8104.24 8160.23 11763.5 10402.8 7765.81 7423.18 10388.5 7697.49 15777.4 7384.09 8264.63
threshold=7.5000000000000009 1.0000000180025095e-35 7.2968841469192958 5.2941444583635491 23037.000000000004 3.5000000000000004 8.2119526420174491 98811.500000000015 10.381815559263739 156137.00000000003 15.21743193982473 5.5000000000000009 7.3790759424816263 1998.5000000000002 69512.500000000015 210881.50000000003 6.6312448966303483 14.72165568355223 109.60003963333334 5.2092129868089687 7.5000000000000009 6.9654915553372323 5.5435736883615769 141421.00000000003 2494.5000000000005 84523.500000000015 1998.5000000000002 109.60003963333334 9.5000000000000018 3.5000000000000004
decision_type=2 2 2 2 2 2 2 2 2 2 2 2 2 2 2 2 2 2 2 2 2 2 2 2 2 2 2 2 2 2
left_child=1 3 5 4 -1 -3 28 -8 -4 -10 11 13 14 16 -13 17 -5 24 -18 -7 21 -21 -22 -19 26 -26 -14 -28 29 -2
right_child=6 2 8 10 -6 19 7 -9 9 -11 -12 12 15 -15 -16 -17 18 23 -20 20 22 -23 -24 -25 25 -27 27 -29 -30 -31
leaf_value=-0.34122998277346295 0.39615166688841308 -1.5951170630753042 -0.61777685676862404 -1.3557349588812853 -4.2117146974802022 0.1814030431338324 -1.1762061959453698 0.43025207989019898 -3.2552844358213022 -0.63154216431738708 -0.87566460671962487 1.6531551223862302 -0.047149420472050826 0.73443397158350709 -0.94783639907836914 -2.0518409997224807 0.1402396685355882 -1.638366718120092 1.2775286756226649 -0.58516561027394232 1.3365683693310311 0.23721908940810021 -0.064312489834529432 0.58661709512983051 -0.10198420971406229 -2.1952405618654716 0.57974811815861282 -1.8385501606711026 0.5173480920713418 -0.031832839059872463
leaf_weight=30 716 64 762 41 20 768 116 73 33 34 102 91 3077 399 20 24 2653 62 65 755 58 226 616 21 66 37 387 29 644 1220
leaf_count=30 716 64 762 41 20 768 116 73 33 34 102 91 3077 399 20 24 2653 62 65 755 58 226 616 21 66 37 387 29 644 1220
internal_value=0 -0.0453016 -0.27524 0.0617276 -1.88942 -0.125876 0.170801 -0.555722 -0.723333 -1.92383 0.0755186 0.0894344 -0.0180946 0.2193 1.18451 -0.0541434 0.144802 -0.0411114 0.167438 -0.0870683 -0.211652 -0.395707 0.0562381 -1.07542 -0.0172383 -0.853931 0.00743367 0.411165 0.224024 0.126451
internal_weight=0 10440 3316 7124 50 2487 2769 189 829 67 7074 6972 3814 3158 111 3703 2759 3679 2718 2423 1655 981 674 83 3596 103 3493 416 2580 1936
internal_count=13209 10440 3316 7124 50 2487 2769 189 829 67 7074 6972 3814 3158 111 3703 2759 3679 2718 2423 1655 981 674 83 3596 103 3493 416 2580 1936
is_linear=0
shrinkage=0.1


Tree=46
num_leaves=31
num_cat=0
split_feature=0 3 11 2 4 1 8 2 2 4 2 8 4 4 7 1 6 2 6 2 2 3 0 2 6 1 2 2 8 6
split_gain=9352.82 13203.9 8121.03 21738.1 17391.2 7753.38 7229.12 8682.93 11930.6 27194.5 10719.8 10308.5 14794.2 12186.2 8831.43 8220.78 7223.27 12312.3 10963.3 10487.4 12621.3 10598.8 10222.9 8264.67 7923.7 10078.2 8483.57 8307.61 7314.54 18933
threshold=1689.5000000000002 3.5000000000000004 1.0000000180025095e-35 9.2119526619519281 1.0000000180025095e-35 97915.500000000015 72.65011893333336 9.6312448253757559 7.5463134308430844 2.5000000000000004 8.2119527262550402 59.466666500000009 2.5000000000000004 4.5000000000000009 2.5000000000000004 96121.000000000015 3.5000000000000004 12.968231021076029 9.5000000000000018 4.2092129864428882 4.4613819250313282 5.5000000000000009 1795.5000000000002 15.21743193982473 2.5000000000000004 40050.000000000007 11.549053021000342 8.7161763284710307 112.82142850000001 5.5000000000000009
decision_type=2 2 2 2 2 2 2 2 2 2 2 2 2 2 2 2 2 2 2 2 2 2 2 2 2 2 2 2 2 2
left_child=6 -2 16 4 -4 -6 7 8 11 10 -10 12 -1 -13 -9 -12 17 19 23 -3 -21 22 -22 28 25 -24 -27 -26 -18 -30
right_child=1 2 3 -5 5 -7 -8 14 9 -11 15 13 -14 -15 -16 -17 18 -19 -20 20 21 -23 24 -25 27 26 -28 -29 29 -31
leaf_value=2.7129998766142749 -2.1310750578130997 1.0395661797171289 3.2782198870883272 -0.45115151915412688 1.2157632827221811 -0.37939946154753368 -1.3644823897118663 -1.3073001464775631 -1.068632003656357 -2.9513466386084861 0.10957902067404793 -0.78193752948124462 0.20600936303436757 0.0097621970373677897 0.34398841020835713 -1.3618615951050412 -0.06766605674184048 0.70577544513377344 0.15161452678821991 -1.9637038292423374 -0.7823252219969119 1.702127600938846 0.55970867998686369 -1.4374688055204308 0.64235266734036467 -0.25937209463135785 0.79157105253403448 0.016706423142442653 -1.9818943836622769 0.042273449932419979
leaf_weight=29 28 110 34 130 111 42 51 35 173 47 277 265 125 730 434 44 5050 366 2487 31 142 39 220 46 428 1030 83 421 72 129
leaf_count=29 28 110 34 130 111 42 51 35 173 47 277 265 125 730 434 44 5050 366 2487 31 142 39 220 46 428 1030 83 421 72 129
internal_value=0 0.0377186 0.0432538 0.542034 1.23248 0.777875 -0.187723 -0.159925 -0.26557 -0.652782 -0.434093 -0.083254 0.678105 -0.201093 0.220758 -0.0921138 0.028413 0.164017 -0.0215847 0.0848297 0.0409613 0.0672603 0.039825 -0.102904 0.0933288 -0.0587524 -0.181 0.332109 -0.0912125 -0.682802
internal_weight=0 10999 10971 317 187 153 2210 2159 1690 541 494 1149 154 995 469 321 10654 2870 7784 2504 2394 2363 2324 5297 2182 1333 1113 849 5251 201
internal_count=13209 10999 10971 317 187 153 2210 2159 1690 541 494 1149 154 995 469 321 10654 2870 7784 2504 2394 2363 2324 5297 2182 1333 1113 849 5251 201
is_linear=0
shrinkage=0.1


Tree=47
num_leaves=31
num_cat=0
split_feature=7 7 7 8 1 4 2 2 1 1 2 2 0 2 0 2 2 1 1 6 1 1 1 6 7 9 2 1 6 8
split_gain=8660.5 7193.92 6745.05 8283.65 7912.81 12278 5693.17 7448.45 6597.45 4757.26 4675.13 5204.81 6836.73 6544.22 11899.1 8734.97 12817 10843.7 5606.15 8470.61 5038.72 4996.18 4828.91 5421.01 4636.86 7549.5 7069.55 5593.42 5425.5 5485.24
threshold=4.5000000000000009 3.5000000000000004 5.5000000000000009 107.38750000000002 182173.00000000003 2.5000000000000004 4.7956284691041686 5.4613819270906108 54404.000000000007 16131.500000000002 4.2092129864428882 12.129760767337375 2494.5000000000005 10.466861231233521 1998.5000000000002 11.886039304599388 10.718915965786598 69109.500000000015 64953.000000000007 3.5000000000000004 52203.000000000007 50243.500000000007 63056.000000000007 5.5000000000000009 1.0000000180025095e-35 1.0000000180025095e-35 12.968231021076029 69804.000000000015 8.5000000000000018 70.642856500000008
decision_type=2 2 2 2 2 2 2 2 2 2 2 2 2 2 2 2 2 2 2 2 2 2 2 2 2 2 2 2 2 2
left_child=1 9 -2 6 10 -6 8 -8 -4 -1 20 13 22 -12 -15 16 -16 21 -14 -20 -5 -18 -13 -24 25 27 28 -11 29 -26
right_child=2 -3 3 4 5 -7 7 -9 -10 24 11 12 18 14 15 -17 17 -19 19 -21 -22 -23 23 -25 26 -27 -28 -29 -30 -31
leaf_value=1.5799123001098634 0.19786511929592082 -0.17270022104167246 -1.3945494263558775 2.1638350188732147 -2.9475252526147027 0.22744282432671251 0.61691386066377163 -0.16197604582157407 0.19947385966777803 0.062007706287579657 0.17784800688237823 -0.044682605821510846 1.1089593807856242 -0.84067532379624144 -1.286450232778277 -1.304803527040141 1.2648543701171875 0.26166807523140539 -2.4697861364483837 0.050721016377210618 0.0146890327334404 3.3070884963740479 1.5894000241922779 0.5316997954168835 -0.29423600731806826 0.2521946331274878 0.67309367710014412 -1.3871628753840923 0.24231841085957484 0.096097398755839725
leaf_weight=20 2786 3752 74 24 21 29 132 1757 40 39 1269 58 21 193 28 28 25 65 20 40 20 23 86 111 689 97 181 84 743 754
leaf_count=20 2786 3752 74 24 21 29 132 1757 40 39 1269 58 21 193 28 28 25 65 20 40 20 23 86 111 689 97 181 84 743 754
internal_value=0 -0.0840403 0.0780164 -0.00414373 0.136602 -1.10604 -0.148965 -0.107549 -0.835243 0.0435593 0.167498 0.144694 0.503086 0.0708624 -0.304179 0.308507 0.628881 1.10348 -0.297268 -0.789448 1.18695 2.24342 0.757316 0.993437 0.0316818 -0.407457 0.0724974 -0.92767 0.0227683 -0.090278
internal_weight=0 6359 6850 4064 2061 50 2003 1889 114 2607 2011 1967 336 1631 362 169 141 113 81 60 44 48 255 197 2587 220 2367 123 2186 1443
internal_count=13209 6359 6850 4064 2061 50 2003 1889 114 2607 2011 1967 336 1631 362 169 141 113 81 60 44 48 255 197 2587 220 2367 123 2186 1443
is_linear=0
shrinkage=0.1


Tree=48
num_leaves=31
num_cat=0
split_feature=0 0 2 11 10 2 4 1 8 4 4 4 2 1 2 2 4 0 2 2 4 7 2 4 1 2 8 1 6 2
split_gain=7556.99 13495 14180.8 10205.5 9515.34 9134.39 8633.17 8026.54 7345.49 7279.73 14427.8 15948.3 13910.5 14599.6 10687.6 7164.68 6944.4 6421.54 6034.2 10091.7 10752.2 7910.2 10904 6763.66 6305.19 6005.7 6406.91 5886.91 5505.59 8604.56
threshold=1998.5000000000002 2428.0000000000005 6.7983682151312976 1.0000000180025095e-35 1.0000000180025095e-35 15.594258413171639 3.5000000000000004 164749.50000000003 111.21428550000002 7.5000000000000009 1.0000000180025095e-35 4.5000000000000009 5.3763362645374375 23037.000000000004 9.296884130440171 7.7161764935912407 3.5000000000000004 1795.5000000000002 7.9654914472085858 8.6312448479596107 6.5000000000000009 3.5000000000000004 9.9654913660693367 6.5000000000000009 37146.000000000007 11.718915950059545 97.499999500000015 31030.500000000004 7.5000000000000009 8.3790758901694051
decision_type=2 2 2 2 2 2 2 2 2 2 2 2 2 2 2 2 2 2 2 2 2 2 2 2 2 2 2 2 2 2
left_child=3 6 4 5 -3 9 25 18 -5 10 12 14 13 -1 16 -13 -12 -17 23 -20 21 22 -21 -4 27 -2 -27 -23 29 -14
right_child=1 2 7 8 -6 -7 -8 -9 -10 -11 11 15 28 -15 -16 17 -18 -19 19 20 -22 24 -24 -25 -26 26 -28 -29 -30 -31
leaf_value=-0.2838447641581297 0.22417056586620585 0.34346352983266115 -1.9823973757379196 0.4099612895203264 2.9472455196380616 -1.4558039988411799 -1.3066027800242106 -2.0825107778821672 2.0661775943636895 0.11849994989051574 -1.4591076701487367 -0.042823570880554912 0.48966530674500358 -3.728001104593277 -2.3395084394727435 -2.155888385163701 -0.45150491681374744 -0.42389816538608582 1.0852866324939228 -0.061470502987504005 -2.1736135345697405 0.15754127994827605 -3.0379621765017513 -0.015647181537416247 -0.03126199032593651 -0.33175131707422195 1.189157406911254 2.5033854681253436 -0.082473707872372515 0.049135848951357752
leaf_weight=32 137 32 34 114 25 45 21 21 35 2627 76 2032 518 20 35 23 684 309 76 32 25 23 20 36 367 31 260 20 2421 3078
leaf_count=32 137 32 34 114 25 45 21 21 35 2627 76 2032 518 20 35 23 684 309 76 32 25 23 20 36 367 31 260 20 2421 3078
internal_value=0 0.243773 -0.0272748 -0.0234689 1.48547 -0.0337671 0.672983 -0.15912 0.799005 -0.0283693 -0.0701796 -0.243492 0.0200321 -1.60852 -0.630949 -0.113193 -0.552265 -0.543885 -0.0953107 0.013558 -0.153693 -0.0443902 -1.20627 -0.970926 0.102971 0.770112 1.02714 1.24863 0.0341064 0.112594
internal_weight=0 1160 711 12049 57 11900 449 654 149 11855 9228 3159 6069 52 795 2364 760 332 633 563 487 462 52 70 410 428 291 43 6017 3596
internal_count=13209 1160 711 12049 57 11900 449 654 149 11855 9228 3159 6069 52 795 2364 760 332 633 563 487 462 52 70 410 428 291 43 6017 3596
is_linear=0
shrinkage=0.1


Tree=49
num_leaves=31
num_cat=0
split_feature=6 6 2 2 2 2 2 3 6 8 1 8 2 2 2 4 8 4 1 1 1 2 6 2 2 2 8 8 2 2
split_gain=6778.2 10874.3 11212.4 12048.1 13225.6 11435.2 11579.5 9534.41 8931.07 8847.33 7780.12 6865.55 8177.63 8484.82 6639.54 6567.82 11781.5 11341.1 10643.2 6324.83 8472.26 5827.27 12826.2 13870.9 9319.59 10595.1 5957.49 11988.2 5644.33 7908.49
threshold=4.5000000000000009 9.5000000000000018 13.968231019372931 11.968231042750487 13.129760711206272 10.299623777239857 10.050308734642043 4.5000000000000009 1.5000000000000002 107.70833300000002 114699.50000000001 71.933333000000019 10.050308904811882 10.050308714511681 10.129760786197656 1.0000000180025095e-35 59.466666500000009 4.5000000000000009 48813.000000000007 108316.50000000001 145101.00000000003 7.2119526654166028 6.5000000000000009 6.8832996799049582 6.8832996969317231 6.9654914526959741 107.70833300000002 112.82142850000001 6.2119526711912831 6.9654915553372323
decision_type=2 2 2 2 2 2 2 2 2 2 2 2 2 2 2 2 2 2 2 2 2 2 2 2 2 2 2 2 2 2
left_child=8 15 3 5 19 6 9 -4 -1 -3 -9 12 13 28 -14 18 -17 -18 -2 -5 -21 22 23 -19 26 -26 -24 -28 -10 -30
right_child=1 2 7 4 -6 -7 -8 10 11 -11 -12 -13 14 -15 -16 16 17 21 -20 20 -22 -23 24 -25 25 -27 27 -29 29 -31
leaf_value=-0.15617279775245707 0.34626945625472327 0.031005421923892624 -2.4373857392867411 1.7687651092673207 -0.16373871271075174 -0.40028431946714954 1.4377721162809842 -1.1533702386654026 0.32578465121801398 0.56379033338991891 1.0223900212181938 0.32886231392180781 2.0716489485331944 -2.1374370908737186 0.26796733500423103 -2.3798442029036009 -0.78320727357132869 -0.5573193667587012 -0.13188308135465412 -1.1576591123640536 1.7181959856124154 -0.49322054161410778 0.19008245015995223 0.65999907081777398 -1.7620153187960388 -0.022752580379100541 1.6810991538374613 0.035108206789432599 -0.68744464655572068 -0.02537519950408362
leaf_weight=1089 575 1822 30 111 88 430 69 42 293 376 27 1562 21 20 725 26 330 628 2445 20 21 400 514 110 45 158 89 88 231 824
leaf_count=1089 575 1822 30 111 88 430 69 42 293 376 27 1562 21 20 725 26 330 628 2445 20 21 400 514 110 45 158 89 88 231 824
internal_value=0 -0.0538121 0.0976467 0.132929 0.811887 0.0725106 0.162189 -0.949077 0.0953597 0.122146 -0.301986 0.169875 0.0524022 -0.0928382 0.318741 -0.13884 -0.26277 -0.239466 -0.0408441 1.37672 0.31534 -0.151162 -0.0673239 -0.375876 0.187387 -0.408303 0.362387 0.862753 -0.0625029 -0.17034
internal_weight=0 8444 3036 2937 240 2697 2267 99 4765 2198 69 3676 2114 1368 746 5408 2388 2362 3020 152 41 2032 1632 738 894 203 691 177 1348 1055
internal_count=13209 8444 3036 2937 240 2697 2267 99 4765 2198 69 3676 2114 1368 746 5408 2388 2362 3020 152 41 2032 1632 738 894 203 691 177 1348 1055
is_linear=0
shrinkage=0.1


Tree=50
num_leaves=31
num_cat=0
split_feature=7 7 0 7 8 1 0 1 1 8 1 2 7 9 2 3 2 2 1 2 1 2 6 1 2 0 1 2 2 2
split_gain=6406.27 5862.37 5834.07 6641.34 5799.3 5483.52 4669.4 7804.24 7925.91 6240.3 5406.55 6652.94 4833.56 10728.9 5897.07 4862.24 4472.86 6079.55 5658.08 8541.64 4416.77 4388.67 4341.6 4221.9 5901.29 5097.24 4982.07 4320.37 4672.3 4216.1
threshold=4.5000000000000009 5.5000000000000009 2494.5000000000005 3.5000000000000004 107.38750000000002 164749.50000000003 1998.5000000000002 60003.000000000007 77193.000000000015 112.82142850000001 91541.000000000015 14.053048370280708 1.0000000180025095e-35 1.0000000180025095e-35 14.053048402185794 4.5000000000000009 4.7956284691041686 5.4613819270906108 23037.000000000004 4.2092129864428882 48813.000000000007 11.968231042750487 1.5000000000000002 60363.500000000007 5.7134367640979331 1998.5000000000002 126405.50000000001 6.2119526865602577 5.8805600332417347 9.7983680619662632
decision_type=2 2 2 2 2 2 2 2 2 2 2 2 2 2 2 2 2 2 2 2 2 2 2 2 2 2 2 2 2 2
left_child=2 29 3 6 16 -6 9 -8 -9 12 -10 -12 13 -1 22 -15 18 -18 -3 -20 -21 -7 -14 24 -19 27 -27 28 -25 -2
right_child=1 4 -4 -5 5 21 7 8 10 -11 11 -13 14 15 -16 -17 17 23 19 20 -22 -23 -24 25 -26 26 -28 -29 -30 -31
leaf_value=-1.3715896648027608 0.12355585232832267 -2.266291346848011 -1.2331354834312618 -0.14995475096531433 0.14168043967550178 -0.18309923921312607 1.7378834480463075 -1.2687059106497929 1.9164156496524811 -1.115887425839901 -0.77290076468930102 1.5039629422482992 -0.42970235333369494 1.4970779356749162 0.87992570773181 -0.16757748715478826 0.56055304308167908 -1.1076441873203624 0.88202288295283471 -2.10240319279524 -0.38173729334558759 -1.7352348760322291 0.09565547825692719 -0.41066379802567621 0.082193010252420651 0.02803468263312562 1.809469946138561 -0.42179992339246009 1.7249980396404863 0.45260905698578591
leaf_weight=74 2318 20 43 3723 1978 56 43 29 24 47 33 21 171 23 90 74 132 44 33 26 35 27 1964 21 792 73 20 787 20 468
leaf_count=74 2318 20 43 3723 1978 56 43 29 24 47 33 21 171 23 90 74 132 44 33 26 35 27 1964 21 792 73 20 787 20 468
internal_value=0 0.0670991 -0.0722801 -0.0643769 -0.00949666 0.108267 0.0584949 0.600053 0.142794 0.0252433 0.667583 0.112546 0.0476277 -0.464711 0.087003 0.227135 -0.130671 -0.0939603 -0.738968 -0.414006 -1.11514 -0.688011 0.0535776 -0.143133 0.01957 -0.290819 0.411139 -0.369662 0.631122 0.178831
internal_weight=0 6850 6359 6316 4064 2061 2593 150 107 2443 78 54 2396 171 2225 97 2003 1889 114 94 61 83 2135 1757 836 921 93 828 41 2786
internal_count=13209 6850 6359 6316 4064 2061 2593 150 107 2443 78 54 2396 171 2225 97 2003 1889 114 94 61 83 2135 1757 836 921 93 828 41 2786
is_linear=0
shrinkage=0.1


Tree=51
num_leaves=31
num_cat=0
split_feature=4 4 2 2 1 4 2 2 1 3 6 2 2 1 0 2 2 1 1 2 2 6 0 1 0 1 2 8 6 2
split_gain=5872.38 15278.6 14535.7 12096.9 11621.2 8890.83 8837.31 6628.25 9626.93 5631.87 5682.83 13129.7 9403.62 8816.49 6730.86 6555.56 6676.14 7101.68 6404.51 6221.79 21144.8 25095.7 9238.46 9967.12 6019.49 7481.16 5875.27 7733.32 7699.25 7303.5
threshold=7.5000000000000009 1.0000000180025095e-35 7.2968841469192958 5.3763362645374375 23037.000000000004 3.5000000000000004 9.7161763131117542 10.381815559263739 142912.00000000003 5.5000000000000009 5.5000000000000009 7.3790759424816263 6.6312448966303483 69512.500000000015 1998.5000000000002 7.4641216424348622 14.72165568355223 210881.50000000003 82571.000000000015 8.296884110633977 8.9654914596575548 3.5000000000000004 1795.5000000000002 25640.500000000004 2494.5000000000005 84523.500000000015 10.299623797032437 72.65011893333336 4.5000000000000009 12.053048380238801
decision_type=2 2 2 2 2 2 2 2 2 2 2 2 2 2 2 2 2 2 2 2 2 2 2 2 2 2 2 2 2 2
left_child=1 3 5 4 -1 -3 -2 -4 -9 10 12 13 -5 -12 19 -13 17 24 -18 22 21 -21 -14 -24 -17 -26 28 -28 -22 -29
right_child=6 2 7 9 -6 -7 -8 8 -10 -11 11 15 14 -15 -16 16 18 -19 -20 20 26 -23 23 -25 25 -27 27 29 -30 -31
leaf_value=-0.28960444740951063 0.14816412733593706 -1.2541506227571517 -0.49044494994395366 -1.4138498808208266 -3.36242174744606 -0.060046369530380873 -1.5775343166664244 -3.0331434158178476 -0.57332681272088026 1.0082656374862118 1.5062051892800388 -1.8241144396009901 -0.28159425400764398 -0.82476387739181511 0.55248531600026263 0.0067462904490298544 -2.2037950196266176 -1.7417042049268883 -0.41250342329343159 -0.02397393406583713 0.2336627419986404 -2.0789284657686951 -0.66057198047637944 1.2403807441748325 -0.13093430964676595 -1.9072913695026088 0.20567166828500327 -0.88167901785209257 1.0512180976782526 -0.030988220711160138
leaf_weight=32 2739 64 762 38 20 2423 30 26 41 62 86 21 92 20 399 3453 25 24 99 156 650 96 33 168 66 37 930 145 140 332
leaf_count=32 2739 64 762 38 20 2423 30 26 41 62 86 21 92 20 399 3453 25 24 99 156 650 96 33 168 66 37 930 145 140 332
internal_value=0 -0.0343387 -0.211654 0.0481962 -1.47146 -0.0907752 0.129468 -0.574291 -1.52788 0.0593701 0.0509776 -0.031041 0.149818 1.0664 0.168735 -0.0622702 -0.0522813 -0.0272954 -0.773651 0.112894 0.0607911 -0.806814 0.548391 0.928284 -0.0157246 -0.769043 0.160307 0.0377705 0.378546 -0.289584
internal_weight=0 10440 3316 7124 52 2487 2769 829 67 7072 7010 3831 3179 106 3141 3725 3704 3580 124 2742 2449 252 293 201 3556 103 2197 1407 790 477
internal_count=13209 10440 3316 7124 52 2487 2769 829 67 7072 7010 3831 3179 106 3141 3725 3704 3580 124 2742 2449 252 293 201 3556 103 2197 1407 790 477
is_linear=0
shrinkage=0.1


Tree=52
num_leaves=31
num_cat=0
split_feature=0 3 2 2 2 4 8 8 7 4 1 7 6 2 6 2 2 2 6 8 8 2 8 6 1 8 2 2 0 7
split_gain=5603.49 9761.52 6423.45 6640.19 17611.3 12900.2 8686.52 8286.48 7478.54 10976 6056.17 6044.58 4794.78 7962.25 5740.27 8761.36 10850.8 11284.5 10726.5 9696.78 8417.34 7269.66 7137.07 14235.3 6808.86 6120.54 5747.68 5564.39 4670.77 12680.2
threshold=1689.5000000000002 3.5000000000000004 5.2092129650939549 8.4641215795616063 7.7161763466338966 2.5000000000000004 72.65011893333336 59.466666500000009 4.5000000000000009 3.5000000000000004 14895.000000000002 2.5000000000000004 11.500000000000002 5.5435736883615769 3.5000000000000004 12.968231021076029 11.886039263667785 12.053048380238801 2.5000000000000004 70.291666500000005 97.499999500000015 12.214692233274418 112.82142850000001 5.5000000000000009 151260.00000000003 111.21428550000002 13.21469222203975 4.2092129864428882 2494.5000000000005 4.5000000000000009
decision_type=2 2 2 2 2 2 2 2 2 2 2 2 2 2 2 2 2 2 2 2 2 2 2 2 2 2 2 2 2 2
left_child=2 -2 -1 4 7 -6 11 -4 9 -9 -3 -5 14 -14 15 16 18 -18 19 -12 21 -19 28 -24 27 -20 -17 -21 -16 -30
right_child=1 10 3 6 5 -7 -8 8 -10 -11 12 -13 13 -15 22 26 17 20 25 24 -22 -23 23 -25 -26 -27 -28 -29 29 -31
leaf_value=0.32885506880090465 -1.83557830623218 0.6485941586827364 0.45983563833404334 -1.0997338079966796 -0.81550239499915278 -2.9573118345811964 -1.2521504029035571 -2.5835928111076356 0.10605442207110556 -0.42875799532971143 1.6708817481994629 0.18041546285563315 0.95942245102418 0.1208995190185333 -0.011522789094195405 1.6658120648805488 -1.7864090786925679 0.59259551625985363 0.35203244904030678 0.98097856667111916 0.45826204680666632 -1.3512181434276942 -1.7563674276073773 -0.064825807419252687 -1.1503054573618134 1.9707024621466798 0.43577990891476892 -0.085062587123305722 -2.3361497595906258 -0.12523892241237808
leaf_weight=253 28 158 180 39 232 32 50 25 285 434 32 680 134 731 6654 43 58 26 876 51 98 74 72 161 58 24 326 1226 32 137
leaf_count=253 28 158 180 39 232 32 50 25 285 434 32 680 134 731 6654 43 58 26 876 51 98 74 72 161 58 24 326 1226 32 137
internal_value=0 0.0291954 -0.145303 -0.206602 -0.354803 -1.07512 0.0223477 -0.148999 -0.296297 -0.546124 0.0339546 0.110978 0.0249735 0.250798 0.00533754 0.12399 0.0574262 -0.559706 0.127116 -0.0493828 -0.200369 -0.845827 -0.043294 -0.587534 -0.0906176 0.395197 0.579117 -0.0424877 -0.0247087 -0.543873
internal_weight=0 10999 2210 1957 1188 264 769 924 744 459 10971 719 10813 865 9948 2892 2523 256 2267 1367 198 100 7056 233 1335 900 369 1277 6823 169
internal_count=13209 10999 2210 1957 1188 264 769 924 744 459 10971 719 10813 865 9948 2892 2523 256 2267 1367 198 100 7056 233 1335 900 369 1277 6823 169
is_linear=0
shrinkage=0.1


Tree=53
num_leaves=31
num_cat=0
split_feature=11 2 4 1 0 2 0 2 4 2 1 1 2 2 2 4 2 2 3 1 1 2 2 7 1 1 1 6 1 1
split_gain=5418.42 12521.8 9455.95 6365.31 5329.25 16161.6 19026.6 10175.4 8319.51 10531.6 11032.3 9661.79 6338.49 5183.52 6640.29 10057 9575.4 8668.63 6442.7 6415.79 5167.48 5039.19 11862.4 10651.5 4952.32 10963.3 9610.42 6902.2 5738.36 10152.5
threshold=1.0000000180025095e-35 9.2119526619519281 1.0000000180025095e-35 97915.500000000015 1998.5000000000002 6.7161764060894908 2428.0000000000005 8.0503087232285342 6.5000000000000009 10.129760786197656 109001.00000000001 37146.000000000007 15.594258413171639 3.795628507060004 4.0475691395016051 6.5000000000000009 4.2092129864428882 4.6285052188314335 5.5000000000000009 9837.5000000000018 11946.500000000002 9.6312447890226611 9.2119525745996977 5.5000000000000009 113351.50000000001 89566.500000000015 98811.500000000015 4.5000000000000009 58433.500000000007 64297.000000000007
decision_type=2 2 2 2 2 2 2 2 2 2 2 2 2 2 2 2 2 2 2 2 2 2 2 2 2 2 2 2 2 2
left_child=4 2 -2 -4 12 -6 -7 -8 9 10 21 -11 13 -1 15 -15 -16 -18 19 -19 -21 22 -9 -23 25 28 -27 -26 -13 -30
right_child=1 -3 3 -5 5 6 7 8 -10 11 -12 24 -14 14 16 -17 17 18 -20 20 -22 23 -24 -25 27 26 -28 -29 29 -31
leaf_value=0.45453907943053828 2.4129303475788664 -0.34342328903073349 0.98767582760737838 -0.45766242146492009 2.892951043627479 0.70343323563274585 -1.4271880704848492 0.95366548396820239 -1.5526146313122342 1.5879516694856728 -1.335813906899205 -1.1596273988164192 -1.213200318184164 -2.5804136090278629 0.76226336920731952 -0.26825043348301397 -0.52740097761709237 -1.5988486079069286 0.65286062885607998 1.3556051142099832 -0.029548458460285129 2.918356525177757 -1.4839175946437395 0.5436907916092405 1.7711465352773665 -3.716659171125364 -0.78736981600523004 -0.59698361344635487 1.8317609367370604 -0.52033927095109145
leaf_weight=222 35 131 111 42 22 380 61 86 35 23 27 58 45 25 152 76 349 26 140 27 10838 30 26 51 20 21 24 32 25 69
leaf_count=222 35 131 111 42 22 380 61 86 35 23 27 58 45 25 152 76 349 26 140 27 10838 30 26 51 20 21 24 32 25 69
internal_value=0 0.407129 0.930121 0.590916 -0.0100756 0.212851 0.15194 -0.204467 -0.062938 0.0430349 0.557479 -0.373059 -0.0286216 -0.0241251 -0.0332598 -0.840568 -0.0261892 -0.0367203 -0.0211961 -0.0298609 -0.0261063 0.822344 0.387798 1.4232 -0.554197 -0.783322 -2.15437 0.313836 -0.37742 0.105219
internal_weight=0 319 188 153 12890 990 968 588 527 492 220 272 11900 11855 11633 101 11532 11380 11031 10891 10865 193 112 81 249 197 45 52 152 94
internal_count=13209 319 188 153 12890 990 968 588 527 492 220 272 11900 11855 11633 101 11532 11380 11031 10891 10865 193 112 81 249 197 45 52 152 94
is_linear=0
shrinkage=0.1


Tree=54
num_leaves=31
num_cat=0
split_feature=2 7 7 7 8 2 1 4 2 2 0 3 1 6 1 7 2 9 1 2 1 1 2 2 2 11 2 2 3 2
split_gain=5223.58 4887.05 4348.51 4329.87 5015.89 5284.44 4035.75 9170.88 3928.31 10799.9 7468.64 9693.97 5279.73 6485.68 3879.23 4379.34 6609.49 5054.52 7252.84 4012.32 3824.17 6815.82 3691.27 3391.14 7861.11 3588.39 4094.24 8046.54 5333.73 8200.05
threshold=1.0000000180025095e-35 4.5000000000000009 3.5000000000000004 5.5000000000000009 107.38750000000002 4.2092129864428882 182173.00000000003 2.5000000000000004 11.718915950059545 11.299623804815004 2494.5000000000005 4.5000000000000009 58840.000000000007 4.5000000000000009 164749.50000000003 1.0000000180025095e-35 14.217431932621443 1.0000000180025095e-35 70671.000000000015 12.381815557490496 63056.000000000007 55305.500000000007 10.718915965786598 12.718915958642595 12.214692233274418 1.0000000180025095e-35 9.7983680619662632 10.299623777239857 4.5000000000000009 11.801107792885606
decision_type=2 2 2 2 2 2 2 2 2 2 2 2 2 2 2 2 2 2 2 2 2 2 2 2 2 2 2 2 2 2
left_child=-1 2 14 23 -5 -6 8 -8 9 -7 20 -12 -13 -14 15 16 17 18 -2 -16 21 -10 -19 24 25 26 -3 -28 29 -29
right_child=1 3 -4 4 5 6 7 -9 10 -11 11 12 13 -15 19 -17 -18 22 -20 -21 -22 -23 -24 -25 -26 -27 27 28 -30 -31
leaf_value=-1.5759006528627306 0.35272241251973008 0.08113423069916556 -0.12961469814592572 -0.11744591187639651 1.2430963374674322 0.077046281930345753 -2.3963621951284866 0.34762289375066757 0.57779518652637052 -1.4786020071610162 -2.3297439200431107 -1.0922449056918804 -0.73656876035358598 1.3708655746281149 0.2650786871001834 0.058951133738974482 -1.9108338761788148 -0.36798985111407745 -1.4108512823437822 1.9859714046120645 0.80919797952691486 -1.5887495028972627 0.94800996120939873 0.7174966771728718 -1.7916942607788813 0.80195140664170439 1.2524439236392146 0.21301917807622389 0.49068879340746396 -1.8892432211366081
leaf_weight=21 39 2239 3748 2001 40 1495 21 29 53 46 20 26 23 40 42 2329 26 39 58 20 244 20 47 104 21 82 92 55 161 28
leaf_count=21 39 2239 3748 2001 40 1495 21 29 53 46 20 26 23 40 42 2329 26 39 58 20 244 20 47 104 21 82 92 55 161 28
internal_value=0 0.0025094 -0.0606799 0.0611535 -0.00472319 0.104931 0.0823593 -0.804851 0.104912 0.030609 0.373692 -0.340364 0.106687 0.601485 0.0386923 0.0196009 -0.4189 -0.206931 -0.701786 0.820205 0.619219 -0.0157787 0.351219 0.157245 0.135488 0.15072 0.129982 0.455485 0.154992 -0.496178
internal_weight=0 13188 6348 6840 4058 2057 2017 50 1967 1541 426 109 89 63 2600 2538 209 183 97 62 317 73 86 2782 2678 2657 2575 336 244 83
internal_count=13209 13188 6348 6840 4058 2057 2017 50 1967 1541 426 109 89 63 2600 2538 209 183 97 62 317 73 86 2782 2678 2657 2575 336 244 83
is_linear=0
shrinkage=0.1


Tree=55
num_leaves=31
num_cat=0
split_feature=0 3 2 2 2 4 2 7 4 1 8 7 2 1 2 1 2 6 6 2 6 2 2 2 2 2 6 4 8 2
split_gain=4309.02 7702.64 5088.42 5381.98 14212.2 10358.4 7309.36 7838.32 8858.52 11498 6525.36 4619.54 4560.53 4554.75 4543.33 4479.73 4008.78 3880.27 3850.12 6696.73 4540.48 6924.73 9063.45 9332.96 8626.05 8874.78 8266.47 8484.54 7630.84 7229.91
threshold=1689.5000000000002 3.5000000000000004 5.2092129650939549 8.4641215795616063 7.7161763466338966 2.5000000000000004 6.9654915553372323 4.5000000000000009 4.5000000000000009 86811.000000000015 72.65011893333336 2.5000000000000004 7.8832997149488522 67604.500000000015 8.3790758901694051 14895.000000000002 6.2119526711912831 3.5000000000000004 11.500000000000002 5.5435736883615769 3.5000000000000004 12.968231021076029 9.211952588152533 10.050308904811882 11.886039263667785 12.053048380238801 2.5000000000000004 1.0000000180025095e-35 70.291666500000005 10.214692275525378
decision_type=2 2 2 2 2 2 2 2 2 2 2 2 2 2 2 2 2 2 2 2 2 2 2 2 2 2 2 2 2 2
left_child=2 -2 13 4 6 12 7 8 9 -4 11 -5 -6 -1 -14 -3 -9 -13 20 -20 21 22 26 -24 28 -26 27 -17 -25 -30
right_child=1 15 3 10 5 -7 -8 16 -10 -11 -12 17 14 -15 -16 18 -18 -19 19 -21 -22 -23 23 24 25 -27 -28 -29 29 -31
leaf_value=0.034769406849923343 -1.6308818391391211 0.55845433621655538 -3.2914049656391144 -0.95745705901048128 -1.312902325111277 -2.6490810577757657 0.27611698872319435 0.42693069071158185 -0.33456703002665211 -0.78339791262851044 -1.0804911895394325 0.43951715103843636 -0.13499499386376587 0.98747596160873119 -1.5920186450848215 0.75697819084832174 -0.41022875601282482 -0.043706151353352513 0.87433949249671472 0.10533610396953517 -0.038741909311065359 0.51465701183006374 -0.75805112404502151 1.4225694138953027 -1.5873497105877976 -0.18080955810017058 0.494508197961608 -0.11042435691867612 0.89450604984802862 -0.092131745420617639
leaf_weight=184 28 158 25 39 85 32 299 154 287 68 50 289 121 69 26 132 91 391 134 731 7056 369 219 47 58 198 600 774 91 404
leaf_count=184 28 158 25 39 85 32 299 154 287 68 50 289 121 69 26 132 91 391 134 731 7056 369 219 47 58 198 600 774 91 404
internal_value=0 0.025602 -0.127419 -0.181977 -0.3154 -0.962478 -0.130521 -0.325057 -0.609413 -1.45759 0.024143 0.10096 -0.729843 0.294598 -0.3927 0.0298296 0.115986 0.161664 0.0221053 0.224465 0.00450974 0.110037 0.0508591 -0.179784 -0.0210865 -0.499479 0.206612 0.0159522 0.20487 0.0892502
internal_weight=0 10999 2210 1957 1188 264 924 625 380 93 769 719 232 253 147 10971 245 680 10813 865 9948 2892 2523 1017 798 256 1506 906 542 495
internal_count=13209 10999 2210 1957 1188 264 924 625 380 93 769 719 232 253 147 10971 245 680 10813 865 9948 2892 2523 1017 798 256 1506 906 542 495
is_linear=0
shrinkage=0.1


Tree=56
num_leaves=31
num_cat=0
split_feature=2 0 2 10 0 11 2 2 2 4 2 2 1 2 2 6 8 3 1 2 2 8 8 2 4 2 1 1 1 1
split_gain=4481.59 4819.48 8949.53 14482.3 9929.45 6377.76 5531.39 5474.72 5665.55 8036.1 7301.79 7167.91 5210.99 5128.54 7190.36 9787.23 5000.79 4975.39 5334.34 4760.47 4669.31 4257.46 8692.96 7328.03 7889.79 6511.93 9230.33 7681.5 11673.3 8083.38
threshold=1.0000000180025095e-35 1998.5000000000002 6.7161764060894908 1.0000000180025095e-35 2428.0000000000005 1.0000000180025095e-35 10.46686117315083 3.795628507060004 4.0475691395016051 6.5000000000000009 4.2092129864428882 4.6285052188314335 164749.50000000003 10.633984505110005 11.718915950059545 9.5000000000000018 111.21428550000002 5.5000000000000009 9837.5000000000018 15.594258413171639 6.6312448966303483 101.49999950000002 106.48277760000002 8.0503087232285342 6.5000000000000009 10.129760786197656 109001.00000000001 113351.50000000001 89566.500000000015 98811.500000000015
decision_type=2 2 2 2 2 2 2 2 2 2 2 2 2 2 2 2 2 2 2 2 2 2 2 2 2 2 2 2 2 2
left_child=-1 5 3 -3 6 7 -4 -2 9 -9 -10 -12 21 -8 15 -15 -7 18 -13 -20 -19 -6 -23 -24 25 26 -25 28 -27 -30
right_child=1 2 4 -5 12 16 13 8 10 -11 11 17 -14 14 -16 -17 -18 20 19 -21 -22 22 23 24 -26 27 -28 -29 29 -31
leaf_value=-1.4596902806134453 0.48903770507039401 0.12736624628305435 -0.76833580117672684 3.5070244547866638 -1.4271231331608512 0.31215318384181179 1.9846038516759874 -2.3344725443124772 0.66152530822705324 -0.26763404513660233 -0.48238324948445088 -1.4603496083846459 -1.6613265866325015 0.35667549763407025 0.74958372678018181 -1.9483338391780856 1.681567786080497 1.6312181569635869 -0.022027855200553295 -1.0526893941561382 0.25589824535504535 1.2955970063012965 -1.194984583151445 0.73843173138758678 -1.4948230048020683 -0.095935611520494735 -1.3410454124212265 1.0411826650053262 -3.334590140978495 -0.64808672765890762
leaf_weight=21 204 32 32 21 22 112 25 25 152 76 349 26 21 70 297 25 35 32 10865 45 108 47 57 193 33 175 24 40 21 24
leaf_count=21 204 32 32 21 22 112 25 25 152 76 349 26 21 70 297 25 35 32 10865 45 108 47 57 193 33 175 24 40 21 24
internal_value=0 0.00232435 0.197077 1.46648 0.136247 -0.0164402 0.498694 -0.0245392 -0.0335108 -0.779228 -0.027005 -0.0361653 -0.111453 0.595924 0.50736 -0.249906 0.638204 -0.0221052 -0.0296884 -0.026279 0.570257 -0.0602777 -0.0113027 -0.119635 0.000551324 0.104005 0.508443 -0.233546 -0.465315 -1.90179
internal_weight=0 13188 1159 53 1106 12029 449 11882 11678 101 11577 11425 657 417 392 95 147 11076 10936 10910 140 636 614 567 510 477 217 260 220 45
internal_count=13209 13188 1159 53 1106 12029 449 11882 11678 101 11577 11425 657 417 392 95 147 11076 10936 10910 140 636 614 567 510 477 217 260 220 45
is_linear=0
shrinkage=0.1


Tree=57
num_leaves=31
num_cat=0
split_feature=4 4 4 2 2 2 2 2 2 2 2 1 2 2 6 6 2 9 6 2 2 2 8 1 2 2 10 0 2 2
split_gain=3825.06 11224.3 11665.6 11004.2 14003.7 8997.5 8483.43 8313.54 6679.12 6645.43 5885.1 7640.39 5741.54 5267.95 6457.23 16692.4 9949.54 5242.77 5027.55 5248.81 5032.36 5745.09 4948.27 4749.44 6351.29 4730.91 4668.19 4604.32 9324.03 9308.14
threshold=7.5000000000000009 1.0000000180025095e-35 3.5000000000000004 6.2119526711912831 6.2119527249557018 7.2119526654166028 4.3763362624077056 7.2119525999351408 5.8805600332417347 9.7161763131117542 10.381815559263739 156137.00000000003 6.211952712339861 5.7956284953315542 6.5000000000000009 4.5000000000000009 5.2092129891312853 1.0000000180025095e-35 9.5000000000000018 4.6285052188314335 7.2119526654166028 7.2119525999351408 73.550118933333351 89909.000000000015 8.6312448479596107 4.6285052188314335 1.0000000180025095e-35 1987.5000000000002 7.0503088441011474 6.4641216951683331
decision_type=2 2 2 2 2 2 2 2 2 2 2 2 2 2 2 2 2 2 2 2 2 2 2 2 2 2 2 2 2 2
left_child=1 6 -3 8 12 7 -1 27 13 18 23 -12 -5 14 15 26 -17 -15 20 -20 21 -2 -18 24 -7 -16 -4 -6 29 -29
right_child=9 2 3 4 5 10 -8 -9 -10 -11 11 -13 -14 17 25 16 22 -19 19 -21 -22 -23 -24 -25 -26 -27 -28 28 -30 -31
leaf_value=-1.8744024473687877 0.086825013736752346 -1.3502990769334586 0.44138208954928465 -0.88329048381518516 -0.26631578408260215 -0.45425863914849657 0.049238233279828715 0.80898921998946571 0.80282381815192982 -1.3757620828350385 -2.4553312309086324 -0.302473128192565 -2.326010911166668 -0.098241165349649828 -0.091124313784303607 -0.33825322376502742 -1.0671039251089096 -1.3626876969944757 -0.23158106353902627 0.4815072035237547 -0.27357864496779855 1.1862197759200117 -2.6916280221939086 -0.11008696571257887 -1.646667647957802 0.58918713787080434 -0.48132103986360814 -0.64424269739992734 -1.3811265711431151 1.1255438406158376
leaf_weight=23 1587 83 324 118 498 419 7101 115 113 30 32 34 36 86 154 182 50 53 126 571 406 49 30 393 50 304 66 41 27 108
leaf_count=23 1587 83 324 118 498 419 7101 115 113 30 32 34 36 86 154 182 50 53 126 571 406 49 30 393 50 304 66 41 27 108
internal_value=0 -0.0277138 -0.179693 -0.14964 -0.307049 -0.225116 0.0430277 0.0231469 0.0665948 0.10449 -0.436192 -1.34628 -1.22055 -1.35771e-05 0.0726615 -0.129487 -0.746817 -0.580368 0.120703 0.352599 0.041549 0.119753 -1.6763 -0.36651 -0.581381 0.360436 0.285232 -0.110936 0.328718 0.638556
internal_weight=0 10440 3316 3233 1871 1717 7124 789 1362 2769 928 66 154 1249 1110 652 262 139 2739 697 2042 1636 80 862 469 458 390 674 176 149
internal_count=13209 10440 3316 3233 1871 1717 7124 789 1362 2769 928 66 154 1249 1110 652 262 139 2739 697 2042 1636 80 862 469 458 390 674 176 149
is_linear=0
shrinkage=0.1


Tree=58
num_leaves=31
num_cat=0
split_feature=6 2 2 2 2 0 8 6 6 2 2 1 8 2 2 2 1 6 8 2 2 2 2 2 9 2 2 3 1 2
split_gain=3485.41 7677.79 11636.5 6656.7 6336.33 6701.33 6070.07 12052.3 6065.02 8362.73 7272.5 6466.65 6200.35 5365.32 4761.73 10918.3 4673.68 4641.19 9747.75 9890.4 10509.5 7674.36 6172.67 6566.5 6430.92 5815.68 20197.9 8311.3 7255.25 5041.94
threshold=3.5000000000000004 14.888778967043953 14.469600882177216 14.72165568355223 12.968231021076029 1998.5000000000002 112.82142850000001 5.5000000000000009 2.5000000000000004 11.801107792885606 11.214692242944684 91116.000000000015 111.21428550000002 12.053048380238801 12.381815557490496 11.549053021000342 80601.000000000015 9.5000000000000018 110.64285700000001 7.2119527462971007 8.0503087232285342 2.7545325918628683 5.713436621567654 4.6285052188314335 1.0000000180025095e-35 11.968231042750487 13.129760711206272 4.5000000000000009 134914.50000000003 11.466861216392394
decision_type=2 2 2 2 2 2 2 2 2 2 2 2 2 2 2 2 2 2 2 2 2 2 2 2 2 2 2 2 2 2
left_child=1 2 4 6 8 -6 17 -8 11 10 12 14 -10 -11 15 -1 -5 -2 21 -20 -21 -19 23 -23 -25 29 -27 -28 -29 -24
right_child=3 -3 -4 16 5 -7 7 -9 9 13 -12 -13 -14 -15 -16 -17 -18 18 19 20 -22 22 25 24 -26 26 27 28 -30 -31
leaf_value=-0.0017340124535462388 -0.056388149627364152 1.1674962690565736 -1.6554409274688133 -1.7284119172021748 0.26694404908134423 1.3604767060279848 -1.584918992093777 -0.083715147874318066 0.18720738544473947 -1.6708314282553538 1.4285997690776222 -0.33135454895273425 1.7483626388586484 -0.15078821104505791 -1.2587044367083797 1.1082311119263373 -0.39720873220761621 -1.8153605096719483 1.3216927608013154 -0.71629161336528724 1.5624231353915972 0.0028935871706452483 -0.03777696210239033 0.047547830343246465 1.1577697691771511 1.2154144704537957 -1.6930489342463646 -0.35000563741972052 1.7436464869976043 -0.84376268077779715
leaf_weight=1153 6073 64 39 32 281 70 73 200 1182 35 52 655 26 69 27 96 150 22 125 67 29 215 1857 80 150 152 38 96 20 81
leaf_count=1153 6073 64 39 32 281 70 73 200 1182 35 52 655 26 69 27 96 150 22 125 67 29 215 1857 80 150 152 38 96 20 81
internal_value=0 0.0815981 0.0627385 -0.0323373 0.0811173 0.485027 -0.0205886 -0.485136 0.0380907 0.199516 0.270654 -0.0759355 0.220808 -0.662341 0.055177 0.0835796 -0.631266 -0.00650511 0.0968168 0.735431 -0.0279299 0.0447571 0.0599756 0.400205 0.771606 -0.00749424 0.397646 -0.409503 0.0109689 -0.0714637
internal_weight=0 3749 3685 9460 3646 351 9278 273 3295 1364 1260 1931 1208 104 1276 1249 182 9005 2932 221 96 2711 2689 445 230 2244 306 154 116 1938
internal_count=13209 3749 3685 9460 3646 351 9278 273 3295 1364 1260 1931 1208 104 1276 1249 182 9005 2932 221 96 2711 2689 445 230 2244 306 154 116 1938
is_linear=0
shrinkage=0.1


Tree=59
num_leaves=31
num_cat=0
split_feature=0 0 2 10 11 2 3 2 1 8 2 2 7 1 1 2 2 1 1 2 6 1 2 2 4 2 2 2 6 2
split_gain=3252.24 5437.31 5462.27 5538.79 4867.91 4793.48 4945.28 6488.81 8536.47 4528.11 4330.51 7714.49 7452.23 6650.65 7002.03 5671.27 8152.85 5536.58 4324.69 4019.45 3990.14 3761.32 3624.34 4424.06 6122.43 5760.44 6119.32 6674.84 7922.19 4588.35
threshold=1998.5000000000002 2428.0000000000005 6.7983682151312976 1.0000000180025095e-35 1.0000000180025095e-35 7.5463133558588043 4.5000000000000009 11.214692300094663 78214.500000000015 106.48277760000002 12.801107729425212 13.21469222203975 5.5000000000000009 141421.00000000003 113351.50000000001 12.381815557490496 11.718915950059545 58058.500000000007 47494.500000000007 15.594258413171639 5.5000000000000009 37146.000000000007 3.795628507060004 4.0475691395016051 6.5000000000000009 4.2092129864428882 4.7956284691041686 5.2092129505043685 7.5000000000000009 5.2941444583635491
decision_type=2 2 2 2 2 2 2 2 2 2 2 2 2 2 2 2 2 2 2 2 2 2 2 2 2 2 2 2 2 2
left_child=4 10 3 -3 19 -4 7 8 -7 -8 12 -12 15 14 17 16 20 -14 -6 22 -2 -11 -1 24 -24 -25 -27 28 -28 -29
right_child=1 2 5 -5 18 6 9 -9 -10 21 11 -13 13 -15 -16 -17 -18 -19 -20 -21 -22 -23 23 25 -26 26 27 29 -30 -31
leaf_value=0.38132372685783622 0.048295091037397035 0.055441479384899142 -1.2156638320949344 2.04199337387085 1.882726213194075 -1.4319405526825877 1.2653885710984469 -1.7437115206037248 0.57645921262644106 0.73360457713856853 2.1435874369409347 0.47125858886767241 1.5414035454028991 -0.70447400093078616 2.4907888541618988 -1.7198960800170899 0.96693683748443926 0.089225319313676388 0.3344231187424157 -0.96581800000535134 -1.6273772192994753 -0.082241761017088369 -2.0430160655975342 0.59074515547407302 -0.23897780281932735 -0.37031548699193384 0.13299950142426215 -0.41072464813901627 1.092035556435585 -0.018893120809806461
leaf_weight=222 27 32 36 25 21 33 32 35 59 66 36 118 41 30 24 25 45 73 128 45 30 393 25 152 76 502 397 308 110 10063
leaf_count=222 27 32 36 25 21 33 32 35 59 66 36 118 41 30 24 25 45 73 128 45 30 393 25 152 76 502 397 308 110 10063
internal_value=0 0.15992 -0.0121286 0.926736 -0.0153961 -0.0939563 -0.0286141 -0.584826 -0.143945 0.115253 0.432363 0.862193 0.207977 0.644974 0.938333 -0.370099 -0.0392666 0.6115 0.55264 -0.0225085 -0.833638 0.0350695 -0.0189278 -0.026566 -0.685522 -0.0207948 -0.0289629 -0.0132101 0.341074 -0.0305298
internal_weight=0 1160 711 57 12049 654 618 127 92 491 449 154 295 168 138 127 102 114 149 11900 57 459 11855 11633 101 11532 11380 10878 507 10371
internal_count=13209 1160 711 57 12049 654 618 127 92 491 449 154 295 168 138 127 102 114 149 11900 57 459 11855 11633 101 11532 11380 10878 507 10371
is_linear=0
shrinkage=0.1


Tree=60
num_leaves=31
num_cat=0
split_feature=2 7 7 8 2 7 2 2 2 6 1 7 0 2 1 1 9 1 2 3 4 2 2 2 1 1 2 1 6 2
split_gain=3321.55 3304.71 3300.22 4057.67 3584.61 3228.44 3380.98 14060.1 5248.66 4446.02 3745.15 4384.72 4419.75 4802.63 4800.54 3830.95 3914.46 4446.45 4337.15 3791.11 3714.07 3667.23 3418.02 3890.98 3384.74 3240.6 4479.98 6365.31 3023.75 2969.3
threshold=1.0000000180025095e-35 4.5000000000000009 5.5000000000000009 107.38750000000002 4.2092129864428882 3.5000000000000004 6.1270212448214396 6.2119527249557018 5.8805600332417347 3.5000000000000004 159045.50000000003 1.5000000000000002 2428.0000000000005 14.217431929709512 112004.00000000001 55305.500000000007 1.0000000180025095e-35 25640.500000000004 10.801107800373364 4.5000000000000009 2.5000000000000004 14.217431932621443 5.7956284670652272 4.0475691395016051 120027.00000000001 118526.00000000001 12.053048380238801 49201.000000000007 7.5000000000000009 8.7983681129190021
decision_type=2 2 2 2 2 2 2 2 2 2 2 2 2 2 2 2 2 2 2 2 2 2 2 2 2 2 2 2 2 2
left_child=-1 5 -3 -4 -5 6 8 9 22 -8 11 21 13 14 15 16 20 -18 -19 24 29 25 23 -2 -16 26 27 -9 -14 -13
right_child=1 2 3 4 -6 -7 7 10 -10 -11 -12 12 28 -15 19 -17 17 18 -20 -21 -22 -23 -24 -25 -26 -27 -28 -29 -30 -31
leaf_value=-1.256651947044191 -0.8941491484642029 0.13411762226155527 -0.10867306459583399 1.0287413617968559 0.072747912511997623 -0.1093580954878713 -0.61464997922735565 0.55264946073293686 1.4947106354164355 -2.2085712709597178 0.72802291830649246 1.2958844028200422 -1.5631029324872154 1.0552071658932434 -1.8699589035831967 0.2003454553681964 -1.8742422296887353 -0.12207731246838677 -1.6992522203922271 -0.034839863066388442 -0.39252530511626055 -1.5533062132505271 -0.80815330520272255 0.34855453428572702 -0.49686141118150334 0.82567554971446155 0.31418347072601321 -1.3311592981586573 -0.015657757935316666 0.1564707934856415
leaf_weight=21 27 2782 2001 40 2017 3748 35 24 33 35 74 35 28 49 26 1147 21 136 20 113 71 26 32 377 58 23 50 71 23 66
leaf_count=21 27 2782 2001 40 2017 3748 35 24 33 35 74 35 28 49 26 1147 21 136 20 113 71 26 32 377 58 23 50 71 23 66
internal_value=0 0.00200104 0.0502255 -0.00728748 0.091338 -0.0499611 0.035662 -0.017835 0.278737 -1.41161 0.0295033 0.00348902 0.0523523 0.0792162 0.0509684 0.112074 -0.178031 -0.508173 -0.324279 -0.413065 0.161708 -0.448118 0.186702 0.265503 -0.921868 -0.277077 -0.451997 -0.85525 -0.865236 0.551317
internal_weight=0 13188 6840 4058 2057 6348 2600 2131 469 70 2061 1987 1793 1742 1693 1496 349 177 156 197 172 194 436 404 84 168 145 95 51 101
internal_count=13209 13188 6840 4058 2057 6348 2600 2131 469 70 2061 1987 1793 1742 1693 1496 349 177 156 197 172 194 436 404 84 168 145 95 51 101
is_linear=0
shrinkage=0.1


Tree=61
num_leaves=31
num_cat=0
split_feature=0 3 2 4 2 2 4 8 0 1 2 1 2 2 6 1 4 2 1 2 1 4 1 7 6 6 1 4 6 1
split_gain=2983.69 5682.36 3753.84 4898.22 4188.4 11926.7 7794.51 5804.41 4861.17 5304.86 4323.19 9830.62 3791.48 4997.96 4029.47 5047.43 3664.03 6583.39 3424.7 3401.02 3288.45 3517.76 3286.33 3267.36 4356.04 3245.58 3859.18 3000.11 4944.09 2964.65
threshold=1689.5000000000002 3.5000000000000004 5.2092129891312853 1.0000000180025095e-35 8.4641215795616063 7.7161763466338966 2.5000000000000004 59.466666500000009 1497.5000000000002 91116.000000000015 11.214692242944684 95175.500000000015 8.1270212203446217 8.3790758901694051 3.5000000000000004 73301.000000000015 2.5000000000000004 7.5463133558588043 27290.000000000004 12.299623730004047 14895.000000000002 5.5000000000000009 84523.500000000015 4.5000000000000009 5.5000000000000009 3.5000000000000004 106104.50000000001 4.5000000000000009 2.5000000000000004 16131.500000000002
decision_type=2 2 2 2 2 2 2 2 2 2 2 2 2 2 2 2 2 2 2 2 2 2 2 2 2 2 2 2 2 2
left_child=2 -2 3 -1 5 7 12 16 10 -10 11 -6 14 -14 -7 -16 17 -4 -5 -12 21 -3 -18 24 27 26 -11 28 -9 -22
right_child=1 20 4 18 8 6 -8 23 9 25 19 -13 13 -15 15 -17 22 -19 -20 -21 29 -23 -24 -25 -26 -27 -28 -29 -30 -31
leaf_value=-1.2655771584737869 -1.4014566676957267 0.90958957110726557 2.2344489134274998 -0.17399563350013852 0.21010341080363204 -0.041646409034729007 -2.3336958110332491 -0.62046883661171481 -1.516464166735348 -0.33437617812305692 1.1404514559599406 -0.96761970270511721 0.13959233261734608 -1.449261872126506 -0.91554993355452119 -2.5570937294226428 -0.32997178101084301 -0.038309223175048833 0.54891654334150919 0.13657651036532956 -0.88764736255009979 -0.037838192242715098 0.68638612557398648 0.037814944002707053 -0.13288734705022337 -0.71815387104071826 1.3431182144830625 -0.53249511000596816 -2.6642153307795526 0.021343463270256029
leaf_weight=21 28 86 26 97 403 30 32 29 38 32 68 86 83 26 67 26 72 25 202 67 36 72 57 265 237 51 24 126 20 10777
leaf_count=21 28 86 26 97 403 30 32 29 38 32 68 86 83 26 67 26 72 25 202 67 36 72 57 265 237 51 24 126 20 10777
internal_value=0 0.021304 -0.106028 0.210708 -0.159656 -0.282953 -0.870639 -0.101916 0.0200793 -0.501494 0.141278 0.00297828 -0.668838 -0.2394 -1.0494 -1.37448 0.4028 1.12035 0.314393 0.642232 0.0249352 0.47785 0.119117 -0.236109 -0.412298 -0.141038 0.38455 -0.790699 -1.45465 0.0183171
internal_weight=0 10999 2210 320 1890 1121 264 857 769 145 624 489 232 109 123 93 180 51 299 135 10971 158 129 677 412 107 56 175 49 10813
internal_count=13209 10999 2210 320 1890 1121 264 857 769 145 624 489 232 109 123 93 180 51 299 135 10971 158 129 677 412 107 56 175 49 10813
is_linear=0
shrinkage=0.1


Tree=62
num_leaves=31
num_cat=0
split_feature=6 6 2 2 2 2 2 1 2 3 8 1 1 2 4 7 2 2 2 1 8 8 3 1 9 2 2 2 6 2
split_gain=2774.22 5433.67 6597.37 8045.21 9466.3 7500.89 9670.59 6677.66 6765.67 5672.66 5364.57 5206.19 4744.31 10323.5 9440.01 10308.7 7781.03 9357 6811.91 6166.52 5666.24 6853.03 5761.45 9933.17 5510.11 5243.07 11224.5 8844.47 8666.01 10049.8
threshold=4.5000000000000009 9.5000000000000018 13.968231019372931 11.968231042750487 12.466861176545027 10.299623777239857 10.050308734642043 182173.00000000003 2.7545325918628683 4.5000000000000009 107.70833300000002 114699.50000000001 123608.00000000001 10.466861231233521 2.5000000000000004 5.5000000000000009 10.968231083299875 13.968231019372931 14.72165568355223 116719.00000000001 108.42500000000001 107.53333300000001 4.5000000000000009 64697.000000000007 1.0000000180025095e-35 8.8832996071194845 8.3790758901694051 8.6312448239908175 6.5000000000000009 4.7956285090947377
decision_type=2 2 2 2 2 2 2 2 2 2 2 2 2 2 2 2 2 2 2 2 2 2 2 2 2 2 2 2 2 2
left_child=-1 12 3 5 -5 6 7 8 -3 -4 -10 -11 19 14 15 -14 24 -18 -19 20 21 -2 23 -22 -15 26 28 -28 29 -23
right_child=1 2 9 4 -6 -7 -8 -9 10 11 -12 -13 13 16 -16 -17 17 18 -20 -21 22 25 -24 -25 -26 -27 27 -29 -30 -31
leaf_value=0.061006777282034179 -0.076543471063044904 -1.6393139623782851 -1.8782710338632267 1.5510898795308947 0.21458905802010012 -0.33259051693906616 1.2886688683343972 -1.5067287755700258 0.051742755781834106 -0.92760369678338384 0.4720323403340464 0.85222483034487129 -0.80667841404676432 -0.44792860576084687 -0.3262250011990428 -2.7375809796345543 -0.57344599410214214 1.6739946975519784 -0.087422905403834128 0.5694335866327348 -3.0170922847021195 -1.5183501311143239 -0.24255861699098982 -0.41761937281306916 1.4469446818033855 0.70188005634073947 -1.8228278502174047 0.21035391181707383 1.4675434934844573 1.1158772992236274
leaf_weight=4765 3374 22 30 79 161 430 69 26 1784 42 366 27 95 21 247 39 198 38 52 152 21 30 649 49 57 212 46 40 60 28
leaf_count=4765 3374 22 30 79 161 430 69 26 1784 42 366 27 95 21 247 39 198 38 52 152 21 30 649 49 57 212 46 40 60 28
internal_value=0 -0.0344265 0.0726366 0.0997011 0.654521 0.050329 0.12296 0.0863663 0.105436 -0.730277 0.12329 -0.231149 -0.0945307 -0.328494 -0.692855 -1.36866 0.0508001 -0.189155 0.656287 -0.0570344 -0.0781528 -0.0293267 -0.335525 -1.19746 0.936786 0.353628 -0.00828066 -0.877162 0.624972 -0.246654
internal_weight=0 8444 3036 2937 240 2697 2267 2198 2172 99 2150 69 5408 747 381 134 366 288 90 4661 4509 3790 719 70 78 416 204 86 118 58
internal_count=13209 8444 3036 2937 240 2697 2267 2198 2172 99 2150 69 5408 747 381 134 366 288 90 4661 4509 3790 719 70 78 416 204 86 118 58
is_linear=0
shrinkage=0.1


Tree=63
num_leaves=31
num_cat=0
split_feature=0 8 0 8 2 2 4 2 1 1 2 2 6 1 2 2 11 2 2 7 4 8 4 2 1 2 2 2 4 2
split_gain=2728.35 4385.67 5462.62 5733.76 5535.62 7809.59 5218.56 5936.35 6894.13 6323.77 4539.78 4128.52 6248.61 4951.74 8116.16 4253.74 3950.38 3903.31 9099.91 8865.52 3627.93 3624.57 3661.48 5421.67 3570.89 3557.62 3320.15 3573.1 5065.26 4450.02
threshold=1998.5000000000002 101.49999950000002 2428.0000000000005 106.48277760000002 7.2119527462971007 8.0503087232285342 6.5000000000000009 10.129760786197656 37146.000000000007 109001.00000000001 5.7956285032759967 10.299623777239857 8.5000000000000018 58433.500000000007 11.299623804815004 12.466861176545027 1.0000000180025095e-35 9.6312447890226611 9.2119525745996977 5.5000000000000009 6.5000000000000009 111.21428550000002 1.0000000180025095e-35 9.2119526619519281 84102.500000000015 7.7983681410758861 3.795628507060004 4.0475691395016051 6.5000000000000009 4.2092129864428882
decision_type=2 2 2 2 2 2 2 2 2 2 2 2 2 2 2 2 2 2 2 2 2 2 2 2 2 2 2 2 2 2
left_child=16 -2 -3 25 10 20 7 9 -9 17 -5 -10 13 -13 -15 -14 26 18 -7 -19 -6 22 23 -18 -24 -4 -1 28 -28 -29
right_child=1 2 3 4 5 6 -8 8 11 -11 -12 12 15 14 -16 -17 21 19 -20 -21 -22 -23 24 -25 -26 -27 27 29 -30 -31
leaf_value=0.36259181897076237 -0.51995922214054802 0.50759488314978396 0.16535966327557197 0.059891801410251189 -1.9317639433976375 0.76613890428182696 -1.1975539466312954 1.4103078178737476 -1.5431706388081823 -0.98098243430808751 1.9501226623853047 -0.96890825346896525 -2.2736229620196604 1.8728797287852677 -0.071072642547743661 -0.42962543183359608 2.1063004672527312 2.5458452820777895 -1.3688302834446615 0.37939449478598203 -0.29569110663040826 1.3877394104003908 0.25062587173546064 0.08980519138276577 -1.433330792784691 1.7762857283240763 -1.8547464361190795 0.51488825610446698 -0.21383577430326689 -0.029776131624588233
leaf_weight=222 91 380 26 27 33 86 35 23 28 27 24 38 22 27 105 29 20 30 26 51 23 35 34 40 20 29 25 152 76 11425
leaf_count=222 91 380 26 27 33 86 35 23 28 27 24 38 22 27 105 29 20 30 26 51 23 35 34 40 20 29 25 152 76 11425
internal_value=0 0.146474 0.203205 0.0353274 -0.0496389 -0.137034 -0.0177268 0.066204 -0.246191 0.452438 0.949412 -0.399201 -0.254263 0.0369801 0.326554 -1.22508 -0.0141016 0.652968 0.270521 1.18178 -1.25981 0.497609 0.224324 0.76197 -0.373062 1.01476 -0.0205087 -0.0277915 -0.620002 -0.022625
internal_weight=0 1160 1069 689 634 583 527 492 272 220 51 249 221 170 132 51 12049 193 112 81 56 149 114 60 54 55 11900 11678 101 11577
internal_count=13209 1160 1069 689 634 583 527 492 272 220 51 249 221 170 132 51 12049 193 112 81 56 149 114 60 54 55 11900 11678 101 11577
is_linear=0
shrinkage=0.1


Tree=64
num_leaves=31
num_cat=0
split_feature=4 4 4 2 2 1 2 2 2 2 1 6 6 2 0 6 6 2 1 2 1 2 2 2 7 2 6 2 1 4
split_gain=2590.4 8580.7 10120.5 10468.2 6577.62 7771.67 5507.55 5398.84 17730.7 14959.9 14032.1 11085.3 17923.2 11196.7 10591.5 17917.3 18075.5 9739.37 9584.93 7908.61 6982.55 6922.77 8237.39 5696.04 5638.32 5268.24 5123.69 4914.36 4690.71 4637.23
threshold=7.5000000000000009 1.0000000180025095e-35 4.5000000000000009 9.3790758870137036 5.3763362645374375 23037.000000000004 7.2119526654166028 8.4641215484391719 8.3790759509298116 8.7983680995982034 128650.00000000001 6.5000000000000009 3.5000000000000004 8.4641215795616063 1795.5000000000002 10.500000000000002 7.5000000000000009 6.2968842328316841 25640.500000000004 7.2119527462971007 61505.000000000007 7.631244883775758 7.2119527462971007 5.7956285032759967 5.5000000000000009 9.7161763131117542 5.5000000000000009 7.2119525999351408 28785.500000000004 3.5000000000000004
decision_type=2 2 2 2 2 2 2 2 2 2 2 2 2 2 2 2 2 2 2 2 2 2 2 2 2 2 2 2 2 2
left_child=1 4 3 29 5 -1 27 8 10 11 14 12 -9 -13 21 16 17 -16 24 -20 -17 22 23 -6 -19 -2 -25 -4 -18 -3
right_child=25 2 6 -5 7 -7 -8 9 -10 -11 -12 13 -14 -15 15 20 28 18 19 -21 -22 -23 -24 26 -26 -27 -28 -29 -30 -31
leaf_value=-0.11504523158073426 0.10042345844717189 -1.1070879778341403 0.0020883867495031351 -2.0791525598223273 1.2406344832408998 -2.627908937931061 -0.28958850284420962 0.62807516476203662 2.2539960535864036 0.042878632698194405 -1.3966093230247498 -1.9080440241843464 -2.2786723479817184 0.15735725499179265 -1.1559085185329119 1.2948101752334171 1.1588368644714355 -0.94000805219014494 3.0275002314930872 1.0149174572377324 3.5892864136468798 -0.50838605330885211 1.9372497728892737 -1.7922270983457567 1.092389520577022 -1.2319860418637596 0.36822337231465752 0.7770518937364741 -0.25597862755670586 -0.29966071485528717
leaf_weight=32 2739 79 1687 38 21 20 712 29 42 5509 55 32 79 146 24 36 25 39 21 278 21 248 28 23 21 30 21 86 374 714
leaf_count=32 2739 79 1687 38 21 20 712 29 42 5509 55 32 79 146 24 36 25 39 21 278 21 248 28 23 21 30 21 86 374 714
internal_value=0 -0.0228065 -0.155688 -0.457792 0.0390459 -1.08153 -0.054663 0.0472854 0.233413 0.00626992 0.164697 -0.698896 -1.49816 -0.213951 0.237469 0.428469 0.303705 0.794419 0.924803 1.15627 2.14014 -0.232469 0.50331 -0.114388 -0.228669 0.0859878 -0.761103 0.0396783 -0.167331 -0.380098
internal_weight=0 10440 3316 831 7124 52 2485 7072 1277 5795 1235 286 108 178 1180 839 782 383 359 299 57 341 93 65 60 2769 44 1773 399 793
internal_count=13209 10440 3316 831 7124 52 2485 7072 1277 5795 1235 286 108 178 1180 839 782 383 359 299 57 341 93 65 60 2769 44 1773 399 793
is_linear=0
shrinkage=0.1


Tree=65
num_leaves=31
num_cat=0
split_feature=2 0 2 10 0 1 2 2 1 8 8 2 4 2 2 1 4 2 7 2 2 1 1 6 2 1 11 1 2 4
split_gain=2257.65 2510.29 5077.28 9503.09 4995.98 3338.09 3902.97 3807.36 4593.96 3689.8 4860.34 4869.88 5526.54 3722.96 9009.04 5303.26 3379.81 3319.52 6157.34 6395.6 6477.56 5260.38 6765.31 5144.77 5055.47 4551.3 3160.55 3654.18 3341.7 3959.27
threshold=1.0000000180025095e-35 1998.5000000000002 6.7161764060894908 1.0000000180025095e-35 2428.0000000000005 164749.50000000003 14.888778967043953 14.217431932621443 89566.500000000015 101.49999950000002 106.48277760000002 8.0503087232285342 6.5000000000000009 12.801107729425212 11.801107792885606 108316.50000000001 6.5000000000000009 12.718915958642595 5.5000000000000009 12.381815557490496 12.053048380238801 138006.00000000003 113351.50000000001 5.5000000000000009 13.381815507644061 58058.500000000007 1.0000000180025095e-35 47494.500000000007 3.795628507060004 4.5000000000000009
decision_type=2 2 2 2 2 2 2 2 2 2 2 2 2 2 2 2 2 2 2 2 2 2 2 2 2 2 2 2 2 2
left_child=-1 26 3 -3 17 6 7 9 -9 -6 -11 16 13 14 15 -13 -12 18 19 20 23 22 25 -4 -19 -20 28 -28 29 -2
right_child=1 2 4 -5 5 -7 -8 8 -10 10 11 12 -14 -15 -16 -17 -18 24 21 -21 -22 -23 -24 -25 -26 -27 27 -29 -30 -31
leaf_value=-1.0360324479284742 1.5624738750457765 0.013577935844659807 0.45622332296334211 2.7512777521496727 -1.2756342738189481 -1.3197813244093033 1.270349754664031 -0.1697210693359375 -2.0405918967156182 1.017044119822218 -1.5970165086910129 0.39151246443183885 -1.1766853578162917 1.1549599947248186 -1.3820013692504483 -0.86536281391194003 -0.045205949783325199 1.5267486443492371 1.3504905315434061 -1.9754111278624764 1.3395377609729768 -0.5963099807500839 2.478475938524519 -1.2023971205618649 0.33360662792942358 0.016555856080616223 1.7053368616104128 0.25109397191700972 -0.024603397599519534 0.21900886746966308
leaf_weight=21 25 32 32 21 22 21 22 35 21 47 32 288 33 35 38 38 25 52 41 21 25 32 21 45 112 68 20 127 11678 179
leaf_count=21 25 32 32 21 22 21 22 35 21 47 32 288 33 35 38 38 25 52 41 21 25 32 21 45 112 68 20 127 11678 179
internal_value=0 0.00164973 0.142205 1.09833 0.0963867 -0.0793139 -0.038355 -0.0852467 -0.871298 -0.0063599 0.0457372 -0.0476195 0.067011 0.169873 0.0751532 0.245006 -0.916398 0.353481 0.147221 -0.386211 -0.0590224 0.552234 0.834953 -0.5131 0.71192 0.518311 -0.0118928 0.44895 -0.0175942 0.383649
internal_weight=0 13188 1159 53 1106 657 636 614 56 558 536 489 432 399 364 326 57 449 285 123 102 162 130 77 164 109 12029 147 11882 204
internal_count=13209 13188 1159 53 1106 657 636 614 56 558 536 489 432 399 364 326 57 449 285 123 102 162 130 77 164 109 12029 147 11882 204
is_linear=0
shrinkage=0.1


Tree=66
num_leaves=31
num_cat=0
split_feature=6 2 2 8 2 2 6 2 2 1 0 2 1 6 6 11 3 2 2 2 2 6 2 1 6 7 2 7 7 2
split_gain=2110.45 6333.59 8754.01 4951.2 9909.32 7395.11 5171.12 5153.58 4684.41 8310.81 6276.8 4973.07 8510.37 4578.84 4532.89 4887.24 3869.27 3515.96 6562.22 5494.06 6711.9 7682.67 11957 7394.46 11340.7 6959.2 5813.48 4659.98 4294.49 6246.8
threshold=3.5000000000000004 14.888778967043953 14.469600882177216 112.82142850000001 6.1270212448214396 5.8805600332417347 5.5000000000000009 6.2119527275066382 13.886039246624437 90407.000000000015 2494.5000000000005 15.594258413171639 168333.00000000003 2.5000000000000004 2.5000000000000004 1.0000000180025095e-35 5.5000000000000009 12.381815557490496 12.466861176545027 11.466861216392394 11.718915950059545 10.500000000000002 12.299623730004047 63529.500000000007 7.5000000000000009 5.5000000000000009 11.381815585254115 4.5000000000000009 5.5000000000000009 11.968231042750487
decision_type=2 2 2 2 2 2 2 2 2 2 2 2 2 2 2 2 2 2 2 2 2 2 2 2 2 2 2 2 2 2
left_child=1 2 14 8 5 6 -5 -6 17 -10 11 12 -11 -3 -1 16 -16 19 -19 26 25 22 23 24 27 -21 -2 -22 -25 -30
right_child=3 13 -4 4 7 -7 -8 -9 9 10 -12 -13 -14 -15 15 -17 -18 18 -20 20 21 -23 -24 28 -26 -27 -28 -29 29 -31
leaf_value=-0.030491784058704525 0.0016810900670239761 0.45866299160691198 -1.4438900218560147 -1.7695463914137619 -2.1366522025994281 0.82004965016099285 -0.21397020336240533 -0.26213800839402457 -0.9415841737711752 -0.0052523990930284118 -1.6057680475970972 -1.2897881352383158 1.6234575808440384 2.2601189641725448 0.15567875266143172 1.7489752197265624 1.5228572923512687 1.5490402228302427 0.15479716219255407 -0.50603165485948887 -1.1226331628602126 0.85567518338080384 -2.2270218483863338 -0.17975516820545584 -2.8954432674076251 -2.4784761393511738 1.2754481073882846 0.72105629444122321 1.6425078508016224 -0.17134711711834638
leaf_weight=2154 7621 43 39 26 44 61 120 22 148 206 23 23 38 21 1451 20 21 36 542 53 29 62 31 187 23 27 36 26 37 39
leaf_count=2154 7621 43 39 26 44 61 120 22 148 206 23 23 38 21 1451 20 21 36 542 53 29 62 31 187 23 27 36 26 37 39
internal_value=0 0.0634952 0.0463659 -0.0251631 -0.44484 -0.104645 -0.490991 -1.51181 -0.0126921 -0.331833 -0.0206496 0.115896 0.248399 1.04977 0.0623067 0.19628 0.175183 0.00328504 0.241636 -0.0135754 -0.330063 -0.174917 -0.346682 -0.175742 -1.03082 -1.17173 0.00766981 -0.251071 0.0778557 0.711714
internal_weight=0 3749 3685 9460 273 207 146 66 9187 438 290 267 244 64 3646 1492 1472 8749 578 8171 514 434 372 341 78 80 7657 55 263 76
internal_count=13209 3749 3685 9460 273 207 146 66 9187 438 290 267 244 64 3646 1492 1472 8749 578 8171 514 434 372 341 78 80 7657 55 263 76
is_linear=0
shrinkage=0.1


Tree=67
num_leaves=31
num_cat=0
split_feature=7 2 2 2 6 1 1 6 2 1 4 6 1 6 8 6 8 2 4 7 6 1 2 2 6 6 2 1 1 3
split_gain=2094.39 3928.08 6360.67 6259.67 5022.27 7076.18 6118.66 5575.55 4562.73 3439.86 4403.81 3764.82 3336.37 3864.61 3073.31 5169.93 4979 4815.68 6459.04 3755.44 3574.33 3498.73 6627.83 3536.75 4621.22 5465.91 3784.57 5337.57 3185.9 3100.91
threshold=4.5000000000000009 4.7956284691041686 4.2092129864428882 5.2092129505043685 5.5000000000000009 52203.000000000007 27290.000000000004 7.5000000000000009 2.9627518377753272 46128.500000000007 7.5000000000000009 5.5000000000000009 83717.000000000015 6.5000000000000009 59.466666500000009 10.500000000000002 58.249999500000008 7.631244883775758 2.5000000000000004 5.5000000000000009 6.5000000000000009 17278.500000000004 6.464121648130658 5.2941444583635491 4.5000000000000009 6.5000000000000009 5.5435736883615769 88004.000000000015 34796.000000000007 5.5000000000000009
decision_type=2 2 2 2 2 2 2 2 2 2 2 2 2 2 2 2 2 2 2 2 2 2 2 2 2 2 2 2 2 2
left_child=-1 2 4 12 6 7 8 -6 -2 10 11 -4 -3 -14 15 16 -5 18 -18 21 28 22 -16 24 -23 -26 27 -25 -19 -21
right_child=1 3 9 14 5 -7 -8 -9 -10 -11 -12 -13 13 -15 19 -17 17 20 -20 29 -22 23 -24 26 25 -27 -28 -29 -30 -31
leaf_value=-0.041328061739457543 0.49951379157772124 0.69419124111857111 -2.5685717946849764 0.53161936181706271 -0.77050870073878253 -1.4130183558131373 0.9111542278009912 0.64277252680818808 -0.96672072893508332 -0.26882980898163228 -0.43360720206709474 -0.77816530777060466 -0.50673221596262674 1.1165240371227265 0.30006584936174852 -1.4829170158598572 1.698441188931465 0.61524926260113721 -0.44051980112368866 -0.013304659715261855 -1.6314635181427002 0.65548029414871167 -2.0662345552444457 1.7426483398058306 -1.5987689001437946 -0.00495371570189794 0.196784983492167 -0.058785913833256424 -1.0035965550330379 0.861300356649771
leaf_weight=6359 44 230 24 77 46 43 115 71 41 212 68 23 55 20 29 32 20 20 48 3600 40 34 20 38 39 48 1712 29 31 41
leaf_count=6359 44 230 24 77 46 43 115 71 41 212 68 23 55 20 29 32 20 20 48 3600 40 34 20 38 39 48 1712 29 31 41
internal_value=0 0.0383657 -0.188444 0.0636486 0.101554 -0.31604 0.435629 0.0871235 -0.207729 -0.507709 -0.948077 -1.69242 0.505325 -0.0738639 0.0406525 -0.290149 -0.128417 -0.448058 0.188586 0.056512 -0.923792 0.168541 -0.665771 0.190057 -0.333086 -0.719423 0.225639 0.962923 -0.368755 -0.00345605
internal_weight=0 6850 687 6163 360 160 200 117 85 327 115 47 305 75 5858 268 236 159 68 5590 91 1949 49 1900 121 87 1779 67 51 3641
internal_count=13209 6850 687 6163 360 160 200 117 85 327 115 47 305 75 5858 268 236 159 68 5590 91 1949 49 1900 121 87 1779 67 51 3641
is_linear=0
shrinkage=0.1


Tree=68
num_leaves=31
num_cat=0
split_feature=1 9 1 4 1 8 4 4 4 2 2 1 2 2 1 2 7 8 1 3 2 8 2 0 1 2 1 7 6 7
split_gain=1960.66 5807.02 2284.5 4599.08 4090.29 2589.12 2427.52 6486.54 8318.08 8313.5 5443.84 24772.5 7454.83 4553.71 4538.49 6793.25 4492.74 7535.08 5105.23 4474.29 4246.46 4173.9 3884.91 4288.57 3678.27 3935.94 3362.57 3356.49 3342.38 5463.03
threshold=9837.5000000000018 1.0000000180025095e-35 14895.000000000002 5.5000000000000009 16131.500000000002 71.933333000000019 7.5000000000000009 1.0000000180025095e-35 4.5000000000000009 9.3790758870137036 6.2968842328316841 34013.000000000007 7.0503088441011474 7.2119526654166028 94702.500000000015 8.2119526237827181 4.5000000000000009 107.38750000000002 78554.500000000015 4.5000000000000009 9.7161763131117542 107.53333300000001 6.2119526711912831 1987.5000000000002 31604.000000000004 6.7161764060894908 96121.000000000015 4.5000000000000009 5.5000000000000009 2.5000000000000004
decision_type=2 2 2 2 2 2 2 2 2 2 2 2 2 2 2 2 2 2 2 2 2 2 2 2 2 2 2 2 2 2
left_child=1 -1 3 5 -4 -2 7 10 9 14 11 -6 -12 19 15 -9 17 -15 -19 22 24 -16 -10 -24 25 27 -18 -8 -14 -30
right_child=2 -3 4 -5 6 -7 20 8 13 -11 12 -13 28 16 21 -17 26 18 -20 -21 -22 -23 23 -25 -26 -27 -28 -29 29 -31
leaf_value=-1.6691853421705742 0.50580146456206287 0.24886266369568674 -0.88698385678804836 -0.18115801778187357 0.84195270494716934 1.7051338637316669 0.65769954951185927 -0.44831858885995413 0.67752975090129963 -1.8550859168956155 1.2363413423299789 -2.8088129548465504 0.11095927401256911 -0.30718774856121722 -0.18816307700786092 -2.2864708785145056 -0.27101273692658845 -2.6081232295586516 -0.7216087856329978 -0.035567245937051947 -1.0959899584452311 0.86741493127562785 -0.27263479788528117 1.028018854930997 0.14501266536589394 -0.81858177257724751 0.32556794207024425 -0.21940614042743559 -0.82661464419215924 -0.010950758834299409
leaf_weight=27 54 38 52 75 41 27 57 472 185 38 52 34 3116 261 252 21 235 26 32 1424 30 44 122 32 2298 81 158 186 84 3655
leaf_count=27 54 38 52 75 41 27 57 472 185 38 52 34 3116 261 252 21 235 26 32 1424 30 44 122 32 2298 81 158 186 84 3655
internal_value=0 -0.547865 0.00270931 0.383109 -0.0018597 0.905579 0.00169831 -0.0202999 -0.135785 -0.410358 0.0343166 -0.813061 0.0435179 -0.044039 -0.340777 -0.526617 -0.257482 -0.536297 -1.56729 0.0421613 0.0870036 -0.0312528 0.368667 -0.0023691 0.100539 -0.214894 -0.0311661 -0.0136653 0.0344695 -0.0292754
internal_weight=0 65 13144 156 12988 81 12936 10284 3302 827 6982 75 6907 2475 789 493 712 319 58 1763 2652 296 339 154 2622 324 393 243 6855 3739
internal_count=13209 65 13144 156 12988 81 12936 10284 3302 827 6982 75 6907 2475 789 493 712 319 58 1763 2652 296 339 154 2622 324 393 243 6855 3739
is_linear=0
shrinkage=0.1


Tree=69
num_leaves=31
num_cat=0
split_feature=0 3 2 1 1 2 2 2 6 6 0 2 2 2 8 4 2 2 2 6 2 2 2 2 1 2 2 2 2 1
split_gain=1780.7 3889.79 3194.93 3608.3 3216.24 2744.84 20398.5 15509.9 9182.61 15757.7 9809.81 8428.18 8416.33 6710.75 12685 7132.95 6136.58 6365.3 9266.92 8802.35 6058.97 19133.5 10298.8 9196.42 8967.41 8944.21 9209 17529.2 13174.9 8479.29
threshold=1689.5000000000002 3.5000000000000004 5.1242814867597435 16131.500000000002 68393.500000000015 8.4641215484391719 8.3790759509298116 8.8832996071194845 6.5000000000000009 3.5000000000000004 1798.5000000000002 7.9654914229324083 8.3790758901694051 9.211952588152533 101.49999950000002 5.5000000000000009 8.3790758759165538 8.211952606406939 8.1270212203446217 4.5000000000000009 9.7983680619662632 9.7161763131117542 9.7161762927659847 10.21469230118891 31604.000000000004 10.21469222365703 10.050308734642043 10.050308904811882 10.129760786197656 78913.500000000015
decision_type=2 2 2 2 2 2 2 2 2 2 2 2 2 2 2 2 2 2 2 2 2 2 2 2 2 2 2 2 2 2
left_child=2 -2 4 -4 -1 6 11 8 9 -7 -11 -3 16 14 -9 -16 17 18 -13 -20 21 22 24 25 -15 26 -22 -28 -29 -30
right_child=1 5 3 -5 -6 7 -8 13 -10 10 -12 12 -14 20 15 -17 -18 -19 19 -21 23 -23 -24 -25 -26 -27 27 28 29 -31
leaf_value=0.048246554724918393 -1.1606890542166572 0.0054830939995505479 -1.1001959527666505 -0.10335437311522407 0.91131815304190433 0.12453672587871552 2.2385748530543128 -0.014221014076266242 -0.25989443555259878 -2.4658343634009365 0.010278120040893554 0.39351403842631139 -1.20155746974051 -1.6820318826088092 1.4504323943266793 -0.11264119163939829 1.7882471171292391 -0.047217371743944934 0.71807327758182182 2.9180731723385476 0.49512151145072097 -2.284038275215361 1.4026740077137949 -0.034467841305048472 -0.15049377162759803 1.0797307575638924 -1.9944993579387664 1.4678694549871951 0.62968361160971908 -1.9937762807522501
leaf_weight=161 28 4814 37 1953 59 56 43 287 278 80 20 323 32 41 126 38 33 217 44 31 297 45 40 3267 566 144 50 49 22 28
leaf_count=161 28 4814 37 1953 59 56 43 287 278 80 20 323 32 41 126 38 33 217 44 31 297 45 40 3267 566 144 50 49 22 28
internal_value=0 0.0164581 -0.0819108 -0.121889 0.279707 0.0194624 0.0690141 -0.0310285 -0.604465 -1.21851 -1.97061 0.0520335 0.381583 0.0187458 0.38668 1.08826 0.459763 0.388479 0.626031 1.62741 -0.0177322 -0.290199 -0.151524 0.0311521 -0.253942 0.394509 0.173271 -0.468269 0.302555 -0.839454
internal_weight=0 10999 2210 1990 220 10971 5537 5434 434 156 100 5494 680 5000 451 164 648 615 398 75 4549 692 647 3857 607 590 446 149 99 50
internal_count=13209 10999 2210 1990 220 10971 5537 5434 434 156 100 5494 680 5000 451 164 648 615 398 75 4549 692 647 3857 607 590 446 149 99 50
is_linear=0
shrinkage=0.1


Tree=70
num_leaves=31
num_cat=0
split_feature=6 6 2 8 8 2 2 1 2 2 1 3 6 6 2 2 2 2 1 6 2 6 1 1 2 1 2 0 1 1
split_gain=1728.6 4090.35 10641.8 4730.39 4209.33 7895.17 6013.22 4844.12 4154.58 3770.53 6814.78 4511.28 4902.84 4058.4 4023.61 4818.16 4434.24 5386.27 6638.01 6456.38 10808 7944.72 10265.4 5672.6 5125.98 7329.04 4683.34 4241.66 4149.24 7276.5
threshold=1.5000000000000002 3.5000000000000004 14.72165568355223 111.21428550000002 112.82142850000001 6.1270212448214396 5.8805600332417347 77501.000000000015 6.2119527275066382 13.718915966083022 81005.500000000015 4.5000000000000009 9.5000000000000018 5.5000000000000009 12.381815557490496 12.466861176545027 11.466861216392394 11.718915950059545 85707.500000000015 9.5000000000000018 12.214692233274418 6.5000000000000009 58433.500000000007 129915.50000000001 11.886039263667785 136329.00000000003 11.381815585254115 1998.5000000000002 228939.50000000003 182173.00000000003
decision_type=2 2 2 2 2 2 2 2 2 2 2 2 2 2 2 2 2 2 2 2 2 2 2 2 2 2 2 2 2 2
left_child=-1 2 3 -2 9 6 7 -6 -7 14 -11 12 13 -12 16 -16 26 18 -18 20 21 24 -23 -24 -19 27 28 -26 29 -3
right_child=1 4 -4 -5 5 8 -8 -9 -10 10 11 -13 -14 -15 15 -17 17 19 -20 -21 -22 22 23 -25 25 -27 -28 -29 -30 -31
leaf_value=-0.12068412457943421 0.071000804651081037 -0.0026942038384561075 1.4969388714703646 0.98432264107054679 -0.81769441965107736 -1.9203249779614535 0.73057170044936126 0.45476127593290239 -0.23727096779779955 -0.90033189721347751 -1.0128730014711618 0.19406219099191988 -1.6481065901120506 0.24657404187699439 1.3976625574959649 0.19645804831527836 -1.9143475580783118 1.3807277936684459 -0.090251833827872038 0.68891786861419679 -1.8386311135121756 -2.4498969849485621 0.040893582540137752 -1.6321839175224306 -0.71376462075355895 1.5370132471506412 1.1473941446178491 0.89652660233633863 -1.2569965012944664 0.86900464551350509
leaf_weight=1089 2547 7498 55 58 104 44 61 42 22 129 40 249 30 71 36 461 42 38 38 75 42 26 107 25 74 26 36 21 26 97
leaf_count=1089 2547 7498 55 58 104 44 61 42 22 129 40 249 30 71 36 461 42 38 38 75 42 26 107 25 74 26 36 21 26 97
internal_value=0 0.0108436 0.120399 0.0913358 -0.0199616 -0.406922 -0.103263 -0.451646 -1.35931 -0.00846269 -0.270275 -0.0618715 -0.513839 -0.207281 0.00721342 0.283467 -0.00958966 -0.293918 -1.0479 -0.154934 -0.331227 -0.131507 -0.633711 -0.275977 0.367538 0.0493456 0.00949675 -0.357806 0.00412156 0.00843875
internal_weight=0 12120 2660 2605 9460 273 207 146 66 9187 519 390 141 111 8668 497 8171 514 80 434 359 317 158 132 159 121 7657 95 7621 7595
internal_count=13209 12120 2660 2605 9460 273 207 146 66 9187 519 390 141 111 8668 497 8171 514 80 434 359 317 158 132 159 121 7657 95 7621 7595
is_linear=0
shrinkage=0.1


Tree=71
num_leaves=31
num_cat=0
split_feature=6 2 2 2 6 2 8 2 8 10 2 1 4 2 1 0 1 3 7 4 1 2 8 2 1 1 2 2 7 2
split_gain=1687.59 5311.71 4350.46 6299.21 8991.09 11331 6995.05 6565.95 7423.65 4516.61 4090.97 5259.92 4045.54 7932.09 8127.05 6981.45 5640.48 5761.8 5592.62 5564.22 5902.59 5819.14 5624.59 5055.66 5431.14 4954.9 9411.97 7621.97 7965.96 6098.7
threshold=9.5000000000000018 2.7545325918628683 7.2119527462971007 6.8832996879830537 10.500000000000002 5.5435736883615769 110.64285700000001 4.54357370275532 70.642856500000008 1.0000000180025095e-35 2.7545325918628683 9837.5000000000018 1.0000000180025095e-35 7.8832997149488522 88004.000000000015 1987.5000000000002 156137.00000000003 4.5000000000000009 4.5000000000000009 5.5000000000000009 24605.000000000004 7.7161763866714717 107.70833300000002 9.2119526619519281 31604.000000000004 37146.000000000007 6.8832997734138734 12.053048400652672 4.5000000000000009 11.299623804815004
decision_type=2 2 2 2 2 2 2 2 2 2 2 2 2 2 2 2 2 2 2 2 2 2 2 2 2 2 2 2 2 2
left_child=10 -2 3 4 6 7 -3 -6 -9 -10 -1 -12 25 19 23 16 17 -16 -17 21 22 -14 -21 24 -15 27 -27 29 -29 -13
right_child=1 2 -4 -5 5 -7 -8 8 9 -11 11 12 13 14 15 18 -18 -19 -20 20 -22 -23 -24 -25 -26 26 -28 28 -30 -31
leaf_value=0.87385417807335952 -1.4827683542262424 0.43231987306848174 -0.010923087821745925 0.74462249235282496 -0.21279204326771919 -0.53607775777425271 2.106346791131156 -0.71705555670075771 1.3149681791015295 -0.10130234765154976 -1.127676233094792 0.34789887300820466 -0.32455190912286191 -2.2463306641578678 -1.8942330059481831 -0.7982332251966 0.21141520765290334 -0.41993358786900842 0.80427727426345264 -0.72833638497429087 0.055248765057234042 1.1424562686255999 0.67857894967584054 -1.9379314668476582 -0.49724129191305066 -1.7919658817093946 0.014834942801448193 -2.0768519621628982 0.19474155596996612 1.8626580651317324
leaf_weight=51 22 230 1967 201 124 292 28 29 115 28 43 524 788 20 41 28 67 75 98 173 2936 28 34 40 158 29 4948 26 38 28
leaf_count=51 22 230 1967 201 124 292 28 29 115 28 43 524 788 20 41 28 67 75 98 173 2936 28 34 40 158 29 4948 26 38 28
internal_value=0 0.0654292 0.0767299 0.241404 0.121845 -0.0940998 0.613997 0.341906 0.741804 1.03766 -0.0195265 -0.0240278 -0.0193193 -0.0900605 -0.454522 -0.124677 -0.519092 -0.941022 0.448164 -0.0415454 0.0188609 -0.274213 -0.497249 -0.922055 -0.693768 0.0374203 0.00430707 0.30496 -0.728093 0.424734
internal_weight=0 3036 3014 1047 846 588 258 296 172 143 10173 10122 10079 4486 527 309 183 116 126 3959 3143 816 207 218 178 5593 4977 616 64 552
internal_count=13209 3036 3014 1047 846 588 258 296 172 143 10173 10122 10079 4486 527 309 183 116 126 3959 3143 816 207 218 178 5593 4977 616 64 552
is_linear=0
shrinkage=0.1


Tree=72
num_leaves=31
num_cat=0
split_feature=2 2 2 6 6 4 2 6 3 8 2 2 2 1 2 3 2 2 6 7 1 9 7 4 2 2 6 1 1 6
split_gain=1729.73 20533.6 12588.1 7081.67 14151.3 10327 9924.57 7028.74 6041.57 5518.97 5170.47 6505.13 5432.02 4433.72 4074.89 6065.89 4023.32 6683.55 8456.02 3675.68 3662.2 3600.64 3825.51 3787.87 3461.17 3979.66 10563.8 3921.98 3263.96 3212.17
threshold=6.2119526711912831 6.2119527249557018 5.8805600332417347 6.5000000000000009 4.5000000000000009 1.0000000180025095e-35 5.2092129891312853 4.5000000000000009 4.5000000000000009 73.550118933333351 4.6285052188314335 4.4613819197255804 3.5024778345884795 58433.500000000007 5.2092129505043685 4.5000000000000009 4.7956284691041686 4.54357370275532 5.5000000000000009 4.5000000000000009 99267.500000000015 1.0000000180025095e-35 5.5000000000000009 7.5000000000000009 5.2092129918497232 5.5435736883615769 10.500000000000002 45007.000000000007 84102.500000000015 9.5000000000000018
decision_type=2 2 2 2 2 2 2 2 2 2 2 2 2 2 2 2 2 2 2 2 2 2 2 2 2 2 2 2 2 2
left_child=2 7 3 4 5 -1 8 -2 13 -8 11 12 -5 -6 15 -12 17 18 -10 -18 -9 22 -13 -23 -16 27 -27 -26 -21 -29
right_child=1 -3 -4 10 6 -7 9 20 16 -11 14 21 -14 -15 24 -17 19 -19 -20 28 -22 23 -24 -25 25 26 -28 29 -30 -31
leaf_value=-1.7581674310667763 -0.60191859651541879 0.0011021428511720961 0.73218976706409689 -0.23388456533197313 1.5852326416543552 0.15857574655112042 -0.7306307030380319 -2.5963684125380087 0.31806049376726153 -1.9005306646693498 -0.85722547562226004 1.1355311204989753 0.92432279739438039 -0.12562206638130277 -0.50251905163750055 0.85142273564671367 -0.52048700124901881 -2.0626844827551394 -1.2308074467618701 0.86138594636210686 -1.1175588586751153 -0.31645809524669882 -0.57125147632483786 -1.3522588029984506 -0.15602645079294841 0.5133337407295282 -0.73417483026073094 0.25206061174740663 -0.54019200901190445 1.3958166483738652
leaf_weight=29 141 10120 260 80 28 915 109 33 70 64 23 24 82 33 64 215 85 32 71 54 34 82 29 62 39 192 105 37 24 73
leaf_count=29 141 10120 260 80 28 915 109 33 70 64 23 24 82 33 64 215 85 32 71 54 34 82 29 62 39 192 105 37 24 73
internal_value=0 -0.0191125 0.0685158 0.00268014 -0.137874 0.0996927 -0.531319 -1.00263 -0.255867 -1.16343 0.194911 -0.117046 0.352369 0.659688 0.344634 0.686301 -0.422084 -0.757971 -0.461866 -0.06559 -1.84593 -0.503062 0.201631 -0.762428 0.185189 0.283873 0.0722954 0.70561 0.430131 1.0111
internal_weight=0 10328 2881 2621 1514 944 570 208 397 173 1107 359 162 61 748 238 336 173 141 163 67 197 53 144 510 446 297 149 78 110
internal_count=13209 10328 2881 2621 1514 944 570 208 397 173 1107 359 162 61 748 238 336 173 141 163 67 197 53 144 510 446 297 149 78 110
is_linear=0
shrinkage=0.1


Tree=73
num_leaves=31
num_cat=0
split_feature=3 1 9 1 4 1 2 6 6 1 2 1 1 9 7 6 1 4 8 2 2 2 6 6 2 2 2 6 2 1
split_gain=1579.51 2341.6 9858.85 2450.82 4076.81 3785.31 2240.01 5996.74 6896.81 5269.05 3910.09 4298.52 3206.91 3194.53 5284.86 6429.48 2581.45 2572.28 2475.3 2367.42 16533.6 8102.33 9833.01 9429.22 6281.54 5772.93 5872.21 5673.05 5578.53 4726.27
threshold=5.5000000000000009 9837.5000000000018 1.0000000180025095e-35 14895.000000000002 5.5000000000000009 16131.500000000002 4.2092129864428882 5.5000000000000009 6.5000000000000009 52203.000000000007 4.6285052188314335 31604.000000000004 82808.000000000015 1.0000000180025095e-35 5.5000000000000009 6.5000000000000009 47904.000000000007 6.5000000000000009 73.550118933333351 6.2119526711912831 6.2119527249557018 5.8805600477511417 6.5000000000000009 4.5000000000000009 4.9627517674243 5.2092129891312853 4.7956284691041686 4.5000000000000009 5.4613819270906108 67300.500000000015
decision_type=2 2 2 2 2 2 2 2 2 2 2 2 2 2 2 2 2 2 2 2 2 2 2 2 2 2 2 2 2 2
left_child=1 2 -1 4 -3 -5 7 12 16 -10 11 -8 17 14 15 -13 -9 -7 -19 21 27 22 23 24 -12 26 -25 -21 -26 -28
right_child=-2 3 -4 5 -6 6 10 8 9 -11 19 13 -14 -15 -16 -17 -18 18 -20 20 -22 -23 -24 25 28 -27 29 -29 -30 -31
leaf_value=-2.2765470751307229 0.30105887554412664 0.92273553319879476 0.53074711766736271 -0.92135285443729831 -0.17181194084031243 -0.36377186947280454 -1.3459855255327726 -1.9203800149585892 0.85041520785989955 -0.80045521505947781 -0.68048002662860418 -0.3278945393032498 1.1708640526411898 -0.44078137695357422 -0.6906503559769811 1.7390625387649328 -0.58461060462853853 -0.1033950400352478 0.77936227103626288 -0.54243283072752613 -0.0015901639900957037 0.70329866233468064 0.30837953026207082 -1.7303848168389366 0.4583979720897155 -0.95781316603409428 0.61428637709972023 -1.6613349519558807 -0.22029580409871416 -0.4251330488300491
leaf_weight=22 172 74 29 45 63 42 38 23 58 29 94 27 59 207 37 34 39 45 108 140 9909 200 738 22 328 187 74 67 192 107
leaf_count=22 172 74 29 45 63 42 38 23 58 29 94 27 59 207 37 34 39 45 108 140 9909 200 738 22 328 187 74 67 192 107
internal_value=0 -0.00397194 -0.680243 -0.00131601 0.419403 -0.00580185 -0.00258413 0.229437 -0.274213 0.300125 -0.0101242 -0.343056 0.524885 -0.218101 0.252254 0.82418 -1.08014 0.329436 0.519728 -0.000653682 -0.0200679 0.100476 0.0312659 -0.172429 0.0718121 -0.556953 -0.187687 -0.90459 0.207803 -0.00017704
internal_weight=0 13037 51 12986 137 12849 12804 403 149 87 12401 343 254 305 98 61 62 195 153 12058 10116 1942 1742 1004 614 390 203 207 520 181
internal_count=13209 13037 51 12986 137 12849 12804 403 149 87 12401 343 254 305 98 61 62 195 153 12058 10116 1942 1742 1004 614 390 203 207 520 181
is_linear=0
shrinkage=0.1


Tree=74
num_leaves=31
num_cat=0
split_feature=0 6 1 2 1 3 1 8 8 1 1 6 4 2 1 1 1 2 1 1 2 2 2 1 6 1 8 1 1 2
split_gain=1488.66 3424.86 4093.33 10575.8 5714.53 5548.07 9410.18 7339.32 9388.4 5766.41 5675.18 6248.18 5202.51 4484.13 4180.04 13279.6 3853.92 3835.85 5464.74 3520.47 3199.99 4913.89 7693.78 4261.87 4008.54 4165.21 3746.04 3403.84 4639.82 4017.57
threshold=1998.5000000000002 5.5000000000000009 49201.000000000007 12.053048380238801 53586.500000000007 4.5000000000000009 114699.50000000001 109.60003963333334 107.38750000000002 123608.00000000001 99267.500000000015 8.5000000000000018 4.5000000000000009 12.718915958642595 90407.000000000015 76861.500000000015 42500.500000000007 9.7983681014818096 148871.50000000003 82166.500000000015 14.469600882177216 12.886039255542789 12.381815557490496 120902.50000000001 4.5000000000000009 61505.000000000007 107.38750000000002 56513.000000000007 47904.000000000007 10.843573603762374
decision_type=2 2 2 2 2 2 2 2 2 2 2 2 2 2 2 2 2 2 2 2 2 2 2 2 2 2 2 2 2 2
left_child=-1 20 3 16 -4 14 7 8 -7 -8 11 19 -9 -11 15 -6 -3 -16 -19 -10 21 22 24 26 27 -26 -23 28 -2 -29
right_child=1 2 4 -5 5 6 9 12 10 13 -12 -13 -14 -15 17 -17 -18 18 -20 -21 -22 23 -24 -25 25 -27 -28 29 -30 -31
leaf_value=-0.010416374004092193 0.18070154349009196 -0.40517427523930866 -1.4071829194531722 2.5971461319923401 -1.4974015850287219 -0.97039682078556933 2.3768655320872432 -2.0736398816108705 0.48540811114841037 -0.09783503782181513 -0.89121852287879355 1.2936470850211819 -0.1953061999431972 1.5539633855775552 0.13613839030265809 1.7305095853805543 0.99884011005533146 -2.281122656549726 -0.38762592916135441 -1.0826287451244536 -0.60178584638569088 0.72000007791952658 -1.4516349093558698 -0.26863292058308924 0.019448382431460964 1.4839002882058805 2.1062425577640531 -0.42417178453246429 1.9808421645845689 0.54575317419613856
leaf_weight=12049 45 60 34 20 26 61 23 30 45 42 26 82 29 27 20 25 29 35 27 21 36 44 26 21 31 52 35 121 21 66
leaf_count=12049 45 60 34 20 26 61 23 30 45 42 26 82 29 27 20 25 29 35 27 21 36 44 26 21 31 52 35 121 21 66
internal_value=0 0.108196 -0.040836 0.519255 -0.151234 -0.0689557 0.122964 -0.153237 0.0971121 1.00561 0.471354 0.710724 -1.15039 0.548521 -0.625956 0.0849078 0.0523136 -1.06808 -1.45654 -0.0135127 0.306306 0.377066 0.205656 0.997572 0.333898 0.936936 1.33416 0.136064 0.753474 -0.0818453
internal_weight=0 1160 662 109 553 519 386 294 235 92 174 148 59 69 133 51 89 82 62 66 498 462 362 100 336 83 79 253 66 187
internal_count=13209 1160 662 109 553 519 386 294 235 92 174 148 59 69 133 51 89 82 62 66 498 462 362 100 336 83 79 253 66 187
is_linear=0
shrinkage=0.1


Tree=75
num_leaves=31
num_cat=0
split_feature=7 9 1 1 3 4 2 8 1 1 6 0 1 1 1 2 4 1 6 6 7 2 2 8 6 1 1 2 7 1
split_gain=1481.11 3807.99 4775.83 4353.25 1634.59 4785.51 7645.5 4910.7 16353.7 7024.16 6436.06 5329.05 4828.69 8242.66 4457.44 7986.56 13635.5 6342.05 5042.03 5114.87 4997.79 4949.39 5605.45 4893.79 4387.72 4046.55 4020.89 3636.75 3254.43 3166
threshold=1.0000000180025095e-35 1.0000000180025095e-35 50243.500000000007 118526.00000000001 4.5000000000000009 6.5000000000000009 7.2119526654166028 107.70833300000002 53586.500000000007 228939.50000000003 4.5000000000000009 2494.5000000000005 32880.000000000007 22101.500000000004 77501.000000000015 6.2968842328316841 4.5000000000000009 67604.500000000015 8.5000000000000018 4.5000000000000009 4.5000000000000009 14.053048370280708 13.053048371866838 107.53333300000001 7.5000000000000009 131229.50000000003 109001.00000000001 10.46686117315083 5.5000000000000009 97915.500000000015
decision_type=2 2 2 2 2 2 2 2 2 2 2 2 2 2 2 2 2 2 2 2 2 2 2 2 2 2 2 2 2 2
left_child=1 2 -1 -3 5 7 29 9 -9 11 27 12 13 -2 15 16 -14 -17 19 -19 21 22 -16 -22 -8 26 -12 -10 -29 -7
right_child=4 3 -4 -5 -6 6 24 8 10 -11 25 -13 14 -15 20 17 -18 18 -20 -21 23 -23 -24 -25 -26 -27 -28 28 -30 -31
leaf_value=0.7585467413777397 -0.2489427061080933 -0.14738873374462128 -0.89343507139278311 1.4523569069125437 0.023010568705942858 0.75590621935633517 -0.92530614070489381 -2.8677794910415457 -0.47305598619648004 -1.7714988072713216 -0.60841826484961947 -1.6363336108979725 -2.5538521178066733 2.4384608558246068 -0.13053836139043498 0.11397808722132385 0.45321632170677184 -0.60758482219980048 -0.054783357963675554 -2.1248680587970852 0.15826414375147527 0.56867012744571299 -1.2234953596442939 1.1092048211892445 0.36414463394099761 -1.3308167494260348 0.95264034582809975 1.9981508039292835 0.2577447998252782 0.063837913185358058
leaf_weight=21 25 75 105 22 10181 195 71 27 22 24 66 21 38 21 763 307 25 68 84 33 552 94 50 60 42 52 22 21 22 100
leaf_count=21 25 75 105 22 10181 195 71 27 22 24 66 21 38 21 763 307 25 68 84 33 552 94 50 60 42 52 22 21 22 100
internal_value=0 -0.255531 -0.618105 0.21544 0.00438807 -0.063204 0.253389 -0.117092 -0.554335 -0.0702375 -0.249637 -0.0511669 -0.0354647 0.977915 -0.0579409 -0.300474 -1.36057 -0.16473 -0.627234 -1.10333 0.0306738 -0.118325 -0.197756 0.251494 -0.446041 -0.631428 -0.218154 0.572682 1.10771 0.521307
internal_weight=0 223 126 97 12986 2805 408 2397 232 2165 205 2141 2120 46 2074 555 63 492 185 101 1519 907 813 612 113 140 88 65 43 295
internal_count=13209 223 126 97 12986 2805 408 2397 232 2165 205 2141 2120 46 2074 555 63 492 185 101 1519 907 813 612 113 140 88 65 43 295
is_linear=0
shrinkage=0.1


Tree=76
num_leaves=31
num_cat=0
split_feature=2 6 6 2 6 2 1 9 2 2 9 2 2 0 1 2 1 0 1 1 8 6 1 6 7 8 1 1 6 2
split_gain=1484.91 3090.18 6841.91 2522.23 4080.36 1477.37 10573.6 7255.84 3932.67 4015.06 9485.42 4317.81 10402.4 6207.61 4030.48 3917.46 3840.43 4915.26 3468.54 3400.34 3231.66 3017.7 3087.47 3752.87 2891 7586.29 2942.53 3760.02 2949.09 6128.92
threshold=15.21743193982473 6.5000000000000009 3.5000000000000004 15.013379443489315 3.5000000000000004 14.217431932621443 136329.00000000003 1.0000000180025095e-35 14.053048370280708 13.886039246624437 1.0000000180025095e-35 12.801107729425212 12.801107754016973 1998.5000000000002 111310.00000000001 13.21469222203975 75522.500000000015 1791.0000000000002 34796.000000000007 107750.00000000001 58.83333300000001 6.5000000000000009 93602.000000000015 3.5000000000000004 2.5000000000000004 71.933333000000019 228939.50000000003 182173.00000000003 9.5000000000000018 12.129760767337375
decision_type=2 2 2 2 2 2 2 2 2 2 2 2 2 2 2 2 2 2 2 2 2 2 2 2 2 2 2 2 2 2
left_child=3 2 -2 5 -5 8 7 21 9 11 -11 14 -13 18 -1 -15 -10 19 -14 -18 -16 22 23 -7 25 -22 27 28 29 -26
right_child=1 -3 -4 4 -6 6 -8 -9 16 10 -12 12 13 15 20 -17 17 -19 -20 -21 24 -23 -24 -25 26 -27 -28 -29 -30 -31
leaf_value=0.016407491882320661 0.16702739153714741 0.33424325993186549 -1.9049193427121889 1.6170151278972626 -0.17226238823854007 -1.1028922693996595 0.75463496017746812 -1.4824149690213657 -0.77620234074799921 -1.9322178885340691 0.085708163181940716 1.6210232454996842 -1.3241025901958348 1.5547751832840055 -0.90368730410808462 0.31668945924630243 -0.48647006235870666 1.0240666478596352 0.026244229821435591 1.0009245693344961 2.1244644641876222 -0.71018284193107073 0.79230288724814146 0.67770507544279102 -0.18099768602024721 -0.48851415061950682 -1.021228457342934 0.37743875647229808 0.10731786243070703 -1.2068812905764972
leaf_weight=9928 34 38 30 25 26 29 82 63 23 36 66 52 20 43 54 63 51 108 389 22 20 70 42 20 1285 25 37 140 327 61
leaf_count=9928 34 38 30 25 26 29 82 63 23 36 66 52 20 43 54 63 51 108 389 22 20 70 42 20 1285 25 37 140 327 61
internal_value=0 -0.380073 -0.804198 0.00295776 0.704834 0.000216057 -0.216921 -0.57258 0.00542735 -0.00165456 -0.626501 0.00346713 0.273063 0.136959 -0.00940321 0.818932 0.440965 0.595633 -0.0397874 -0.0382141 -0.14088 -0.216558 0.163153 -0.376118 -0.119143 0.67281 -0.138407 -0.12039 -0.16205 -0.22749
internal_weight=0 102 64 13107 51 13056 306 224 12750 12546 102 12444 567 515 11877 106 204 181 409 73 1949 161 91 49 1895 45 1850 1813 1673 1346
internal_count=13209 102 64 13107 51 13056 306 224 12750 12546 102 12444 567 515 11877 106 204 181 409 73 1949 161 91 49 1895 45 1850 1813 1673 1346
is_linear=0
shrinkage=0.1


Tree=77
num_leaves=31
num_cat=0
split_feature=7 9 1 3 1 4 2 4 2 2 1 2 3 1 2 0 4 1 1 6 2 1 2 2 1 0 6 2 2 2
split_gain=1350 2869.67 3849.13 3495.3 2572.74 1636 8141.82 8120.3 6044.41 7787.12 6163.48 7444.18 4941.82 5842.99 8852.88 7336.59 4344.7 4229.83 4190.81 3782.73 5523.86 3458.6 3644.04 3451.8 3807.61 3311.75 3194.83 5644.35 7617.33 10682
threshold=1.0000000180025095e-35 1.0000000180025095e-35 50243.500000000007 4.5000000000000009 74022.500000000015 1.0000000180025095e-35 11.299623804815004 3.5000000000000004 7.2119526654166028 7.2119525999351408 96121.000000000015 8.296884110633977 4.5000000000000009 120027.00000000001 7.9654914472085858 1798.5000000000002 5.5000000000000009 134914.50000000003 61110.500000000007 7.5000000000000009 7.0503088441011474 151260.00000000003 8.7983681492084909 5.3763362645374375 23037.000000000004 2428.0000000000005 4.5000000000000009 5.8805600332417347 6.2119526711912831 6.2119527275066382
decision_type=2 2 2 2 2 2 2 2 2 2 2 2 2 2 2 2 2 2 2 2 2 2 2 2 2 2 2 2 2 2
left_child=1 2 -1 -3 -5 23 7 -7 9 19 11 -10 21 -14 17 -16 -13 -15 -18 25 -21 22 -12 24 -2 26 -9 -28 -29 -30
right_child=5 3 -4 4 -6 6 -8 8 10 -11 12 16 13 14 15 -17 18 -19 -20 20 -22 -23 -24 -25 -26 -27 27 28 29 -31
leaf_value=0.6771857278188691 -0.097977952100336552 1.2416235509126083 -0.80588685643105284 -1.0477873745171919 0.22619817180960788 -1.0093349002256811 -1.9995419275192987 0.029217739359433195 -0.21061463335309905 0.67966074214306893 -0.26197228487318669 -2.1326882142287036 0.74062085436975089 -0.0016626424156129362 -0.29254601136330638 1.2586103746543329 -1.395161112477737 -1.492228594232113 -0.27835044104251122 0.16939687184737531 -1.0064725690135141 0.16136136826980546 -1.4553933784365656 0.043332023620287256 -1.8568656682968141 0.93932035402818159 -0.38650626404311228 0.78822594501211185 -1.7904821031623417 0.026391919999150561
leaf_weight=21 32 23 105 23 51 83 21 1447 812 186 71 26 164 32 62 60 56 47 84 1561 41 83 40 6907 20 33 650 112 36 320
leaf_count=21 32 23 105 23 51 83 21 1447 812 186 71 26 164 32 62 60 56 47 84 1561 41 83 40 6907 20 33 650 112 36 320
internal_value=0 -0.243959 -0.558708 0.16489 -0.16977 0.00418935 -0.0339504 -0.0270777 -0.0133131 0.0464879 -0.183962 -0.335357 0.0809121 0.297678 -0.0637273 0.470318 -0.945544 -0.888455 -0.725075 0.0184474 0.139303 -0.326922 -0.692034 0.0372211 -0.774473 -0.0560755 -0.0688817 -0.195849 0.0689516 -0.157337
internal_weight=0 223 126 97 74 12986 6027 6006 5923 4386 1537 978 559 365 201 122 166 79 140 4200 1602 194 111 6959 52 2598 2565 1118 468 356
internal_count=13209 223 126 97 74 12986 6027 6006 5923 4386 1537 978 559 365 201 122 166 79 140 4200 1602 194 111 6959 52 2598 2565 1118 468 356
is_linear=0
shrinkage=0.1


Tree=78
num_leaves=31
num_cat=0
split_feature=3 8 8 0 1 9 1 4 1 1 2 6 6 1 2 1 1 9 7 6 9 4 8 1 1 2 2 2 6 6
split_gain=1291.9 2122.85 2758.99 3260.45 1836.22 7911.92 1929.32 3220.98 3049.45 2180 2003.46 4584.1 5342.43 4036.8 3304.01 3467.43 2635.19 2515.59 4218.63 5082.65 2312.78 1982.37 1979.72 2212.2 3061.14 1877.02 12296.4 5861.49 7325.04 6922.42
threshold=5.5000000000000009 103.01666650000001 71.261904000000015 1795.5000000000002 9837.5000000000018 1.0000000180025095e-35 14895.000000000002 5.5000000000000009 16131.500000000002 11946.500000000002 4.2092129864428882 5.5000000000000009 6.5000000000000009 52203.000000000007 4.6285052188314335 31604.000000000004 82808.000000000015 1.0000000180025095e-35 5.5000000000000009 6.5000000000000009 1.0000000180025095e-35 6.5000000000000009 73.550118933333351 45630.000000000007 29605.000000000004 6.2119526711912831 6.2119527249557018 5.8805600477511417 6.5000000000000009 4.5000000000000009
decision_type=2 2 2 2 2 2 2 2 2 2 2 2 2 2 2 2 2 2 2 2 2 2 2 2 2 2 2 2 2 2
left_child=4 2 3 -2 5 -1 7 9 -8 -6 11 16 20 -14 15 -12 21 18 19 -17 -13 -10 -23 24 -24 27 -27 28 29 -16
right_child=1 -3 -4 -5 6 -7 8 -9 10 -11 14 12 13 -15 25 17 -18 -19 -20 -21 -22 22 23 -25 -26 26 -28 -29 -30 -31
leaf_value=-2.0324780344963074 0.063472773279994718 0.91046671211719521 -0.41435161052180125 1.5482920090357464 1.5793074550628663 0.48239211542853 -0.82697588218583007 -0.15346504459305416 -0.31031130435211318 0.43174461101999095 -1.216278150207118 -0.04749319911003113 0.76389993275034018 -0.68109180351783494 0.063886363329881568 -0.29922878079944187 1.0609837500725763 -0.40088432144715597 -0.62832443883290168 1.5385306800113006 -1.3540350185973304 -0.091972645918528245 0.51850425523740273 0.3002167848778553 2.1507807008922102 -0.78085203340484044 -0.0021091570511065274 0.60202055723220116 0.26960135478107383 -0.47485390092508917
leaf_weight=22 50 40 61 21 25 29 45 63 42 49 38 20 58 29 614 27 59 207 37 34 42 45 27 61 20 207 9909 200 738 390
leaf_count=22 50 40 61 21 25 29 45 63 42 49 38 20 58 29 614 27 59 207 37 34 42 45 27 61 20 207 9909 200 738 390
internal_value=0 0.272273 0.0788812 0.502645 -0.00359216 -0.602454 -0.00124025 0.372043 -0.00522031 0.819435 -0.00233222 0.217096 -0.223254 0.282236 -0.00946308 -0.315507 0.475412 -0.203279 0.214111 0.725096 -0.93257 0.298239 0.465292 0.697486 1.21309 -0.000757413 -0.0180443 0.089291 0.0304242 -0.145385
internal_weight=0 172 132 71 13037 51 12986 137 12849 74 12804 403 149 87 12401 343 254 305 98 61 62 195 153 108 47 12058 10116 1942 1742 1004
internal_count=13209 172 132 71 13037 51 12986 137 12849 74 12804 403 149 87 12401 343 254 305 98 61 62 195 153 108 47 12058 10116 1942 1742 1004
is_linear=0
shrinkage=0.1


Tree=79
num_leaves=31
num_cat=0
split_feature=0 8 1 0 8 2 2 2 2 10 1 1 2 2 2 7 2 8 2 6 7 1 2 1 6 6 6 1 7 2
split_gain=1212.75 3171.57 3341.84 3316.78 3694.91 3107.81 2789.1 2712.7 5029.28 3321.59 2908.64 6608.96 3021.41 7816.48 4372.21 5100.68 3978.77 3310.74 5461.73 3045.58 5124.72 4310.43 4086.1 2704.7 8261.27 2551.16 5201.59 2388.7 2303.43 4969.31
threshold=1998.5000000000002 101.49999950000002 107202.50000000001 2428.0000000000005 106.48277760000002 7.5463134308430844 15.594258413171639 7.2119527462971007 7.9654914229324083 1.0000000180025095e-35 37146.000000000007 31030.500000000004 10.129760786197656 9.6312447890226611 9.7983681014818096 5.5000000000000009 9.4641215157454539 108.42500000000001 11.968231042750487 3.5000000000000004 5.5000000000000009 66575.500000000015 14.469600960473128 95507.000000000015 5.5000000000000009 8.5000000000000018 4.5000000000000009 110229.50000000001 4.5000000000000009 11.718915950059545
decision_type=2 2 2 2 2 2 2 2 2 2 2 2 2 2 2 2 2 2 2 2 2 2 2 2 2 2 2 2 2 2
left_child=6 2 25 28 5 -5 -1 9 -9 -6 11 -10 13 16 -15 -16 27 18 -14 -19 -21 -22 -23 24 -20 26 -2 -12 29 -3
right_child=1 3 -4 4 7 -7 -8 8 10 -11 12 -13 17 14 15 -17 -18 19 23 20 21 22 -24 -25 -26 -27 -28 -29 -30 -31
leaf_value=-0.0064558837061391185 -1.4919617321511562 -1.0263748019933701 0.60413656668229543 -0.1551519723165603 -0.20973377029101054 1.3920938877498403 -0.79520373092757335 -1.0732531049102545 -0.3169624321801322 1.4071186273186296 0.15793227020489134 1.7244165515077527 -1.3449349259413206 2.1876479909533546 1.7582021225066413 -0.18375049556948639 -1.5637990525790624 0.83182556471403901 0.97642440676689157 -1.6908191361278295 1.0853212569441115 -1.5509592539072037 0.42397496876391499 0.85325111259113662 -1.8025124456571497 -1.6711804367925813 0.63681373198827107 -1.0019878658381376 0.5830088284924041 0.37736984105671156
leaf_weight=12004 22 32 22 21 24 34 45 50 35 27 92 29 65 21 21 38 21 34 20 20 28 20 22 22 23 23 24 22 229 119
leaf_count=12004 22 32 22 21 24 34 45 50 35 27 92 29 65 21 21 38 21 34 20 20 28 20 22 22 23 23 24 22 229 119
internal_value=0 0.0976557 -0.469074 0.145899 0.0150861 0.801327 -0.00940166 -0.0531209 -0.114301 0.646247 -0.0243426 0.608037 -0.110638 0.16524 0.948504 0.507453 -0.298917 -0.344156 -0.696758 0.0255076 -0.279101 0.124247 -0.51647 -0.0485811 -0.509984 -0.811258 -0.381296 -0.065912 0.383084 0.0798875
internal_weight=0 1160 91 1069 689 55 12049 634 583 51 533 64 469 215 80 59 135 254 130 124 90 70 42 65 43 69 46 114 380 151
internal_count=13209 1160 91 1069 689 55 12049 634 583 51 533 64 469 215 80 59 135 254 130 124 90 70 42 65 43 69 46 114 380 151
is_linear=0
shrinkage=0.1


Tree=80
num_leaves=31
num_cat=0
split_feature=8 6 2 2 2 1 8 0 1 6 2 4 1 2 2 2 8 2 2 2 6 2 4 1 2 2 2 8 2 2
split_gain=1233.54 3504.54 3796.52 3160.26 3114.99 3431.02 2335.07 2692.83 2509.77 2328.85 1794.98 1500.5 1369.23 3495.61 9035.21 4655 6184.2 4653.21 4338.77 6681.31 4437.68 4196.2 3468.41 3308.61 2471.4 2040.18 8835.58 7241.81 7990.82 11876.7
threshold=112.82142850000001 3.5000000000000004 5.7134366996861745 6.1270212448214396 5.8805600332417347 88326.000000000015 111.21428550000002 2428.0000000000005 79607.500000000015 6.5000000000000009 6.2119527275066382 7.5000000000000009 25640.500000000004 12.381815557490496 9.4641215522409947 8.0503087729727429 110.64285700000001 10.21469226364327 6.3790760117053553 7.3790759424816263 4.5000000000000009 10.718915965786598 1.0000000180025095e-35 22101.500000000004 6.7161764763216274 7.2119526654166028 7.2119525999351408 110.64285700000001 6.4641216951683331 6.7161764060894908
decision_type=2 2 2 2 2 2 2 2 2 2 2 2 2 2 2 2 2 2 2 2 2 2 2 2 2 2 2 2 2 2
left_child=6 2 -2 4 5 9 12 8 -8 -3 -5 -11 13 14 15 16 18 -16 20 24 -1 -19 -22 -24 -20 26 27 -14 -29 -30
right_child=1 3 -4 10 -6 -7 7 -9 -10 11 -12 -13 25 -15 17 -17 -18 21 19 -21 22 -23 23 -25 -26 -27 -28 28 29 -31
leaf_value=-0.47274923352331949 -0.74483268439769745 -1.440163253915721 0.87213437971922581 -1.3222085054286503 0.44136087601302104 0.50545627289102413 1.8500249371642159 -0.28870801437984811 0.30397992474692215 -0.98621481698134861 -0.21593133454973046 -0.10000810926514013 -0.010152440926305571 -1.1502569485455751 1.8687290399238983 -0.91931922723011805 1.3596691796073208 -0.55975711412470919 -2.249798149721963 0.11240223659235134 0.86372622365043272 1.0042321605341775 -0.17225257381339748 0.93991838968358943 -0.96082641155112025 -0.017727004147866637 0.7160979434440089 -0.72614499609521099 2.1917094694958492 0.40391984418059884
leaf_weight=145 20 29 53 44 61 32 21 22 21 29 22 56 3274 32 29 83 27 29 21 57 63 42 163 32 51 8220 201 47 44 239
leaf_count=145 20 29 53 44 61 32 21 22 21 29 22 56 3274 32 29 83 27 29 21 57 63 42 163 32 51 8220 201 47 44 239
internal_value=0 -0.186327 0.42913 -0.350899 -0.158782 -0.409526 0.00501197 0.607539 1.077 -0.666363 -0.953449 -0.402361 0.0019991 -0.126922 -0.0827886 -0.220509 -0.116751 0.801379 -0.191682 -0.696442 -0.0301084 0.36542 0.218663 0.0102575 -1.33678 0.0102972 0.0708383 0.0348513 0.481343 0.68188
internal_weight=0 346 73 273 207 146 12863 64 42 114 66 85 12799 774 742 642 559 100 532 129 403 71 258 195 72 12025 3805 3604 330 283
internal_count=13209 346 73 273 207 146 12863 64 42 114 66 85 12799 774 742 642 559 100 532 129 403 71 258 195 72 12025 3805 3604 330 283
is_linear=0
shrinkage=0.1


Tree=81
num_leaves=31
num_cat=0
split_feature=8 1 2 8 2 1 2 2 2 2 6 6 2 2 2 8 2 4 2 2 4 2 6 2 1 7 1 2 1 7
split_gain=1184.9 2475.83 2404.5 1245.78 5445.82 3512.62 2905.97 2949.63 15784 12205.1 9457.57 14588.2 7299.06 6889.9 6008.94 10463.5 5173.25 4965.15 4769.07 5062.28 7783.04 8331.12 12840.8 4331.15 9573.56 7792.79 8166.64 5423.63 5132.15 5054.72
threshold=57.916666000000006 82166.500000000015 12.299623730004047 60.141983933333343 11.214692242944684 119207.00000000001 1.0000000180025095e-35 8.4641215484391719 8.3790759509298116 8.8832996071194845 6.5000000000000009 3.5000000000000004 7.9654914229324083 8.3790758901694051 9.211952588152533 101.49999950000002 9.211952555630381 5.5000000000000009 8.3790758759165538 8.211952606406939 4.5000000000000009 8.1270212203446217 4.5000000000000009 7.2968841469192958 129915.50000000001 4.5000000000000009 67999.500000000015 7.4641216424348622 61879.500000000007 5.5000000000000009
decision_type=2 2 2 2 2 2 2 2 2 2 2 2 2 2 2 2 2 2 2 2 2 2 2 2 2 2 2 2 2 2
left_child=1 -1 -3 4 5 -2 -5 8 12 10 11 -9 23 18 15 16 -11 -17 19 20 21 -14 -23 -8 25 26 28 29 -25 -27
right_child=3 2 -4 6 -6 -7 7 9 -10 14 -12 -13 13 -15 -16 17 -18 -19 -20 -21 -22 22 -24 24 -26 27 -28 -29 -30 -31
leaf_value=1.1421729760510582 -0.071765669593517489 0.86607204363459633 -0.46115649724617991 -1.1953503990359604 1.2492306631803514 -0.6843595204651356 0.048640178933197692 0.12477281809385335 1.9474320447919045 -0.35886151100471186 -0.19953050872437844 -1.8875439777048211 0.57635656674214397 -1.0780909487977623 -0.031390012093724259 1.2900584518436402 0.50206206537719467 -0.014042088075688013 1.5961887428254793 -0.026346888013767757 0.0084721090037696411 0.80468183413147942 3.7305199538667999 -0.6152026897926125 -1.2501023040463528 0.41785463839769366 -0.010838694025427748 0.43356224619676587 -1.8766143780379068 -0.83430269511416566
leaf_weight=28 1463 21 39 20 30 100 4241 56 44 173 279 101 183 32 4724 126 117 38 33 217 151 40 24 139 78 54 231 305 42 80
leaf_count=28 1463 21 39 20 30 100 4241 56 44 173 279 101 183 32 4724 126 117 38 33 217 151 40 24 139 78 54 231 305 42 80
internal_value=0 0.365719 0.00337349 -0.0024528 -0.0853435 -0.110959 0.00900147 0.0110945 0.0605046 -0.0407799 -0.548908 -1.16977 0.0463123 0.354309 0.00200571 0.349498 -0.0115234 0.987889 0.425045 0.362203 0.574051 0.91981 1.90187 0.00580207 -0.189759 -0.0925714 -0.404939 0.200584 -0.907906 -0.329702
internal_weight=0 88 60 13121 1593 1563 11528 11508 5894 5614 436 157 5850 680 5178 454 290 164 648 615 398 247 64 5170 929 851 412 439 181 134
internal_count=13209 88 60 13121 1593 1563 11528 11508 5894 5614 436 157 5850 680 5178 454 290 164 648 615 398 247 64 5170 929 851 412 439 181 134
is_linear=0
shrinkage=0.1


Tree=82
num_leaves=31
num_cat=0
split_feature=4 4 4 2 1 2 1 6 2 1 2 1 2 2 6 6 2 9 6 6 2 8 0 2 1 7 6 0 1 1
split_gain=1121.49 3713.6 5662.08 5356.87 5174.76 3576.8 3209.51 3055.17 2788.91 2918.38 2805.08 11118.2 11570.5 7795.18 6975.75 9001.15 9504.99 6724.32 5824.26 6528.49 5820.19 5720.45 6069.07 6559.31 9332.52 8109.49 5110.83 5325.95 4104.92 5153.97
threshold=7.5000000000000009 1.0000000180025095e-35 3.5000000000000004 10.381815559263739 142912.00000000003 5.2092129868089687 36551.000000000007 3.5000000000000004 5.3763362645374375 23037.000000000004 8.4641215484391719 128650.00000000001 8.3790759509298116 8.7983680995982034 10.500000000000002 8.5000000000000018 7.4641215110559695 1.0000000180025095e-35 8.5000000000000018 3.5000000000000004 8.0503088947670101 71.261904000000015 2428.0000000000005 8.211952606406939 29605.000000000004 5.5000000000000009 6.5000000000000009 1987.5000000000002 79607.500000000015 47494.500000000007
decision_type=2 2 2 2 2 2 2 2 2 2 2 2 2 2 2 2 2 2 2 2 2 2 2 2 2 2 2 2 2 2
left_child=1 8 -3 5 -5 -4 7 -7 9 -1 11 12 14 18 15 21 -17 -16 19 -12 -18 -10 23 24 25 -23 -21 -28 29 -22
right_child=-2 2 3 4 -6 6 -8 -9 10 -11 13 -13 -14 -15 17 16 20 -19 -20 26 28 22 -24 -25 -26 -27 27 -29 -30 -31
leaf_value=-0.11172727067023516 0.05657849870379994 -0.91796322888638615 0.12492198765103241 -2.071447697109901 -0.25927072517573835 0.1321900968966277 -0.09211490524353734 -0.83329678773880012 -0.051579917126839042 -1.6515907692909242 0.51705093579045658 -1.1754526922258282 1.9476749674073961 0.027910954224472852 -0.13196486475375982 1.407866146415472 -0.64765828281975868 1.8964654327793555 0.076135221764306038 -1.6753546244877429 -0.99983515977859505 -0.99564855155792642 -0.65696396819855041 -0.51835598803701854 1.0712449567162106 1.0495524218588164 0.3008509755134583 -1.4356657579089658 -1.0928272755373092 0.78844533074333012
leaf_weight=32 2769 83 768 26 40 46 2239 114 244 20 29 59 38 5509 26 32 267 44 107 79 20 47 38 42 283 33 38 33 21 83
leaf_count=32 2769 83 768 26 40 46 2239 114 244 20 29 59 38 5509 26 32 267 44 107 79 20 47 38 42 283 33 38 33 21 83
internal_value=0 -0.0150063 -0.102425 -0.0814874 -0.973159 -0.062905 -0.123035 -0.555719 0.0256841 -0.703982 0.0310493 0.165212 0.230154 0.00148486 0.174844 0.113786 -0.249121 1.14305 -0.507541 -0.856442 -0.384731 0.337236 0.551392 0.664768 0.801659 -0.152003 -1.12198 -0.506262 0.18141 0.441206
internal_weight=0 10440 3316 3233 66 3167 2399 160 7124 52 7072 1277 1218 5795 1180 1110 423 70 286 179 391 687 443 405 363 80 150 71 124 103
internal_count=13209 10440 3316 3233 66 3167 2399 160 7124 52 7072 1277 1218 5795 1180 1110 423 70 286 179 391 687 443 405 363 80 150 71 124 103
is_linear=0
shrinkage=0.1


Tree=83
num_leaves=31
num_cat=0
split_feature=7 2 8 0 1 1 0 8 2 6 2 0 1 1 2 2 1 4 2 9 7 8 1 1 1 8 7 6 1 2
split_gain=1113.55 2684.46 4855.7 3981.62 2563.32 2469.56 1556.89 1331.38 2479.6 1455.23 3410.53 3061.81 2932.08 5101.61 4495.63 2079.35 2980.91 2320.07 2785.97 3160.37 2210.07 2189.87 3260.71 6405.3 4890.76 3180.02 2062.07 1954.04 3024.05 4990.62
threshold=1.0000000180025095e-35 8.8832996071194845 70.380952000000022 1791.0000000000002 78913.500000000015 120902.50000000001 1998.5000000000002 57.916666000000006 12.299623730004047 1.5000000000000002 14.469600882177216 1998.5000000000002 141421.00000000003 129915.50000000001 12.299623730004047 7.5463133558588043 40050.000000000007 4.5000000000000009 6.2119527041892315 1.0000000180025095e-35 4.5000000000000009 70.291666500000005 91116.000000000015 105577.50000000001 49681.500000000007 71.933333000000019 4.5000000000000009 4.5000000000000009 123608.00000000001 10.214692275525378
decision_type=2 2 2 2 2 2 2 2 2 2 2 2 2 2 2 2 2 2 2 2 2 2 2 2 2 2 2 2 2 2
left_child=1 4 3 -3 -1 6 -4 8 -2 10 11 12 13 14 15 17 20 18 19 -9 -17 -18 24 -24 -23 -26 -16 -11 -29 -30
right_child=7 2 5 -5 -6 -7 -8 9 -10 27 -12 -13 -14 -15 26 16 21 -19 -20 -21 -22 22 23 -25 25 -27 -28 28 29 -31
leaf_value=0.90006773084402081 1.0584777842659283 -0.7099118536710739 -1.7237397090477105 0.80611361992068409 -0.34863430934567607 -0.0090570156063352319 -0.74387602036999123 -0.90455001931016654 -0.062623958892010625 0.073249016455929794 -1.1801147666470759 0.5261490738237059 -0.8595140404139574 1.1733530575229276 -1.4084772706031801 0.073104773798296538 0.45351605116241223 -0.10359954508531154 -1.3975426056168296 0.75396985903382308 1.2043041455440033 -1.0528759779087429 -1.8864249664133994 0.098489042874929073 -0.10894087822932118 1.0209274426261163 -0.25272804200649263 0.0072359476586709012 -0.39623597728172011 0.04839627742017779
leaf_weight=35 34 30 34 41 31 21 31 27 47 3565 29 77 52 31 38 31 69 402 33 20 39 29 29 37 53 47 26 7261 513 497
leaf_count=35 34 30 34 41 31 21 31 27 47 3565 29 77 52 31 38 31 69 402 33 20 39 29 29 37 53 47 26 7261 513 497
internal_value=0 -0.221567 -0.446524 0.165539 0.313556 -0.951831 -1.25642 0.00380483 0.407962 0.00126808 -0.11047 -0.0806432 -0.129161 -0.0874728 -0.131888 -0.0685889 0.123176 -0.201472 -0.693279 -0.198797 0.703344 -0.0306564 -0.201979 -0.77367 0.0905141 0.422097 -0.938954 0.01136 -0.0153157 -0.177442
internal_weight=0 223 157 71 66 86 65 12986 81 12905 1069 1040 963 911 880 816 334 482 80 47 70 264 195 66 129 100 64 11836 8271 1010
internal_count=13209 223 157 71 66 86 65 12986 81 12905 1069 1040 963 911 880 816 334 482 80 47 70 264 195 66 129 100 64 11836 8271 1010
is_linear=0
shrinkage=0.1


Tree=84
num_leaves=31
num_cat=0
split_feature=8 6 2 2 2 1 6 8 0 1 2 2 1 2 2 2 2 2 6 8 2 1 4 6 2 4 1 2 8 4
split_gain=1035.05 2854.34 2983.5 2506.93 2583.16 2945.01 2928.18 1871.66 2183.31 1993.44 1498.4 1463.69 1239.79 2793.09 7261.31 4336.08 3760.37 3387.72 2207.62 3134.67 2541.05 4036.84 4033.27 3238.49 4725.36 2567.93 2117.54 4106.07 5317.31 3757.81
threshold=112.82142850000001 3.5000000000000004 5.7134366996861745 6.1270212448214396 5.8805600332417347 68393.500000000015 6.5000000000000009 111.21428550000002 2428.0000000000005 79607.500000000015 5.7134367640979331 6.2119527275066382 25640.500000000004 12.381815557490496 9.4641215522409947 9.211952555630381 10.21469226364327 10.718915965786598 5.5000000000000009 107.70833300000002 2.9627518377753272 9837.5000000000018 6.5000000000000009 2.5000000000000004 5.7134367640979331 7.5000000000000009 14895.000000000002 7.7161764935912407 63.95833300000001 1.0000000180025095e-35
decision_type=2 2 2 2 2 2 2 2 2 2 2 2 2 2 2 2 2 2 2 2 2 2 2 2 2 2 2 2 2 2
left_child=7 2 -2 4 5 6 -3 12 9 -9 -8 -5 13 14 15 18 -16 -18 20 26 -1 -22 23 -23 -25 -24 -20 28 -28 -30
right_child=1 3 -4 11 -6 -7 10 8 -10 -11 -12 -13 -14 -15 16 -17 17 -19 19 -21 21 22 25 24 -26 -27 27 -29 29 -31
leaf_value=0.38111123286187648 -0.65594020083546645 -1.7680207983368921 0.77747396265841884 -1.1888610230420125 0.39842249199015201 0.18477894475585538 -0.90053183237711587 1.6556822844914028 -0.26298552372238854 0.27781588236490884 0.038708282709121709 -0.18987708579410206 0.0097897873568520907 -1.0355239685624837 1.6708039888020221 -1.6541052770614624 -0.51189201433083109 0.89337731755915151 0.27336839789081185 0.91338961575712485 -1.8400177192687988 0.7364987206459046 -1.7271072040904654 0.88716642886400232 -0.98039052117438552 -0.53588954530218069 1.0972982603590935 -1.1865371394157411 0.70802673495446267 -0.65189194858715105
leaf_weight=40 20 21 53 44 61 57 33 21 22 21 35 22 12025 32 29 20 29 42 105 35 20 45 22 20 42 102 32 40 26 93
leaf_count=40 20 21 53 44 61 57 33 21 22 21 35 22 12025 32 29 20 29 42 105 35 20 45 22 20 42 102 32 40 26 93
internal_value=0 -0.170679 0.384758 -0.319202 -0.148092 -0.37643 -0.735856 0.00459107 0.544028 0.966749 -0.417099 -0.855866 0.00189367 -0.120782 -0.081332 -0.204795 0.711303 0.319394 -0.158194 0.0184505 -0.359119 -0.477084 -0.359081 0.0907418 -0.377953 -0.747235 -0.08737 -0.285682 -0.0470444 -0.354767
internal_weight=0 346 73 273 207 146 89 12863 64 42 68 66 12799 774 742 642 100 71 622 331 291 251 231 107 62 124 296 191 151 119
internal_count=13209 346 73 273 207 146 89 12863 64 42 68 66 12799 774 742 642 100 71 622 331 291 251 231 107 62 124 296 191 151 119
is_linear=0
shrinkage=0.1


Tree=85
num_leaves=31
num_cat=0
split_feature=0 8 1 0 8 2 1 2 1 1 6 1 1 1 1 6 2 2 1 2 2 2 2 2 6 7 1 1 1 1
split_gain=1027.16 2621.21 2774.97 2683.44 2886.91 2515.79 2365.92 3969.12 2592.02 4769.63 3854.86 10576.8 5346.04 8049.44 5584.72 8447.53 3136.14 6624.83 2668.57 3556.87 4783.86 7361.35 4155.23 5767.94 4422.68 4009.56 2145.93 5083.1 9497.4 5313.98
threshold=1998.5000000000002 101.49999950000002 107202.50000000001 2428.0000000000005 106.48277760000002 7.7983681410758861 164749.50000000003 14.888778967043953 132547.50000000003 120902.50000000001 2.5000000000000004 62315.500000000007 100709.50000000001 107750.00000000001 89566.500000000015 5.5000000000000009 6.7161764060894908 7.9654914472085858 81815.500000000015 11.801107792885606 10.718915965786598 10.050308904811882 9.6312447890226611 8.6312448479596107 10.500000000000002 5.5000000000000009 76473.000000000015 102305.00000000001 112004.00000000001 139503.50000000003
decision_type=2 2 2 2 2 2 2 2 2 2 2 2 2 2 2 2 2 2 2 2 2 2 2 2 2 2 2 2 2 2
left_child=-1 2 -2 26 5 -5 7 8 9 10 11 -6 14 -14 16 -16 -12 -18 19 20 21 22 23 -19 -25 -24 -3 -28 -29 -30
right_child=1 3 -4 4 6 -7 -8 -9 -10 -11 12 -13 13 -15 15 -17 17 18 -20 -21 -22 -23 25 24 -26 -27 27 28 29 -31
leaf_value=-0.008652415857989277 -0.73715737293595851 0.026938578508518364 0.55261663848703557 -0.0032335758209228516 0.64720234101818452 1.3514331928614913 -1.0879225759279161 1.3103964657946068 0.86436268008988471 -1.40192121775062 1.0810617952511228 -1.827438909579546 2.5322210414069044 -0.078208426192954747 0.46264886231649494 -2.1905770560460431 -1.3958431119399686 1.0037392634537914 0.98753804474165952 -0.65226905992475614 1.3320512810439775 -1.1947418292363485 1.9977725903193158 -0.02407681941986084 -1.8882016134262085 0.30959812148528942 1.1656707169442642 -1.5127475023269654 1.1842669138402651 -0.066448336371353695
leaf_weight=12049 69 135 22 26 31 29 21 22 29 27 29 39 21 27 21 28 31 31 33 59 33 39 24 35 20 34 82 27 66 70
leaf_count=12049 69 135 22 26 31 29 21 22 29 27 29 39 21 27 21 28 31 31 33 59 33 39 24 35 20 34 82 27 66 70
internal_value=0 0.0898732 -0.425344 0.133732 0.0160689 0.711045 -0.0442208 -0.00846594 -0.0575607 -0.105133 -0.0396878 -0.731526 0.0644599 1.06385 -0.0505783 -1.05348 0.0829602 -0.00242307 0.137824 0.035858 0.223819 0.0239735 0.354042 -0.0871024 -0.70194 1.00815 0.347073 0.523474 0.200405 0.540516
internal_weight=0 1160 91 1069 689 55 634 613 591 562 535 70 465 48 417 49 368 339 308 275 216 183 144 86 55 58 380 245 163 136
internal_count=13209 1160 91 1069 689 55 634 613 591 562 535 70 465 48 417 49 368 339 308 275 216 183 144 86 55 58 380 245 163 136
is_linear=0
shrinkage=0.1


Tree=86
num_leaves=31
num_cat=0
split_feature=1 2 2 2 4 2 2 7 6 4 3 6 1 2 7 2 9 1 2 2 8 2 2 2 2 2 4 2 1 2
split_gain=1080.07 2300.59 7422.96 3179.27 5102.42 4732.82 4679.82 2954.23 2361.83 2335.43 4433.16 2031.36 1861.63 2470.66 1601.84 3244.85 2110.2 3255.64 2104.31 1760.94 1231.39 1852.12 1235.31 14850.4 6478.57 15253.8 7306.51 6476.42 5361.42 5836.4
threshold=172346.00000000003 8.8832996323102602 9.3790758870137036 10.46686117315083 3.5000000000000004 11.466861216392394 13.466861281874397 4.5000000000000009 7.5000000000000009 4.5000000000000009 4.5000000000000009 5.5000000000000009 168333.00000000003 9.8832996040018983 1.0000000180025095e-35 14.217431932621443 1.0000000180025095e-35 50243.500000000007 10.718915965786598 9.296884130440171 57.916666000000006 12.299623730004047 10.21469230118891 10.21469222365703 10.549052981787627 10.466861231233521 6.5000000000000009 10.21469226364327 75522.500000000015 10.718916007688232
decision_type=2 2 2 2 2 2 2 2 2 2 2 2 2 2 2 2 2 2 2 2 2 2 2 2 2 2 2 2 2 2
left_child=12 9 -3 4 -4 7 11 -5 -8 -2 -11 -7 14 -14 15 16 17 -1 -18 -19 21 -16 23 -22 25 -24 28 -25 29 -26
right_child=1 2 3 5 -6 6 8 -9 -10 10 -12 -13 13 -15 20 -17 18 19 -20 -21 22 -23 24 27 26 -27 -28 -29 -30 -31
leaf_value=0.69258672356605533 -0.91963792890310292 2.1984687566757204 -1.699115824699402 1.9959228475888571 0.48010624565861443 0.0054490804672241216 1.0918213016108462 0.4426615034341812 -0.15968356752395629 1.0119976274909512 -0.56457025749342782 -1.2890388139696034 -1.2567878180079992 0.20963402092456818 0.95251627844922693 -1.3218922674655915 -0.30994298943342313 -0.18267419265978266 0.68368234507581027 -1.1444106550597481 0.0022002837522679336 -0.035141308085862986 -0.20786046045706483 1.9040589447204885 0.6520589452523452 -2.2033799508755858 -1.9100698702037335 0.52815664264559747 0.10550289751953137 -0.2484288103874501
leaf_weight=20 32 20 21 24 22 22 38 25 25 31 42 27 27 20 34 26 39 33 47 45 9095 43 296 52 78 44 20 100 1929 932
leaf_count=20 32 20 21 24 22 22 38 25 25 31 42 27 27 20 34 26 39 33 47 45 9095 43 296 52 78 44 20 100 1929 932
internal_value=0 0.178916 0.359964 0.179718 -0.584165 0.383737 0.0251156 1.20344 0.595192 -0.207318 0.104931 -0.70784 -0.00457015 -0.632779 -0.00226937 -0.276185 -0.128422 -0.445663 0.233085 -0.737522 0.00228757 0.400967 -0.000159291 0.0185831 -0.0526938 -0.466104 -0.0051914 0.99886 0.00777136 -0.178886
internal_weight=0 329 224 204 43 161 112 49 63 105 73 49 12880 47 12833 210 184 98 86 78 12623 77 12546 9247 3299 340 2959 152 2939 1010
internal_count=13209 329 224 204 43 161 112 49 63 105 73 49 12880 47 12833 210 184 98 86 78 12623 77 12546 9247 3299 340 2959 152 2939 1010
is_linear=0
shrinkage=0.1


Tree=87
num_leaves=31
num_cat=0
split_feature=7 7 1 1 2 1 2 6 1 2 1 6 2 8 1 1 1 1 2 6 8 6 2 2 8 8 4 2 8 8
split_gain=1072.06 2283.26 3190.58 2973.68 2386.1 5423.6 3332.95 3637.46 4597.81 4033.25 3216.16 4059.22 5869.81 3813.07 5873.06 8448.23 3689.44 3564.7 6394.96 3805.44 3075.62 3022.93 2702.71 3163.72 2776.04 11264.5 5268.37 4713.05 2578.94 4637.51
threshold=4.5000000000000009 3.5000000000000004 18402.500000000004 23037.000000000004 4.4613819197255804 81005.500000000015 5.3763362645374375 7.5000000000000009 37707.500000000007 4.6285052188314335 119207.00000000001 6.5000000000000009 14.217431932621443 110.64285700000001 46128.500000000007 67300.500000000015 22101.500000000004 172346.00000000003 8.4641215795616063 9.5000000000000018 73.550118933333351 4.5000000000000009 5.713436621567654 5.8805599437593958 108.42500000000001 109.60003963333334 3.5000000000000004 6.9654915553372323 103.01666650000001 107.53333300000001
decision_type=2 2 2 2 2 2 2 2 2 2 2 2 2 2 2 2 2 2 2 2 2 2 2 2 2 2 2 2 2 2
left_child=1 2 -1 -4 5 -3 7 8 -6 -9 11 12 13 16 -15 -16 -8 28 -19 -20 -10 -22 -13 -24 -25 -26 -27 -28 -12 -30
right_child=-2 4 3 -5 6 -7 10 9 20 -11 17 22 -14 14 15 -17 -18 18 19 -21 21 -23 23 24 25 26 27 -29 29 -31
leaf_value=1.0346976241096855 0.027448864513382749 -0.046891995451667091 -1.0340509304633507 0.040838487787525149 -2.0854793395314899 1.842227813459578 -1.0788507971626062 -0.67941991655450129 0.17661886336686819 0.69334933563154577 -0.26667129614305568 0.64225187731343647 -0.92847509327924493 2.1158598909775419 -1.3032968130978673 1.1258276564318961 0.12506143407110981 -1.2606367200613022 0.28110175594687464 1.8584962952136994 -0.31765890613955966 -1.3803372844141357 -1.0391499472782015 -0.088464742401241012 -2.7584600639343262 0.92613138460343891 0.12349336496213588 -1.4332090155498403 -1.7389657759004171 -0.32416473333652207
leaf_weight=32 6850 55 26 2549 21 21 26 38 46 49 428 43 53 24 22 41 1214 22 65 20 59 49 40 1186 20 31 41 37 36 65
leaf_count=32 6850 55 26 2549 21 21 26 38 46 49 428 43 53 24 22 41 1214 22 65 20 59 49 40 1186 20 31 41 37 36 65
internal_value=0 -0.0295683 0.0423177 0.0299852 -0.0795168 0.475102 -0.0909833 -0.434705 -0.697423 0.093749 -0.0646051 -0.0181644 0.103502 0.144719 0.784679 0.277562 0.0998181 -0.267455 0.258949 0.652253 -0.508142 -0.7998 -0.138264 -0.163033 -0.136383 -0.576935 -0.176655 -0.614942 -0.37393 -0.82845
internal_weight=0 6359 2607 2575 3752 76 3676 262 175 87 3414 2778 1380 1327 87 63 1240 636 107 85 154 108 1398 1355 1315 129 109 78 529 101
internal_count=13209 6359 2607 2575 3752 76 3676 262 175 87 3414 2778 1380 1327 87 63 1240 636 107 85 154 108 1398 1355 1315 129 109 78 529 101
is_linear=0
shrinkage=0.1


Tree=88
num_leaves=31
num_cat=0
split_feature=0 6 1 2 1 2 2 2 3 1 8 8 1 1 6 0 1 1 1 4 1 1 1 1 1 6 2 6 3 2
split_gain=1011.01 2663.92 3449.67 8737.17 6466.67 5215.7 5184.35 4319.06 4285.2 7059.43 5962.53 7801.9 4762.7 4616.34 4214.73 3893.16 3892.24 11040.6 3733.4 3659.81 3450.38 3279.91 5909.65 3543.55 3019.76 2906.19 2788.58 5176.75 2471.78 5327.87
threshold=1998.5000000000002 5.5000000000000009 51223.500000000007 12.053048380238801 54404.000000000007 10.801107800373364 9.6312447890226611 8.3790758759165538 4.5000000000000009 114699.50000000001 109.60003963333334 107.38750000000002 123608.00000000001 99267.500000000015 8.5000000000000018 2428.0000000000005 76473.000000000015 89909.000000000015 77926.500000000015 4.5000000000000009 136329.00000000003 93208.500000000015 89566.500000000015 142912.00000000003 78913.500000000015 8.5000000000000018 9.7983681014818096 8.5000000000000018 4.5000000000000009 11.886039304599388
decision_type=2 2 2 2 2 2 2 2 2 2 2 2 2 2 2 2 2 2 2 2 2 2 2 2 2 2 2 2 2 2
left_child=-1 21 3 5 -4 6 7 -3 16 10 11 -10 -11 14 15 -13 -6 -18 -17 -12 -14 22 -2 28 -16 -22 -19 -28 29 -23
right_child=1 2 4 -5 8 -7 -8 -9 9 12 19 13 20 -15 24 18 17 26 -20 -21 25 23 -24 -25 -26 -27 27 -29 -30 -31
leaf_value=-0.0085841380324916845 0.18311097034036297 0.65504022813760321 -1.7572571486234665 2.3456201040744782 -1.8219194619428543 -1.3444093431745259 1.3489437775952478 -1.2052784194548927 -0.90482651668290304 2.0999156848244045 -1.8232139412562054 -1.1225083112716676 -0.49983973944187166 -0.80812198657255907 0.73495988157288794 1.406333320339521 1.5082535268366337 0.10702826976776124 -0.41942586614972072 -0.24779735104791048 0.12079431670052665 0.45933904073856491 -1.5536980606260755 -0.16308692991733553 2.0890606638206086 1.747897459210261 -0.3696687561092955 -2.2010065424031224 0.53339545787050491 2.5305103830669236
leaf_weight=12049 292 26 24 20 21 21 35 24 60 23 30 20 25 26 58 24 25 21 21 29 21 27 21 46 23 23 33 29 89 23
leaf_count=12049 292 26 24 20 21 21 35 24 60 23 30 20 25 26 58 24 25 21 21 29 21 27 21 46 23 23 33 29 89 23
internal_value=0 0.089164 -0.0422728 0.428549 -0.152951 0.0668377 0.415499 -0.237913 -0.0777492 0.0901489 -0.151249 0.0770224 0.8537 0.419528 0.63815 0.0383675 -0.576237 -0.334022 0.554312 -1.04886 0.438295 0.263885 0.0665838 0.597698 1.11946 0.971326 -0.888924 -1.22626 0.849468 1.41208
internal_weight=0 1160 662 126 536 106 85 50 512 383 291 232 92 172 146 65 129 108 45 59 69 498 313 185 81 44 83 62 139 50
internal_count=13209 1160 662 126 536 106 85 50 512 383 291 232 92 172 146 65 129 108 45 59 69 498 313 185 81 44 83 62 139 50
is_linear=0
shrinkage=0.1


Tree=89
num_leaves=31
num_cat=0
split_feature=4 4 4 2 1 2 1 4 4 1 2 1 2 6 2 2 2 0 6 6 1 8 2 1 4 10 1 2 8 2
split_gain=1015.86 2626.93 4632.04 4165.14 4157.83 2760.34 2901.96 3239.33 3358.03 2752.94 2693.16 8905.75 6001.05 6623.68 5476.29 4001.53 2446.11 3313.11 2429.43 2379.76 2810.96 2809.13 6462.57 3370.17 3448.62 3367.14 3094.58 5350.19 2677.71 4562.6
threshold=7.5000000000000009 1.0000000180025095e-35 3.5000000000000004 10.381815559263739 131229.50000000003 5.2092129868089687 50895.500000000007 4.5000000000000009 6.5000000000000009 28785.500000000004 6.6312448966303483 34013.000000000007 5.8805599437593958 4.5000000000000009 7.0503088441011474 6.8832997734138734 4.9627517674243 1798.5000000000002 4.5000000000000009 2.5000000000000004 141421.00000000003 71.933333000000019 5.2092129918497232 94125.000000000015 4.5000000000000009 1.0000000180025095e-35 99267.500000000015 7.8832996559122437 70.642856500000008 5.5435736883615769
decision_type=2 2 2 2 2 2 2 2 2 2 2 2 2 2 2 2 2 2 2 2 2 2 2 2 2 2 2 2 2 2
left_child=1 10 -3 5 -5 16 7 18 -9 -10 11 12 13 -1 15 -12 -4 -18 -7 20 -8 28 -23 24 25 -24 -25 -28 -21 -30
right_child=-2 2 3 4 -6 6 19 8 9 -11 14 -13 -14 -15 -16 -17 17 -19 -20 21 -22 22 23 26 -26 -27 27 -29 29 -31
leaf_value=-1.0560841265178862 0.053848102729545246 -0.82544297859611282 -0.01926466085211612 -2.0169967674073717 -0.31291799931062592 -0.099893337953835731 -0.20136564749971791 0.12627023939603296 -1.3561702445149422 -0.32456165701625178 0.26171205123265584 -1.7444707321154107 -1.4734562081098557 1.0166301344360773 0.020706295653069456 1.994093320767085 0.22400795934142687 1.2932037082585424 -1.3125942632837118 -0.04987629279047251 -1.2095278216401737 -1.8444047375158832 -0.043730855102722462 1.0320589654975467 -0.15327652245378035 -1.4917488750247729 -0.3915422858677518 0.57074355766033891 1.5732291331657997 0.20765696207420473
leaf_weight=21 2769 83 497 21 45 24 354 153 32 135 30 37 20 58 6934 24 238 33 53 500 30 22 26 36 317 42 130 104 26 415
leaf_count=21 2769 83 497 21 45 24 354 153 32 135 30 37 20 58 6934 24 238 33 53 500 30 22 26 36 317 42 130 104 26 415
internal_value=0 -0.0142821 -0.087806 -0.0688688 -0.855125 -0.0524833 -0.105306 -0.352289 -0.212169 -0.522235 0.0199409 -0.420792 0.0739157 0.465655 0.0285185 1.03166 0.11252 0.354205 -0.93461 -0.0563291 -0.280128 -0.00321484 -0.15856 -0.101936 -0.291894 -0.938095 0.168929 0.0361403 0.108548 0.288167
internal_weight=0 10440 3316 3233 66 3167 2399 397 320 167 7124 136 99 79 6988 54 768 271 77 2002 384 1618 677 655 385 68 270 234 941 441
internal_count=13209 10440 3316 3233 66 3167 2399 397 320 167 7124 136 99 79 6988 54 768 271 77 2002 384 1618 677 655 385 68 270 234 941 441
is_linear=0
shrinkage=0.1


Tree=90
num_leaves=31
num_cat=0
split_feature=0 0 8 6 1 2 6 8 2 2 6 2 6 0 3 3 7 1 2 3 1 2 2 2 2 2 2 6 2 2
split_gain=1006.92 2079.04 2646.04 7798.59 5490.74 3661.07 6887.85 5870.16 4628.14 3249.8 2901.35 5011.54 3629.64 2874.74 2574.79 2474.94 3131.18 2463.15 2863.17 2391.87 2182.47 2678.89 2124.15 1880.6 1806.19 9102.65 4547.61 10033.9 4976.89 4375.27
threshold=1496.5000000000002 1689.5000000000002 58.249999500000008 10.500000000000002 88326.000000000015 7.7161763466338966 3.5000000000000004 59.466666500000009 10.718915965786598 10.21469222365703 3.5000000000000004 7.5463134308430844 10.500000000000002 1497.5000000000002 4.5000000000000009 4.5000000000000009 4.5000000000000009 106104.50000000001 13.968231019372931 3.5000000000000004 73301.000000000015 8.0503088947670101 11.053048466512676 8.0503087729727429 12.801107729425212 12.801107754016973 11.801107792885606 9.5000000000000018 12.466861176545027 12.053048380238801
decision_type=2 2 2 2 2 2 2 2 2 2 2 2 2 2 2 2 2 2 2 2 2 2 2 2 2 2 2 2 2 2
left_child=-1 2 3 4 9 7 17 10 20 -2 15 12 -12 22 -6 -4 -17 18 -7 -3 23 -22 -10 -8 26 -26 -21 29 -29 -28
right_child=1 19 5 -5 14 6 8 -9 13 -11 11 -13 -14 -15 -16 16 -18 -19 -20 24 21 -23 -24 -25 25 -27 27 28 -30 -31
leaf_value=0.13146441063616679 0.26186565857833854 -0.91316108575889054 0.77266279442890273 -1.353091664516574 -0.71356014167561255 0.17588875143967495 -0.42029687736118054 -0.23534862955094471 -0.39464656054973601 1.2047687834355889 2.2771590623590683 -0.292816432695026 0.56765240430831909 -0.72772002617518117 0.20259005402525268 0.51165661658010175 -0.83479189142966881 0.7486214769028483 -0.7936110266230324 0.017741869163508447 -2.1370296758763931 -0.77340761423110971 0.6994005084037781 -1.3214818281670793 1.4649690778888003 0.071563628590601377 -0.80951311091042089 1.0418869269482884 -0.41502090511900014 -0.22721942193823419
leaf_weight=558 337 28 37 36 85 99 57 439 35 41 27 23 23 75 48 31 39 42 44 9107 34 25 36 39 49 1085 184 81 33 432
leaf_count=558 337 28 37 36 85 99 57 439 35 41 27 23 23 75 48 31 39 42 44 9107 34 25 36 39 49 1085 184 81 33 432
internal_value=0 -0.00579852 -0.110401 0.0694784 0.169699 -0.199445 -0.404868 -0.0381592 -0.700007 0.364138 0.442764 0.928829 1.49079 -0.295981 -0.382919 0.111149 -0.238508 0.0753308 -0.122419 0.00991223 -1.08057 -1.55922 0.160082 -0.786403 0.0122681 0.131773 -0.00150827 -0.24166 0.62015 -0.401151
internal_weight=0 12651 1652 547 511 1105 486 619 301 378 180 73 50 146 133 107 70 185 143 10999 155 59 71 96 10971 1134 9837 730 114 616
internal_count=13209 12651 1652 547 511 1105 486 619 301 378 180 73 50 146 133 107 70 185 143 10999 155 59 71 96 10971 1134 9837 730 114 616
is_linear=0
shrinkage=0.1


Tree=91
num_leaves=31
num_cat=0
split_feature=2 1 1 2 6 1 2 6 6 8 2 4 2 2 9 1 1 2 0 1 6 0 1 1 6 2 1 1 1 8
split_gain=908.523 2701.02 4532.83 1911.89 3258.8 1294.77 3112.36 2409.71 4577.6 2856.41 5831.53 8919.62 5198.93 2374.13 4752.45 4276.39 3476.85 2643.97 2072.3 1950.87 1830.69 1795.58 4420.77 1898.85 1750.28 1614.61 1301.46 3526.57 6137.71 4227.47
threshold=15.21743193982473 100709.50000000001 142912.00000000003 15.013379443489315 3.5000000000000004 172346.00000000003 14.053048370280708 2.5000000000000004 5.5000000000000009 69.19642850000001 10.46686117315083 2.5000000000000004 8.2119527262550402 14.217431932621443 1.0000000180025095e-35 123608.00000000001 117608.50000000001 14.217431928750974 1791.0000000000002 168333.00000000003 3.5000000000000004 2494.5000000000005 77193.000000000015 79163.500000000015 6.5000000000000009 8.0503087729727429 110749.00000000001 95507.000000000015 94702.500000000015 58.83333300000001
decision_type=2 2 2 2 2 2 2 2 2 2 2 2 2 2 2 2 2 2 2 2 2 2 2 2 2 2 2 2 2 2
left_child=3 -2 -3 5 -5 13 7 -7 20 -10 11 -11 -13 17 15 21 -16 19 -19 26 -9 23 -23 -15 -25 -22 27 28 -1 -29
right_child=1 2 -4 4 -6 6 -8 8 9 10 -12 12 -14 14 16 -17 -18 18 -20 -21 25 22 -24 24 -26 -27 -28 29 -30 -31
leaf_value=-0.00059537914720207588 -1.0413936175180205 0.65049625661638055 -1.051259166498979 1.4285893017053606 -0.17044360952881665 -0.77359857127584264 1.0897240518246378 0.14488810385976519 -0.97782731825305569 -2.1191012946042149 1.0479572007822435 -0.55706804580986502 1.1843994319438935 -0.63938155404983033 -1.5271351873874666 0.83003063629502849 -0.28374092405580958 -0.12896869165055894 0.82719667027978339 -0.68312905913307553 0.50647367848002389 -0.018274791538715363 -1.9134993600845338 0.79164854310014676 -0.32373070865869524 1.6122968526617176 -0.07647617484065565 -0.53808643037890214 -0.79630656117117227 0.20663151660500484
leaf_weight=8948 33 45 24 25 26 29 35 28 31 22 43 40 30 31 44 46 46 34 68 42 23 32 20 34 24 31 1903 81 98 1293
leaf_count=8948 33 45 24 25 26 29 35 28 31 22 43 40 30 31 44 46 46 34 68 42 23 32 20 34 24 31 1903 81 98 1293
internal_value=0 -0.297293 0.0585813 0.00231356 0.613396 -7.34768e-05 0.201191 0.0889211 0.18978 -0.112177 0.0866014 -0.362728 0.189275 -0.00500085 -0.294562 -0.00720688 -0.891623 0.00143282 0.508475 -0.00274982 0.801061 -0.280348 -0.747207 -0.00757657 0.330112 1.1413 -0.00043091 0.0134572 -0.00921573 0.162729
internal_weight=0 102 69 13107 51 13056 312 277 248 166 135 92 70 12744 277 187 90 12467 102 12365 82 141 52 89 58 54 12323 10420 9046 1374
internal_count=13209 102 69 13107 51 13056 312 277 248 166 135 92 70 12744 277 187 90 12467 102 12365 82 141 52 89 58 54 12323 10420 9046 1374
is_linear=0
shrinkage=0.1


Tree=92
num_leaves=31
num_cat=0
split_feature=8 6 2 2 2 4 6 1 8 2 2 2 6 4 7 2 2 3 6 2 1 4 10 8 0 7 1 2 2 7
split_gain=876.85 2193.05 2450.19 1928.6 2063.98 3098.93 2110.78 1735.24 1391.44 11227.3 6007.13 8048.51 6766.94 4723.68 4255.03 3863.41 4282.4 4014.25 3840.55 6264.06 3819.86 5207.3 3916.12 3227.29 11607.6 3644.97 3871.67 3144.69 4035.59 6705.38
threshold=112.82142850000001 3.5000000000000004 5.7134366996861745 6.1270212448214396 5.7134367640979331 6.5000000000000009 7.5000000000000009 76473.000000000015 109.60003963333334 7.0503088441011474 6.4641216951683331 6.7161764060894908 6.5000000000000009 7.5000000000000009 4.5000000000000009 8.0503087232285342 15.594258413171639 4.5000000000000009 9.5000000000000018 6.8832996969317231 44107.500000000007 7.5000000000000009 1.0000000180025095e-35 108.42500000000001 1998.5000000000002 4.5000000000000009 70671.000000000015 10.466861231233521 10.718915965786598 5.5000000000000009
decision_type=2 2 2 2 2 2 2 2 2 2 2 2 2 2 2 2 2 2 2 2 2 2 2 2 2 2 2 2 2 2
left_child=8 2 -2 4 6 -6 -3 -8 23 10 20 13 14 -12 -13 17 -17 -11 19 -14 -10 22 -22 -1 25 26 -25 -26 -29 -30
right_child=1 3 -4 -5 5 -7 7 -9 9 15 11 12 18 -15 -16 16 -18 -19 -20 -21 21 -23 -24 24 27 -27 -28 28 29 -31
leaf_value=0.003727156668565719 -0.61333985013887293 -1.1934429464737575 0.6856581166667759 -0.75799115451447896 1.115958885192871 -0.13007311682508449 -0.58920089963710676 0.59124270796775824 1.0009414931138358 -1.3544798363958088 3.0941286547617484 2.5397347253301872 1.2960942584535351 1.0849992890357971 0.77862935276592482 0.20943204770535662 -1.1456967458724976 -0.23140657927066172 0.98597719544588136 -0.59036039090156556 -0.17773756810597011 0.45552732749861119 -1.9185221254825593 -2.5613396675139666 1.151600308167307 -0.51638862122974449 -0.8424179020484811 -0.85585569590330124 -0.75475184225266989 1.0465078780728001
leaf_weight=11339 20 30 53 66 25 99 33 20 30 35 22 23 23 25 34 347 25 351 43 75 28 49 24 20 38 169 38 32 31 62
leaf_count=11339 20 30 53 66 25 99 33 20 30 35 22 23 23 25 34 347 25 351 43 75 28 49 24 20 38 169 38 32 31 62
internal_value=0 -0.157094 0.329768 -0.287281 -0.1372 0.121143 -0.523157 -0.14375 0.00422566 0.110001 0.556758 0.849034 0.569785 2.02544 1.48925 -0.11161 0.118362 -0.33324 0.198086 -0.147621 0.0101366 -0.284162 -0.981177 -0.00600107 -0.288843 -0.751138 -1.43515 0.354967 0.11279 0.446088
internal_weight=0 346 73 273 207 124 83 53 12863 1134 376 245 198 47 57 758 372 386 141 98 131 101 52 11729 390 227 58 163 125 93
internal_count=13209 346 73 273 207 124 83 53 12863 1134 376 245 198 47 57 758 372 386 141 98 131 101 52 11729 390 227 58 163 125 93
is_linear=0
shrinkage=0.1


Tree=93
num_leaves=31
num_cat=0
split_feature=3 2 2 2 1 9 2 4 2 6 6 4 2 7 1 1 9 6 2 1 2 6 7 7 2 1 9 1 6 2
split_gain=859.707 1642.72 1864.82 1904.51 1339.91 6563.18 1282.7 2434.16 1229.13 3445.56 4706.27 3944 2640.49 3534.8 3003.69 2967.78 2942.08 8178.17 2140.94 2122.58 2068.04 2936.68 2356.07 4379.88 4379.79 2980.3 1806.4 1774.83 3809.97 5370.48
threshold=5.5000000000000009 4.7956285090947377 6.6312448966303483 7.2968841749144202 9837.5000000000018 1.0000000180025095e-35 12.381815557490496 3.5000000000000004 4.2092129864428882 5.5000000000000009 6.5000000000000009 4.5000000000000009 4.7956284691041686 4.5000000000000009 45630.000000000007 41358.000000000007 1.0000000180025095e-35 6.5000000000000009 3.5024778345884795 11946.500000000002 5.2092129505043685 7.5000000000000009 4.5000000000000009 3.5000000000000004 5.047569154212721 83717.000000000015 1.0000000180025095e-35 34013.000000000007 2.5000000000000004 12.053048400652672
decision_type=2 2 2 2 2 2 2 2 2 2 2 2 2 2 2 2 2 2 2 2 2 2 2 2 2 2 2 2 2 2
left_child=4 -2 -3 -4 5 -1 7 -5 9 11 -11 -6 13 16 15 26 17 -10 -12 -14 21 22 23 -21 -25 -24 -15 28 29 -22
right_child=1 2 3 6 8 -7 -8 -9 12 10 18 -13 19 14 -16 -17 -18 -19 -20 20 27 -23 25 24 -26 -27 -28 -29 -30 -31
leaf_value=-1.816942983865738 -0.62986224293708803 1.0262134113619406 -0.73462879538536074 1.1942457374185325 1.5837104563117028 0.47356607913970949 -0.34184766344048761 0.063502887208411032 -0.45725308848965557 -0.83432699590921411 -0.10649834965404713 0.26565229041192695 0.87226885812623167 -0.1116022593096683 -0.22579353599527552 -1.9457973809469316 -0.15999957992480351 1.8588166093826297 0.78313585314012713 0.31098391083349664 0.46386404582327856 0.6725799929923737 0.51298624478234833 -1.21636603244564 0.29315647087220492 -0.29231686855200678 -1.0686574081095255 0.0035971001718303336 -0.24097867748404603 -1.2006498781117527
leaf_weight=22 20 31 20 32 25 29 22 47 31 68 76 247 28 38 215 21 130 30 42 83 163 104 163 57 29 64 41 10562 747 22
leaf_count=22 20 31 20 32 25 29 22 47 31 68 76 247 28 38 215 21 130 30 42 83 163 104 163 57 29 64 41 10562 747 22
internal_value=0 0.222108 0.33421 0.15692 -0.00293032 -0.514497 0.333464 0.521525 -0.000921247 0.159984 -0.171701 0.386797 -0.00680362 -0.23058 -0.436391 -0.889176 0.108847 0.681798 0.210151 0.00261501 0.000584807 0.199674 0.0754768 -0.207217 -0.707341 0.28594 -0.608302 -0.00807578 -0.14036 0.265922
internal_weight=0 172 152 121 13037 51 101 79 12986 458 186 272 12528 506 315 100 191 61 118 12022 11994 500 396 169 86 227 79 11494 932 185
internal_count=13209 172 152 121 13037 51 101 79 12986 458 186 272 12528 506 315 100 191 61 118 12022 11994 500 396 169 86 227 79 11494 932 185
is_linear=0
shrinkage=0.1


Tree=94
num_leaves=31
num_cat=0
split_feature=6 2 0 1 1 2 6 2 2 2 2 8 11 1 3 3 2 2 1 1 1 1 2 1 2 2 2 2 2 7
split_gain=871.197 2754.15 2614.77 1798.65 4626.19 3838.59 1614.3 7165.31 3914.8 3176.52 4581.42 4068.13 3503.44 3073.54 3734.18 2762.91 2344.18 4717.11 4576.3 3203.22 3138.37 2100.09 6665.6 6656.12 5386.98 6669.09 5803.63 5111.93 8431.89 4931.94
threshold=1.5000000000000002 14.469600882177216 1998.5000000000002 141421.00000000003 129915.50000000001 13.381815507644061 3.5000000000000004 14.469600960473128 14.217431932621443 12.549052977317379 12.381815557490496 107.38750000000002 1.0000000180025095e-35 98405.500000000015 4.5000000000000009 5.5000000000000009 7.2119526403998284 7.2968841407172418 63529.500000000007 24605.000000000004 101797.50000000001 112004.00000000001 12.053048447164798 132547.50000000003 12.053048447164798 11.886039263667785 11.549053021000342 8.6312448239908175 10.21469226364327 5.5000000000000009
decision_type=2 2 2 2 2 2 2 2 2 2 2 2 2 2 2 2 2 2 2 2 2 2 2 2 2 2 2 2 2 2
left_child=1 2 3 4 5 -1 7 8 9 10 12 -11 15 -9 -15 16 18 -18 -2 -19 -20 24 23 27 25 26 -21 -23 -29 -25
right_child=6 -3 -4 -5 -6 -7 -8 13 -10 11 -12 -13 -14 14 -16 -17 17 19 20 21 -22 22 -24 29 -26 -27 -28 28 -30 -31
leaf_value=-0.082342297475554854 -0.098967295323239002 -1.0305358986059825 0.49077684767544272 -0.67039265289621541 1.1100080242380501 -1.483490155339241 -0.011654337943505977 0.10612392604351045 -0.83440109819782027 0.26224989860586312 -1.4776100859045984 1.5550818772227677 1.0653917135614337 2.560455830891927 0.6961773116480221 0.99708608378624097 -1.1181126132244017 0.83023094939334063 0.57630258342419294 -0.043438347293906755 -0.035930667874248083 0.66126228787682273 -1.9843498475172305 0.88719291468741202 0.93946563601493838 -1.5459157014715261 1.5985440224409104 -2.439201096830697 -0.35673061033426706 -0.56324268477303641
leaf_weight=874 366 30 80 53 32 20 9460 20 49 247 20 27 33 21 22 29 41 42 277 999 120 22 22 71 58 29 22 29 59 35
leaf_count=874 366 30 80 53 32 20 9460 20 49 247 20 27 33 21 22 29 41 42 277 999 120 22 22 71 58 29 22 29 59 35
internal_value=0 -0.0856763 -0.0589097 -0.103828 -0.0714003 -0.113688 0.00769814 0.0765231 0.0509602 0.0679863 0.0292288 0.389646 0.0425991 1.13028 1.60664 0.0274023 0.0145735 -0.0609916 0.156097 -0.0297655 0.391245 -0.0566004 -0.326112 -0.157217 0.00129107 -0.0505319 -0.00805773 -0.702147 -1.043 0.408275
internal_weight=0 1089 1059 979 926 894 12120 2660 2597 2548 2274 274 2254 63 43 2221 2192 1429 763 1388 397 1346 238 216 1108 1050 1021 110 88 106
internal_count=13209 1089 1059 979 926 894 12120 2660 2597 2548 2274 274 2254 63 43 2221 2192 1429 763 1388 397 1346 238 216 1108 1050 1021 110 88 106
is_linear=0
shrinkage=0.1


Tree=95
num_leaves=31
num_cat=0
split_feature=7 3 0 6 8 2 1 2 2 2 6 2 3 2 1 6 2 1 6 2 2 1 1 0 1 2 6 0 9 3
split_gain=858.128 2209.6 7344.12 2374.29 2253.41 3738.77 2597.04 1066.85 1035.81 8032.52 3443.13 8294.16 6285.27 5216.92 6312 5499.44 5024.92 4381.12 4091.55 4160.56 5916.41 4502.34 3939.97 4791.71 5115.14 3852.89 4250.87 3727.41 3579.91 3145.06
threshold=1.0000000180025095e-35 4.5000000000000009 1795.5000000000002 2.5000000000000004 70.380952000000022 8.9654913879450095 87179.000000000015 12.053048380238801 12.801107729425212 12.801107754016973 6.5000000000000009 12.968231021076029 4.5000000000000009 15.21743193982473 111310.00000000001 3.5000000000000004 13.21469222203975 66211.000000000015 5.5000000000000009 13.381815507644061 14.469600960473128 129915.50000000001 106104.50000000001 1791.0000000000002 93602.000000000015 14.469600882177216 5.5000000000000009 1791.0000000000002 1.0000000180025095e-35 4.5000000000000009
decision_type=2 2 2 2 2 2 2 2 2 2 2 2 2 2 2 2 2 2 2 2 2 2 2 2 2 2 2 2 2 2
left_child=1 2 -1 -3 6 -6 -5 -7 -2 -10 13 -12 -13 14 22 -15 -14 -18 19 21 27 -16 23 -11 25 26 -25 -21 -22 -26
right_child=8 3 -4 4 5 7 -8 -9 9 10 11 12 16 15 18 -17 17 -19 -20 20 28 -23 -24 24 29 -27 -28 -29 -30 -31
leaf_value=-0.85185369332631433 -0.0058893223934863483 0.51957721842918547 1.2803662816115788 -0.75933613770064856 -0.050076345602671303 -1.8094312817962082 0.79538543495264924 -0.92843790224620282 1.3065664543555333 -0.62453912504731801 -1.5977464614730135 -0.6729820497462462 1.1330742143094541 0.1985919523984194 2.4469700056314472 -1.6860096740722659 -1.0972128083628994 0.17750859870282926 1.6776491263934545 0.94595580575056371 2.0555826487866318 0.48249898212296627 -1.0323506673797966 0.34778178406001559 1.9509012611015983 -0.9355936671442846 -0.90095420422092565 -0.60200703823140689 0.32234180455024425 0.57232249995409434
leaf_weight=30 11733 24 35 21 36 27 22 28 52 73 38 116 48 32 20 30 31 207 35 20 22 28 32 226 23 34 31 70 26 59
leaf_count=30 11733 24 35 21 36 27 22 28 52 73 38 116 48 32 20 30 31 207 35 20 22 28 32 226 23 34 31 70 26 59
internal_value=0 -0.194503 0.296265 -0.396401 -0.560457 -0.842348 0.0361028 -1.36093 0.00334007 0.0897634 0.0370792 -0.185596 -0.0521086 0.165827 0.243805 -0.713312 0.199714 0.0114735 0.685744 0.499095 0.220162 1.30103 0.0394772 0.11638 0.261385 0.0648073 0.197156 -0.258015 1.11674 0.958997
internal_weight=0 223 65 158 134 91 43 55 12986 1253 1201 440 402 761 699 62 286 238 221 186 138 48 478 446 373 291 257 90 48 82
internal_count=13209 223 65 158 134 91 43 55 12986 1253 1201 440 402 761 699 62 286 238 221 186 138 48 478 446 373 291 257 90 48 82
is_linear=0
shrinkage=0.1


Tree=96
num_leaves=31
num_cat=0
split_feature=6 3 1 2 2 2 2 2 2 1 1 1 2 2 0 2 2 6 3 1 1 8 2 2 2 1 1 1 1 6
split_gain=881.977 4770.71 4062.5 3627.38 2869.4 2593.26 8181.21 3908.85 6230.42 4413.74 4665.26 3664.09 3583.25 4883.07 6418.28 6081.22 4542.93 2757.38 2620.43 3883.24 2547.33 2526.94 2368.3 4272.15 5697.59 2298.85 5406.63 3107.55 3274.53 2219.7
threshold=9.5000000000000018 2.5000000000000004 9837.5000000000018 2.7545325918628683 2.7545325918628683 13.21469222203975 11.968231042750487 10.299623777239857 10.050308734642043 151260.00000000003 132547.50000000003 182173.00000000003 10.549052981787627 10.718916007688232 1987.5000000000002 11.381815585254115 11.549053021000342 10.500000000000002 4.5000000000000009 134914.50000000003 97915.500000000015 107.70833300000002 8.0503087232285342 7.2119527462971007 6.4641216951683331 101227.00000000001 145101.00000000003 70671.000000000015 57682.000000000007 11.500000000000002
decision_type=2 2 2 2 2 2 2 2 2 2 2 2 2 2 2 2 2 2 2 2 2 2 2 2 2 2 2 2 2 2
left_child=1 -1 -3 -2 -4 6 7 8 11 10 12 21 -9 20 16 -16 29 -10 -7 -20 -14 -5 23 24 -23 27 -27 28 -8 -15
right_child=3 2 4 5 -6 18 25 9 17 -11 -12 -13 13 14 15 -17 -18 -19 19 -21 -22 22 -24 -25 -26 26 -28 -29 -30 -31
leaf_value=1.3941119102140269 -1.2320981488986451 -1.0232407782226802 0.78328107714653017 0.026231501155664451 -0.017029166617116689 -0.95509733804996988 1.0570610282476991 -0.74683512091063542 1.5645165234804155 0.91102866415054573 -1.7784168470473518 -1.1189453798990985 0.84881777947439874 0.016371707804501059 -2.07170600422165 -0.16608549681576817 -0.9435828301214404 0.28382758025465343 -0.31795079851642666 1.1979256365820765 -0.38911718536507001 0.078163813451925912 1.1984941012093 -0.50863526732690878 1.032119451665009 -0.71876016642366147 1.3761144735596398 1.6276083348939818 -0.46067075048174178 1.0393924317861858
leaf_weight=24 22 40 45 1784 10064 47 44 104 40 31 21 26 68 48 34 33 31 29 109 20 22 180 28 62 96 28 22 48 21 38
leaf_count=24 22 40 45 1784 10064 47 44 104 40 31 21 26 68 48 34 33 31 29 109 20 22 180 28 62 96 28 22 48 21 38
internal_value=0 -0.0141163 -0.0174464 0.0473007 -0.0134666 0.0566393 0.0797388 0.0378272 0.0907312 -0.238381 -0.327683 0.0610661 -0.247087 -0.0574019 -0.352647 -1.13312 0.0942879 1.02626 -0.315839 -0.0829312 0.546211 0.075336 0.314687 0.241472 0.409974 0.767552 0.202985 1.01736 0.566717 0.468404
internal_weight=0 10173 10149 3036 10109 3014 2838 2675 2245 430 399 2176 378 274 184 67 117 69 176 129 90 2150 366 338 276 163 50 113 65 86
internal_count=13209 10173 10149 3036 10109 3014 2838 2675 2245 430 399 2176 378 274 184 67 117 69 176 129 90 2150 366 338 276 163 50 113 65 86
is_linear=0
shrinkage=0.1


Tree=97
num_leaves=31
num_cat=0
split_feature=7 1 1 2 4 7 2 3 9 1 1 1 1 1 7 6 3 0 2 9 6 2 6 1 1 2 6 1 6 2
split_gain=817.866 1705.92 6348.8 5032.15 4519.6 7131.76 9080.18 5406.18 5358.67 4547.15 4541.23 4562.04 3867.78 4192.3 5258.44 4913.29 3613.24 3428.43 3379.36 3347.66 3640.8 3175.61 3260.13 2946.33 4274.75 3655.56 6278.09 6027.28 3840.68 2858.98
threshold=4.5000000000000009 96121.000000000015 97413.500000000015 12.381815507644601 3.5000000000000004 5.5000000000000009 8.3790758759165538 4.5000000000000009 1.0000000180025095e-35 148871.50000000003 133795.00000000003 124557.50000000001 91116.000000000015 93208.500000000015 5.5000000000000009 4.5000000000000009 4.5000000000000009 1998.5000000000002 9.3790758870137036 1.0000000180025095e-35 3.5000000000000004 11.886039263667785 6.5000000000000009 111310.00000000001 106104.50000000001 13.466861281874397 5.5000000000000009 141421.00000000003 7.5000000000000009 10.21469230118891
decision_type=2 2 2 2 2 2 2 2 2 2 2 2 2 2 2 2 2 2 2 2 2 2 2 2 2 2 2 2 2 2
left_child=-1 12 -3 4 5 8 -7 -8 21 10 11 19 -2 14 -14 -16 -10 -6 -17 20 -9 22 -4 24 -5 -25 27 -27 -28 -18
right_child=1 2 3 23 17 6 7 9 16 -11 -12 -13 13 -15 15 18 29 -19 -20 -21 -22 -23 -24 25 -26 26 28 -29 -30 -31
leaf_value=-0.025825987334940133 0.01390516382389703 1.0933391074812602 0.73488750855127982 0.5124060724279843 0.096044421015384088 -2.0156391292810443 0.10262575689351783 -1.177773010979096 0.93394503749967106 -2.1165093660354617 0.75169377252459535 -2.0247314981792282 -0.054117851268570383 0.018424100981604668 -2.4643590386097252 -1.5678725921589396 -0.38818761424014442 0.88790802581835604 0.1866943189962989 -1.3054444386277879 0.28307766611293211 -1.525195362454369 -0.68024890001227223 1.2422265704232915 -0.82657188930009551 0.37162479652512459 1.9509363288879396 -1.855014374256134 0.40505336337619363 0.7501164972782135
leaf_weight=6359 4786 63 27 64 746 35 159 24 93 20 24 23 53 124 26 23 57 59 21 35 59 21 41 72 38 31 25 20 45 36
leaf_count=6359 4786 63 27 64 746 35 159 24 93 20 24 23 53 124 26 23 57 59 21 35 59 21 41 72 38 31 25 20 45 36
internal_value=0 0.0239748 0.107031 0.0716046 -0.00455861 -0.199827 -0.481118 -0.32499 0.187844 -0.692507 -0.519901 -0.736343 -0.00600981 -0.391893 -0.805545 -1.37448 0.493196 0.154082 -0.730466 -0.485216 -0.139337 -0.450307 -0.118357 0.44829 0.0135711 0.678037 0.342321 -0.501567 0.957154 0.0524462
internal_weight=0 6850 1817 1754 1459 654 379 344 275 185 165 141 5033 247 123 70 186 805 44 118 83 89 68 295 102 193 121 51 70 93
internal_count=13209 6850 1817 1754 1459 654 379 344 275 185 165 141 5033 247 123 70 186 805 44 118 83 89 68 295 102 193 121 51 70 93
is_linear=0
shrinkage=0.1


Tree=98
num_leaves=31
num_cat=0
split_feature=2 2 6 1 8 7 2 2 6 2 6 2 2 4 6 2 1 1 1 6 6 6 1 7 1 2 2 6 6 1
split_gain=741.258 1124.44 2273.2 1137.39 2564.28 3804.54 2738 5527.65 4374.73 2855.6 3726.13 5573.85 3697.94 2815.83 3902.01 3266.62 2413.53 2328.92 2167.17 1917.29 6855.57 1917.14 1856.21 2111.99 1517.11 1382.75 3496.99 3056.74 6365.77 2026.79
threshold=1.0000000180025095e-35 2.7545325918628683 5.5000000000000009 25640.500000000004 107.70833300000002 4.5000000000000009 9.4641215522409947 10.214692275525378 3.5000000000000004 6.3790760117053553 2.5000000000000004 5.2941444583635491 6.7161764763216274 6.5000000000000009 2.5000000000000004 8.5463133262546815 9837.5000000000018 14895.000000000002 20211.500000000004 6.5000000000000009 3.5000000000000004 6.5000000000000009 23037.000000000004 5.5000000000000009 18402.500000000004 4.4613819197255804 4.4613819250313282 6.5000000000000009 5.5000000000000009 40050.000000000007
decision_type=2 2 2 2 2 2 2 2 2 2 2 2 2 2 2 2 2 2 2 2 2 2 2 2 2 2 2 2 2 2
left_child=-1 2 -2 4 6 -6 9 -8 -9 10 11 -3 -11 14 -14 17 -12 -16 -19 20 -7 -10 23 24 -18 27 -27 28 29 -5
right_child=1 3 -4 25 5 19 7 8 21 12 16 -13 13 -15 15 -17 22 18 -20 -21 -22 -23 -24 -25 -26 26 -28 -29 -30 -31
leaf_value=-0.5936488480794998 1.2371299976652319 -1.5184601905941966 -0.10115423704187075 0.96652383437523481 1.4453024163842203 0.68198966693878171 1.3882123651043061 0.70302779572350638 -1.451511460813609 -1.8397003690401714 0.90741244395573928 0.36229841617437514 0.76439706827032161 -1.4263886137008668 0.50126928514049895 -1.3287411563926275 0.24645544820040177 -1.3874257416952225 -0.1480807780526405 0.564856784088271 -1.8019617640972136 -0.2309143647070854 0.786058687667052 -0.82751662731170661 -0.36767658867845032 -0.83397655591368691 0.0040690110995295729 0.84452701596940161 -0.81656805071979766 0.17749041711467173
leaf_weight=21 22 40 30 39 24 25 31 35 22 21 30 26 29 25 31 36 103 21 43 35 20 31 24 37 66 50 11970 61 64 197
leaf_count=21 22 40 30 39 24 25 31 35 22 21 30 26 29 25 31 36 103 21 43 35 20 31 24 37 66 50 11970 61 64 197
internal_value=0 0.000945301 0.465043 -0.00089187 -0.120051 0.341036 -0.193712 0.239907 -0.164609 -0.290706 -0.106536 -0.777555 -0.582159 -0.439411 -0.285195 -0.517548 0.0637997 -0.210148 -0.554741 0.00975617 -0.421989 -0.737577 -0.0462367 -0.143203 0.0066169 0.00637453 0.000582965 0.199213 0.067999 0.307882
internal_weight=0 13188 52 13136 755 104 651 119 88 532 326 66 206 185 160 131 260 95 64 80 45 53 230 206 169 12381 12020 361 300 236
internal_count=13209 13188 52 13136 755 104 651 119 88 532 326 66 206 185 160 131 260 95 64 80 45 53 230 206 169 12381 12020 361 300 236
is_linear=0
shrinkage=0.1


Tree=99
num_leaves=31
num_cat=0
split_feature=8 1 1 6 1 2 6 2 6 4 8 2 2 2 6 4 7 2 1 4 1 2 1 4 10 6 2 1 0 2
split_gain=715.108 1770.55 3198.85 2227.71 1049.16 2052.35 2314.9 2268.53 1376.23 1181.52 986.145 8268.74 4832.23 6193.87 5642.32 3830.86 3401.2 3362.97 3484.46 3801.38 4841.04 3194.84 2946.92 4102.54 2945.03 2546.1 5065.03 2532.52 2470.55 5615.95
threshold=112.82142850000001 103859.00000000001 94702.500000000015 3.5000000000000004 86114.500000000015 5.8805600332417347 6.5000000000000009 6.0475691690508082 6.5000000000000009 7.5000000000000009 109.60003963333334 7.0503088441011474 6.4641216951683331 6.7161764060894908 6.5000000000000009 7.5000000000000009 4.5000000000000009 7.9654914229324083 131229.50000000003 7.5000000000000009 76861.500000000015 15.594258413171639 44107.500000000007 7.5000000000000009 1.0000000180025095e-35 9.5000000000000018 6.8832996969317231 108316.50000000001 2428.0000000000005 7.7983681692759612
decision_type=2 2 2 2 2 2 2 2 2 2 2 2 2 2 2 2 2 2 2 2 2 2 2 2 2 2 2 2 2 2
left_child=10 2 3 -2 5 8 -7 -8 -5 -10 -1 12 22 15 16 -14 -15 18 19 28 -21 27 -12 24 -24 26 -16 -19 29 -13
right_child=1 -3 -4 4 -6 6 7 -9 9 -11 11 17 13 14 25 -17 -18 21 -20 20 -22 -23 23 -25 -26 -27 -28 -29 -30 -31
leaf_value=-0.0047933653205068727 0.36496230331249535 -0.79559154059435877 1.0709935291953709 -1.0907650254923722 -0.86550477499078071 0.898538877282824 0.32561590363902432 -1.0021391611207615 -0.81932329748358057 -0.021328599832274697 0.85626288175582888 -0.6390617378979675 2.732814822481437 2.2722173221733262 1.1707521773550822 0.92349312770366676 0.69769126688513694 -0.012412939011621819 -1.5243764654449796 -0.17945007262181265 1.2542895401677778 -1.0093112869262695 -0.19442408595766342 0.38406427977036461 -1.7040250827868779 0.79554001869157309 -0.52557383173704142 0.5295269881308079 -1.3145234706647257 1.065592200341432
leaf_weight=11729 64 37 23 29 29 28 31 22 28 55 30 121 22 23 23 25 34 278 23 98 31 25 28 49 24 43 75 125 34 23
leaf_count=11729 64 37 23 29 29 28 31 22 28 55 30 121 22 23 23 25 34 278 23 98 31 25 28 49 24 43 75 125 34 23
internal_value=0 -0.141868 -0.0635903 -0.154833 -0.304684 -0.220415 0.163039 -0.225528 -0.497735 -0.290532 0.00381608 0.0928639 0.476265 0.738405 0.493434 1.77041 1.33303 -0.0973195 -0.337198 -0.248257 0.165092 0.0876339 -0.0139957 -0.272488 -0.891163 0.154025 -0.127457 0.155683 -0.547818 -0.366791
internal_weight=0 346 309 286 222 193 81 53 112 83 12863 1134 376 245 198 47 57 758 330 307 129 428 131 101 52 141 98 403 178 144
internal_count=13209 346 309 286 222 193 81 53 112 83 12863 1134 376 245 198 47 57 758 330 307 129 428 131 101 52 141 98 403 178 144
is_linear=0
shrinkage=0.1


end of trees

feature_importances:
YM_MFG=963
NUM_TRAVEL=598
CAREVU=300
SalesMonth=292
AveragePrice=256
EXHAUST=192
COLOR=169
INSIDEVU=130
BRAND_TYPE_TOYOTA_RAV4=38
BRAND_TYPE_TOYOTA_CAMRY=32
BRAND_TYPE_TOYOTA_ALTIS=30

parameters:
[boosting: gbdt]
[objective: regression]
[metric: l2]
[tree_learner: serial]
[device_type: cpu]
[linear_tree: 0]
[data: ]
[valid: ]
[num_iterations: 100]
[learning_rate: 0.1]
[num_leaves: 31]
[num_threads: -1]
[deterministic: 0]
[force_col_wise: 0]
[force_row_wise: 0]
[histogram_pool_size: -1]
[max_depth: -1]
[min_data_in_leaf: 20]
[min_sum_hessian_in_leaf: 0.001]
[bagging_fraction: 1]
[pos_bagging_fraction: 1]
[neg_bagging_fraction: 1]
[bagging_freq: 0]
[bagging_seed: 3]
[feature_fraction: 1]
[feature_fraction_bynode: 1]
[feature_fraction_seed: 2]
[extra_trees: 0]
[extra_seed: 6]
[early_stopping_round: 0]
[first_metric_only: 0]
[max_delta_step: 0]
[lambda_l1: 0]
[lambda_l2: 0]
[linear_lambda: 0]
[min_gain_to_split: 0]
[drop_rate: 0.1]
[max_drop: 50]
[skip_drop: 0.5]
[xgboost_dart_mode: 0]
[uniform_drop: 0]
[drop_seed: 4]
[top_rate: 0.2]
[other_rate: 0.1]
[min_data_per_group: 100]
[max_cat_threshold: 32]
[cat_l2: 10]
[cat_smooth: 10]
[max_cat_to_onehot: 4]
[top_k: 20]
[monotone_constraints: ]
[monotone_constraints_method: basic]
[monotone_penalty: 0]
[feature_contri: ]
[forcedsplits_filename: ]
[refit_decay_rate: 0.9]
[cegb_tradeoff: 1]
[cegb_penalty_split: 0]
[cegb_penalty_feature_lazy: ]
[cegb_penalty_feature_coupled: ]
[path_smooth: 0]
[interaction_constraints: ]
[verbosity: -1]
[saved_feature_importance_type: 0]
[max_bin: 255]
[max_bin_by_feature: ]
[min_data_in_bin: 3]
[bin_construct_sample_cnt: 200000]
[data_random_seed: 1]
[is_enable_sparse: 1]
[enable_bundle: 1]
[use_missing: 1]
[zero_as_missing: 0]
[feature_pre_filter: 1]
[pre_partition: 0]
[two_round: 0]
[header: 0]
[label_column: ]
[weight_column: ]
[group_column: ]
[ignore_column: ]
[categorical_feature: ]
[forcedbins_filename: ]
[objective_seed: 5]
[num_class: 1]
[is_unbalance: 0]
[scale_pos_weight: 1]
[sigmoid: 1]
[boost_from_average: 1]
[reg_sqrt: 0]
[alpha: 0.9]
[fair_c: 1]
[poisson_max_delta_step: 0.7]
[tweedie_variance_power: 1.5]
[lambdarank_truncation_level: 30]
[lambdarank_norm: 1]
[label_gain: ]
[eval_at: ]
[multi_error_top_k: 1]
[auc_mu_weights: ]
[num_machines: 1]
[local_listen_port: 12400]
[time_out: 120]
[machine_list_filename: ]
[machines: ]
[gpu_platform_id: -1]
[gpu_device_id: -1]
[gpu_use_dp: 0]
[num_gpu: 1]

end of parameters

pandas_categorical:[]
