tree
version=v3
num_class=1
num_tree_per_iteration=1
label_index=0
max_feature_idx=12
objective=regression
feature_names=EXHAUST NUM_TRAVEL YM_MFG INSIDEVU CAREVU SOU SalesMonth COLOR AveragePrice BRAND_TYPE_TOYOTA_ALTIS BRAND_TYPE_TOYOTA_CAMRY BRAND_TYPE_TOYOTA_RAV4 BRAND_TYPE_TOYOTA_YARIS
feature_infos=[4:3556] [0:768760] [0:14.216827302729923] [0:6] [0:9] [1:3] [1:12] [0:6] [54.333333000000003:113.14285700000001] [0:1] [0:1] [0:1] [0:1]
tree_sizes=2864 2914 2907 2861 2873 2866 2850 2831 2820 2832 2828 2803 2809 2774 2801 2791 2794 2785 2767 2781 2779 2766 2765 2787 2772 2765 2791 2804 2755 2772 2767 2770 2803 2769 2765 2762 2754 2780 2793 2786 2791 2768 2796 2761 2788 2778 2758 2775 2736 2746 2759 2716 2737 2743 2754 2766 2738 2784 2768 2741 2770 2677 2772 2733 2725 2715 2733 2771 2756 2736 2706 2737 2778 2762 2766 2725 2736 2775 2716 2722 2756 2696 2747 2761 2665 2698 2734 2700 2766 2673 2732 2685 2734 2765 2687 2759 2739 2775 2695 2685

Tree=0
num_leaves=31
num_cat=0
split_feature=1 8 1 3 8 1 1 5 4 4 2 8 8 4 2 5 10 5 4 2 4 2 3 5 8 5 11 2 2 4
split_gain=1.08581e+08 5.69757e+07 1.4975e+07 1.11213e+07 9.78889e+06 6.55095e+06 6.5001e+06 5.50421e+06 5.26986e+06 4.12404e+06 5.21532e+06 4.03062e+06 3.52234e+06 3.4256e+06 5.88431e+06 2.5413e+06 2.48574e+06 2.43166e+06 2.13725e+06 2.0736e+06 2.68277e+06 2.05387e+06 2.03322e+06 1.93839e+06 1.92901e+06 1.87106e+06 1.74575e+06 1.66593e+06 1.55262e+06 3.78604e+06
threshold=128540.50000000001 73.100000000000009 203374.00000000003 4.5000000000000009 70.642856500000008 58204.000000000007 81106.500000000015 1.5000000000000002 1.0000000180025095e-35 1.0000000180025095e-35 10.21408747122018 77.000000000000014 62.958333000000003 1.0000000180025095e-35 9.378471039938848 2.5000000000000004 1.0000000180025095e-35 1.5000000000000002 1.0000000180025095e-35 8.4635166813575911 1.0000000180025095e-35 9.378471039938848 2.5000000000000004 2.5000000000000004 62.958333000000003 1.5000000000000002 1.0000000180025095e-35 11.381210805003299 8.4635166813575911 1.0000000180025095e-35
decision_type=2 2 2 2 2 2 2 2 2 2 2 2 2 2 2 2 2 2 2 2 2 2 2 2 2 2 2 2 2 2
left_child=1 3 4 15 8 24 11 -4 25 17 -11 -3 -7 -8 26 19 -13 -6 -9 -1 -21 -20 -17 28 -5 -2 -15 -10 -14 -30
right_child=2 6 7 5 9 12 13 18 27 10 -12 16 23 14 -16 22 -18 -19 21 20 -22 -23 -24 -25 -26 -27 -28 -29 29 -31
leaf_value=587.7318654747852 574.10948989808753 596.64619902561526 565.58644481989609 590.78393100046799 580.05916877044945 585.48824634529819 599.431205458661 582.04052829338991 578.08115974303882 589.53355409951484 578.42567816210669 607.90059603884595 591.9925105845515 594.16956991589859 582.95016378233299 569.00796045058064 602.0354581881777 595.19109416514425 583.13052107941508 584.23112413703973 576.19204095265195 572.39804443200978 588.76063843762392 592.40834214346251 595.32991351480757 585.64822820189613 602.87407253802098 572.01535256215448 590.81219971904568 580.29137897813007
leaf_weight=639 164 1139 686 1311 125 1922 1598 455 1005 900 797 935 760 810 434 54 3181 706 212 1056 684 1122 1490 2588 3241 982 322 824 812 591
leaf_count=639 164 1139 686 1311 125 1922 1598 455 1005 900 797 935 760 810 434 54 3181 706 212 1056 684 1122 1490 2588 3241 982 322 824 812 591
internal_value=589.746 593.159 579.662 589.494 582.568 591.096 599.755 573.202 578.68 587.143 584.317 601.911 589.1 596.174 592.85 584.91 603.368 592.915 576.122 582.86 581.071 574.104 588.07 590.562 594.021 583.997 596.646 575.348 588.352 586.38
internal_weight=0 23567 7978 15148 5503 11225 8419 2475 2975 2528 1697 5255 6673 3164 1566 3923 4116 831 1789 2379 1740 1334 1544 4751 4552 1146 1132 1829 2163 1403
internal_count=31545 23567 7978 15148 5503 11225 8419 2475 2975 2528 1697 5255 6673 3164 1566 3923 4116 831 1789 2379 1740 1334 1544 4751 4552 1146 1132 1829 2163 1403
is_linear=0
shrinkage=1


Tree=1
num_leaves=31
num_cat=0
split_feature=1 8 1 8 3 5 4 1 1 8 4 2 8 4 2 4 2 3 5 11 8 4 2 10 7 5 4 2 2 2
split_gain=8.82474e+07 4.37789e+07 1.54191e+07 9.39024e+06 7.96925e+06 5.28319e+06 5.00918e+06 4.86198e+06 4.24516e+06 3.64451e+06 3.48986e+06 4.85734e+06 2.97051e+06 2.87358e+06 5.10948e+06 2.40403e+06 2.4107e+06 2.11469e+06 1.93731e+06 1.80485e+06 1.78866e+06 1.68822e+06 1.84061e+06 1.54275e+06 1.52666e+06 1.51372e+06 1.51342e+06 4.78121e+06 1.43653e+06 1.37269e+06
threshold=119877.00000000001 73.100000000000009 189726.00000000003 70.642856500000008 4.5000000000000009 1.5000000000000002 1.0000000180025095e-35 41304.000000000007 65901.500000000015 62.958333000000003 1.0000000180025095e-35 10.21408747122018 77.000000000000014 1.0000000180025095e-35 9.8826948097157743 1.0000000180025095e-35 9.378471039938848 3.5000000000000004 1.5000000000000002 1.0000000180025095e-35 70.380952000000022 1.0000000180025095e-35 7.8826947682415867 1.0000000180025095e-35 2.5000000000000004 1.5000000000000002 1.0000000180025095e-35 8.6306398721604456 11.299018898358916 8.5457084092551998
decision_type=2 2 2 2 2 2 2 2 2 2 2 2 2 2 2 2 2 2 2 2 2 2 2 2 2 2 2 2 2 2
left_child=1 4 3 6 17 29 25 -6 12 -9 18 -12 -3 -10 19 24 -17 -1 -5 -15 21 -19 -23 -14 -7 -2 -11 -28 -8 -4
right_child=2 8 5 10 7 15 28 9 13 26 11 -13 23 14 -16 16 -18 20 -20 -21 -22 22 -24 -25 -26 -27 27 -29 -30 -31
leaf_value=-13.802720468204754 -13.43368759609667 6.7231203493149296 -8.1269079411824556 -7.5903954507768621 5.0940499924824953 -16.229494727371087 -9.8238709291465636 -3.1805579937809849 9.7061376176219554 3.0858517888701824 0.65934073188580766 -9.7376956092532172 17.449756821422351 4.913360479035628 -6.2952526977209198 -5.1882514589613891 -15.210517078680898 -2.8432651285017112 5.5855130362395364 12.563313383069532 0.037183691693047291 -3.4932587908471335 -12.668860350647298 11.998332260935637 -3.4472433141079444 -3.1435014182416801 2.0472092682969119 -8.0087649278010229 -15.314738567782122 -22.335367587634497
leaf_weight=208 162 917 75 129 2721 117 1081 2280 2081 3024 1089 765 672 1283 365 290 1392 1433 827 406 1038 408 471 2282 464 1216 2164 605 852 728
leaf_count=208 162 917 75 129 2721 117 1081 2280 2081 3024 1089 765 672 1283 365 290 1392 1433 827 406 1038 408 471 2282 464 1216 2164 605 852 728
internal_value=0 3.39044 -8.25116 -5.3517 0.0854697 -14.0397 -8.95999 1.43836 9.31511 0.206218 -1.10009 -3.6307 11.695 7.08712 4.43368 -11.5669 -13.4825 -4.01885 3.80759 6.75225 -3.41137 -4.95964 -8.40988 13.2385 -6.02129 -4.35323 1.53918 -0.149925 -12.2441 -21.0083
internal_weight=0 22358 9187 6121 14352 3066 3311 10794 8006 8073 2810 1854 3871 4135 2054 2263 1682 3558 956 1689 3350 2312 879 2954 581 1378 5793 2769 1933 803
internal_count=31545 22358 9187 6121 14352 3066 3311 10794 8006 8073 2810 1854 3871 4135 2054 2263 1682 3558 956 1689 3350 2312 879 2954 581 1378 5793 2769 1933 803
is_linear=0
shrinkage=0.1


Tree=2
num_leaves=31
num_cat=0
split_feature=1 8 5 4 2 1 1 5 8 0 8 2 2 4 4 2 1 3 8 10 8 8 5 1 4 2 5 1 11 3
split_gain=7.15727e+07 3.74751e+07 1.03412e+07 7.91128e+06 8.12748e+06 7.79937e+06 4.40607e+06 4.30621e+06 3.58611e+06 3.24266e+06 2.71492e+06 2.6168e+06 2.32185e+06 3.62392e+06 2.16775e+06 3.79401e+06 2.0479e+06 1.82563e+06 1.80407e+06 1.67487e+06 1.62474e+06 1.59288e+06 1.473e+06 1.41053e+06 1.32222e+06 1.86377e+06 1.27602e+06 1.17396e+06 1.14143e+06 898621
threshold=128540.50000000001 73.100000000000009 1.5000000000000002 1.0000000180025095e-35 9.378471039938848 73827.500000000015 82704.500000000015 2.5000000000000004 87.666666500000005 1797.5000000000002 77.000000000000014 8.6306399880237166 8.4635166813575911 1.0000000180025095e-35 1.0000000180025095e-35 9.378471039938848 260706.50000000003 3.5000000000000004 70.291666500000005 1.0000000180025095e-35 62.958333000000003 73.100000000000009 1.5000000000000002 29903.000000000004 1.0000000180025095e-35 8.2113477492634086 2.5000000000000004 30723.500000000004 1.0000000180025095e-35 4.5000000000000009
decision_type=2 2 2 2 2 2 2 2 2 2 2 2 2 2 2 2 2 2 2 2 2 2 2 2 2 2 2 2 2 2
left_child=1 5 11 8 21 9 10 12 26 17 -3 -2 -7 29 22 28 -13 -1 -6 -12 -9 -5 -8 -11 -21 -26 -4 -19 -16 -14
right_child=2 6 3 4 18 7 14 20 -10 23 19 16 13 -15 15 -17 -18 27 -20 24 -22 -23 -24 -25 25 -27 -28 -29 -30 -31
leaf_value=-15.677273279660708 -5.4475998751528856 5.5299206265501617 -7.0679243691719567 -4.6226712176068263 -14.560724771417913 -0.68054600279311206 -3.8832911721631591 -3.0884687493809548 3.5863869780131852 7.2025470515623624 14.665289887582293 -14.618138372313744 -5.6771527187460809 -10.060145551630082 3.4721230225003774 -5.6130584838244841 -23.268805081959076 3.0998959765770651 -9.5973834929426403 11.587879376833548 1.5526271219749777 3.0153130978623106 8.5565118530805702 2.8216151952639326 8.9583534951136485 -2.0910192452032459 -0.45522651198053998 -1.2840444421178114 10.666794301429613 -0.85129246642152556
leaf_weight=77 231 1151 837 748 1237 1013 102 1117 858 916 966 1020 689 1339 770 426 374 840 1795 1943 2323 430 1425 3718 1151 176 448 2239 309 877
leaf_count=77 231 1151 837 748 1237 1013 102 1117 858 916 966 1020 689 1339 770 426 374 840 1795 1943 2323 430 1425 3718 1151 176 448 2239 309 877
internal_value=0 2.77143 -8.18679 -6.36593 -8.88363 -0.201416 8.12035 -2.53617 -1.41982 2.00386 9.83663 -15.3055 -4.80298 -6.24051 5.07102 2.37768 -16.939 -0.468382 -11.6223 11.0068 0.0456201 -1.83461 7.72556 3.68759 9.92608 7.49288 -4.76249 -0.088036 5.53251 -2.97455
internal_weight=0 23567 7978 6353 4210 15148 8419 7358 2143 7790 5387 1625 3918 2905 3032 1505 1394 3156 3032 4236 3440 1178 1527 4634 3270 1327 1285 3079 1079 1566
internal_count=31545 23567 7978 6353 4210 15148 8419 7358 2143 7790 5387 1625 3918 2905 3032 1505 1394 3156 3032 4236 3440 1178 1527 4634 3270 1327 1285 3079 1079 1566
is_linear=0
shrinkage=0.1


Tree=3
num_leaves=31
num_cat=0
split_feature=1 8 4 4 2 5 2 8 4 2 3 3 1 2 0 3 1 0 10 4 0 8 8 1 2 8 1 2 2 5
split_gain=5.8428e+07 3.32899e+07 9.66132e+06 7.67888e+06 7.37625e+06 6.40064e+06 6.38835e+06 5.71907e+06 4.00182e+06 3.84591e+06 3.74153e+06 3.11725e+06 2.24207e+06 1.99686e+06 1.99185e+06 1.75709e+06 1.57438e+06 1.39604e+06 1.22376e+06 1.11892e+06 1.11624e+06 1.10792e+06 1.04056e+06 1.03792e+06 928697 926298 923582 907672 848935 794223
threshold=147783.50000000003 70.642856500000008 1.0000000180025095e-35 1.0000000180025095e-35 9.378471039938848 1.5000000000000002 9.2113477569599329 77.000000000000014 1.0000000180025095e-35 9.7155714935771851 4.5000000000000009 3.5000000000000004 64953.000000000007 6.964886568453907 1998.5000000000002 3.5000000000000004 301719.50000000006 1998.5000000000002 1.0000000180025095e-35 4.5000000000000009 1998.5000000000002 70.291666500000005 59.466666500000009 235706.00000000003 9.4635166539127926 70.642856500000008 25415.000000000004 5.2086080350055992 12.299018960740458 2.5000000000000004
decision_type=2 2 2 2 2 2 2 2 2 2 2 2 2 2 2 2 2 2 2 2 2 2 2 2 2 2 2 2 2 2
left_child=1 2 10 11 7 16 27 19 14 25 15 -3 20 18 23 -1 24 -14 -9 -5 -13 -11 -12 -7 -2 -10 -21 -4 -6 -17
right_child=5 3 6 4 28 8 -8 13 9 21 22 12 17 -15 -16 29 -18 -19 -20 26 -22 -23 -24 -25 -26 -27 -28 -29 -30 -31
leaf_value=-12.94645011910686 -7.1415268257721181 -9.4811345749845106 2.4075564229477 -1.1181767521954982 -3.0047840007612212 -3.6021020722495396 -9.6393824047355032 15.06496579227575 -8.0369909226248843 -13.752021154216994 -0.34243874796495355 9.4509263779904895 4.8975007845799574 5.0551545018992492 3.1423269108633445 -3.8647140254574981 -22.041650701022419 9.2326905921860725 8.8253760606157137 7.8373359329939518 14.068012209178518 -9.3739302033173058 2.7770782391990139 -11.828099369466621 -14.810274160223564 -0.9630475454593217 2.6525437139951098 -2.8554055796433655 -9.6598684164592665 -0.072507841023407571
leaf_weight=162 194 96 393 729 534 814 2019 449 277 991 1499 1534 1617 1080 407 1229 263 1374 1048 379 795 1387 3730 189 849 558 3675 1972 299 1003
leaf_count=162 194 96 393 729 534 814 2019 449 277 991 1499 1534 1617 1080 407 1229 263 1374 1048 379 795 1387 3730 189 849 558 3675 1972 299 1003
internal_value=0 2.07052 -1.7674 5.45666 3.52535 -8.94561 -5.50789 4.53479 -7.19927 -9.14831 0.38376 8.37825 8.70052 8.33245 -2.75794 -2.89047 -15.1274 6.88899 10.6968 2.48867 11.027 -11.1984 1.8828 -5.15217 -13.3839 -3.30973 3.13726 -1.98084 -5.39358 -2.1606
internal_weight=0 25616 12007 13609 8193 5929 4384 7360 4623 3213 7623 5416 5320 2577 1410 2394 1306 2991 1497 4783 2329 2378 5229 1003 1043 835 4054 2365 833 2232
internal_count=31545 25616 12007 13609 8193 5929 4384 7360 4623 3213 7623 5416 5320 2577 1410 2394 1306 2991 1497 4783 2329 2378 5229 1003 1043 835 4054 2365 833 2232
is_linear=0
shrinkage=0.1


Tree=4
num_leaves=31
num_cat=0
split_feature=1 8 1 8 3 1 4 1 5 4 2 8 4 2 8 8 11 3 5 5 5 5 2 4 2 4 2 11 8 4
split_gain=4.80151e+07 2.36077e+07 9.36721e+06 5.53412e+06 4.66121e+06 2.92511e+06 2.70097e+06 2.59308e+06 2.57559e+06 1.90418e+06 2.6654e+06 1.83216e+06 1.68079e+06 3.00806e+06 1.41317e+06 1.40148e+06 1.2937e+06 1.26151e+06 1.05201e+06 1.00719e+06 1.0039e+06 959675 939427 1.18815e+06 871270 865093 923913 860356 820234 921037
threshold=119191.50000000001 73.100000000000009 192457.50000000003 70.642856500000008 4.5000000000000009 48677.000000000007 1.0000000180025095e-35 59807.500000000007 1.5000000000000002 1.0000000180025095e-35 10.718311273639339 62.958333000000003 1.0000000180025095e-35 9.630639890485897 70.642856500000008 77.000000000000014 1.0000000180025095e-35 3.5000000000000004 2.5000000000000004 2.5000000000000004 1.5000000000000002 1.5000000000000002 8.4635166813575911 1.0000000180025095e-35 11.718311241326159 1.0000000180025095e-35 10.21408747122018 1.0000000180025095e-35 59.466666500000009 1.0000000180025095e-35
decision_type=2 2 2 2 2 2 2 2 2 2 2 2 2 2 2 2 2 2 2 2 2 2 2 2 2 2 2 2 2 2
left_child=1 4 3 6 17 28 19 15 -4 21 27 -7 20 16 -10 -3 -14 -1 22 -2 -9 -5 -19 -24 -8 -16 -27 -11 -6 -30
right_child=2 7 8 9 5 11 24 12 14 10 -12 -13 13 -15 25 -17 -18 18 -20 -21 -22 -23 23 -25 -26 26 -28 -29 29 -31
leaf_value=-10.619771982643467 -5.2955037872161812 5.4149512510208266 -15.592298793709311 -5.0285395537813509 0.21157778707761615 -2.5685297590792326 -7.350353295065867 -1.8218784282518472 -11.342105585784772 -1.0923306719506733 -7.3908598858752148 0.97077203806429224 3.7040706924260878 -4.5288894035877325 -1.1321112150001147 10.214628261194408 9.8411813358690097 -0.49361155739661017 -0.44972798042356488 0.20499282067462044 7.7622048558205456 4.1326234286274133 -3.1773372572943703 -9.1366750173623643 -11.657312581619161 -2.6563282980457328 -10.156885857540701 5.2764775281205729 5.8040571730201114 2.2238530827183118
leaf_weight=208 898 806 786 132 630 2039 1271 115 1134 951 705 5174 1529 390 252 2481 443 534 1356 529 2202 855 893 535 745 236 540 273 1596 1307
leaf_count=208 898 806 786 132 630 2039 1271 115 1134 951 705 5174 1529 390 252 2481 443 534 1356 529 2202 855 893 535 745 236 540 273 1596 1307
internal_value=0 2.52395 -6.03068 -3.8706 0.0897472 1.12495 -6.58551 6.8851 -10.6901 -0.665041 -2.49294 -0.0297321 5.37289 3.49572 -8.90789 9.03771 5.08274 -3.06518 -2.59159 -3.25643 7.28652 2.90742 -4.0719 -5.41 -8.94196 -6.22267 -7.87579 0.328163 3.48235 4.19216
internal_weight=0 22238 9307 6359 14272 10746 3443 7966 2948 2916 1929 7213 4679 2362 2162 3287 1972 3526 3318 1427 2317 987 1962 1428 2016 1028 776 1224 3533 2903
internal_count=31545 22238 9307 6359 14272 10746 3443 7966 2948 2916 1929 7213 4679 2362 2162 3287 1972 3526 3318 1427 2317 987 1962 1428 2016 1028 776 1224 3533 2903
is_linear=0
shrinkage=0.1


Tree=5
num_leaves=31
num_cat=0
split_feature=1 8 1 8 8 4 1 4 2 8 1 1 5 3 2 11 4 2 11 7 5 4 2 8 5 4 3 3 11 0
split_gain=3.93439e+07 1.63781e+07 1.18379e+07 6.72252e+06 3.89941e+06 2.98917e+06 2.86919e+06 2.0879e+06 2.50666e+06 1.82805e+06 1.73802e+06 1.48757e+06 1.37765e+06 1.36035e+06 1.22213e+06 1.10521e+06 1.05234e+06 2.40794e+06 1.02142e+06 896547 881040 697627 1.4007e+06 678443 647661 701925 612650 597607 595891 549753
threshold=99312.500000000015 77.000000000000014 172890.00000000003 70.642856500000008 70.291666500000005 1.0000000180025095e-35 260706.50000000003 1.0000000180025095e-35 10.466256383607243 70.642856500000008 32972.500000000007 45794.000000000007 1.5000000000000002 4.5000000000000009 10.21408747122018 1.0000000180025095e-35 1.0000000180025095e-35 7.7155714574286547 1.0000000180025095e-35 2.5000000000000004 2.5000000000000004 1.0000000180025095e-35 8.2113477492634086 105.28750000000001 1.5000000000000002 1.0000000180025095e-35 3.5000000000000004 2.5000000000000004 1.0000000180025095e-35 1998.5000000000002
decision_type=2 2 2 2 2 2 2 2 2 2 2 2 2 2 2 2 2 2 2 2 2 2 2 2 2 2 2 2 2 2
left_child=1 4 3 5 13 20 9 12 15 24 26 -3 -5 27 -7 -9 -15 -18 21 -8 -2 29 -23 -10 -4 -26 -6 -1 -11 -13
right_child=2 11 6 7 10 14 19 8 23 28 -12 18 -14 16 -16 -17 17 -19 -20 -21 -22 22 -24 -25 25 -27 -28 -29 -30 -31
leaf_value=-13.576716298492332 -3.8621253751808915 10.31327133709482 -13.3027656362743 -5.0372691035270698 -9.0261820175818031 -4.6821134741124446 -17.119862164113115 -0.26520119644607049 -2.1704134148465335 -5.8284892629647764 1.7761709147869789 5.3892590588256581 4.6525753532837859 1.2692639948653399 -9.1411823916625021 5.9245392225619424 0.44614483215727846 -8.4371305640960976 9.4282986955892927 -11.036320133717313 0.084876206631151974 5.5569399332402858 -2.9031758649695307 -8.5881689994695574 -4.6106047590625812 -9.8347198426188989 5.91095937541568 -3.1405179997063586 -1.290282018587348 8.9001503245583482
leaf_weight=57 1312 1461 337 164 28 1107 376 1578 267 930 6233 1038 1393 2436 1382 353 1063 428 954 681 994 928 248 430 357 920 1420 1468 420 782
leaf_count=57 1312 1461 337 164 28 1107 376 1578 267 930 6233 1038 1393 2436 1382 353 1063 428 954 681 994 928 248 430 357 920 1420 1468 420 782
internal_value=0 2.95706 -4.21781 -2.19862 1.04947 -4.75474 -8.72723 0.730081 -0.98917 -7.13204 2.5012 7.58697 3.63194 -0.995793 -7.15798 0.866326 -0.0114369 -2.10385 6.57859 -13.2004 -2.16077 5.67117 3.77283 -6.12972 -9.40332 -8.37426 5.62212 -3.53059 -4.4166 6.89778
internal_weight=0 18544 13001 8980 13133 4795 4021 4185 2628 2964 7681 5411 1557 5452 2489 1931 3927 1491 3950 1057 2306 2996 1176 697 1614 1277 1448 1525 1350 1820
internal_count=31545 18544 13001 8980 13133 4795 4021 4185 2628 2964 7681 5411 1557 5452 2489 1931 3927 1491 3950 1057 2306 2996 1176 697 1614 1277 1448 1525 1350 1820
is_linear=0
shrinkage=0.1


Tree=6
num_leaves=31
num_cat=0
split_feature=1 8 1 8 8 5 4 5 4 1 8 1 2 1 4 2 2 1 2 7 2 11 5 4 11 1 0 5 2 4
split_gain=3.18788e+07 1.3332e+07 9.4797e+06 5.27808e+06 3.19369e+06 2.60638e+06 2.2869e+06 1.70647e+06 1.63194e+06 1.5289e+06 1.44887e+06 1.43568e+06 1.3371e+06 1.25305e+06 1.04702e+06 956736 939888 900330 815134 806501 761447 754010 733680 666959 652386 622916 618325 585932 1.21366e+06 1.79384e+06
threshold=99901.000000000015 77.000000000000014 169199.50000000003 70.642856500000008 62.958333000000003 1.5000000000000002 1.0000000180025095e-35 1.5000000000000002 1.0000000180025095e-35 35254.500000000007 70.291666500000005 1.0000000180025095e-35 11.381210678561745 49672.500000000007 1.0000000180025095e-35 9.378471039938848 10.299019022915134 30723.500000000004 9.2113477569599329 2.5000000000000004 13.466256322674548 1.0000000180025095e-35 1.5000000000000002 1.0000000180025095e-35 1.0000000180025095e-35 301719.50000000006 1497.5000000000002 2.5000000000000004 8.5457084092551998 1.0000000180025095e-35
decision_type=2 2 2 2 2 2 2 2 2 2 2 2 2 2 2 2 2 2 2 2 2 2 2 2 2 2 2 2 2 2
left_child=1 4 3 6 17 18 22 20 -9 11 23 -6 24 -3 19 -16 -8 -1 -4 -12 -5 -15 -2 -7 -10 -20 -24 28 -11 -30
right_child=2 13 5 7 9 10 16 8 12 27 14 -13 -14 21 15 -17 -18 -19 25 -21 -22 -23 26 -25 -26 -27 -28 -29 29 -31
leaf_value=1.8616138080157165 -7.3693100779045864 9.0285157708399417 -4.9917047460873931 -3.3877706119389965 -16.224634223995789 -5.6579760126924761 -4.2804418252983174 4.2358221192272643 0.029464027588008364 2.4110221079315424 -11.077295261162979 4.8155750158386548 -5.2883606629763298 4.9671975800300237 -1.8745784912294035 -7.4741418849432897 -8.26802000013463 -2.1596507772794129 -11.567590986228794 0.86853653407950326 -15.605999071844693 8.2983513236170712 -4.2491324981523437 -10.733225681436886 4.7722371693016736 -17.517472619634447 -0.26398325596833522 2.0548692164965385 0.58607370865232999 -6.401339710997684
leaf_weight=672 223 1728 141 423 33 384 1115 1341 1412 1437 65 1880 417 2822 418 1130 1258 3247 652 433 58 895 530 795 365 241 1467 4214 1224 525
leaf_count=672 223 1728 141 423 33 384 1115 1341 1412 1437 65 1880 417 2822 418 1130 1258 3247 652 433 58 895 530 795 365 241 1467 4214 1224 525
internal_value=0 2.63869 -3.82987 -1.92081 0.924803 -7.68877 -4.23612 0.727163 1.48754 1.93261 -6.28802 4.45262 -0.192241 6.80362 -4.67903 -5.96212 -6.39438 -1.47012 -12.0577 -0.690658 -4.86107 5.76929 -1.92913 -9.08022 1.00364 -13.1733 -1.32163 1.28115 0.257781 -1.51135
internal_weight=0 18677 12868 8609 13232 4259 4593 4016 3535 9313 3225 1913 2194 5445 2046 1548 2373 3919 1034 498 481 3717 2220 1179 1777 893 1997 7400 3186 1749
internal_count=31545 18677 12868 8609 13232 4259 4593 4016 3535 9313 3225 1913 2194 5445 2046 1548 2373 3919 1034 498 481 3717 2220 1179 1777 893 1997 7400 3186 1749
is_linear=0
shrinkage=0.1


Tree=7
num_leaves=31
num_cat=0
split_feature=1 8 1 8 0 4 1 5 4 1 2 8 10 3 2 4 2 3 5 1 4 2 2 2 11 3 2 4 5 2
split_gain=2.58435e+07 1.07494e+07 7.79877e+06 4.57844e+06 2.63406e+06 2.05099e+06 1.94315e+06 1.51681e+06 1.45212e+06 1.28449e+06 1.25595e+06 1.16825e+06 1.05871e+06 995899 920200 879280 1.7671e+06 728626 687094 641048 628946 1.74826e+06 589418 569352 561915 535931 528456 579954 791517 500854
threshold=99312.500000000015 77.000000000000014 178908.50000000003 70.642856500000008 1797.5000000000002 1.0000000180025095e-35 279437.00000000006 1.5000000000000002 1.0000000180025095e-35 25415.000000000004 11.381210678561745 70.642856500000008 1.0000000180025095e-35 4.5000000000000009 12.052443659807267 1.0000000180025095e-35 7.2113477741039729 4.5000000000000009 2.5000000000000004 27223.500000000004 1.0000000180025095e-35 7.5457085690999843 12.800502922008993 8.3784710542976661 1.0000000180025095e-35 4.5000000000000009 11.214087479147148 1.0000000180025095e-35 1.5000000000000002 7.3784710793934805
decision_type=2 2 2 2 2 2 2 2 2 2 2 2 2 2 2 2 2 2 2 2 2 2 2 2 2 2 2 2 2 2
left_child=1 4 3 5 13 18 11 22 -9 25 24 -4 29 -1 -7 17 -17 -14 -2 -19 -15 -22 -5 -8 -10 -6 -13 28 -28 -3
right_child=2 12 6 7 9 14 23 8 10 -11 -12 26 15 20 -16 16 -18 19 -20 -21 21 -23 -24 -25 -26 -27 27 -29 -30 -31
leaf_value=-3.1398189763687014 -3.2807967666139959 11.315479830647563 -7.9539070051335079 -2.8852706049217884 -3.1420258325688981 -4.7729595754931626 -1.1614354571688692 3.728472894676591 -0.049558840500618546 1.5164921173634314 -4.9002017562681779 -1.3905643564736805 2.4183657224374278 1.0196300206010382 -9.0579641780853262 5.8130341018181433 -1.2521584212171057 12.445069490470619 0.15749584200801237 6.6735870995557338 0.46150921762630315 -7.3074661178804519 -11.385087710797787 -12.277604119429471 4.1696200530119247 6.0678361687040789 -11.08866964631221 -7.4749516632577242 1.3846441474733968 7.1933822587079055
leaf_weight=1449 1369 455 1541 443 68 1946 49 1421 1497 7050 477 514 365 2212 675 1109 520 214 1010 1911 1064 398 100 772 400 892 68 517 202 837
leaf_count=1449 1369 455 1541 443 68 1946 49 1421 1497 7050 477 514 365 2212 675 1109 520 214 1010 1911 1064 398 100 772 400 892 68 517 202 837
internal_value=0 2.39661 -3.41841 -1.88444 0.851186 -3.94693 -7.32892 0.492794 1.20011 1.98379 -0.313285 -6.09099 6.1475 -0.919676 -5.8765 5.36409 3.55772 6.54585 -1.82108 7.25481 -0.0440675 -1.65344 -4.45061 -11.6142 0.840094 5.41547 -3.88442 -5.51319 -1.75678 8.64505
internal_weight=0 18544 13001 9338 13133 5000 3663 4338 3795 8010 2374 2842 5411 5123 2621 4119 1629 2490 2379 2125 3674 1462 543 821 1897 960 1301 787 270 1292
internal_count=31545 18544 13001 9338 13133 5000 3663 4338 3795 8010 2374 2842 5411 5123 2621 4119 1629 2490 2379 2125 3674 1462 543 821 1897 960 1301 787 270 1292
is_linear=0
shrinkage=0.1


Tree=8
num_leaves=31
num_cat=0
split_feature=1 8 4 4 2 2 5 11 3 3 4 2 4 3 3 7 1 0 0 2 4 8 2 11 2 4 1 11 2 4
split_gain=2.11882e+07 1.23979e+07 4.25988e+06 3.32113e+06 3.54233e+06 3.16999e+06 2.78043e+06 2.17929e+06 1.93463e+06 1.61676e+06 1.58134e+06 1.63003e+06 1.36782e+06 1.18349e+06 1.0318e+06 932104 827632 747866 724396 708338 700323 677347 655582 634866 595088 578552 547610 499785 479707 471963
threshold=147783.50000000003 70.642856500000008 1.0000000180025095e-35 1.0000000180025095e-35 9.378471039938848 8.5457084092551998 1.5000000000000002 1.0000000180025095e-35 4.5000000000000009 4.5000000000000009 1.0000000180025095e-35 10.21408747122018 7.5000000000000009 3.5000000000000004 3.5000000000000004 2.5000000000000004 45794.000000000007 1998.5000000000002 1998.5000000000002 8.5457084092551998 4.5000000000000009 73.100000000000009 6.2113478484872404 1.0000000180025095e-35 13.466256322674548 4.5000000000000009 301719.50000000006 1.0000000180025095e-35 12.052443549301717 5.5000000000000009
decision_type=2 2 2 2 2 2 2 2 2 2 2 2 2 2 2 2 2 2 2 2 2 2 2 2 2 2 2 2 2 2
left_child=1 2 9 8 7 29 19 12 13 14 15 27 25 -3 -1 -8 -10 -18 -17 -2 -7 -14 -9 -15 -13 -5 -21 -12 -22 -4
right_child=6 3 5 4 -6 20 10 22 16 -11 11 24 21 23 -16 18 17 -19 -20 26 28 -23 -24 -25 -26 -27 -28 -29 -30 -31
leaf_value=-9.5251239597153354 -2.9716527584815187 -8.8288574897684775 -3.1099198294490877 -1.3893174803001507 -4.1375555488805311 -9.2790214044352375 -8.3420418978777047 11.404350272732502 8.481994849181195 1.3185210374324479 -2.9856270239349003 -6.1092933610893851 2.0554650085664092 1.3395896030051073 -1.2598958985789475 -2.0986271854181413 3.9773804616416863 7.2129905521532267 3.1421472261584027 -9.1519709558972462 -4.1776739247687287 5.01229512270098 5.5047394395488487 6.5888234742702201 -10.09221938409566 1.5410436677903625 -14.430361916866913 3.5402864621952177 -7.853058029012562 0.28114049360284005
leaf_weight=162 149 96 572 923 833 528 172 291 1216 5229 856 1743 1440 881 2232 857 1653 1258 381 906 1349 1677 534 312 478 2495 251 136 482 1453
leaf_count=162 149 96 572 923 833 528 172 291 1216 5229 856 1743 1440 881 2232 857 1653 1258 381 906 1349 1677 534 312 478 2495 251 136 482 1453
internal_value=0 1.24686 -1.09529 3.3133 2.04317 -3.57905 -5.38699 2.7427 5.23467 0.333122 -4.23599 -5.46119 2.1313 1.85285 -1.8192 -1.44411 6.29093 5.37566 -0.485756 -9.46132 -6.07044 3.64629 7.58569 2.7124 -6.96649 0.749726 -10.2971 -2.09095 -5.1452 -0.676729
internal_weight=0 25616 12007 13609 8193 4384 5929 7360 5416 7623 4623 3213 6535 1289 2394 1410 4127 2911 1238 1306 2359 3117 825 1193 2221 3418 1157 992 1831 2025
internal_count=31545 25616 12007 13609 8193 4384 5929 7360 5416 7623 4623 3213 6535 1289 2394 1410 4127 2911 1238 1306 2359 3117 825 1193 2221 3418 1157 992 1831 2025
is_linear=0
shrinkage=0.1


Tree=9
num_leaves=31
num_cat=0
split_feature=1 8 1 8 8 1 5 3 1 11 11 5 5 4 1 4 2 5 11 2 7 4 7 4 2 4 3 2 3 4
split_gain=1.75539e+07 6.8426e+06 5.69864e+06 3.32628e+06 1.68652e+06 1.63168e+06 1.51785e+06 1.22855e+06 1.17843e+06 1.17172e+06 1.12736e+06 991244 775253 740822 723114 683893 851071 616870 605228 578902 570958 486436 476014 462391 1.74729e+06 562195 436611 431893 398679 429132
threshold=93801.000000000015 77.000000000000014 169199.50000000003 70.642856500000008 59.466666500000009 247186.50000000003 2.5000000000000004 3.5000000000000004 25415.000000000004 1.0000000180025095e-35 1.0000000180025095e-35 1.5000000000000002 2.5000000000000004 1.0000000180025095e-35 32283.000000000004 1.0000000180025095e-35 11.381210805003299 1.5000000000000002 1.0000000180025095e-35 11.052443603381732 3.5000000000000004 1.0000000180025095e-35 4.5000000000000009 1.0000000180025095e-35 8.5457084092551998 4.5000000000000009 4.5000000000000009 12.214087524829111 4.5000000000000009 1.0000000180025095e-35
decision_type=2 2 2 2 2 2 2 2 2 2 2 2 2 2 2 2 2 2 2 2 2 2 2 2 2 2 2 2 2 2
left_child=1 4 3 6 13 10 17 -6 -9 11 12 19 28 -1 26 -13 -17 -2 22 -5 -7 -19 -16 -10 25 -25 -3 -23 29 -4
right_child=2 14 5 9 7 20 -8 8 23 -11 -12 15 -14 -15 18 16 -18 21 -20 -21 -22 27 -24 24 -26 -27 -28 -29 -30 -31
leaf_value=-0.45602467741208585 -6.7972710196383375 -1.4114808312871241 -4.459405903502291 -2.1203210773061456 -8.4300288173460185 -10.963710038080348 -0.53819543147621884 4.3450322099864378 1.9765138504378905 3.6241191348568962 0.4843870690219032 2.2904946495438612 -0.27524785573713512 -4.428032782337012 2.4068142907960075 0.092500521175731668 -6.0965881966287272 -1.9755342636310056 6.8962484770167212 -9.7043944009362839 -6.7371751600253837 -3.6027929516324591 4.9509537200176581 -1.5400009315506913 -5.0508043196557315 1.6707924437422343 8.8795700487922815 -7.1406270395383515 -3.8055962606674374 -7.9154667959694409
leaf_weight=1879 713 44 562 324 124 578 1699 1335 3697 1034 412 1229 289 626 1099 1682 256 1203 1018 146 715 1221 2223 648 509 3442 654 481 707 996
leaf_count=1879 713 44 562 324 124 578 1699 1335 3697 1034 412 1229 289 626 1099 1682 256 1203 1018 146 715 1221 2223 648 509 3442 654 481 707 996
internal_value=0 2.14084 -2.59931 -1.29332 0.865884 -5.66204 -3.00377 1.46023 1.58757 0.653691 -4.3697 -0.190802 -5.15274 -1.44863 5.24346 0.445178 -0.725047 -4.1616 4.763 -4.47622 -8.62653 -3.51471 4.10929 1.14384 0.47447 1.16209 8.23085 -4.60262 -5.77508 -6.6688
internal_weight=0 17298 14247 9988 12260 4259 5317 9755 9631 4671 2966 3637 2554 2505 5038 3167 1938 3618 4340 470 1293 2905 3322 8296 4599 4090 698 1702 2265 1558
internal_count=31545 17298 14247 9988 12260 4259 5317 9755 9631 4671 2966 3637 2554 2505 5038 3167 1938 3618 4340 470 1293 2905 3322 8296 4599 4090 698 1702 2265 1558
is_linear=0
shrinkage=0.1


Tree=10
num_leaves=31
num_cat=0
split_feature=3 8 1 1 4 2 0 11 5 1 4 2 11 5 4 2 8 2 3 4 2 3 1 4 5 4 11 1 4 2
split_gain=1.43632e+07 6.41362e+06 4.29424e+06 2.30302e+06 1.87752e+06 2.96515e+06 1.65171e+06 1.28028e+06 1.24121e+06 1.00605e+06 968603 1.31613e+06 876090 695970 664262 1.33379e+06 629205 595259 515767 505299 984288 491122 490816 489745 465178 443940 424379 400045 355798 527914
threshold=4.5000000000000009 73.100000000000009 151813.50000000003 78654.500000000015 1.0000000180025095e-35 8.3784710542976661 1797.5000000000002 1.0000000180025095e-35 1.5000000000000002 290793.50000000006 1.0000000180025095e-35 9.2113477569599329 1.0000000180025095e-35 2.5000000000000004 1.0000000180025095e-35 8.5457084092551998 70.642856500000008 9.2113477569599329 2.5000000000000004 1.0000000180025095e-35 9.2113477569599329 3.5000000000000004 49100.500000000007 7.5000000000000009 2.5000000000000004 1.0000000180025095e-35 1.0000000180025095e-35 61802.500000000007 1.0000000180025095e-35 12.214087524829111
decision_type=2 2 2 2 2 2 2 2 2 2 2 2 2 2 2 2 2 2 2 2 2 2 2 2 2 2 2 2 2 2
left_child=2 3 6 14 22 12 18 9 17 13 -5 -12 23 28 16 -16 -2 -8 -1 21 -21 -10 -3 -6 27 -9 -23 -20 -4 -30
right_child=1 4 7 10 5 -7 8 25 19 -11 11 -13 -14 -15 15 -17 -18 -19 24 20 -22 26 -24 -25 -26 -27 -28 -29 29 -31
leaf_value=-11.269033882353042 1.628093818423054 7.5512779322040444 -4.6242602852367982 0.28437077920487724 1.7921681334927588 -1.8496839878699447 -1.0752549683215946 4.4785100392226518 -5.1295202150636792 -10.28644873358899 -0.73005415446300448 -4.5876050028977149 7.5008561994109249 -1.1681007817435496 1.0820303326012479 -4.9874098270617075 4.9250429325687906 -6.4298713704112487 -0.76896193304767957 1.4421509802616159 -4.1977684809053821 1.4507413642721882 4.807689380672052 4.4133532512575142 -1.2644117491975271 -2.604746220743249 5.6188122766213207 -4.7927505968112811 -5.3927925203000049 -9.1003942402503153
leaf_weight=81 3322 883 913 2332 1319 1202 434 116 98 556 2139 1508 570 311 2625 420 701 398 298 773 516 1469 2493 1551 861 373 293 1446 827 717
leaf_count=81 3322 883 913 2332 1319 1202 434 116 98 556 2139 1508 570 311 2625 420 701 398 298 773 516 1469 2493 1551 861 373 293 1446 827 717
internal_value=0 1.50508 -3.02524 0.137201 3.73092 2.42593 -1.4944 -5.70191 -0.201522 -6.40473 -1.30733 -2.32511 3.9199 -5.62502 1.35917 0.244866 2.20258 -3.63672 -3.41062 0.706095 -0.815567 1.76062 5.52528 3.2087 -3.16627 -0.924465 2.14384 -4.1052 -6.18916 -7.11452
internal_weight=0 21065 10480 13047 8018 4642 6667 3813 3981 3324 5979 3647 3440 2768 7068 3045 4023 832 2686 3149 1289 1860 3376 2870 2605 489 1762 1744 2457 1544
internal_count=31545 21065 10480 13047 8018 4642 6667 3813 3981 3324 5979 3647 3440 2768 7068 3045 4023 832 2686 3149 1289 1860 3376 2870 2605 489 1762 1744 2457 1544
is_linear=0
shrinkage=0.1


Tree=11
num_leaves=31
num_cat=0
split_feature=1 8 3 5 4 8 2 8 11 2 4 2 1 1 4 2 3 1 8 11 7 0 1 0 4 1 11 1 2 7
split_gain=1.17788e+07 4.59878e+06 3.8902e+06 2.26958e+06 1.60316e+06 1.43145e+06 1.28328e+06 1.21474e+06 928136 771206 728884 830363 648646 741136 600509 744388 594801 672151 503089 473725 448648 460175 428878 407004 544840 394895 366078 288718 284592 273536
threshold=93801.000000000015 77.000000000000014 4.5000000000000009 1.5000000000000002 1.0000000180025095e-35 73.100000000000009 12.299018960740458 62.958333000000003 1.0000000180025095e-35 9.2113477569599329 1.0000000180025095e-35 9.3784709494143303 41968.500000000007 1.0000000180025095e-35 1.0000000180025095e-35 8.6306399880237166 3.5000000000000004 31405.000000000004 70.642856500000008 1.0000000180025095e-35 1.0000000180025095e-35 1497.5000000000002 30723.500000000004 1998.5000000000002 2.5000000000000004 374007.00000000006 1.0000000180025095e-35 21617.500000000004 7.2962792331069481 4.5000000000000009
decision_type=2 2 2 2 2 2 2 2 2 2 2 2 2 2 2 2 2 2 2 2 2 2 2 2 2 2 2 2 2 2
left_child=1 7 3 9 8 14 18 22 20 -2 -7 -12 13 -9 -4 -16 -3 -18 -6 23 -5 -22 -1 -19 -25 26 -11 -15 -26 -14
right_child=2 16 5 4 6 10 -8 12 -10 25 11 -13 29 27 15 -17 17 19 -20 -21 21 -23 -24 24 28 -27 -28 -29 -30 -31
leaf_value=1.4418095876207753 -2.7427426167946196 -10.788828196491188 0.10805731455864197 -6.09283406707236 -4.2239481341329741 3.7060754106351825 -7.0870687583859526 -12.220769009445654 4.4859028103957952 -7.645336787088219 2.2769350734286875 -2.2539516965727011 0.15137034069088037 4.4056061392541377 -0.67130271770632333 -3.9204500910042515 7.3675029089072481 2.621043242141567 -0.97663671239533212 5.8146250455489454 -3.7767657734331537 -0.258562574434899 -1.3596819413518932 6.0310116442500572 10.58738870166597 -13.126414595890047 -0.41412851085533964 2.133873387597689 -1.885037358084195 1.497658878167466
leaf_weight=672 388 26 1477 197 1042 924 1048 33 289 1298 878 750 3218 823 1341 1487 653 2323 880 1019 488 1561 2925 854 21 125 74 1747 142 2842
leaf_count=672 388 26 1477 197 1042 924 1048 33 289 1298 878 750 3218 823 1341 1487 653 2323 880 1019 488 1561 2925 854 21 125 74 1747 142 2842
internal_value=0 1.75368 -2.12923 -3.72096 -2.69547 -0.413771 -4.27207 0.708457 -0.848339 -6.7158 1.46281 0.18961 1.34986 2.67015 -1.52621 -2.37975 4.29722 4.37548 -2.73715 3.92726 -1.53471 -1.09648 -0.836301 3.35145 5.01981 -7.74555 -7.25532 2.86136 -0.27816 0.782749
internal_weight=0 17298 14247 7390 5505 6857 2970 12260 2535 1885 2552 1628 8663 2603 4305 2828 5038 5012 1922 4359 2246 2049 3597 3340 1017 1497 1372 2570 163 6060
internal_count=31545 17298 14247 7390 5505 6857 2970 12260 2535 1885 2552 1628 8663 2603 4305 2828 5038 5012 1922 4359 2246 2049 3597 3340 1017 1497 1372 2570 163 6060
is_linear=0
shrinkage=0.1


Tree=12
num_leaves=31
num_cat=0
split_feature=3 8 5 11 4 2 1 4 2 2 4 8 11 1 4 3 4 2 11 2 0 0 1 3 2 4 2 4 4 3
split_gain=9.69307e+06 4.26002e+06 2.93186e+06 1.91386e+06 1.67026e+06 2.40355e+06 1.52566e+06 1.26586e+06 2.11135e+06 828794 982816 660987 655211 606625 531284 524318 503882 541244 426285 391202 382519 341970 339638 338348 330647 303827 300389 298291 289282 273735
threshold=4.5000000000000009 73.100000000000009 2.5000000000000004 1.0000000180025095e-35 1.0000000180025095e-35 8.5457084092551998 221909.50000000003 1.0000000180025095e-35 8.2113477492634086 11.052443603381732 1.0000000180025095e-35 87.666666500000005 1.0000000180025095e-35 31405.000000000004 4.5000000000000009 2.5000000000000004 1.0000000180025095e-35 9.378471039938848 1.0000000180025095e-35 3.8799551161500081 1784.5000000000002 1998.5000000000002 85503.000000000015 3.5000000000000004 12.299018960740458 5.5000000000000009 10.381210653893129 4.5000000000000009 4.5000000000000009 3.5000000000000004
decision_type=2 2 2 2 2 2 2 2 2 2 2 2 2 2 2 2 2 2 2 2 2 2 2 2 2 2 2 2 2 2
left_child=2 4 3 6 13 14 9 18 12 22 23 15 19 -2 -6 -4 -5 -18 21 -9 -15 26 -1 -11 -10 -12 -3 -21 -7 -8
right_child=1 7 11 16 5 28 29 8 24 10 25 -13 -14 20 -16 -17 17 -19 -20 27 -22 -23 -24 -25 -26 -27 -28 -29 -30 -31
leaf_value=-0.38462990527320329 3.4193057388490957 4.4562773103930882 -9.751516195985138 3.5771351518709076 -2.2312162894931982 -6.2823114567001666 -11.167542256232231 6.476547861026555 -0.54817888058530062 -9.2293007550301507 -7.9631836140414753 2.8896214154411872 6.4444576389392951 -0.6159174726487554 0.76781657714865148 -0.33951167332433468 3.4933682912870037 -2.8919465246170444 6.9731980253728132 -0.54960893286258627 1.3371912538928048 5.2513297135611126 -2.8690632821914281 -2.4332356239515143 -4.2191192106168662 -5.0379612499451838 1.6751398363519934 2.7066405854700215 -3.2212532071971389 -6.6812930298242144
leaf_weight=851 1099 753 61 358 697 375 155 246 917 77 656 727 547 1349 3873 1992 185 470 587 321 3907 1234 1557 1507 335 774 802 2276 1747 1110
leaf_count=851 1099 753 61 358 697 375 155 246 917 77 656 727 547 1349 3873 1992 185 470 587 321 3907 1234 1557 1507 335 774 802 2276 1747 1110
internal_value=0 1.23642 -2.48522 -3.49023 0.121603 -0.980992 -4.10385 3.05046 1.97892 -3.37426 -4.47935 0.298419 3.275 1.28267 0.310415 -0.619167 0.560388 -1.08846 4.52383 2.66518 0.835908 4.00831 -1.99105 -2.7636 -1.53042 -6.37988 3.02189 2.30415 -3.7622 -7.23099
internal_weight=0 21065 10480 7700 13047 6692 6687 8018 4642 5422 3014 2780 3390 6355 4570 2053 1013 655 3376 2843 5256 2789 2408 1584 1252 1430 1555 2597 2122 1265
internal_count=31545 21065 10480 7700 13047 6692 6687 8018 4642 5422 3014 2780 3390 6355 4570 2053 1013 655 3376 2843 5256 2789 2408 1584 1252 1430 1555 2597 2122 1265
is_linear=0
shrinkage=0.1


Tree=13
num_leaves=31
num_cat=0
split_feature=1 8 1 8 5 7 11 5 0 5 8 3 1 1 7 2 3 0 0 8 2 4 1 2 3 8 4 4 7 3
split_gain=8.01051e+06 2.99672e+06 2.86235e+06 2.0037e+06 1.0506e+06 900366 830583 638970 604145 580989 534793 477210 519181 451861 437478 389089 384751 349889 341511 313447 311331 461944 306476 291743 291358 268984 261497 254770 240665 240371
threshold=91504.500000000015 77.000000000000014 221909.50000000003 70.642856500000008 2.5000000000000004 4.5000000000000009 1.0000000180025095e-35 2.5000000000000004 2494.5000000000005 1.5000000000000002 67.857142500000023 3.5000000000000004 26314.500000000004 44506.500000000007 4.5000000000000009 11.466256394016069 4.5000000000000009 1987.5000000000002 1797.5000000000002 70.642856500000008 9.2962792233518261 2.5000000000000004 337857.00000000006 10.049703969428512 3.5000000000000004 59.466666500000009 1.0000000180025095e-35 1.0000000180025095e-35 5.5000000000000009 2.5000000000000004
decision_type=2 2 2 2 2 2 2 2 2 2 2 2 2 2 2 2 2 2 2 2 2 2 2 2 2 2 2 2 2 2
left_child=1 5 3 4 9 10 7 8 16 -2 29 -3 -13 24 -14 19 -5 -9 27 -4 -8 -22 -17 -6 -7 -15 -18 -11 -26 -1
right_child=2 11 15 6 23 13 20 17 -10 18 -12 12 14 25 -16 22 26 -19 -20 -21 21 -23 -24 -25 28 -27 -28 -29 -30 -31
leaf_value=-11.189453380584718 -5.256581913587123 -10.791265782066013 -5.4684307599006718 -2.6063293529155542 -1.6103581586862383 -5.0375325246733063 4.4319594167982759 -0.52418008085997891 -12.511912897168374 -2.1082965996485048 0.50574142251905019 6.9435816136173818 1.9124668931889042 -1.1010735880656453 4.0236355439387959 -5.6481557327824623 2.0989926099936169 2.1322209077328624 -1.3521810899088764 -1.3168586422060276 3.7536115574652715 -0.70696475362189581 -9.6582693981679153 0.83689752968611453 3.6012167179336156 1.2056525218631959 -1.0069785741673962 -4.1652575441233974 1.5222188231889524 -1.3290197872297349
leaf_weight=25 1004 23 391 1199 959 49 460 946 49 1056 3808 435 1469 613 2958 911 375 1042 1465 340 415 527 241 990 1368 2883 978 1401 939 2226
leaf_count=25 1004 23 391 1199 959 49 460 946 49 1056 3808 435 1469 613 2958 911 375 1042 1465 340 415 527 241 990 1368 2883 978 1401 939 2226
internal_value=0 1.49329 -1.70054 -1.16759 -2.33254 0.637869 0.169255 -0.481559 -1.51318 -3.11012 -0.216582 3.57904 3.64701 1.52254 3.32309 -5.34201 -1.302 0.868159 -2.56064 -3.53747 2.29949 1.25815 -6.48708 -0.367268 2.59295 0.801184 -0.146122 -3.28119 2.75502 -1.43853
internal_weight=0 16796 14749 12866 6875 11911 5991 4589 2601 4926 6059 4885 4862 5852 4427 1883 2552 1988 3922 731 1402 942 1152 1949 2356 3496 1353 2457 2307 2251
internal_count=31545 16796 14749 12866 6875 11911 5991 4589 2601 4926 6059 4885 4862 5852 4427 1883 2552 1988 3922 731 1402 942 1152 1949 2356 3496 1353 2457 2307 2251
is_linear=0
shrinkage=0.1


Tree=14
num_leaves=31
num_cat=0
split_feature=3 8 5 11 4 2 1 1 2 4 4 2 11 1 3 4 11 4 2 7 0 1 1 5 3 11 6 4 2 0
split_gain=6.70621e+06 2.80469e+06 1.99631e+06 1.29504e+06 1.24648e+06 1.6947e+06 1.02606e+06 919301 682646 567370 524397 630122 476265 464265 453675 421668 381040 343019 356275 324943 292443 288578 281027 265300 248964 235574 233104 226409 223916 221536
threshold=4.5000000000000009 73.100000000000009 2.5000000000000004 1.0000000180025095e-35 1.0000000180025095e-35 8.6306399880237166 230797.00000000003 72800.500000000015 12.299018960740458 1.0000000180025095e-35 1.0000000180025095e-35 9.2113477569599329 1.0000000180025095e-35 22510.500000000004 2.5000000000000004 4.5000000000000009 1.0000000180025095e-35 1.0000000180025095e-35 9.378471039938848 4.5000000000000009 1784.5000000000002 65402.000000000007 6100.5000000000009 1.5000000000000002 3.5000000000000004 1.0000000180025095e-35 4.5000000000000009 4.5000000000000009 8.5457084092551998 1497.5000000000002
decision_type=2 2 2 2 2 2 2 2 2 2 2 2 2 2 2 2 2 2 2 2 2 2 2 2 2 2 2 2 2 2
left_child=2 4 3 6 13 15 8 12 21 24 -9 25 19 -2 -4 -6 29 -5 -19 -3 -15 22 -1 28 -10 -12 -22 -7 -23 -16
right_child=1 7 14 17 5 27 -8 10 9 -11 11 -13 -14 20 16 -17 -18 18 -20 -21 26 23 -24 -25 -26 -27 -28 -29 -30 -31
leaf_value=-9.6840960755430423 3.612465437851192 1.7141460360964977 -8.2284035705751002 2.9246093726004139 -2.0124023087450076 -5.4341120780299654 -6.1437881225988029 2.8150866810264557 -9.1871985847489892 -6.0972992910036616 0.9815119912993886 -1.6700237185012743 6.1281128845238069 -0.37425633447492196 -1.3539414172246533 0.64990310928609984 5.3567243175832813 2.7924969137681499 -2.388085303468273 3.7930511260645385 2.3554059367224056 -1.6993179267349963 0.3927656821267243 -1.6694424422721221 -2.3997482338259988 3.8377446997411475 0.75291420745495108 -2.7073024650143331 -4.6945834121772654 0.71615721915838004
leaf_weight=29 672 1123 62 358 702 370 1133 1622 57 942 1129 865 616 1483 717 3900 148 185 470 2275 1327 384 606 1782 1041 388 2873 1720 713 1853
leaf_count=29 672 1123 62 358 702 370 1133 1622 57 942 1129 865 616 1483 717 3900 148 185 470 2275 1327 384 606 1782 1041 388 2873 1720 713 1853
internal_value=0 1.02843 -2.06716 -2.89645 0.123863 -0.828641 -3.40121 2.50035 -2.84174 -4.2968 1.42824 0.48388 3.56978 1.12688 0.229819 0.243789 0.422759 0.43556 -0.924867 3.106 0.832962 -1.99702 -0.0674375 -2.42262 -2.7521 1.71204 1.25923 -3.19004 -3.6461 0.138624
internal_weight=0 21065 10480 7700 13047 6692 6687 8018 5554 2040 4004 2382 4014 6355 2780 4602 2718 1013 655 3398 5683 3514 635 2879 1098 1517 4200 2090 1097 2570
internal_count=31545 21065 10480 7700 13047 6692 6687 8018 5554 2040 4004 2382 4014 6355 2780 4602 2718 1013 655 3398 5683 3514 635 2879 1098 1517 4200 2090 1097 2570
is_linear=0
shrinkage=0.1


Tree=15
num_leaves=31
num_cat=0
split_feature=3 8 1 4 2 4 3 8 2 8 5 5 1 4 2 4 2 0 0 2 4 2 11 2 2 2 1 11 3 4
split_gain=5.43203e+06 2.28517e+06 1.64106e+06 1.4368e+06 1.3856e+06 1.27674e+06 788787 693916 679963 653352 592543 425045 418615 379111 345113 335195 355689 334919 310328 300487 286422 450014 284238 282282 265108 264326 236157 230522 223383 221077
threshold=4.5000000000000009 70.642856500000008 151813.50000000003 1.0000000180025095e-35 7.2113477741039729 1.0000000180025095e-35 3.5000000000000004 77.000000000000014 9.2113477569599329 70.291666500000005 1.5000000000000002 1.5000000000000002 41968.500000000007 1.0000000180025095e-35 3.2086081128967288 1.0000000180025095e-35 7.5457085690999843 1998.5000000000002 1998.5000000000002 8.3784710542976661 1.0000000180025095e-35 7.2113477741039729 1.0000000180025095e-35 12.299018960740458 12.299018960740458 7.0497039337396776 1.0000000180025095e-35 1.0000000180025095e-35 5.5000000000000009 5.5000000000000009
decision_type=2 2 2 2 2 2 2 2 2 2 2 2 2 2 2 2 2 2 2 2 2 2 2 2 2 2 2 2 2 2
left_child=2 5 6 12 7 28 26 14 -7 15 25 19 -3 18 -5 -8 -17 22 -12 -11 -13 -22 -14 29 -15 -4 -1 -9 -2 -6
right_child=1 3 10 4 23 8 9 27 -10 11 13 20 17 24 -16 16 -18 -19 -20 -21 21 -23 -24 -25 -26 -27 -28 -29 -30 -31
leaf_value=-12.831623590560188 0.62264739418119008 5.034691622677304 2.5769358228147032 7.0702142130468308 -2.2243596985437559 -0.35744535257330257 -0.89989106072680303 3.0408684248533286 -3.0798363132083342 0.27251589447707386 -2.256439100068651 1.5978224940658556 1.589183814618651 -2.5099978145365238 1.0159543217955307 -0.90560633970479953 -4.5327391270224968 3.8773637114780173 1.7008123599894107 -3.7893089100421964 1.8678318182491278 -2.0014200470938461 8.3242105645399835 -3.5012636829478971 -5.0343780134537539 -5.6970322348596198 -4.7607153045231447 5.8190051531855502 5.7022166899659421 0.097814594177675518
leaf_weight=42 5350 1050 40 97 523 1848 1569 1206 1822 333 684 1669 1742 969 3209 437 709 1436 279 402 511 730 65 335 729 1112 265 397 88 1897
leaf_count=42 5350 1050 40 97 523 1848 1569 1206 1822 333 684 1669 1742 969 3209 437 709 1436 279 402 511 730 65 335 729 1112 265 397 88 1897
internal_value=0 0.925584 -1.86044 1.83461 1.01419 -0.267793 -0.914095 2.02148 -1.709 -0.675119 -3.51512 0.199626 3.29927 -2.6949 1.19359 -1.8495 -3.14962 2.73738 -1.10995 -1.94905 0.742334 -0.408199 1.83145 -0.780657 -3.59379 -5.40974 -5.86488 3.7289 0.704847 -0.404044
internal_weight=0 21065 10480 11957 7664 9108 6667 4909 3670 6360 3813 3645 4293 2661 3306 2715 1146 3243 963 735 2910 1241 1807 2755 1698 1152 307 1603 5438 2420
internal_count=31545 21065 10480 11957 7664 9108 6667 4909 3670 6360 3813 3645 4293 2661 3306 2715 1146 3243 963 735 2910 1241 1807 2755 1698 1152 307 1603 5438 2420
is_linear=0
shrinkage=0.1


Tree=16
num_leaves=31
num_cat=0
split_feature=1 5 8 8 1 4 2 2 4 2 4 2 4 11 2 0 4 4 0 0 1 11 7 1 3 2 0 4 11 4
split_gain=4.51722e+06 1.6701e+06 1.60874e+06 1.1653e+06 714252 737344 821260 632139 609983 830273 601188 712733 531171 471356 422130 385426 381481 380625 374304 346473 338351 319872 312223 301783 289091 242567 275436 323812 227980 222922
threshold=90501.500000000015 1.5000000000000002 70.642856500000008 70.291666500000005 1.0000000180025095e-35 1.0000000180025095e-35 7.2113477741039729 9.2113477569599329 1.0000000180025095e-35 9.6306400247916866 1.0000000180025095e-35 9.2113477569599329 1.0000000180025095e-35 1.0000000180025095e-35 10.800503044380774 2494.5000000000005 5.5000000000000009 4.5000000000000009 1998.5000000000002 1998.5000000000002 22510.500000000004 1.0000000180025095e-35 4.5000000000000009 206374.00000000003 2.5000000000000004 14.052443649551043 1998.5000000000002 1.0000000180025095e-35 1.0000000180025095e-35 5.5000000000000009
decision_type=2 2 2 2 2 2 2 2 2 2 2 2 2 2 2 2 2 2 2 2 2 2 2 2 2 2 2 2 2 2
left_child=2 7 8 12 -4 18 13 -2 24 29 19 21 -3 17 -8 16 -13 -7 20 -5 -6 -12 -9 -14 -1 26 -24 -28 -22 -10
right_child=1 3 4 10 5 6 14 22 9 -11 11 15 23 -15 -16 -17 -18 -19 -20 -21 28 -23 25 -25 -26 -27 27 -29 -30 -31
leaf_value=-6.1693467567043925 -0.87043190260694647 -0.92471865706740042 -15.590056775963825 0.16826836716430191 5.1464061091396403 -0.90480258913517242 -0.3002030135002316 -5.7917370132352479 -2.259597904969306 -4.783916844114386 -0.062770092096119168 -3.6311928840109062 -2.5791111485016782 5.5338953326864537 -6.8453725690039526 -11.594121696309346 -0.94639811816551733 2.0756621718910395 4.4867689411156579 2.3298101920656111 1.6393614822381015 3.0771856525571559 -3.8328921971380776 -5.5007959587837378 0.7009355213747912 -9.0449057382250597 7.1861947174425485 -1.8855813985035337 6.6585333011024872 0.44056873234422567
leaf_weight=62 592 2100 23 1923 376 491 1246 1014 411 540 2153 783 1988 349 107 41 1633 3365 1333 1207 1909 382 492 430 5044 63 54 145 95 1194
leaf_count=62 592 2100 23 1923 376 491 1246 1014 411 540 2153 783 1988 349 107 41 1633 3365 1333 1207 1909 382 492 430 5044 63 54 145 95 1194
internal_value=0 -1.25678 1.13942 -0.800837 2.01039 2.05406 1.32515 -3.69876 0.023038 -1.39206 -0.0847143 -0.765968 -2.08821 2.01467 -0.817818 -1.97967 -1.81651 1.69615 3.14517 1.00181 2.39376 0.410391 -4.64581 -3.09868 0.617513 -3.10473 -2.56315 0.576107 1.8773 -0.250876
internal_weight=0 15000 16545 12640 9294 9271 5558 2360 7251 2145 8122 4992 4518 4205 1353 2457 2416 3856 3713 3130 2380 2535 1768 2418 5106 754 691 199 2004 1605
internal_count=31545 15000 16545 12640 9294 9271 5558 2360 7251 2145 8122 4992 4518 4205 1353 2457 2416 3856 3713 3130 2380 2535 1768 2418 5106 754 691 199 2004 1605
is_linear=0
shrinkage=0.1


Tree=17
num_leaves=31
num_cat=0
split_feature=3 7 1 8 11 5 4 2 2 4 2 1 4 0 4 7 3 2 3 2 0 6 11 2 4 3 4 2 8 4
split_gain=3.8124e+06 1.68377e+06 1.16052e+06 772968 770354 809615 543123 787093 475636 347668 677212 325032 284124 282549 262071 258916 240900 215256 213345 212931 202897 194844 189365 173376 199542 168342 167877 173335 157173 149741
threshold=4.5000000000000009 4.5000000000000009 230797.00000000003 73.100000000000009 1.0000000180025095e-35 2.5000000000000004 1.0000000180025095e-35 7.3784710198960282 12.299018960740458 1.0000000180025095e-35 7.2113477741039729 62401.500000000007 1.0000000180025095e-35 1784.5000000000002 7.5000000000000009 4.5000000000000009 2.5000000000000004 10.214087382575022 3.5000000000000004 11.96762621539207 1998.5000000000002 4.5000000000000009 1.0000000180025095e-35 8.6306399880237166 2.5000000000000004 3.5000000000000004 1.0000000180025095e-35 8.3784710542976661 59.466666500000009 5.5000000000000009
decision_type=2 2 2 2 2 2 2 2 2 2 2 2 2 2 2 2 2 2 2 2 2 2 2 2 2 2 2 2 2 2
left_child=2 6 4 11 5 8 13 14 15 17 22 26 25 -2 -8 -1 -7 -5 -4 -9 -19 -15 -11 -6 -25 -10 -3 -28 -13 -12
right_child=1 3 18 9 23 16 7 19 12 10 29 28 -14 21 -16 -17 -18 20 -20 -21 -22 -23 -24 24 -26 -27 27 -29 -30 -31
leaf_value=-2.2727043728715652 -0.86896671346325238 2.3273657140561235 -7.7887504160019665 4.6794298169853521 3.9909500323957015 -6.1751432641859978 -0.60654073238162509 -1.6946369446100995 -7.5673824645970997 2.5377201057864278 -2.4708775947705428 -1.3528319374925191 -4.6430716208059684 2.0920446122624972 1.4011600099337702 -0.55446433628601799 0.13386638292154374 1.1430645669810475 -3.8448900336494995 -3.9588637269670692 3.6258062722630897 0.5189186832584004 5.5240122140802974 2.3784536620366175 -0.86060378034325213 -1.9860912032010292 1.1079399640750693 -3.2773472896644047 0.47614913896543548 0.39950579333455438
leaf_weight=1830 1041 1534 155 862 217 62 1426 1933 57 1683 232 572 942 1128 1195 1684 2539 536 1192 529 853 2607 243 387 374 1041 1123 98 2631 839
leaf_count=1830 1041 1534 155 862 217 62 1426 1933 57 1683 232 572 942 1128 1195 1684 2539 536 1192 529 853 2607 243 387 374 1041 1123 98 2631 839
internal_value=0 0.775415 -1.5586 1.61401 -1.15447 -1.47252 -0.177752 -0.897209 -2.15438 2.49894 1.79355 0.834532 -3.36894 0.587951 0.308836 -1.44928 -0.0165214 3.4381 -4.29871 -2.18114 2.66774 0.994015 2.9145 1.49758 0.786591 -2.27583 1.63093 0.755968 0.149525 -0.222277
internal_weight=0 21065 10480 11206 9133 8155 9859 5083 5554 5248 2997 5958 2040 4776 2621 3514 2601 2251 1347 2462 1389 3735 1926 978 761 1098 2755 1221 3203 1071
internal_count=31545 21065 10480 11206 9133 8155 9859 5083 5554 5248 2997 5958 2040 4776 2621 3514 2601 2251 1347 2462 1389 3735 1926 978 761 1098 2755 1221 3203 1071
is_linear=0
shrinkage=0.1


Tree=18
num_leaves=31
num_cat=0
split_feature=3 7 5 4 2 2 8 2 4 2 0 1 4 1 4 2 3 0 4 2 5 0 2 8 3 2 6 1 1 7
split_gain=3.08804e+06 1.36385e+06 975171 643556 811109 641314 626104 485817 439929 637545 398510 315848 280906 268810 256760 374900 240287 228865 212277 203197 193611 176772 172474 168858 165540 169152 157823 157772 156668 150647
threshold=4.5000000000000009 4.5000000000000009 1.5000000000000002 1.0000000180025095e-35 8.7977632840741951 9.2113477569599329 73.100000000000009 6.4635167680783994 1.0000000180025095e-35 7.3784710198960282 1998.5000000000002 34500.500000000007 5.5000000000000009 69769.500000000015 1.0000000180025095e-35 7.2113478298466758 3.5000000000000004 1784.5000000000002 7.5000000000000009 13.214087371832372 2.5000000000000004 1889.0000000000002 11.96762621539207 103.01666650000001 3.5000000000000004 12.381210673512902 4.5000000000000009 41968.500000000007 13952.000000000002 4.5000000000000009
decision_type=2 2 2 2 2 2 2 2 2 2 2 2 2 2 2 2 2 2 2 2 2 2 2 2 2 2 2 2 2 2
left_child=2 8 5 7 23 -1 13 -4 17 18 20 -8 -6 28 -13 21 -7 -2 -10 -12 24 -16 -11 -5 27 -26 -19 -9 -3 -18
right_child=1 6 3 4 12 16 11 10 9 22 19 14 -14 -15 15 -17 29 26 -20 -21 -22 -23 -24 -25 25 -27 -28 -29 -30 -31
leaf_value=-0.68220641332204046 -0.78207005450106615 3.908940396766996 -6.788127675160621 -0.39771595732853321 -4.1388165815877427 -7.4385615806768444 4.1270455181910322 2.8269615840911868 -0.54588665690613969 -1.5251732493292558 3.1125466767409065 2.7954332548385281 -1.9864226613020595 0.046091346946993364 0.9314411027313666 -0.2123541634906273 -4.658188141459692 1.8828401649648203 1.2610440164938508 -0.40092822544015294 0.47076006385236691 3.135970700772984 -3.5629773553721393 2.325205569979671 0.13233114217280603 -1.938865153189228 0.46702682658398365 -7.1417776247123612 1.1918152431566986 -2.6575296140657767
leaf_weight=742 1041 229 103 1035 1015 202 765 20 1426 1933 592 1939 1506 2835 602 1023 846 1128 1195 228 1559 919 529 292 848 737 2607 77 2894 678
leaf_count=742 1041 229 103 1035 1015 202 765 20 1426 1933 592 1939 1506 2835 602 1023 846 1128 1195 228 1559 919 529 292 848 737 2607 77 2894 678
internal_value=0 0.697873 -1.40274 -0.867359 -1.79967 -3.14077 1.45261 -0.00579987 -0.159977 -0.807488 0.166222 2.24904 -2.85302 0.751079 1.92857 1.26786 -4.1977 0.529156 0.277952 2.13563 -0.332055 2.26343 -1.96303 0.20145 -1.07616 -0.830742 0.894614 -5.08637 1.39105 -3.76813
internal_weight=0 21065 10480 8012 3848 2468 11206 4164 9859 5083 4061 5248 2521 5958 4483 2544 1726 4776 2621 820 3241 1521 2462 1327 1682 1585 3735 97 3123 1524
internal_count=31545 21065 10480 8012 3848 2468 11206 4164 9859 5083 4061 5248 2521 5958 4483 2544 1726 4776 2621 820 3241 1521 2462 1327 1682 1585 3735 97 3123 1524
is_linear=0
shrinkage=0.1


Tree=19
num_leaves=31
num_cat=0
split_feature=1 1 8 11 5 1 4 2 4 2 2 2 3 11 4 1 0 4 0 2 1 7 1 0 0 4 2 2 4 2
split_gain=2.59387e+06 1.04058e+06 974874 879484 644898 527294 467315 561562 399104 561318 394664 381954 354161 289457 248970 248206 236646 232658 227020 214271 219193 206102 196939 195028 191568 197362 178346 172023 171755 168047
threshold=90501.500000000015 230797.00000000003 70.642856500000008 1.0000000180025095e-35 2.5000000000000004 1.0000000180025095e-35 1.0000000180025095e-35 6.2113477738536842 1.0000000180025095e-35 7.5457085690999843 12.299018960740458 10.800503044380774 5.5000000000000009 1.0000000180025095e-35 1.0000000180025095e-35 38102.000000000007 1998.5000000000002 5.5000000000000009 1987.5000000000002 7.0497039337396776 337857.00000000006 4.5000000000000009 1.0000000180025095e-35 2396.5000000000005 2362.5000000000005 4.5000000000000009 10.548448237482562 6.7155715268765395 4.5000000000000009 3.2086081128967288
decision_type=2 2 2 2 2 2 2 2 2 2 2 2 2 2 2 2 2 2 2 2 2 2 2 2 2 2 2 2 2 2
left_child=2 3 8 4 10 -4 15 13 22 -10 12 17 21 23 -12 -7 -17 -9 26 -3 -21 -2 -1 29 25 -16 -6 -23 -11 -8
right_child=1 19 5 -5 18 6 7 11 9 28 14 -13 -14 -15 24 16 -18 -19 -20 20 -22 27 -24 -25 -26 -27 -28 -29 -30 -31
leaf_value=-7.8883524945804062 -1.6165045834396423 3.7270369374326302 -13.581105037357498 1.6493642945083655 -0.86502745407524229 3.8016895693050881 5.0978926848648189 -1.6077332793807699 0.29616142605000095 -5.7801971699079422 -1.4870950307981934 -5.8379091584236829 9.7002793704309767 5.4607738798962231 -5.1002292272246184 1.1985191941946038 3.1052331442459176 0.70526302014246511 1.3183266123879331 -2.8991787021288946 -5.7500262502852406 2.2253489009530867 0.52134578518582131 11.55643394470215 -13.1113987159729 -2.4629903634410368 0.8368340656379083 -0.62160836007951703 -2.320526425237198 1.4425812487188621
leaf_weight=28 2701 42 23 1468 2131 992 133 541 1192 176 1360 107 31 226 405 1643 1078 2217 1079 1262 343 236 5078 20 20 948 866 2108 777 2314
leaf_count=28 2701 42 23 1468 2131 992 133 541 1192 176 1360 107 31 226 405 1643 1078 2217 1079 1262 343 236 5078 20 20 948 866 2108 777 2314
internal_value=0 -0.95235 0.863418 -0.659834 -0.945059 1.54143 1.57895 0.998659 -0.00562947 -1.15027 -1.47725 0.0241285 -0.955603 2.03543 -2.4461 2.44759 1.95392 0.251553 0.0745337 -3.32391 -3.50843 -1.02108 0.475229 1.72164 -3.39602 -3.25241 -0.373265 -0.334969 -2.95946 1.64126
internal_weight=0 15000 16545 13353 11885 9294 9271 5558 7251 2145 7809 2865 5076 2693 2733 3713 2721 2758 4076 1647 1605 5045 5106 2467 1373 1353 2997 2344 953 2447
internal_count=31545 15000 16545 13353 11885 9294 9271 5558 7251 2145 7809 2865 5076 2693 2733 3713 2721 2758 4076 1647 1605 5045 5106 2467 1373 1353 2997 2344 953 2447
is_linear=0
shrinkage=0.1


Tree=20
num_leaves=31
num_cat=0
split_feature=3 7 7 1 8 4 2 3 4 8 5 1 0 11 4 2 2 4 11 4 2 2 8 7 2 8 0 0 8 2
split_gain=2.15454e+06 1.00977e+06 758105 492220 434171 403964 615926 422962 366548 347260 339245 262724 256245 253401 243189 289768 236229 439575 184699 187158 312146 168593 161284 159455 154182 149006 138015 148929 143115 125413
threshold=4.5000000000000009 4.5000000000000009 4.5000000000000009 301719.50000000006 97.499999500000015 1.0000000180025095e-35 7.2113478298466758 3.5000000000000004 5.5000000000000009 67.857142500000023 1.5000000000000002 22510.500000000004 1998.5000000000002 1.0000000180025095e-35 1.0000000180025095e-35 7.2113477551689362 7.0497039337396776 1.0000000180025095e-35 1.0000000180025095e-35 1.0000000180025095e-35 6.4635167680783994 9.8826948097157743 59.466666500000009 5.5000000000000009 11.381210678561745 105.28750000000001 1998.5000000000002 2494.5000000000005 105.28750000000001 13.214087371832372
decision_type=2 2 2 2 2 2 2 2 2 2 2 2 2 2 2 2 2 2 2 2 2 2 2 2 2 2 2 2 2 2
left_child=2 9 3 10 11 7 -7 -4 29 -2 21 -3 -9 14 -11 -16 -6 26 19 20 -12 -1 -13 -24 -21 -19 28 -28 -18 -8
right_child=1 4 5 -5 16 6 8 12 -10 13 18 22 -14 -15 15 -17 17 25 -20 24 -22 -23 23 -25 -26 -27 27 -29 -30 -31
leaf_value=-1.5951315266244552 -1.1949082928975283 2.4561086090288549 -4.5915796036953509 -5.4165179934957273 3.346870598988831 1.6507721820518899 -2.816044944190228 0.41325829670613046 -0.69975617148274027 0.63348439072977492 -8.5815615340884701 -0.70422466688663798 2.8893891834508199 2.2096042375776328 0.36749636712848871 -1.4367199534453456 7.0156952939134971 1.7379906044276119 1.0943144734193915 -1.4563437000640196 -0.66408159769594133 -4.1802881709277715 1.2131479266449936 0.1098243699362747 -3.3538037160577563 -0.82634337674069214 3.7340890948614369 0.13852330403346005 1.3628255040932264 -5.6809718528007851
leaf_weight=391 2423 805 138 382 1043 626 706 1445 1072 3303 51 897 588 570 1736 1827 47 327 301 1038 2107 711 3084 2277 729 738 905 132 951 195
leaf_count=391 2423 805 138 382 1043 626 706 1445 1072 3303 51 897 588 570 1736 1827 47 327 301 1038 2107 711 3084 2277 729 738 905 132 951 195
internal_value=0 0.582923 -1.17169 -1.94905 1.23234 -0.24113 -1.08221 0.765767 -1.94934 -0.155219 -1.70045 0.755613 1.12942 0.183561 0.0153634 -0.557652 2.04506 1.60707 -1.29297 -1.47605 -0.851195 -3.26305 0.536869 0.744529 -2.23917 -0.0389845 2.46851 3.27641 1.62904 -3.43609
internal_weight=0 21065 10480 5710 11206 4770 2599 2171 1973 9859 5328 7063 2033 7436 6866 3563 4143 3100 4226 3925 2158 1102 6258 5361 1767 1065 2035 1037 998 901
internal_count=31545 21065 10480 5710 11206 4770 2599 2171 1973 9859 5328 7063 2033 7436 6866 3563 4143 3100 4226 3925 2158 1102 6258 5361 1767 1065 2035 1037 998 901
is_linear=0
shrinkage=0.1


Tree=21
num_leaves=31
num_cat=0
split_feature=1 5 7 8 1 1 4 2 4 2 4 2 8 2 4 2 11 0 11 3 4 11 1 2 0 2 5 3 2 0
split_gain=1.84406e+06 878235 616614 552677 408326 343491 341414 489476 370279 322363 291123 395314 263907 220430 210241 390629 196124 187931 186965 180669 179800 179476 172185 182545 171174 160010 156433 154332 143448 142158
threshold=80100.500000000015 1.5000000000000002 4.5000000000000009 70.642856500000008 1.0000000180025095e-35 253801.50000000003 1.0000000180025095e-35 9.9648865156069686 5.5000000000000009 8.5457084092551998 1.0000000180025095e-35 10.381210753157612 61.133333000000007 6.2113477738536842 1.0000000180025095e-35 9.6306400247916866 1.0000000180025095e-35 2494.5000000000005 1.0000000180025095e-35 5.5000000000000009 5.5000000000000009 1.0000000180025095e-35 22510.500000000004 5.795023616649094 1998.5000000000002 14.216827224845185 2.5000000000000004 3.5000000000000004 7.2113478298466758 2494.5000000000005
decision_type=2 2 2 2 2 2 2 2 2 2 2 2 2 2 2 2 2 2 2 2 2 2 2 2 2 2 2 2 2 2
left_child=3 9 5 14 -5 12 22 8 -8 -2 19 -12 -3 18 27 -16 25 20 -10 24 -13 26 -6 -24 28 -11 -14 -1 -4 -26
right_child=1 2 10 4 6 -7 7 -9 13 16 11 17 21 -15 15 -17 -18 -19 -20 -21 -22 -23 23 -25 29 -27 -28 -29 -30 -31
leaf_value=-3.5261388371067661 -0.3169630321446103 -1.9359144422607444 -7.778134066717965 -11.902995026629904 4.0699763675241192 -3.7999955794269065 -0.81199349869925508 -6.0138506207317119 1.9154935602553171 -3.1366766681584561 0.54008730317260045 -2.7211877738558083 -1.1754126941018332 0.68692558181490426 0.010035971077348542 -3.607961117950353 0.99216994451439899 -8.925895104263768 5.430158431024263 9.0465349950960707 -0.51684170914939498 1.2338184310746554 -4.4393043883144854 2.0548902219854717 2.4211459591076978 -10.06081929767833 -0.074523786679204743 0.59163236666532659 0.53159928820679847 -2.4980771465049614
leaf_weight=93 572 1710 21 23 446 415 865 100 1830 1814 2501 575 2980 1832 1327 385 115 33 165 28 1038 529 44 2657 870 34 2277 4273 1930 63
leaf_count=93 572 1710 21 23 446 415 865 100 1830 1814 2501 575 2980 1832 1327 385 115 33 165 28 1038 529 44 2657 870 34 2277 4273 1930 63
internal_value=0 -0.684738 -0.393262 0.853728 1.40191 -0.999512 1.44045 0.909019 1.05656 -2.406 0.28616 -0.25198 -0.84447 1.47891 0.135631 -0.803591 -3.01472 -1.45548 2.20618 1.05253 -1.30264 -0.521903 2.24967 1.9491 0.974918 -3.26407 -0.698577 0.50392 0.442156 2.08898
internal_weight=0 17505 14970 14040 7962 7911 7939 4792 4692 2535 7059 4147 7496 3827 6078 1712 1963 1646 1995 2912 1613 5786 3147 2701 2884 1848 5257 4366 1951 933
internal_count=31545 17505 14970 14040 7962 7911 7939 4792 4692 2535 7059 4147 7496 3827 6078 1712 1963 1646 1995 2912 1613 5786 3147 2701 2884 1848 5257 4366 1951 933
is_linear=0
shrinkage=0.1


Tree=22
num_leaves=31
num_cat=0
split_feature=1 7 8 1 11 7 1 5 4 4 4 4 1 2 0 2 0 0 3 2 3 0 5 6 5 0 5 1 2 2
split_gain=1.54911e+06 1.03863e+06 425094 403783 344982 293128 285865 292939 252464 316624 243844 429146 202007 199902 211117 180862 173672 171101 170136 165628 153073 146336 142509 137492 136355 131452 189614 130338 121457 117339
threshold=151813.50000000003 4.5000000000000009 70.642856500000008 1.0000000180025095e-35 1.0000000180025095e-35 2.5000000000000004 67416.500000000015 1.5000000000000002 1.0000000180025095e-35 4.5000000000000009 1.0000000180025095e-35 7.5000000000000009 44506.500000000007 10.214087382575022 1998.5000000000002 8.2113477492634086 2396.5000000000005 1998.5000000000002 3.5000000000000004 13.214087486191055 3.5000000000000004 1653.5000000000002 1.5000000000000002 4.5000000000000009 2.5000000000000004 2494.5000000000005 2.5000000000000004 374007.00000000006 12.214087524829111 5.2086080500668741
decision_type=2 2 2 2 2 2 2 2 2 2 2 2 2 2 2 2 2 2 2 2 2 2 2 2 2 2 2 2 2 2
left_child=1 3 12 -1 6 16 -5 -8 17 28 13 15 -3 18 24 -12 27 20 -4 29 -7 -9 -14 -23 -15 26 -16 -2 -10 -11
right_child=5 2 10 4 -6 8 7 21 9 19 11 -13 22 14 25 -17 -18 -19 -20 -21 -22 23 -24 -25 -26 -27 -28 -29 -30 -31
leaf_value=-13.868411762064154 -2.9682288540549155 1.3136758800733641 -4.5147383474534557 0.21092240512040458 1.8462459712827344 -7.7913805890083312 -2.8269160840586736 -1.3394710068313185 -2.2566852399073869 5.5102052831649786 0.4425483342244485 1.8683384936357852 -1.6553104189599133 -1.9728764545111384 1.7075121763464693 -1.6402717567396885 5.4584320306777956 1.765405577166969 2.9653622922265703 -2.806842418322566 -0.5234297768060735 0.47408539643554559 0.095518180314712792 -0.67951790325743755 0.95380779698930329 -0.56318518740016144 4.8314298107171503 -6.4652007229626181 -4.5373331729846837 -0.78884856238276069
leaf_weight=22 637 1245 31 4310 701 30 658 1985 565 30 2025 2443 542 244 693 525 22 381 1591 453 851 1503 3268 3305 458 154 270 128 398 2077
leaf_count=22 637 1245 31 4310 701 30 658 1985 565 30 2025 2443 542 244 693 525 22 381 1591 453 851 1503 3268 3305 458 154 270 128 398 2077
internal_value=0 0.324579 0.932933 -0.332748 -0.308853 -1.51298 -0.437305 -0.812269 -1.21883 -1.65357 1.36754 0.921163 0.207814 2.01525 1.2955 0.0137324 -3.30143 -0.0051986 2.8224 -1.07212 -0.77092 -0.617121 -0.15355 -0.318897 -0.0634443 2.14956 2.58338 -3.55334 -3.19926 -0.699161
internal_weight=0 25973 13489 12484 12462 5572 11761 7451 4785 3523 8434 4993 5055 3441 1819 2550 787 1262 1622 2560 881 6793 3810 4808 702 1117 963 765 963 2107
internal_count=31545 25973 13489 12484 12462 5572 11761 7451 4785 3523 8434 4993 5055 3441 1819 2550 787 1262 1622 2560 881 6793 3810 4808 702 1117 963 765 963 2107
is_linear=0
shrinkage=0.1


Tree=23
num_leaves=31
num_cat=0
split_feature=3 7 3 2 8 4 3 11 4 2 8 1 1 2 4 2 0 4 5 4 4 4 6 0 2 2 0 7 4 5
split_gain=1.25686e+06 582337 527935 465196 343750 335607 299700 297462 225076 398871 216844 216093 177745 171627 168711 166859 167842 165027 151023 143753 125163 155353 135642 117748 114738 111350 109015 108970 108204 98048
threshold=4.5000000000000009 4.5000000000000009 3.5000000000000004 12.299018960740458 73.100000000000009 1.0000000180025095e-35 5.5000000000000009 1.0000000180025095e-35 1.0000000180025095e-35 7.3784710198960282 67.857142500000023 151813.50000000003 41968.500000000007 14.216827158352617 5.5000000000000009 10.381210753157612 1998.5000000000002 7.5000000000000009 2.5000000000000004 4.5000000000000009 1.0000000180025095e-35 7.5000000000000009 4.5000000000000009 1998.5000000000002 9.4635166091868168 8.4635166326890445 2494.5000000000005 1.0000000180025095e-35 1.0000000180025095e-35 2.5000000000000004
decision_type=2 2 2 2 2 2 2 2 2 2 2 2 2 2 2 2 2 2 2 2 2 2 2 2 2 2 2 2 2 2
left_child=2 10 -1 4 11 13 7 8 23 17 29 -4 -12 18 -7 -6 -17 -10 27 -11 22 -22 -14 25 -9 -3 28 -5 -18 -2
right_child=1 6 3 5 15 14 -8 24 9 19 12 -13 20 -15 -16 16 26 -19 -20 -21 21 -23 -24 -25 -26 -27 -28 -29 -30 -31
leaf_value=-3.9550043177841427 -1.4228926756970732 1.9414420208245116 -0.33817262927769087 -3.1252064830118229 1.6188140833303266 -4.0988886134911784 4.3274192229731412 3.5982616478615821 0.20026264583108719 -2.6391437667327371 1.2781167802480207 -1.8605141802822189 1.4448792143747626 -10.010915269851687 -1.8869428618507678 -2.0268681961974062 2.5842742325922918 1.5747525380594816 1.5520231155898629 -0.46175886124777099 -1.0349567033276466 0.33550744735180066 -0.039881675117924467 2.2994671910188704 1.4877853130219856 0.6563849271660962 -5.2335870611256574 -0.71465031464502815 -0.088543758495168601 -0.10425791233248199
leaf_weight=535 1530 896 3508 223 1129 639 255 483 1707 374 1180 1270 900 20 749 324 262 1789 254 1602 2001 1410 1945 823 552 2725 29 1179 359 893
leaf_count=535 1530 896 3508 223 1129 639 255 483 1707 374 1180 1270 900 20 749 324 262 1789 254 1602 2001 1410 1945 823 552 2725 29 1179 359 893
internal_value=0 0.445224 -0.894909 -0.730288 -0.2739 -1.75522 0.938395 0.85948 0.6911 0.261751 -0.115327 -0.742813 0.152383 -0.802803 -2.90527 0.791467 -0.167543 0.903627 -0.691594 -0.873875 -0.0599523 -0.46845 0.429814 1.21977 2.47267 0.974366 0.759259 -1.09807 1.03912 -0.936908
internal_weight=0 21065 10480 9945 6881 3064 11206 10951 9916 5472 9859 4778 7436 1676 1388 2103 974 3496 1656 1976 6256 3411 2845 4444 1035 3621 650 1402 621 2423
internal_count=31545 21065 10480 9945 6881 3064 11206 10951 9916 5472 9859 4778 7436 1676 1388 2103 974 3496 1656 1976 6256 3411 2845 4444 1035 3621 650 1402 621 2423
is_linear=0
shrinkage=0.1


Tree=24
num_leaves=31
num_cat=0
split_feature=1 5 0 11 1 1 1 0 4 7 7 2 8 4 0 1 8 8 2 11 5 2 7 11 8 2 4 2 2 2
split_gain=1.07206e+06 525186 389739 359111 307339 293829 292393 262094 249033 248305 236646 218090 157623 136968 134622 114922 112759 112356 104266 97166.1 97948.8 167948 97120.6 94304 89182.4 88997 174769 85344.4 81070.7 80746.7
threshold=78201.500000000015 1.5000000000000002 1653.5000000000002 1.0000000180025095e-35 1.0000000180025095e-35 18724.500000000004 213725.00000000003 2494.5000000000005 5.5000000000000009 4.5000000000000009 4.5000000000000009 5.2086080500668741 107.53333300000001 1.0000000180025095e-35 1998.5000000000002 374007.00000000006 107.53333300000001 97.499999500000015 6.1264162468789083 1.0000000180025095e-35 2.5000000000000004 14.13189551363803 5.5000000000000009 1.0000000180025095e-35 62.958333000000003 9.2113478452717477 3.5000000000000004 10.548448237482562 10.21408747122018 7.2113478298466758
decision_type=2 2 2 2 2 2 2 2 2 2 2 2 2 2 2 2 2 2 2 2 2 2 2 2 2 2 2 2 2 2
left_child=3 8 -3 4 11 16 7 9 12 19 24 -1 15 28 -12 23 -6 22 -19 20 -4 27 -11 -2 -7 -5 -27 -22 -14 -10
right_child=1 2 6 25 5 10 -8 -9 29 17 14 -13 13 -15 -16 -17 -18 18 -20 -21 21 -23 -24 -25 -26 26 -28 -29 -30 -31
leaf_value=-1.7360982449849449 -2.6909665236134792 -1.2773597793036298 -0.82151988154577715 3.4719308939826399 1.7347468448723902 -0.76117574161742307 -1.4416032353970767 -4.5705014762970118 1.9434579043476672 0.74690063661533646 0.6907958648719843 -15.023288815362115 4.8199916470795872 -3.5315216715398585 2.2832208852286837 -5.9005888464274232 4.6948536903266138 3.3668950301271923 0.96607706983405883 1.0279764157280833 -0.55038865332593212 5.0818070094402019 -0.42330037380402064 1.1716908559598254 0.17445347110496856 2.2741267081096397 -4.5748191550720572 0.77257584480072394 -0.6166460458189249 -0.76717162223788082
leaf_weight=30 1493 3152 2752 524 944 1376 1313 117 135 1636 5644 21 64 57 586 108 149 196 2347 508 1367 65 1252 66 3924 279 43 758 48 591
leaf_count=30 1493 3152 2752 524 944 1376 1313 117 135 1636 5644 21 64 57 586 108 149 196 2347 508 1367 65 1252 66 3924 279 43 758 48 591
internal_value=0 -0.504888 -0.285172 0.673122 0.539968 0.571269 -0.0311416 0.137247 -1.83099 0.187868 0.422723 -7.20729 -2.45096 0.459075 0.840581 -2.74598 2.13827 0.666406 1.15112 -0.289002 -0.424378 0.0746798 0.239597 -2.52744 -0.0684571 2.66791 1.35952 -0.0784794 2.49 -0.263129
internal_weight=0 18025 15463 13520 12674 12623 12311 10998 2562 10881 11530 51 1836 169 6230 1667 1093 5431 2543 5450 4942 2190 2888 1559 5300 846 322 2125 112 726
internal_count=31545 18025 15463 13520 12674 12623 12311 10998 2562 10881 11530 51 1836 169 6230 1667 1093 5431 2543 5450 4942 2190 2888 1559 5300 846 322 2125 112 726
is_linear=0
shrinkage=0.1


Tree=25
num_leaves=31
num_cat=0
split_feature=1 5 2 11 1 0 8 3 3 4 0 2 2 1 4 1 2 2 0 4 7 1 0 4 2 4 2 2 4 10
split_gain=874425 543246 533790 333540 297567 278978 259983 246646 231701 227119 225721 185858 181157 179949 179130 164630 160702 159835 176908 150070 125621 122869 122029 117005 111807 110925 301734 136762 120302 105923
threshold=67874.000000000015 2.5000000000000004 12.299018960740458 1.0000000180025095e-35 1.0000000180025095e-35 1998.5000000000002 97.499999500000015 5.5000000000000009 3.5000000000000004 1.0000000180025095e-35 2494.5000000000005 5.2086080500668741 14.216827158352617 24407.500000000004 4.5000000000000009 13952.000000000002 9.2113476235791989 6.2113478484872404 1998.5000000000002 1.0000000180025095e-35 4.5000000000000009 170986.50000000003 2494.5000000000005 5.5000000000000009 3.7128318227841999 1.0000000180025095e-35 8.2962792918931179 5.1236765645041364 4.5000000000000009 1.0000000180025095e-35
decision_type=2 2 2 2 2 2 2 2 2 2 2 2 2 2 2 2 2 2 2 2 2 2 2 2 2 2 2 2 2 2
left_child=4 2 3 7 11 16 15 8 -2 12 -7 -1 20 -8 -11 -6 23 -10 21 -20 -4 -19 -21 -3 -17 27 28 -26 -27 -15
right_child=1 5 9 -5 6 10 13 -9 17 14 -12 -13 -14 29 -16 24 -18 18 19 22 -22 -23 -24 -25 25 26 -28 -29 -30 -31
leaf_value=-1.562488447825114 -4.3024181195770401 -0.92316585811524632 -1.4957829105317997 1.1993558080558726 2.1665809878687141 2.9538560852805968 3.6799175493387426 6.7370076192461923 1.1744564785551534 -3.8161597553824791 -2.3980914724233386 -13.510740632596224 -9.1072088268068097 2.5644548309188395 -1.8096225359372544 2.6157145010512415 0.69362670781901614 -0.57575155409322609 2.4290486562178231 -0.054928385101569201 0.012155779859064877 -1.6248943460857974 -7.883523555029007 0.17448205505764613 -5.6745608950362492 -1.3780155584071796 -2.7185644315061146 0.69646169000688074 0.46539586391750787 0.96255187729592206
leaf_weight=30 166 1708 1326 1251 527 588 352 46 515 627 91 23 27 512 1532 209 2773 4649 323 384 947 1469 21 2251 34 413 403 3739 2479 2130
leaf_count=30 166 1708 1326 1251 527 588 352 46 515 627 91 23 27 512 1532 209 2773 4649 323 384 947 1469 21 2251 34 413 403 3739 2479 2130
internal_value=0 -0.381249 -0.763956 -0.313323 0.727082 0.30469 0.76377 -0.563206 -0.60782 -1.65572 2.23658 -6.74758 -0.964257 1.55597 -2.39235 0.459844 0.109836 -0.524502 -0.652308 0.821341 -0.86753 -0.827662 -0.460856 -0.299067 0.336242 0.268838 -0.155079 0.63905 0.202142 1.27299
internal_weight=0 20694 13283 8824 10851 7411 10798 7573 7527 4459 679 53 2300 2994 2159 7804 6732 7361 6846 728 2273 6118 405 3959 7277 7068 3295 3773 2892 2642
internal_count=31545 20694 13283 8824 10851 7411 10798 7573 7527 4459 679 53 2300 2994 2159 7804 6732 7361 6846 728 2273 6118 405 3959 7277 7068 3295 3773 2892 2642
is_linear=0
shrinkage=0.1


Tree=26
num_leaves=31
num_cat=0
split_feature=7 3 2 4 4 2 0 1 3 4 4 3 1 4 4 4 4 0 4 6 7 2 2 2 2 2 5 11 11 6
split_gain=787393 446892 366293 291839 591784 253306 246847 208518 199032 174017 170541 167897 153263 152213 239490 136064 213807 130759 130758 130305 128089 117388 113137 110464 108345 104853 136288 112078 102968 105443
threshold=4.5000000000000009 4.5000000000000009 13.214087371832372 1.0000000180025095e-35 5.5000000000000009 7.2113477741039729 1998.5000000000002 301719.50000000006 3.5000000000000004 1.0000000180025095e-35 3.5000000000000004 5.5000000000000009 1.0000000180025095e-35 1.0000000180025095e-35 7.5000000000000009 1.0000000180025095e-35 4.5000000000000009 1889.0000000000002 3.5000000000000004 4.5000000000000009 5.5000000000000009 6.2113477738536842 8.6306399880237166 7.5457085690999843 7.7155714996325715 11.800502851970709 2.5000000000000004 1.0000000180025095e-35 1.0000000180025095e-35 4.5000000000000009
decision_type=2 2 2 2 2 2 2 2 2 2 2 2 2 2 2 2 2 2 2 2 2 2 2 2 2 2 2 2 2 2
left_child=1 7 3 6 10 17 8 12 -2 -4 -5 28 -1 19 18 -14 -17 20 -15 -3 -6 -16 -20 -18 -12 27 -27 -21 29 -10
right_child=2 13 9 4 5 -7 -8 -9 11 -11 24 -13 15 14 21 16 23 -19 22 25 -22 -23 -24 -25 -26 26 -28 -29 -30 -31
leaf_value=-9.7857664537429816 -3.502788870334625 1.0748067927584397 -0.17982174214648355 -3.929240262860735 1.4045319099950024 0.045852893333522229 2.2784904289000272 -3.466946805542559 1.4538041537388517 -2.5306688973514735 -0.094144374497008562 5.1059988237196405 -0.54889678152494437 -4.6690798274020562 1.4835236594247552 -3.0141983794035458 0.38056456000764116 2.2771845719818016 -0.45970296651938264 0.18799214347219009 -0.21290714606738792 -0.14900714482085511 -1.7624252042909472 -1.4390628270195771 -1.5793969840791386 -1.7497998770530814 0.66731387235800543 3.7707477228982107 4.3488955397664766 0.42264522587211623
leaf_weight=20 105 1511 803 203 1640 2795 1482 382 1457 518 922 93 2871 97 626 718 453 1023 1823 2156 698 1486 1051 1266 1051 656 362 91 81 3105
leaf_count=20 105 1511 803 203 1640 2795 1482 382 1457 518 922 93 2871 97 626 718 453 1023 1823 2156 698 1486 1051 1266 1051 656 362 91 81 3105
internal_value=0 -0.506097 0.493204 0.636964 0.248219 0.749276 1.14923 -1.21009 0.803518 -1.10165 -1.16929 0.898992 -1.04828 -0.0983676 -0.479242 -1.01536 -1.5649 1.33424 -1.05798 0.306989 0.921652 0.334877 -0.936099 -0.959545 -0.885326 -0.0483467 -0.890276 0.333088 0.814725 0.751974
internal_weight=0 15569 15976 14655 8332 6156 6323 5710 4841 1321 2176 4736 5328 9859 5083 5308 2437 3361 2971 4776 2338 2112 2874 1719 1973 3265 1018 2247 4643 4562
internal_count=31545 15569 15976 14655 8332 6156 6323 5710 4841 1321 2176 4736 5328 9859 5083 5308 2437 3361 2971 4776 2338 2112 2874 1719 1973 3265 1018 2247 4643 4562
is_linear=0
shrinkage=0.1


Tree=27
num_leaves=31
num_cat=0
split_feature=7 3 2 4 4 2 0 5 3 5 3 4 3 0 1 0 7 11 2 2 4 4 2 0 11 6 6 4 2 2
split_gain=637788 361982 296697 236389 479345 205178 199946 171691 161216 151416 140052 138138 135996 131545 131435 105915 103752 97832 94932.6 94795.1 93711.4 121095 84984.8 84828.1 83404.3 85408.7 77133.2 75757.1 197665 82551.7
threshold=4.5000000000000009 4.5000000000000009 13.214087371832372 1.0000000180025095e-35 5.5000000000000009 7.2113477741039729 1998.5000000000002 1.5000000000000002 3.5000000000000004 2.5000000000000004 5.5000000000000009 3.5000000000000004 5.5000000000000009 1784.5000000000002 290793.50000000006 1889.0000000000002 5.5000000000000009 1.0000000180025095e-35 9.2113477569599329 6.2113477738536842 1.0000000180025095e-35 4.5000000000000009 7.2113477551689362 2494.5000000000005 1.0000000180025095e-35 4.5000000000000009 4.5000000000000009 1.0000000180025095e-35 6.4635167680783994 7.3784710793934805
decision_type=2 2 2 2 2 2 2 2 2 2 2 2 2 2 2 2 2 2 2 2 2 2 2 2 2 2 2 2 2 2
left_child=1 7 3 6 11 15 8 18 -2 -4 13 -5 24 -3 27 16 -6 20 -1 -13 26 -22 -23 -8 25 -10 -15 28 -9 -29
right_child=2 10 9 4 5 -7 23 14 12 -11 -12 19 -14 17 -16 -17 -18 -19 -20 -21 21 22 -24 -25 -26 -27 -28 29 -30 -31
leaf_value=-0.62703007055180415 -3.152509985410032 -0.85180076775317959 -1.4895157219732307 -3.5363162482900572 1.2640787193222289 0.041267604196147598 2.2901543178023811 -6.3701134986029224 1.3084237336661788 1.3100384895091362 2.9540730834107274 0.43586086272713942 4.5953989606711181 1.027701646790131 -3.3726695308659944 2.0494661111173422 -0.19161642948405708 1.3191987396418627 -2.5698885648727416 -1.1865714904706208 -1.7799634153660222 0.38221987473610236 -0.67257970062710504 -0.33916544084195738 3.9140059514546106 0.380380702143784 0.010225780413768549 -0.00060276052693730784 -0.13234887261330894 -1.5082476859883294
leaf_weight=336 105 2027 1086 203 1640 2795 1347 52 1457 235 149 474 93 1072 188 1023 698 566 1000 1499 544 1484 1574 135 81 3105 2443 485 2203 1446
leaf_count=336 105 2027 1086 203 1640 2795 1347 52 1457 235 149 474 93 1072 188 1023 698 566 1000 1499 544 1484 1574 135 81 3105 2443 485 2203 1446
internal_value=0 -0.455488 0.443884 0.573268 0.223397 0.674348 1.0343 -1.08908 0.723166 -0.991488 -0.0885308 -1.05236 0.809092 -0.13522 -0.786029 1.20082 0.829487 0.0538355 -2.08127 -0.796793 -0.0467962 -0.405254 -0.160702 2.05064 0.733252 0.676777 0.320534 -0.669859 -0.276191 -1.12958
internal_weight=0 15569 15976 14655 8332 6156 6323 5710 4841 1321 9859 2176 4736 9710 4374 3361 2338 7683 1336 1973 7117 3602 3058 1482 4643 4562 3515 4186 2255 1931
internal_count=31545 15569 15976 14655 8332 6156 6323 5710 4841 1321 9859 2176 4736 9710 4374 3361 2338 7683 1336 1973 7117 3602 3058 1482 4643 4562 3515 4186 2255 1931
is_linear=0
shrinkage=0.1


Tree=28
num_leaves=31
num_cat=0
split_feature=2 5 8 0 0 1 8 4 2 2 4 4 8 3 4 2 2 1 4 2 1 2 4 7 2 2 2 0 0 1
split_gain=551838 799671 557833 296865 312115 220121 215218 209246 232670 156712 154657 165208 138798 134293 124730 120389 122209 147199 119837 116243 114739 104185 94724.2 93257.2 87008.6 95046.2 81914.6 76868.1 110456 73685.4
threshold=10.214087382575022 2.5000000000000004 101.49999950000002 1998.5000000000002 2494.5000000000005 79607.500000000015 105.28750000000001 1.0000000180025095e-35 5.5429687930025411 13.299018845960779 1.0000000180025095e-35 4.5000000000000009 107.53333300000001 3.5000000000000004 4.5000000000000009 10.129156023305759 3.7128318227841999 1.0000000180025095e-35 4.5000000000000009 11.967626358833025 13952.000000000002 11.800502930244749 2.5000000000000004 1.5000000000000002 7.0497039337396776 8.7977632840741951 6.2113478484872404 1998.5000000000002 2494.5000000000005 97711.000000000015
decision_type=2 2 2 2 2 2 2 2 2 2 2 2 2 2 2 2 2 2 2 2 2 2 2 2 2 2 2 2 2 2
left_child=2 3 5 6 9 15 10 12 -9 -5 13 -12 -4 -2 -10 16 -1 -18 -7 -3 -19 23 -8 -15 26 -26 -14 -21 -29 -13
right_child=1 19 7 4 -6 18 22 8 14 -11 11 29 24 21 -16 -17 17 20 -20 27 -22 -23 -24 -25 25 -27 -28 28 -30 -31
leaf_value=2.3101620983690121 -4.2165334037458058 0.33281557628934416 4.9431317784691942 0.56540059892900074 -6.3730900860146473 -0.97073204286960824 -1.8816578154635875 2.4826542266494593 -1.5518483256300293 -1.1024227999610965 -2.7838798035006942 -2.2529115229360968 2.1548552617692112 -1.8967381587003005 0.65660891327959592 3.1553879184107627 -6.733493868509929 1.9227688623241861 -0.035595521871701584 1.1554128562462667 0.18763964199181343 -0.93075788849665175 -3.9708123042269849 0.50134290951158456 0.55999442125198684 2.4043781966160247 7.761684592564901 3.9427172958666135 -0.4495233144362768 -0.82973256568377263
leaf_weight=302 99 1806 177 2107 76 2360 588 677 294 769 803 455 57 187 1965 155 30 404 3268 1218 6726 2083 344 1221 446 748 48 242 75 1815
leaf_count=302 99 1806 177 2107 76 2360 588 677 294 769 803 455 57 187 1965 155 30 404 3268 1218 6726 2083 344 1221 446 748 48 242 75 1815
internal_value=0 -0.471606 0.370939 -0.898686 -0.0477029 0.0465352 -1.22944 1.34481 0.856522 0.119449 -1.03035 -1.55109 2.31609 -0.584612 0.369187 0.396956 0.339658 0.256544 -0.427728 0.876618 0.285956 -0.481615 -2.65276 0.182848 1.95814 1.71544 4.71798 1.51643 2.90354 -1.115
internal_weight=0 13888 17657 10547 2952 13245 7595 4412 2936 2876 6663 3073 1476 3590 2259 7617 7462 7160 5628 3341 7130 3491 932 1408 1299 1194 105 1535 317 2270
internal_count=31545 13888 17657 10547 2952 13245 7595 4412 2936 2876 6663 3073 1476 3590 2259 7617 7462 7160 5628 3341 7130 3491 932 1408 1299 1194 105 1535 317 2270
is_linear=0
shrinkage=0.1


Tree=29
num_leaves=31
num_cat=0
split_feature=7 5 8 4 4 2 2 5 2 3 11 1 0 6 4 1 7 9 8 2 4 0 0 4 0 0 5 1 2 2
split_gain=478017 253155 221727 178657 390335 201563 165088 333807 152341 143628 140662 119473 126200 109783 95634.4 90525.5 86777.9 84791.8 78643.4 76824.4 72984.6 66178.5 62372.9 60525.7 59618.4 58008.6 95691.9 67396.3 62278.1 57618.3
threshold=4.5000000000000009 1.5000000000000002 59.466666500000009 1.0000000180025095e-35 7.5000000000000009 10.718311166965512 12.299018842506205 2.5000000000000004 8.3784710542976661 3.5000000000000004 1.0000000180025095e-35 86465.000000000015 2494.5000000000005 5.5000000000000009 3.5000000000000004 94405.500000000015 5.5000000000000009 1.0000000180025095e-35 107.70833300000002 7.5457085690999843 4.5000000000000009 1998.5000000000002 1998.5000000000002 1.0000000180025095e-35 2494.5000000000005 1998.5000000000002 1.5000000000000002 51600.500000000007 9.2113476752594519 7.1264162519533913
decision_type=2 2 2 2 2 2 2 2 2 2 2 2 2 2 2 2 2 2 2 2 2 2 2 2 2 2 2 2 2 2
left_child=1 8 19 9 5 14 10 -8 18 -4 15 -7 20 22 -5 21 -6 29 -1 -2 -13 -3 -11 -21 25 28 -27 -28 -15 -18
right_child=2 6 3 4 16 11 7 -9 -10 13 -12 12 -14 24 -16 -17 17 -19 -20 23 -22 -23 -24 -25 -26 26 27 -29 -30 -31
leaf_value=-0.53837770342676328 1.3265544076789322 0.019640789755320232 -2.490651899132847 -2.5364030695664632 1.539015414487787 -5.0808088172313788 -1.4540767288155534 1.090311987772584 -2.0632379842585471 1.182792553318653 1.3601227090422434 -2.1372150840401951 -8.1006779375557709 1.1222809202251862 0.11279753443120162 -0.52871802957834235 1.8738560319960058 -0.36400385262003843 3.0884619861841203 -0.35169086499359536 -0.44289658822572386 1.6746990118234877 2.2930921825242234 -1.5976692527970531 -1.8251019119469374 5.862344521416559 2.8931346254581114 0.72177880247891912 0.077922121705233799 0.3395248189307179
leaf_weight=495 173 5852 121 142 1688 86 2357 660 1328 1773 655 397 26 883 3374 3902 489 655 68 898 707 252 708 689 96 45 177 743 1616 490
leaf_count=495 173 5852 121 142 1688 86 2357 660 1328 1773 655 397 26 883 3374 3902 489 655 68 898 707 252 708 689 96 45 177 743 1616 490
internal_value=0 -0.39433 0.384285 0.515366 0.205284 -0.378013 -0.244397 -0.897465 -1.47883 0.920657 -0.0595831 -1.4878 -1.21435 0.988985 0.00580479 -0.152518 1.03616 0.516683 -0.100322 -0.674499 -1.05218 0.0879689 1.49964 -0.892635 0.633106 0.701232 1.35976 1.13953 0.446937 1.10591
internal_weight=0 15569 15976 14216 8054 4732 13678 3017 1891 6162 10661 1216 1130 6041 3516 10006 3322 1634 563 1760 1104 6104 2481 1587 3560 3464 965 920 2499 979
internal_count=31545 15569 15976 14216 8054 4732 13678 3017 1891 6162 10661 1216 1130 6041 3516 10006 3322 1634 563 1760 1104 6104 2481 1587 3560 3464 965 920 2499 979
is_linear=0
shrinkage=0.1


Tree=30
num_leaves=31
num_cat=0
split_feature=2 7 5 1 3 0 0 11 1 11 0 1 1 5 2 2 2 4 2 7 1 1 1 1 0 1 0 8 6 9
split_gain=394112 330918 286436 161113 158250 149538 146068 157687 139641 130262 126368 112867 106016 93686.6 86324.3 108306 195976 82604.8 100338 75079.7 73975.9 72756.2 71619.4 70247.9 74368.2 67870.7 79038 66881.6 66176.5 64961.4
threshold=13.214087371832372 4.5000000000000009 2.5000000000000004 247186.50000000003 5.5000000000000009 2362.5000000000005 1998.5000000000002 1.0000000180025095e-35 1.0000000180025095e-35 1.0000000180025095e-35 1998.5000000000002 69275.500000000015 436932.50000000006 1.5000000000000002 14.216827224845185 14.216827018981308 14.216827079631768 1.0000000180025095e-35 6.6306399923116137 5.5000000000000009 19795.000000000004 132313.50000000003 135178.00000000003 49100.500000000007 2494.5000000000005 32972.500000000007 2494.5000000000005 59.466666500000009 4.5000000000000009 1.0000000180025095e-35
decision_type=2 2 2 2 2 2 2 2 2 2 2 2 2 2 2 2 2 2 2 2 2 2 2 2 2 2 2 2 2 2
left_child=1 3 5 8 6 12 7 11 -1 10 13 19 14 -10 15 -2 22 23 -19 -3 -15 -18 -17 -8 -25 -12 -27 -13 -4 -22
right_child=2 4 28 -5 -6 -7 17 -9 9 -11 25 27 -14 20 -16 16 21 18 -20 -21 29 -23 -24 24 -26 26 -28 -29 -30 -31
leaf_value=-8.3092794656753544 -1.4772338922459261 0.9117236698583242 1.8993692200792873 -1.8412136325459785 2.9695111524876285 -8.4025530438269342 2.9510482591009302 2.1592717583796808 -1.1492134978338067 1.0839820664732354 4.6015906417599091 -0.89874489943600366 -6.8821918610164108 1.2712125017065612 -3.9480629981056716 1.9840286661366946 -3.381296868672532 4.0850848235294857 0.20343638498679792 0.14993232645311835 -0.57769411272606352 0.25564869576030308 7.4288172394037248 1.4694679113363209 -1.4075423410048291 1.086811803754107 -4.4523396121131054 0.033680009237395676 -0.2067222635737426 -0.056373174152953398
leaf_weight=21 2103 2588 322 597 245 31 297 420 1180 805 52 900 35 327 121 61 89 71 1073 2587 3886 144 40 1080 98 561 27 5296 278 6210
leaf_count=21 2103 2588 322 597 245 31 297 420 1180 805 52 900 35 327 121 61 89 71 1073 2587 3886 144 40 1080 98 561 27 5296 278 6210
internal_value=0 0.119258 -1.04761 -0.234722 0.449349 -1.49834 0.406501 0.256451 -0.161336 -0.148222 -0.229242 0.186168 -1.4158 -0.304696 -1.341 -1.21156 0.461247 1.08204 0.444343 0.530902 -0.209087 -1.13357 4.14038 1.57664 1.23012 1.1387 0.832463 -0.101759 0.923547 -0.257032
internal_weight=0 28321 3224 13666 14655 2624 14410 11791 13069 13048 12243 11371 2593 11603 2558 2437 334 2619 1144 5175 10423 233 101 1475 1178 640 588 6196 600 10096
internal_count=31545 28321 3224 13666 14655 2624 14410 11791 13069 13048 12243 11371 2593 11603 2558 2437 334 2619 1144 5175 10423 233 101 1475 1178 640 588 6196 600 10096
is_linear=0
shrinkage=0.1


Tree=31
num_leaves=31
num_cat=0
split_feature=2 5 8 0 0 8 4 2 1 1 4 4 8 2 8 4 2 6 1 2 2 2 2 8 4 2 2 1 1 1
split_gain=333495 511365 360107 177489 194836 178115 155065 186668 144789 117345 114310 115589 100918 99866.9 95693 93514.4 91985.7 84813.3 81679.7 72432.5 71185.1 75094.5 67862.7 66802 66587.7 66364.2 64857.1 63523.5 77318.1 62794.2
threshold=10.214087382575022 2.5000000000000004 101.49999950000002 1998.5000000000002 2494.5000000000005 105.28750000000001 1.0000000180025095e-35 7.0497039337396776 79607.500000000015 374007.00000000006 1.0000000180025095e-35 4.5000000000000009 107.53333300000001 10.129156023305759 107.53333300000001 5.5000000000000009 3.2086081128967288 4.5000000000000009 337857.00000000006 14.216827158352617 7.0497039337396776 8.6306398721604456 13.299018845960779 112.82142850000001 2.5000000000000004 6.2113478484872404 12.214087420255739 1.0000000180025095e-35 13952.000000000002 97711.000000000015
decision_type=2 2 2 2 2 2 2 2 2 2 2 2 2 2 2 2 2 2 2 2 2 2 2 2 2 2 2 2 2 2
left_child=2 3 8 5 18 9 12 23 13 10 26 -12 -4 16 -9 -10 -1 -3 22 24 25 -22 -5 -8 -7 -14 -2 -18 -29 -13
right_child=1 17 6 4 -6 19 7 14 15 -11 11 29 20 -15 -16 -17 27 -19 -20 -21 21 -23 -24 -25 -26 -27 -28 28 -30 -31
leaf_value=2.2509607464704251 0.061500494886746263 1.3054971999777896 4.1470196669384585 0.47969797913426143 -5.0477669596672063 -1.4705416713660124 1.7171697555903387 0.91324354845493638 -0.77244762018742208 -4.6897007451637798 -2.2314968116984306 -1.8733836859071649 1.7909942727339896 2.82427296102047 -0.88547583354715109 0.042955230367156039 -4.1144372196758496 0.28413392377013608 -2.6972524541265823 -7.5686971244812016 0.17753000000176999 1.9042831304904615 -0.64352728608128151 0.22632388992780689 -3.2562228786341985 6.8376486460367847 -0.79486536246482331 1.5432272236471076 0.13717192594338162 -0.55878244053465032
leaf_weight=225 1834 1398 177 2044 76 581 1247 458 2760 76 786 455 57 155 835 2868 34 1943 102 25 361 833 730 396 326 48 1708 415 6788 1804
leaf_count=225 1834 1398 177 2044 76 581 1247 458 2760 76 786 455 57 155 835 2868 34 1943 102 25 361 833 730 396 326 48 1708 415 6788 1804
internal_value=0 -0.366622 0.288364 -0.708144 -0.0501431 -0.963894 1.07083 0.650486 0.0277191 -0.782777 -0.7377 -1.18699 1.90696 0.311921 -0.248342 -0.356923 0.259734 0.711511 0.0819221 -2.25872 1.60173 1.38221 0.184112 1.35784 -2.11236 4.09804 -0.351451 0.197827 0.218182 -0.823565
internal_weight=0 13888 17657 10547 2952 7595 4412 2936 13245 6663 6587 3045 1476 7617 1293 5628 7462 3341 2876 932 1299 1194 2774 1643 907 105 3542 7237 7203 2259
internal_count=31545 13888 17657 10547 2952 7595 4412 2936 13245 6663 6587 3045 1476 7617 1293 5628 7462 3341 2876 932 1299 1194 2774 1643 907 105 3542 7237 7203 2259
is_linear=0
shrinkage=0.1


Tree=32
num_leaves=31
num_cat=0
split_feature=7 3 8 3 4 4 3 7 3 3 0 8 6 4 6 8 2 4 4 7 2 0 2 1 2 4 4 7 2 1
split_gain=297649 156970 134609 119822 112092 255615 106903 104385 103740 98891.1 89963.3 88291.4 84703.8 83149.2 81158 76761.8 75105.8 67224.8 128097 75697.5 97730.4 91682.4 56175.5 54717.9 53456.4 53143.9 64700.5 53110.1 51473.1 50533.6
threshold=4.5000000000000009 4.5000000000000009 59.466666500000009 5.5000000000000009 1.0000000180025095e-35 5.5000000000000009 3.5000000000000004 5.5000000000000009 5.5000000000000009 3.5000000000000004 2494.5000000000005 97.499999500000015 4.5000000000000009 3.5000000000000004 5.5000000000000009 59.466666500000009 11.214087543583274 1.0000000180025095e-35 4.5000000000000009 1.0000000180025095e-35 6.9648866484284611 2396.5000000000005 7.5457084718679441 90501.500000000015 5.627900343178081 1.0000000180025095e-35 7.5000000000000009 3.5000000000000004 13.214087486191055 290793.50000000006
decision_type=2 2 2 2 2 2 2 2 2 2 2 2 2 2 2 2 2 2 2 2 2 2 2 2 2 2 2 2 2 2
left_child=1 9 22 4 6 13 -4 -7 12 -1 11 -9 25 -6 -8 -14 -15 19 -19 21 -21 -11 -2 -18 -13 -3 -27 -17 -20 -25
right_child=2 8 3 -5 5 7 14 10 -10 17 -12 24 15 16 -16 27 23 18 28 20 -22 -23 -24 29 -26 26 -28 -29 -30 -31
leaf_value=-2.3694991673766705 1.2898505665170843 0.75149100348297093 -2.2511102719740435 2.6544316309428266 -2.8043358579509619 0.88323392096496256 1.1952167360213892 -0.50503166645264896 2.5491065312401964 -1.4053072845762959 -5.9365167884826668 1.8888176601213307 -1.1564811628878502 -0.26089263130961088 0.44369088428305931 0.16207868176883933 -5.9963655369622373 -2.1065964078104709 -0.30842836253080708 -6.0914412333415111 0.076820475387216466 4.8833564997495467 -0.69791570522699353 -1.0404372651393365 0.33450379857560075 -0.60872585033120552 0.66817038498431058 -0.45319934197888023 -1.8063970855351306 -4.2250315586725868
leaf_weight=345 156 1489 121 233 193 2920 2433 1340 149 681 25 268 927 1423 3510 2562 28 739 1494 26 2130 24 1604 396 1269 949 682 3101 271 57
leaf_count=345 156 1489 121 233 193 2920 2433 1340 149 681 25 268 927 1423 3510 2562 28 739 1494 26 2130 24 1604 396 1269 949 682 3101 271 57
internal_value=0 -0.311165 0.303238 0.405372 0.367896 0.120135 0.691447 0.461109 -0.0695187 -0.728396 0.0363656 0.0882676 -0.109702 -0.826526 0.751357 -0.312926 -0.626044 -0.622864 -1.00124 -0.291703 0.00243513 -1.19123 -0.521727 -1.70632 0.605523 0.319545 -0.0747938 -0.174841 -0.538428 -1.44115
internal_weight=0 15569 15976 14216 13983 7919 6064 5822 9859 5710 2902 2877 9710 2097 5943 6590 1904 5365 2504 2861 2156 705 1760 481 1537 3120 1631 5663 1765 453
internal_count=31545 15569 15976 14216 13983 7919 6064 5822 9859 5710 2902 2877 9710 2097 5943 6590 1904 5365 2504 2861 2156 705 1760 481 1537 3120 1631 5663 1765 453
is_linear=0
shrinkage=0.1


Tree=33
num_leaves=31
num_cat=0
split_feature=0 7 4 4 2 5 4 5 2 2 2 6 1 0 4 0 4 0 2 1 0 2 8 1 2 2 6 3 2 0
split_gain=248678 190435 152644 345128 165269 213073 136887 127431 151304 123976 121594 122218 92641.6 98072.2 89008.1 85291.5 82722.1 80154.3 88949.9 115813 79499.3 74204.8 70819.7 66763 64619.6 56800.7 54852.8 49711.7 48995.8 71653.2
threshold=1795.0000000000002 1.0000000180025095e-35 1.0000000180025095e-35 5.5000000000000009 6.2113477738536842 2.5000000000000004 3.5000000000000004 2.5000000000000004 7.6306400539070376 9.6306400247916866 5.1236765645041364 5.5000000000000009 51004.000000000007 2494.5000000000005 1.0000000180025095e-35 2396.5000000000005 7.5000000000000009 1998.5000000000002 8.4635166813575911 128540.50000000001 2494.5000000000005 13.800502882857462 107.53333300000001 374007.00000000006 8.7977632840741951 9.630639890485897 6.5000000000000009 3.5000000000000004 8.4635166326890445 1998.5000000000002
decision_type=2 2 2 2 2 2 2 2 2 2 2 2 2 2 2 2 2 2 2 2 2 2 2 2 2 2 2 2 2 2
left_child=7 22 10 6 5 -5 -4 8 -1 -9 -3 17 28 -14 23 -7 -16 18 19 -12 -6 -8 -2 26 -20 -24 -10 -28 -13 -30
right_child=1 2 3 4 20 15 21 9 14 -11 11 12 13 -15 16 -17 -18 -19 24 -21 -22 -23 25 -25 -26 -27 27 -29 29 -31
leaf_value=0.43482223082945737 -1.5409343090873266 -4.9543609583377837 -3.0377632828804604 2.2411375987985673 0.059496831956887875 0.25520804117406914 -0.58384551961891151 -0.44136312512302728 -0.010762470803364406 0.87391650631381212 2.2018928652849379 1.7565014388950744 0.10698480098476185 -3.3055372977066177 -1.680457523867358 4.5251444134861236 -0.30932675317470276 1.778233443512071 -1.7970871755334199 -4.7682476091384887 -5.100987679163616 -3.0854199336781618 2.4072270448505879 -5.3876777010304586 0.57459475436328766 -1.5850683196116302 -4.6698936679783989 -0.80296344743144454 0.033461283110545241 1.9688113017609485
leaf_weight=1006 832 40 273 889 6076 1841 2712 1719 1329 1229 513 505 4060 86 1833 48 579 1013 122 25 30 124 90 28 1969 59 34 1497 724 260
leaf_count=1006 832 40 273 889 6076 1841 2712 1719 1329 1229 513 505 4060 86 1833 48 579 1013 122 25 30 124 90 28 1969 59 34 1497 724 260
internal_value=0 0.180906 0.243618 0.00772108 0.325066 0.964513 -0.899096 -0.435766 -0.689489 0.106967 0.547269 0.570991 0.279189 0.0361992 -0.902896 0.363708 -1.35132 1.02247 0.731266 1.878 0.0341423 -0.693223 -1.18137 -0.528383 0.436218 0.826385 -0.48081 -0.888839 0.955776 0.544834
internal_weight=0 22291 21310 11993 8884 2778 3109 9254 6306 2948 9317 9277 5635 4146 5300 1889 2412 3642 2629 538 6106 2836 981 2888 2091 149 2860 1531 1489 984
internal_count=31545 22291 21310 11993 8884 2778 3109 9254 6306 2948 9317 9277 5635 4146 5300 1889 2412 3642 2629 538 6106 2836 981 2888 2091 149 2860 1531 1489 984
is_linear=0
shrinkage=0.1


Tree=34
num_leaves=31
num_cat=0
split_feature=2 0 11 3 5 1 4 2 0 4 4 4 2 4 1 10 1 2 2 3 0 2 2 2 2 4 1 2 2 1
split_gain=222886 193030 222794 181440 150362 145819 104285 106689 98604.7 90829.4 173948 179357 98212.4 84770 82687.6 77673 74635.8 110580 98805.1 83163.6 77640.3 66206.3 65890.3 92721.9 147398 75733.1 62331.2 90351.7 60928.9 58255.7
threshold=13.214087371832372 1998.5000000000002 1.0000000180025095e-35 5.5000000000000009 2.5000000000000004 162203.50000000003 1.0000000180025095e-35 6.7155715268765395 2362.5000000000005 7.5000000000000009 1.0000000180025095e-35 4.5000000000000009 5.3757314111422287 3.5000000000000004 99901.000000000015 1.0000000180025095e-35 67874.000000000015 7.5457085690999843 6.9648865222572978 2.5000000000000004 1797.5000000000002 10.129155875499963 14.216827224845185 14.216827018981308 14.216827079631768 2.5000000000000004 72302.500000000015 9.2962792233518261 6.964886568453907 132313.50000000003
decision_type=2 2 2 2 2 2 2 2 2 2 2 2 2 2 2 2 2 2 2 2 2 2 2 2 2 2 2 2 2 2
left_child=1 2 3 5 8 9 21 15 22 10 12 13 -1 -12 -5 -8 17 -14 -18 20 -20 -3 23 -2 29 -26 27 -9 -7 -25
right_child=4 6 -4 14 -6 28 7 26 -10 -11 11 -13 16 -15 -16 -17 18 -19 19 -21 -22 -23 -24 24 25 -27 -28 -29 -30 -31
leaf_value=-2.365519289584721 -1.178830102307147 2.1326656363800454 1.6819373235096551 1.6613562467913685 0.64033169061038642 1.2218406396343353 1.5413316969033126 -0.087928664371645066 -6.7208348128103443 0.39204281750596159 -2.9755740890842377 -0.18083031897040233 1.6819271655349681 -1.0599928991610115 6.7761829831770486 7.3371310018724021 -4.2882113241065634 0.27967948156199773 -8.9435374641418459 0.012090663278686908 -0.65608669244326079 0.87672033136410177 -3.3063097540455746 1.7764900840692601 -2.2472926561747282 1.3882325206326378 0.16408074650567617 -4.8295887906104333 -0.91458957064893109 6.6492984294891357
leaf_weight=153 2132 573 751 326 600 141 91 108 31 4376 268 4670 660 1674 35 31 55 3802 20 5011 26 1569 123 59 140 97 1411 64 2506 42
leaf_count=153 2132 573 751 326 600 141 91 108 31 4376 268 4670 660 1674 35 31 55 3802 20 5011 26 1569 123 59 140 97 1411 64 2506 42
internal_value=0 0.089685 -0.0138214 -0.0675041 -0.787831 -0.101882 0.748176 0.164598 -1.11439 -0.0125747 -0.120942 -0.516691 0.148072 -1.32435 2.15725 3.01403 0.188241 0.487094 -0.0726123 -0.0267634 -4.25933 1.21269 -1.04737 -0.934876 0.603908 -0.759335 -0.0550045 -1.85227 -0.800787 3.80281
internal_weight=0 28321 24474 23723 3224 23362 3847 1705 2624 20715 16339 6612 9727 1942 361 122 9574 4462 5112 5057 46 2142 2593 2470 338 237 1583 172 2647 101
internal_count=31545 28321 24474 23723 3224 23362 3847 1705 2624 20715 16339 6612 9727 1942 361 122 9574 4462 5112 5057 46 2142 2593 2470 338 237 1583 172 2647 101
is_linear=0
shrinkage=0.1


Tree=35
num_leaves=31
num_cat=0
split_feature=7 1 2 5 1 3 7 8 0 0 1 0 2 5 5 3 5 8 6 4 1 1 2 2 2 4 6 6 3 1
split_gain=203680 113561 106087 168526 87682.2 87230.1 81423.3 122183 104809 63691.2 67415.8 62589.6 126345 81019.5 62087.2 53679.6 51918.2 56579.7 51206.3 50449.8 48012.7 49435.8 43760.5 43753 48092 42898.8 41988.6 54882.4 41151.8 36938.5
threshold=4.5000000000000009 1.0000000180025095e-35 12.299018842506205 2.5000000000000004 52751.500000000007 5.5000000000000009 5.5000000000000009 97.499999500000015 1797.5000000000002 2494.5000000000005 48677.000000000007 1998.5000000000002 10.381210855076036 2.5000000000000004 1.5000000000000002 2.5000000000000004 2.5000000000000004 107.53333300000001 7.5000000000000009 1.0000000180025095e-35 101911.50000000001 436932.50000000006 11.885434328276213 7.2113478298466758 7.9648866523956254 2.5000000000000004 4.5000000000000009 9.5000000000000018 3.5000000000000004 99901.000000000015
decision_type=2 2 2 2 2 2 2 2 2 2 2 2 2 2 2 2 2 2 2 2 2 2 2 2 2 2 2 2 2 2
left_child=1 -1 4 20 -3 6 8 19 -2 11 -11 12 -9 -14 18 -16 -13 -18 -6 -8 25 -22 -15 -19 -25 -4 -17 -28 -10 -7
right_child=5 2 3 -5 14 29 7 9 28 10 -12 16 13 22 15 26 17 23 -20 -21 21 -23 -24 24 -26 -27 27 -29 -30 -31
leaf_value=-7.436940440874209 -0.0582823455913066 0.40678216021406 -1.315024263415314 0.71081446301869367 -1.5119540831728449 1.6976180987053622 -0.023530385243004378 0.62202716443764561 -2.4104308570303572 2.4770947449737126 -2.3266563237867048 0.54414691993556519 -1.9060676726025212 -1.0741228750129925 -3.7648180260890869 0.18196183882573083 3.1061808487788878 4.5489987954016655 -0.10516426062360057 -0.73717920670132941 -0.72879410022525459 -4.0444896905318553 1.0084313293788256 -2.6772676441149836 1.0653193666920948 -3.0401527407653832 -0.54570971375591515 0.10109719742021493 0.77149886858867267 5.819526812434197
leaf_weight=22 2482 2612 629 660 659 231 1909 1599 41 36 155 1385 407 181 41 2749 187 31 426 2059 2002 46 228 39 287 187 3400 2136 4695 24
leaf_count=22 2482 2612 629 660 659 231 1909 1599 41 36 155 1385 407 181 41 2749 187 31 426 2059 2002 46 228 39 287 187 3400 2136 4695 24
internal_value=0 -0.257403 -0.247243 -0.729743 -0.10582 0.250845 0.221085 0.0114056 0.468094 0.365987 -1.42124 0.444569 0.105324 -0.907186 -0.248092 -0.15537 0.869285 1.69707 -0.959611 -0.393844 -1.06171 -0.803268 0.086812 0.95897 0.617587 -1.71037 -0.137508 -0.296147 0.743953 2.08556
internal_weight=0 15569 15547 3524 12023 15976 15721 8503 7218 4535 191 4344 2415 816 9411 8326 1929 544 1085 3968 2864 2048 409 357 326 816 8285 5536 4736 255
internal_count=31545 15569 15547 3524 12023 15976 15721 8503 7218 4535 191 4344 2415 816 9411 8326 1929 544 1085 3968 2864 2048 409 357 326 816 8285 5536 4736 255
is_linear=0
shrinkage=0.1


Tree=36
num_leaves=31
num_cat=0
split_feature=3 2 4 4 4 6 4 0 2 2 8 1 5 2 1 2 2 8 2 2 1 8 1 2 8 1 8 2 2 2
split_gain=167226 172527 205388 355921 137462 134486 105889 95091.6 91155.1 83980.3 74476.4 87785.4 71772.9 66587.3 64236.2 60129.8 53818.1 51634 48745.1 47545.4 47177.4 42736 42363.9 41849.5 41738.4 41317.3 40748.8 40556.3 53962.9 39591.4
threshold=3.5000000000000004 4.2935395344526022 1.0000000180025095e-35 4.5000000000000009 7.5000000000000009 5.5000000000000009 3.5000000000000004 1998.5000000000002 13.214087486191055 10.214087382575022 101.49999950000002 150451.50000000003 2.5000000000000004 14.216827079631768 109759.00000000001 5.3757314111422287 10.129156023305759 110.64285700000001 6.2113477306531157 10.718311046827838 206374.00000000003 111.21428550000002 98203.500000000015 7.4635167286422162 107.53333300000001 32972.500000000007 112.82142850000001 14.216827018981308 14.052443525536576 9.7977633665312869
decision_type=2 2 2 2 2 2 2 2 2 2 2 2 2 2 2 2 2 2 2 2 2 2 2 2 2 2 2 2 2 2
left_child=-1 -2 5 6 8 7 -4 14 18 10 11 16 -12 27 15 -3 -7 -17 -5 20 23 -6 -10 -16 -14 -20 -23 28 -11 -26
right_child=1 2 3 4 21 9 -8 -9 22 13 12 -13 24 -15 19 17 -18 -19 25 -21 -22 26 -24 -25 29 -27 -28 -29 -30 -31
leaf_value=-1.7529158147747379 1.4429759963762179 -4.5648390748284084 -2.7629686674855822 0.32085357329675129 0.26713518668059899 0.14012710861480798 -1.0015242338603636 1.4828794691278859 -4.1517032381735346 -0.19008449920852855 2.3477455149155397 -2.6702456069648814 4.2056005971185098 -3.1920436165834731 -4.5911374558210376 0.63038238034388583 2.6435441461841713 3.5882364732027057 -2.1074587025877203 0.19960730856594941 -3.9038230986506854 2.640721446078345 -1.2687916445286938 -0.3089529502141567 -0.038574395417859876 -0.31441323242184316 0.52274479813743058 2.1140465723501669 -2.2628139967026639 2.2559378687648124
leaf_weight=535 841 22 391 1323 5264 2445 2684 1063 57 4774 325 109 29 76 25 3605 89 60 132 876 54 151 482 262 485 4866 228 74 129 89
leaf_count=535 841 22 391 1323 5264 2445 2684 1063 57 4774 325 109 29 76 25 3605 89 60 132 876 54 151 482 262 485 4866 228 74 129 89
internal_value=0 0.0302422 -0.00913961 -0.261658 -0.0246101 0.260461 -1.2255 0.625444 -0.32534 0.00792634 0.379132 0.108524 1.14984 -0.254408 0.439584 0.647517 0.228053 0.678806 -0.218894 -0.190365 -1.19217 0.340977 -1.57366 -0.681966 0.5042 -0.361769 1.36658 -0.209549 -0.244619 0.317195
internal_weight=0 31010 30169 15578 12503 14591 3075 5967 6860 8624 3571 2643 928 5053 4904 3687 2534 3665 6321 1217 341 5643 539 287 603 4998 379 4977 4903 574
internal_count=31545 31010 30169 15578 12503 14591 3075 5967 6860 8624 3571 2643 928 5053 4904 3687 2534 3665 6321 1217 341 5643 539 287 603 4998 379 4977 4903 574
is_linear=0
shrinkage=0.1


Tree=37
num_leaves=31
num_cat=0
split_feature=7 1 1 7 8 0 4 4 2 3 2 2 11 4 5 4 2 4 0 3 2 1 2 4 0 1 1 2 7 7
split_gain=155004 87380.7 78816.8 69265.2 101563 79066.4 68314.5 171015 94700.8 80242.8 74054.5 98117 67389.4 65681.1 65572.5 58365.8 49042.7 44071.6 41071.6 44565.9 40207.5 43714.1 39793.2 59780.8 39004.4 57958.1 67828.8 47726.4 42106.9 65832
threshold=4.5000000000000009 1.0000000180025095e-35 301719.50000000006 5.5000000000000009 107.38750000000002 1797.5000000000002 1.0000000180025095e-35 4.5000000000000009 6.2113477738536842 5.5000000000000009 14.216827079631768 14.216827018981308 1.0000000180025095e-35 3.5000000000000004 2.5000000000000004 1.0000000180025095e-35 9.1264161851582912 7.5000000000000009 1784.5000000000002 4.5000000000000009 13.214087486191055 103745.00000000001 7.0497039337396776 1.0000000180025095e-35 2387.0000000000005 123304.50000000001 91504.500000000015 10.299018888389265 1.0000000180025095e-35 3.5000000000000004
decision_type=2 2 2 2 2 2 2 2 2 2 2 2 2 2 2 2 2 2 2 2 2 2 2 2 2 2 2 2 2 2
left_child=1 -1 6 5 15 -2 9 13 14 10 11 12 24 -8 -9 -5 -14 -17 -13 -20 -10 -22 -6 -24 28 26 27 -26 -3 -30
right_child=3 2 -4 4 22 -7 7 8 20 -11 -12 18 16 -15 -16 17 -18 -19 19 -21 21 -23 23 -25 25 -27 -28 -29 29 -31
leaf_value=-6.5223541649905119 -0.0073764847283638085 -0.80276918224054372 -1.5820142385479599 0.091525066877334402 1.091725888343285 0.681094822443846 -3.1619635679248699 1.578872744607575 -0.2786139101304882 3.8032236814498903 -2.9487936046151888 0.1747902042757381 3.5447733083624899 -1.1094170634134954 0.096624169891935272 -0.89343418731496171 0.67522062055932164 -0.053378939006227755 7.1395099644477558 2.4272855474190282 -3.4787593348638008 -0.82376298647075452 0.60501464455811238 -0.40501026412953156 2.5644228068150974 5.2364561319351202 -3.8867333667618889 -2.6044889189980247 0.33885014491928567 -0.32444728706935377
leaf_weight=22 2547 796 411 2538 755 4834 177 442 4231 56 84 55 81 1308 919 1666 225 999 26 88 76 337 1758 879 95 32 28 22 2697 3361
leaf_count=22 2547 796 411 2538 755 4834 177 442 4231 56 84 55 81 1308 919 1666 225 999 26 88 76 337 1758 879 95 32 28 22 2697 3361
internal_value=0 -0.224548 -0.215637 0.218828 0.0258718 0.44352 -0.178534 -0.393182 -0.155562 0.0317345 0.00390793 0.0369518 -0.0179204 -1.35406 0.578001 -0.251681 1.43481 -0.578532 2.41918 3.502 -0.370545 -1.31233 0.451611 0.26834 -0.0811454 1.38452 0.534434 1.59249 -0.118995 -0.0291496
internal_weight=0 15569 15547 15976 8595 7381 15136 7490 6005 7646 7590 7506 7337 1485 1361 5203 306 2665 169 114 4644 413 3392 2637 7031 177 145 117 6854 6058
internal_count=31545 15569 15547 15976 8595 7381 15136 7490 6005 7646 7590 7506 7337 1485 1361 5203 306 2665 169 114 4644 413 3392 2637 7031 177 145 117 6854 6058
is_linear=0
shrinkage=0.1


Tree=38
num_leaves=31
num_cat=0
split_feature=3 2 0 11 0 5 2 5 2 1 5 6 6 1 1 2 0 4 2 1 2 0 4 1 2 0 2 2 4 2
split_gain=135790 123250 128089 142492 81850.1 88989.7 79862.4 76201.1 107956 68052.9 64509 62275.2 63065.4 57031.8 56925.3 55216.3 74012.1 53501.7 79714.2 75141.8 65153.2 50880.8 49841.1 52105.1 50855.4 49265.7 48036.7 47098 40947.4 46866.5
threshold=5.5000000000000009 13.214087371832372 1998.5000000000002 1.0000000180025095e-35 2362.5000000000005 2.5000000000000004 4.2935395344526022 1.5000000000000002 8.5457084092551998 99901.000000000015 2.5000000000000004 4.5000000000000009 9.5000000000000018 86998.500000000015 436932.50000000006 12.71831128419216 2494.5000000000005 1.0000000180025095e-35 10.129155875499963 72302.500000000015 9.630639890485897 2494.5000000000005 1.0000000180025095e-35 41968.500000000007 7.1264162519533913 1784.5000000000002 10.381210653893129 14.13189551363803 1.0000000180025095e-35 8.0497039216484776
decision_type=2 2 2 2 2 2 2 2 2 2 2 2 2 2 2 2 2 2 2 2 2 2 2 2 2 2 2 2 2 2
left_child=1 2 3 6 5 13 -1 8 -8 -2 17 28 22 -3 -15 16 -12 18 -4 20 -19 -21 23 -13 -25 -7 -24 -27 -9 -30
right_child=9 4 10 -5 -6 25 7 11 -10 -11 15 12 -14 14 -16 -17 -18 19 -20 21 -22 -23 26 24 -26 27 -28 -29 29 -31
leaf_value=0.90468779387718379 1.3973195248403369 -1.8700176442188086 2.3842902805590196 1.3217846683405772 -4.1231054565539731 -1.2766763428846994 0.079755424040803519 0.47576781188582323 -1.1685492820677803 5.7920805350328104 1.3800654653129387 0.6323180317157695 0.097447855515476745 -0.51639232715879479 -4.5821029356547767 4.0464808677633606 -1.2689743749300639 -0.56746184947650613 0.40915240699202537 0.23208837975015775 -5.0661915591865219 -4.0760924760784425 -0.430190518785734 -3.4746545486912441 -0.22864479274309663 0.48969601152376052 -1.3064931619556681 2.8736768194626681 0.24240081640950728 -0.51739769006930503
leaf_weight=788 365 408 254 743 65 111 1258 2980 1542 39 871 780 5179 2143 35 66 120 82 1045 1309 53 28 3244 49 3220 336 775 110 2289 1258
leaf_count=788 365 408 254 743 65 111 1258 2980 1542 39 871 780 5179 2143 35 66 120 82 1045 1309 53 28 3244 49 3220 336 775 110 2289 1258
internal_value=0 -0.0236316 0.0437879 -0.0415477 -0.610673 -0.538033 -0.0849068 -0.119451 -0.607704 1.82157 0.581148 -0.0503144 -0.174883 -0.784984 -0.581727 1.24582 1.05929 0.32761 0.795361 -0.0851677 -2.33363 0.141865 -0.349697 -0.102071 -0.2773 0.608494 -0.599171 1.07767 0.202506 -0.0270738
internal_weight=0 31141 27933 24105 3208 3143 23362 22574 2800 404 3828 19774 13247 2586 2178 1057 991 2771 1299 1472 135 1337 8068 4049 3269 557 4019 446 6527 3547
internal_count=31545 31141 27933 24105 3208 3143 23362 22574 2800 404 3828 19774 13247 2586 2178 1057 991 2771 1299 1472 135 1337 8068 4049 3269 557 4019 446 6527 3547
is_linear=0
shrinkage=0.1


Tree=39
num_leaves=31
num_cat=0
split_feature=3 8 2 4 4 2 3 2 4 4 0 7 1 2 11 2 4 6 1 0 1 1 2 2 2 2 5 1 5 5
split_gain=119278 110927 99211.7 105029 211511 103780 80304.4 80301.7 77192.9 75751.9 69474.6 73806.2 64732.9 61396.6 57835.7 56216.8 54271.2 51792.3 52120.3 64675.5 51107.1 51047.3 129780 86036 46942.5 45783.9 40342.6 64637.4 35638.9 35035.1
threshold=3.5000000000000004 58.83333300000001 4.2935395344526022 1.0000000180025095e-35 4.5000000000000009 14.216827079631768 5.5000000000000009 14.216827018981308 7.5000000000000009 3.5000000000000004 1998.5000000000002 1.0000000180025095e-35 131406.50000000003 5.2935395649344432 1.0000000180025095e-35 7.5457085690999843 1.0000000180025095e-35 3.5000000000000004 49100.500000000007 2494.5000000000005 99901.000000000015 67874.000000000015 6.9648865222572978 8.4635166326890445 13.214087486191055 8.3784710542976661 1.5000000000000002 221909.50000000003 2.5000000000000004 2.5000000000000004
decision_type=2 2 2 2 2 2 2 2 2 2 2 2 2 2 2 2 2 2 2 2 2 2 2 2 2 2 2 2 2 2
left_child=-1 15 28 5 9 6 7 10 24 -5 11 -4 -9 -13 21 -2 -17 -12 -19 29 -8 23 -23 25 -6 -15 27 -24 -3 -20
right_child=1 2 3 4 8 -7 20 12 -10 -11 17 13 -14 14 -16 16 -18 18 19 -21 -22 22 26 -25 -26 -27 -28 -29 -30 -31
leaf_value=-1.4804306006598695 0.72640755049396111 1.9205164180518566 -0.91275471447759093 -2.2826526703129355 -0.1055095115527819 -3.0173686931007788 1.8349360687658192 1.2563019602045868 0.3466678828891504 -0.71489684476132354 1.5338173236324095 -3.8219857033146059 5.4287393049647417 1.10189962523667 2.2008068106287011 -0.29217700719202383 -1.1079981706777084 1.6061771689437148 0.082340525550507679 -2.1170281896807932 7.0525241347876459 -6.9506647798750141 -0.72470442361577803 0.14131201701503582 -1.2518620181955846 5.1302697083045699 0.073791568934414797 -6.4843670708792551 0.60324419577644828 1.1352623902265406
leaf_weight=535 351 359 654 355 5722 95 128 165 5222 2338 578 38 48 1040 143 2149 1314 328 1067 110 22 27 270 2532 381 29 4595 21 480 449
leaf_count=535 351 359 654 355 5722 95 128 165 5222 2338 578 38 48 1040 143 2149 1314 328 1067 110 22 27 270 2532 381 29 4595 21 480 449
internal_value=0 0.0255411 0.0963693 0.0622922 -0.124993 0.275062 0.300608 0.272087 0.0644252 -0.921564 0.237585 0.11174 2.19657 0.188798 0.206403 -0.479504 -0.601732 0.702247 0.456266 0.224303 2.60018 0.172906 -0.0367266 0.458916 -0.177074 1.21118 0.00147981 -1.14035 1.16689 0.394189
internal_weight=0 31010 27196 26357 14018 12339 12244 12094 11325 2693 11881 9349 213 8695 8657 3814 3463 2532 1954 1626 150 8514 4913 3601 6103 1069 4886 291 839 1516
internal_count=31545 31010 27196 26357 14018 12339 12244 12094 11325 2693 11881 9349 213 8695 8657 3814 3463 2532 1954 1626 150 8514 4913 3601 6103 1069 4886 291 839 1516
is_linear=0
shrinkage=0.1


Tree=40
num_leaves=31
num_cat=0
split_feature=7 1 7 3 8 0 0 1 8 1 1 7 7 0 0 2 4 1 2 0 1 2 2 2 2 4 2 4 2 1
split_gain=106226 68852.1 57995.3 87494.4 76082.1 57676.2 53145.9 51926.2 52018.1 54805.6 51284.1 37684.7 61372.5 37597.1 47925.8 72787 55895.2 44236.5 40570.6 30764.2 35821.9 30164.1 30046.8 42935.8 29424 33435 29302.7 29068.7 67935.7 51868.1
threshold=4.5000000000000009 1.0000000180025095e-35 5.5000000000000009 2.5000000000000004 97.499999500000015 2494.5000000000005 1797.5000000000002 436932.50000000006 67.857142500000023 230797.00000000003 22510.500000000004 3.5000000000000004 1.0000000180025095e-35 2494.5000000000005 1998.5000000000002 10.381210855076036 2.5000000000000004 48677.000000000007 13.466256512014908 2396.5000000000005 123304.50000000001 13.800502882857462 11.718311241326159 11.885434328276213 6.2113477306531157 1.0000000180025095e-35 10.129156023305759 1.0000000180025095e-35 6.4635167680783994 218013.50000000003
decision_type=2 2 2 2 2 2 2 2 2 2 2 2 2 2 2 2 2 2 2 2 2 2 2 2 2 2 2 2 2 2
left_child=1 -1 6 -4 -5 7 -2 8 9 -3 -6 12 19 14 15 26 -17 -15 -18 -10 -21 27 -8 -24 -14 -26 -12 28 -13 -30
right_child=2 5 3 4 10 -7 22 -9 11 -11 13 21 24 17 -16 16 18 -19 -20 20 -22 -23 23 -25 25 -27 -28 -29 29 -31
leaf_value=-5.7762523087588225 0.017083861016711163 -0.37208924715833236 -5.7876362507159902 -0.29644485760075767 2.0887000991836673 -3.5353520303380259 0.65963471217196468 -2.5891568142074077 -0.66430084139059298 -2.1929514173071745 0.31832901635894278 -4.8906325287289096 0.97243989719529689 2.0786839049203056 0.67411992063354031 -0.34865552447937787 -1.7479438602152682 -1.8551000361068128 -6.1212882270812994 -0.26209895934377397 4.8874150807207286 -1.0240327778696454 -4.7391375115513803 0.005338337258842675 0.52173489862482769 -0.084750666703392305 2.6293864828452733 -0.37117726293573339 0.09259093753849465 3.6370108046701981
leaf_weight=22 2547 4243 26 3998 155 51 4402 88 981 172 1464 27 602 35 1892 647 140 156 25 35 22 426 20 412 1813 1823 57 2791 2431 42
leaf_count=22 2547 4243 26 3998 155 51 4402 88 981 172 1464 27 602 35 1892 647 140 156 25 35 22 426 20 412 1813 1823 57 2791 2431 42
internal_value=0 -0.185889 0.181153 0.00459115 0.0221659 -0.177978 0.386755 -0.166928 -0.153094 -0.443027 0.300837 -0.0366518 0.156081 0.238084 0.300123 -0.00317864 -0.767641 -1.13425 -2.41057 -0.533073 1.72543 -0.214518 0.581533 -0.214313 0.324873 0.217658 0.404937 -0.14934 0.0983184 0.152787
internal_weight=0 15569 15976 8595 8569 15547 7381 15496 15408 4415 4571 10993 5276 4416 4225 2333 812 191 165 1038 57 5717 4834 432 4238 3636 1521 5291 2500 2473
internal_count=31545 15569 15976 8595 8569 15547 7381 15496 15408 4415 4571 10993 5276 4416 4225 2333 812 191 165 1038 57 5717 4834 432 4238 3636 1521 5291 2500 2473
is_linear=0
shrinkage=0.1


Tree=41
num_leaves=31
num_cat=0
split_feature=6 6 1 4 4 3 4 2 3 3 4 2 1 3 0 1 6 9 0 1 2 2 2 4 2 8 0 9 1 1
split_gain=98472.7 121004 93164 61313.7 101528 57541.5 54422.6 49293.9 46076.7 45649.2 44942.1 43568.2 49188.1 42050.4 40092.9 38819.1 37077.1 54256.1 35793.1 32258.1 39443.3 31812.4 31477.6 34365.5 76169.3 35337 29395.3 28567.2 31514 28393.2
threshold=4.5000000000000009 9.5000000000000018 31405.000000000004 1.0000000180025095e-35 7.5000000000000009 3.5000000000000004 3.5000000000000004 13.214087371832372 5.5000000000000009 2.5000000000000004 7.5000000000000009 7.7155714996325715 71306.500000000015 3.5000000000000004 2396.5000000000005 127700.50000000001 5.5000000000000009 1.0000000180025095e-35 1998.5000000000002 109759.00000000001 5.2935395649344432 9.2113476967525525 12.214087420255739 1.0000000180025095e-35 6.2113478484872404 110.05952350000001 1998.5000000000002 1.0000000180025095e-35 143304.00000000003 13952.000000000002
decision_type=2 2 2 2 2 2 2 2 2 2 2 2 2 2 2 2 2 2 2 2 2 2 2 2 2 2 2 2 2 2
left_child=3 2 14 9 6 16 -5 8 -7 -1 13 -8 -13 27 22 -9 -4 -18 19 20 -11 -20 23 25 -25 -2 -15 -3 -29 -22
right_child=1 10 5 4 -6 7 11 15 -10 18 -12 12 -14 26 -16 -17 17 -19 21 -21 29 -23 -24 24 -26 -27 -28 28 -30 -31
leaf_value=-2.3801802882441767 0.79214685004418262 -3.0806594763003607 -5.0788801915305006 -2.2766569141687745 0.57758684269839866 -0.31354565238246357 0.16430817196703384 -1.6592357777044027 3.9014954020197581 -3.4574479947487511 0.62937754619026809 -2.227758533190936 -0.39290243210381742 -0.0042559891017729537 3.2112288247864202 -0.50149117060603421 0.11555270800429784 -3.7376505074001134 3.1734430347170153 -0.083836648890597082 2.1893352801691406 0.94837768161027081 -2.394205465225073 0.57614789168265734 -2.378547374210481 4.0594959627304759 0.58267855177357175 2.4592822496707623 -2.5132819690704347 0.55186361270619766
leaf_weight=54 610 71 35 134 2099 10295 1573 495 26 24 1730 160 1682 5274 53 698 89 62 70 971 110 783 39 352 116 35 1018 26 25 2836
leaf_count=54 610 71 35 134 2099 10295 1573 495 26 24 1730 160 1682 5274 53 698 89 62 70 971 110 783 39 352 116 35 1018 26 25 2836
internal_value=0 -0.124764 -0.315233 0.250205 0.0262812 -0.40146 -0.29978 -0.373274 -0.302927 0.511081 0.177054 -0.22221 -0.552282 0.0550519 0.521996 -0.981863 -2.1463 -1.46656 0.543648 0.416526 0.580112 1.13097 0.398273 0.496123 -0.156212 0.969445 0.0907058 -1.78375 0.0217508 0.613005
internal_weight=0 21049 12905 10496 5648 11700 3549 11514 10321 4848 8144 3415 1842 6414 1205 1193 186 151 4794 3941 2970 853 1152 1113 468 645 6292 122 51 2946
internal_count=31545 21049 12905 10496 5648 11700 3549 11514 10321 4848 8144 3415 1842 6414 1205 1193 186 151 4794 3941 2970 853 1152 1113 468 645 6292 122 51 2946
is_linear=0
shrinkage=0.1


Tree=42
num_leaves=31
num_cat=0
split_feature=3 7 1 0 7 3 8 1 1 7 7 8 8 11 2 1 1 1 4 4 2 2 9 5 0 6 2 2 1 2
split_gain=84562.3 78981.1 53920.9 49149 46574.5 66995.4 55018.3 44599.5 44320.3 42425 42797.8 41612.4 38683.3 38274.2 32155.7 44433.6 38700.6 32123.2 30827.2 35120.3 29346.1 31987.7 28751.7 31927.1 53671.1 27501.6 49224.7 26322.7 24238 23045.9
threshold=5.5000000000000009 4.5000000000000009 1.0000000180025095e-35 2494.5000000000005 5.5000000000000009 2.5000000000000004 97.499999500000015 99901.000000000015 436932.50000000006 3.5000000000000004 1.0000000180025095e-35 63.95833300000001 69.19642850000001 1.0000000180025095e-35 13.466256322674548 269257.50000000006 165551.50000000003 290793.50000000006 1.0000000180025095e-35 4.5000000000000009 11.718311241326159 11.885434328276213 1.0000000180025095e-35 1.5000000000000002 1987.5000000000002 3.5000000000000004 13.052443474674083 7.6306400539070376 68306.000000000015 7.8826948761610574
decision_type=2 2 2 2 2 2 2 2 2 2 2 2 2 2 2 2 2 2 2 2 2 2 2 2 2 2 2 2 2 2
left_child=1 2 -1 8 11 -6 -7 -2 9 10 -4 -3 18 17 25 16 28 22 27 -20 -13 -22 23 24 -11 26 -8 -12 -16 -24
right_child=7 4 3 -5 5 6 14 -9 -10 13 12 20 -14 -15 15 -17 -18 -19 19 -21 21 -23 29 -25 -26 -27 -28 -29 -30 -31
leaf_value=-5.1266254078258164 1.0940225845308695 -0.059273407156809725 -0.46364604318227665 -3.3025388739109043 -5.0879086237687332 -0.27650230184518787 0.63379533241245345 4.6517839236137197 -2.4128317925094187 -0.60289788712756809 2.3955800464153287 0.57735626812506247 0.32557143094963903 0.46760077360143226 -3.5470574378967288 -4.0465270722613615 1.1107312687297366 -2.3397085298974831 -1.5918682413067828 -0.26176377553755747 -2.835904216617346 0.064876502824280965 -0.56793348506897423 -0.53447130353032291 -4.454818907118681 0.17609213537373972 4.1329143306329135 0.055536828794625751 -0.62136498943152951 -0.052914478822483152
leaf_weight=22 365 2020 1510 50 26 3953 940 39 87 99 50 4392 3860 571 32 34 134 83 259 850 40 766 1218 2427 57 3096 42 1246 246 3031
leaf_count=22 365 2020 1510 50 26 3953 940 39 87 99 50 4392 3860 571 32 34 134 83 259 850 40 766 1218 2427 57 3096 42 1246 246 3031
internal_value=0 -0.0186487 -0.179451 -0.172383 0.139075 -0.0195076 -0.00396224 1.43747 -0.162186 -0.149355 0.0142489 0.32589 0.129432 -0.319275 0.234179 -0.571986 -0.285252 -0.384251 -0.18537 -0.572401 0.475569 -0.0790828 -0.360495 -0.623606 -2.01033 0.322347 0.783452 0.145816 -0.958135 -0.200548
internal_weight=0 31141 15420 15398 15721 8503 8477 404 15348 15261 7775 7218 6265 7486 4524 446 412 6915 2405 1109 5198 806 6832 2583 156 4078 982 1296 278 4249
internal_count=31545 31141 15420 15398 15721 8503 8477 404 15348 15261 7775 7218 6265 7486 4524 446 412 6915 2405 1109 5198 806 6832 2583 156 4078 982 1296 278 4249
is_linear=0
shrinkage=0.1


Tree=43
num_leaves=31
num_cat=0
split_feature=6 6 1 2 4 2 4 8 4 3 3 0 7 0 3 9 6 6 8 4 0 1 1 1 2 4 2 8 7 2
split_gain=77461.5 97035.1 74171.5 53003.6 50303.2 81462.6 57718.6 37613.2 36702.2 34886 34872.2 33541.3 44365.4 32636 32400.4 34072.9 37749.2 30796.6 30128.5 30030.9 28600.8 27515.1 28308.4 26177.9 25011.2 28272.1 60864.5 28203.6 24678.7 33593.7
threshold=4.5000000000000009 9.5000000000000018 31405.000000000004 14.216827224845185 1.0000000180025095e-35 6.2113477306531157 3.5000000000000004 58.83333300000001 7.5000000000000009 5.5000000000000009 2.5000000000000004 2494.5000000000005 4.5000000000000009 2396.5000000000005 3.5000000000000004 1.0000000180025095e-35 5.5000000000000009 6.5000000000000009 59.466666500000009 7.5000000000000009 2387.0000000000005 125078.50000000001 60842.000000000007 6100.5000000000009 12.214087420255739 1.0000000180025095e-35 6.3784710696160625 110.05952350000001 4.5000000000000009 14.216827018981308
decision_type=2 2 2 2 2 2 2 2 2 2 2 2 2 2 2 2 2 2 2 2 2 2 2 2 2 2 2 2 2 2
left_child=4 2 13 9 10 -6 -7 -3 -8 11 -1 14 -13 24 15 16 -4 -18 -16 23 -12 22 -22 -9 25 27 -27 -2 -20 -30
right_child=1 7 3 -5 5 6 8 19 -10 -11 20 12 -14 -15 18 -17 17 -19 28 -21 21 -23 -24 -25 -26 26 -28 -29 29 -31
leaf_value=-2.0688261835663408 0.71232543629456746 -0.40643150139868728 -4.2652182879773051 -3.5133733760635808 0.64949051196992835 -2.5590474941566881 -0.36452459665396747 -2.766509036864004 0.27368189791292313 3.1202571408501991 0.43221561499804634 -6.1971536772591733 -1.1276255331088587 2.8921059266576226 -0.71948751522622378 -3.3917551107917512 3.1760394511399448 -0.89076988528172185 -0.41164968410728897 0.62498291485784252 2.5726486755469269 4.6433912130502559 0.17040301687244713 0.14760393727019291 -2.134995852983915 0.48937590413967547 -2.1834524244469189 3.631318754468646 -0.1174203324569013 2.6897780110669691
leaf_weight=54 610 1026 22 53 1504 102 2686 31 1356 29 4567 21 97 53 1578 70 27 60 4750 1585 85 26 116 5502 39 356 112 35 4950 43
leaf_count=54 610 1026 22 53 1504 102 2686 31 1356 29 4567 21 97 53 1578 70 27 60 4750 1585 85 26 116 5502 39 356 112 35 4950 43
internal_value=0 -0.110656 -0.28122 -0.358158 0.221912 0.0190883 -0.209706 0.159621 -0.150421 -0.3438 0.458206 -0.352447 -2.02983 0.465811 -0.335236 -1.67012 -0.564476 0.371343 -0.314129 0.241213 0.486671 1.58225 1.18628 0.131277 0.354185 0.441407 -0.150275 0.87072 -0.248476 -0.0932446
internal_weight=0 21049 12905 11700 10496 5648 4144 8144 4042 11647 4848 11618 118 1205 11500 179 109 87 11321 7118 4794 227 201 5533 1152 1113 468 645 9743 4993
internal_count=31545 21049 12905 11700 10496 5648 4144 8144 4042 11647 4848 11618 118 1205 11500 179 109 87 11321 7118 4794 227 201 5533 1152 1113 468 645 9743 4993
is_linear=0
shrinkage=0.1


Tree=44
num_leaves=31
num_cat=0
split_feature=2 1 4 4 2 2 5 1 1 0 6 4 1 2 0 1 2 8 6 2 0 2 2 2 0 2 0 3 1 2
split_gain=69348.7 97500.7 72785.7 186809 82391.2 71038.2 83326.8 66150.6 65142.5 61219.3 57111.4 56765.9 47585.5 91420.1 62828.8 46294.7 45055.1 44839.2 42540.1 55636.8 60537.9 43244.2 38142.9 33516.8 32108.9 31572.6 40370.2 36252.8 34452 47049.8
threshold=3.7128318227841999 1.0000000180025095e-35 1.0000000180025095e-35 4.5000000000000009 14.216827158352617 7.2962792698460364 2.5000000000000004 25415.000000000004 15313.000000000002 2396.5000000000005 6.5000000000000009 3.5000000000000004 99312.500000000015 11.96762621539207 2494.5000000000005 189726.00000000003 5.7950235741987512 107.70833300000002 10.500000000000002 8.7977632840741951 1797.5000000000002 12.885434365357701 5.3757314111422287 6.3784710696160625 1998.5000000000002 14.131895651135594 1784.5000000000002 4.5000000000000009 109759.00000000001 10.718311046827838
decision_type=2 2 2 2 2 2 2 2 2 2 2 2 2 2 2 2 2 2 2 2 2 2 2 2 2 2 2 2 2 2
left_child=-1 16 4 11 8 6 17 -7 -3 -8 22 -4 13 -9 15 -14 -2 23 21 20 -20 -12 -10 -5 25 28 -27 -28 -24 -30
right_child=1 2 3 5 -6 7 9 12 10 -11 18 -13 14 -15 -16 -17 -18 -19 19 -21 -22 -23 24 -25 -26 26 27 -29 29 -31
leaf_value=1.3427513478068931 -1.6546233109065467 1.3518890217684949 -1.9564621587235138 0.94669004346863983 -5.3703131538850295 -3.2662623471873147 -0.066970530406224568 -0.32384411072572511 -2.5154583413550196 2.5856644159706121 -0.11260760257940848 -0.68368929699452197 0.24317341391656644 -2.3243744236424333 -4.4074517033528542 -0.45826586802253538 -8.2865402746200569 1.8132929886685891 -1.3526716190039136 0.08270831156335956 2.1401940571354294 -0.928280401160404 0.34542703641396016 0.058641179369995688 0.78828649058119149 -0.36654292199669819 5.1116476896646859 1.4759721165136348 -1.1137488023661788 0.13424958150806149
leaf_weight=380 21 444 401 993 27 70 3877 1993 47 89 4260 2778 3234 258 32 1327 20 346 61 2022 266 767 4051 743 1317 82 37 106 420 1076
leaf_count=380 21 444 401 993 27 70 3877 1993 47 89 4260 2778 3234 258 32 1327 20 346 61 2022 266 767 4051 743 1317 82 37 106 420 1076
internal_value=0 -0.0163724 -0.00995269 -0.157289 0.148771 0.0111888 0.261493 -0.207764 0.158734 -0.00744342 0.122229 -0.844237 -0.176482 -0.553136 0.00811356 0.0390932 -4.8897 0.773791 -0.0728965 0.278423 1.48862 -0.23706 0.323918 0.566609 0.342743 0.241083 1.40234 2.41667 0.193979 -0.216124
internal_weight=0 31165 31124 16141 14983 12962 6048 6914 14956 3966 14512 3179 6844 2251 4593 4561 41 2082 7376 2349 327 5027 7136 1736 7089 5772 225 143 5547 1496
internal_count=31545 31165 31124 16141 14983 12962 6048 6914 14956 3966 14512 3179 6844 2251 4593 4561 41 2082 7376 2349 327 5027 7136 1736 7089 5772 225 143 5547 1496
is_linear=0
shrinkage=0.1


Tree=45
num_leaves=31
num_cat=0
split_feature=4 4 4 2 2 1 3 0 1 6 2 6 2 1 1 2 2 1 5 8 1 2 5 2 5 2 2 2 0 3
split_gain=61570 137494 79919.6 66473.8 63286.4 85790.8 53190.9 50904.2 48564.3 48199.8 47450.2 40999.5 40720.2 34391.8 33223.6 30336.8 49825.3 45091.4 42219.3 65000.5 47978.1 33000.7 27359.4 27172.2 26677 39650.6 33571.3 26608 25024.1 36588.3
threshold=7.5000000000000009 1.0000000180025095e-35 3.5000000000000004 14.216827158352617 7.3784710793934805 97711.000000000015 5.5000000000000009 2494.5000000000005 290793.50000000006 5.5000000000000009 11.214087479147148 8.5000000000000018 4.2935395344526022 44506.500000000007 99901.000000000015 10.214087382575022 10.129156023305759 13952.000000000002 2.5000000000000004 71.933333000000019 125909.50000000001 9.0497038348705718 2.5000000000000004 9.7155714935771851 2.5000000000000004 11.885434486382373 11.885434395193943 8.2962792918931179 1998.5000000000002 3.5000000000000004
decision_type=2 2 2 2 2 2 2 2 2 2 2 2 2 2 2 2 2 2 2 2 2 2 2 2 2 2 2 2 2 2
left_child=1 3 -3 6 22 10 9 8 11 28 -6 -7 -2 -12 -8 16 18 -17 19 21 23 -11 -4 -20 -19 26 -26 -22 -1 -30
right_child=12 2 4 -5 5 7 14 -9 -10 15 13 -13 -14 -15 -16 17 -18 24 20 -21 27 -23 -24 -25 25 -27 -28 -29 29 -31
leaf_value=0.23493832344996421 1.1566086427800781 -1.726408378003556 0.36100626825354998 -4.8332819479483149 -0.8675302043004639 -0.38627667933250559 1.3174522083701818 -3.9799242486824862 -1.5135479326966748 0.57222948923927075 -6.2666176748275761 0.28387584489310086 0.20809437622759852 -1.9829289763965865 5.2729195065498358 -4.9322009801864626 2.3201406401283338 -0.32940366033497603 -0.1838216952799239 1.3697251869703937 -4.4952540289271958 -0.64589316874724734 -0.18266736209228879 0.9645369148663937 -0.18318816223831913 0.72243383185843291 -4.2288508520239878 -1.1946959371262409 -2.6219456211213146 0.86356963496020844
leaf_weight=4987 492 405 1446 27 1115 2811 141 37 287 474 20 1352 5653 298 25 20 106 3507 1725 567 33 419 2572 234 881 708 21 94 31 1057
leaf_count=4987 492 405 1446 27 1115 2811 141 37 287 474 20 1352 5653 298 25 20 106 3507 1725 567 33 419 2572 234 881 708 21 94 31 1057
internal_value=0 -0.0687169 -0.349435 0.124115 -0.29332 -0.501218 0.133021 -0.286086 -0.255373 0.11314 -1.17484 -0.168634 0.284037 -2.25234 1.91316 -0.0365722 0.183774 -0.193221 0.119911 0.532357 -0.168761 0.000680336 0.0129902 -0.0466518 -0.174698 0.162291 -0.277378 -2.05232 0.329737 0.764258
internal_weight=0 25400 10343 15057 9938 5920 15030 4487 4450 14864 1433 4163 6145 318 166 8789 3652 5137 3546 1460 2086 893 4018 1959 5117 1610 902 127 6075 1088
internal_count=31545 25400 10343 15057 9938 5920 15030 4487 4450 14864 1433 4163 6145 318 166 8789 3652 5137 3546 1460 2086 893 4018 1959 5117 1610 902 127 6075 1088
is_linear=0
shrinkage=0.1


Tree=46
num_leaves=31
num_cat=0
split_feature=11 2 5 2 1 6 6 2 4 4 9 1 4 0 2 1 1 1 2 5 4 4 1 1 8 1 2 2 1 1
split_gain=52530 68519.8 54560 87144.9 74270.1 50729.5 55665.6 44183.1 34907.1 32039.6 59756.2 44943.2 39746.4 39166.3 36208.7 32265.8 31362.4 31008.1 37720.2 32519.3 30800.5 30431 43714.2 36223.4 46045.1 31384.5 26425.8 31006.5 26569.2 25235.7
threshold=1.0000000180025095e-35 9.2113478452717477 1.5000000000000002 6.7155715268765395 6100.5000000000009 4.5000000000000009 9.5000000000000018 14.216827224845185 1.0000000180025095e-35 1.0000000180025095e-35 1.0000000180025095e-35 203374.00000000003 3.5000000000000004 2396.5000000000005 12.214087524829111 90002.000000000015 167468.00000000003 185261.50000000003 6.2113478484872404 2.5000000000000004 4.5000000000000009 1.0000000180025095e-35 290793.50000000006 36602.000000000007 108.42500000000001 174904.50000000003 14.216827079631768 14.216827018981308 153267.50000000003 253801.50000000003
decision_type=2 2 2 2 2 2 2 2 2 2 2 2 2 2 2 2 2 2 2 2 2 2 2 2 2 2 2 2 2 2
left_child=2 8 3 16 -5 26 21 9 -2 13 11 12 -11 -6 -13 -12 -1 18 -10 -20 -17 23 -23 -7 -25 -26 27 29 -28 -4
right_child=1 -3 5 4 7 6 -8 -9 17 10 15 14 -14 -15 -16 20 -18 -19 19 -21 -22 22 -24 24 25 -27 28 -29 -30 -31
leaf_value=0.49978963852063435 2.2531308248249022 0.0092067961983226098 0.23132500262615174 -6.293584767631863 -0.295610639084737 0.57733779386767459 0.13970233690098297 -4.1729708268361936 1.5406128303219975 -5.6743314879281179 -1.3712315515147315 2.4830001844916234 -1.7994555018979519 2.8786934602260592 -1.246179432128415 -0.77358695240185871 4.1106150093078613 3.1398858872743753 -0.16460849966326044 1.9446725737216863 0.61272181237351164 -0.37277557762259411 -2.4958657066921019 -0.085969245580208298 -1.5501388498077728 2.5354149004071953 -3.099034278591474 1.637118025095045 0.10717115604451724 -0.95947838272530961
leaf_weight=636 191 1665 8027 23 1376 744 6495 34 297 28 225 43 485 40 66 281 25 52 487 86 373 4755 99 4238 314 20 48 154 56 182
leaf_count=636 191 1665 8027 23 1376 744 6495 34 297 28 225 43 485 40 66 281 25 52 487 86 373 4755 99 4238 314 20 48 154 56 182
internal_value=0 0.415259 -0.0401012 -0.40222 -0.633054 0.0122744 -0.0889952 -0.588936 1.0227 -0.547161 -0.869058 -1.61913 -2.01095 -0.205941 0.224965 -0.338293 0.636356 0.767802 0.626022 0.151968 0.0170754 -0.235051 -0.416077 -0.069758 -0.17506 -1.30549 0.211596 0.231297 -1.37262 0.204924
internal_weight=0 2778 28767 3635 2974 25132 16665 2951 1113 2917 1501 622 513 1416 109 879 661 922 870 573 654 10170 4854 5316 4572 334 8467 8363 104 8209
internal_count=31545 2778 28767 3635 2974 25132 16665 2951 1113 2917 1501 622 513 1416 109 879 661 922 870 573 654 10170 4854 5316 4572 334 8467 8363 104 8209
is_linear=0
shrinkage=0.1


Tree=47
num_leaves=31
num_cat=0
split_feature=7 7 3 0 1 0 1 1 7 7 8 3 4 5 4 2 8 11 8 2 8 9 5 0 5 2 0 2 2 10
split_gain=52636.8 35783.1 45853.5 42327.4 43928.8 35669.3 32607.6 32104.9 31609.8 47526.4 26807.1 26587 47357.5 103882 35990.5 26124.1 31072 25954.9 25759.8 32978.1 25668.5 25592.8 29396 56252.2 25273.8 25176.2 24672.8 24291.3 23498.4 39155.8
threshold=4.5000000000000009 5.5000000000000009 2.5000000000000004 1998.5000000000002 12460.500000000002 2494.5000000000005 1.0000000180025095e-35 90501.500000000015 3.5000000000000004 1.0000000180025095e-35 101.49999950000002 4.5000000000000009 1.0000000180025095e-35 1.5000000000000002 5.5000000000000009 6.6306399923116137 110.64285700000001 1.0000000180025095e-35 107.53333300000001 10.381210855076036 63.95833300000001 1.0000000180025095e-35 1.5000000000000002 1987.5000000000002 2.5000000000000004 10.129156023305759 1784.5000000000002 10.21408747122018 8.4635166813575911 1.0000000180025095e-35
decision_type=2 2 2 2 2 2 2 2 2 2 2 2 2 2 2 2 2 2 2 2 2 2 2 2 2 2 2 2 2 2
left_child=6 20 -3 4 -4 10 -1 -7 9 28 24 12 13 -12 -14 -13 -17 21 -6 25 -2 22 23 -10 -5 -20 -11 -27 29 -8
right_child=1 2 3 5 18 7 8 -9 17 26 11 15 14 -15 -16 16 -18 -19 19 -21 -22 -23 -24 -25 -26 27 -28 -29 -30 -31
leaf_value=-3.9780196103182703 -0.0088883805855090401 -4.2043325910201439 1.9161902362809462 -0.12285422478656911 -0.30831966235910574 0.11811834077919479 -0.14531132689550849 -2.5096291439442697 -0.39075113136579498 -0.17197883373313061 7.384272451961742 3.0765998676845006 -0.87976611179160324 1.4655610896646978 1.4739425774803736 0.46202608670847267 -1.7314701430073809 0.37661911722116331 0.24376549134986145 -0.93971889072856996 0.40575442280429441 -0.17457650390580598 -0.48253239662338382 -4.1800699704326689 2.2391246741016704 4.3475983166694645 0.26292224558408439 0.32339872757593796 -0.67877290451107331 3.0704634411390437
leaf_weight=22 2078 26 102 806 4254 113 317 79 101 1836 34 35 127 232 133 834 70 572 1404 238 5303 4361 2505 64 48 30 4506 30 1242 43
leaf_count=22 2078 26 102 806 4254 113 317 79 101 1836 34 35 127 232 133 834 70 572 1404 238 5303 4361 2505 64 48 30 4506 30 1242 43
internal_value=0 0.127519 -0.0111691 0.00155381 -0.141535 0.346767 -0.130853 -0.96309 -0.125409 0.0140867 0.455216 0.714804 1.28399 2.22209 0.324246 0.395961 0.292176 -0.271161 -0.176774 0.152011 0.289019 -0.32386 -0.567691 -1.86055 0.00990337 0.329492 0.137019 2.3355 -0.472578 0.238795
internal_weight=0 15976 8595 8569 6058 2511 15569 192 15547 7944 2319 1465 526 266 260 939 904 7603 5956 1702 7381 7031 2670 165 854 1464 6342 60 1602 360
internal_count=31545 15976 8595 8569 6058 2511 15569 192 15547 7944 2319 1465 526 266 260 939 904 7603 5956 1702 7381 7031 2670 165 854 1464 6342 60 1602 360
is_linear=0
shrinkage=0.1


Tree=48
num_leaves=31
num_cat=0
split_feature=3 2 2 0 11 0 1 2 5 8 2 1 4 7 2 1 2 2 2 2 1 1 2 1 2 2 5 0 4 2
split_gain=47584.6 43549.5 51531.3 48337.2 64930.9 48267.1 43515.2 38822.6 66350.9 43889.1 74128.8 76598.1 60114.7 54092 49020.1 46876.2 36620.5 87382 45405.8 91052.7 42395.8 42362.6 42225.7 41510 34593.1 44123.6 34152.2 34036.3 32962.8 30637.9
threshold=5.5000000000000009 13.214087371832372 13.214087293751939 1998.5000000000002 1.0000000180025095e-35 2362.5000000000005 32972.500000000007 11.718311241326159 2.5000000000000004 107.38750000000002 12.052443491860217 114509.50000000001 2.5000000000000004 5.5000000000000009 12.466256369252497 241850.50000000003 14.216827018981308 14.216827079631768 14.052443525536576 14.052443464182593 132313.50000000003 144804.50000000003 14.216827224845185 135178.00000000003 12.71831128419216 12.718311166770556 2.5000000000000004 2494.5000000000005 5.5000000000000009 3.2086081128967288
decision_type=2 2 2 2 2 2 2 2 2 2 2 2 2 2 2 2 2 2 2 2 2 2 2 2 2 2 2 2 2 2
left_child=1 2 3 4 7 6 -3 29 9 15 13 14 -13 -11 -12 -9 18 23 19 -8 -19 -21 -22 -18 25 27 -26 -5 -27 -1
right_child=-2 5 -4 24 -6 -7 16 8 -10 10 11 12 -14 -15 -16 -17 17 20 -20 21 22 -23 -24 -25 26 28 -28 -29 -30 -31
leaf_value=1.1281724514232743 1.0783101733589529 -3.7639063381900395 2.0684108777501722 0.37055172348727067 0.88488005544303405 -3.0602084236878615 -0.39225151426154947 -0.29315451093477035 0.3864708864013533 -8.6237070083618175 -0.70987470641968742 1.5301875832218392 -1.4718353178379311 -2.3062882741292317 -4.3725871031996846 -1.983652235266198 1.2473750620913906 -2.1050414810567326 -1.3003494012435359 1.2899005068249483 1.2747663369452633 5.504523162047068 -1.426695976288695 4.4812904423358395 0.86319957159851735 -5.5017311963168058 3.5505832842418124 -1.119399518774163 -0.6826275274157525 -0.022956188832782679
leaf_weight=234 404 36 123 3214 743 65 1912 2090 887 23 63 130 137 33 87 178 179 116 487 86 148 33 95 51 304 22 56 161 40 19408
leaf_count=234 404 36 123 3214 743 65 1912 2090 887 23 63 130 137 33 87 178 179 116 487 86 148 33 95 51 304 22 56 161 40 19408
internal_value=0 -0.0139892 0.0260867 0.0170538 -0.0353711 -0.362942 -0.30716 -0.0647543 -0.365295 -0.60857 -1.48479 -1.02603 -0.0101762 -4.90094 -2.83425 -0.42583 -0.267108 0.442734 -0.433151 -0.225211 -0.532188 2.45866 0.218639 1.96446 0.348599 0.250913 1.28124 0.299476 -2.39263 -0.00924251
internal_weight=0 31141 27933 27810 24013 3208 3143 23270 3628 2741 473 417 267 56 150 2268 3107 589 2518 2031 359 119 243 230 3797 3437 360 3375 62 19642
internal_count=31545 31141 27933 27810 24013 3208 3143 23270 3628 2741 473 417 267 56 150 2268 3107 589 2518 2031 359 119 243 230 3797 3437 360 3375 62 19642
is_linear=0
shrinkage=0.1


Tree=49
num_leaves=31
num_cat=0
split_feature=6 6 1 3 8 1 1 2 1 0 3 4 2 0 2 1 2 7 0 0 3 4 4 2 2 1 3 2 2 0
split_gain=43228.6 64852.7 39780.8 31513.7 30497.9 41271.6 36196.4 33400.2 30262.6 30305.2 26737 26417 23315.5 22863.7 22684.4 31818.4 21471.4 25823.7 20904.4 27389.6 20015.7 19745.4 19727.3 32408.7 22172.7 39857.5 20537 20242 30324.9 34426.1
threshold=4.5000000000000009 9.5000000000000018 31405.000000000004 3.5000000000000004 107.53333300000001 436932.50000000006 301719.50000000006 7.0497040002582461 83898.000000000015 1784.5000000000002 3.5000000000000004 1.0000000180025095e-35 4.2935395344526022 2396.5000000000005 13.214087371832372 111103.50000000001 11.214087356844512 2.5000000000000004 1998.5000000000002 2494.5000000000005 5.5000000000000009 3.5000000000000004 1.0000000180025095e-35 5.3757314111422287 8.5457084092551998 38701.500000000007 2.5000000000000004 14.216827079631768 14.131895651135594 1784.5000000000002
decision_type=2 2 2 2 2 2 2 2 2 2 2 2 2 2 2 2 2 2 2 2 2 2 2 2 2 2 2 2 2 2
left_child=4 2 13 8 5 22 7 21 -4 -10 16 -9 -12 -2 20 -16 -3 -18 -14 -20 -5 -6 23 -1 -24 -26 -25 28 -28 -30
right_child=1 10 3 14 6 -7 -8 11 9 -11 12 -13 18 -15 15 -17 17 -19 19 -21 -22 -23 24 26 25 -27 27 -29 29 -31
leaf_value=-2.5676674522459511 0.23155229410072531 -0.031412158562586855 -4.5997329643794469 -0.21686769205727671 3.5431097131786928 -4.0439901441335682 4.7121417323748274 0.60857200457889971 2.0877983693893141 -1.6473952475257896 1.4088978380097874 -0.48346280070575509 0.06815350849096749 2.3557865538687075 -1.4258310768165088 -0.31736566507948283 -0.65659185349941263 -4.7404393386840828 0.61233882736892276 -1.9017572911580407 2.5612252801656723 1.0143108318569041 0.15218353373674426 -2.0532814141866322 -4.517498924515464 -0.23751575876138298 0.27899032635340076 -1.7504246341421252 -0.5811884287525626 2.4946730511629678
leaf_weight=40 1152 65 28 10295 33 24 21 552 26 132 147 370 6655 53 380 813 32 30 1170 45 26 480 2771 37 22 1981 3940 47 51 127
leaf_count=40 1152 65 28 10295 33 24 21 552 26 132 147 370 6655 53 380 813 32 30 1170 45 26 480 2771 37 22 1981 3940 47 51 127
internal_value=0 -0.082664 -0.222104 -0.27845 0.165777 0.097367 0.59052 0.530204 -1.56971 -1.03274 0.138293 0.170337 0.161099 0.324983 -0.25759 -0.670439 -1.30131 -2.63265 0.137791 0.519224 -0.209869 1.17698 0.108391 0.265313 -0.0310438 -0.284525 0.292281 0.313118 0.336669 1.61339
internal_weight=0 21049 12905 11700 10496 9040 1456 1435 186 158 8144 922 8017 1205 11514 1193 127 62 7870 1215 10321 513 9016 4242 4774 2003 4202 4165 4118 178
internal_count=31545 21049 12905 11700 10496 9040 1456 1435 186 158 8144 922 8017 1205 11514 1193 127 62 7870 1215 10321 513 9016 4242 4774 2003 4202 4165 4118 178
is_linear=0
shrinkage=0.1


Tree=50
num_leaves=31
num_cat=0
split_feature=4 4 4 2 2 1 2 3 1 0 6 6 1 1 2 2 9 2 2 2 2 2 2 2 1 1 2 2 2 2
split_gain=41997 92894.3 59493.9 49948.9 36272 70748.9 33121.9 32777.9 31575.8 33075.3 31297.7 27540.9 25882.1 25500.8 25324.6 24935.7 30438.7 23453.1 35151.3 49939 29772.5 46864.3 24135 24104.6 23102.2 20966 49107.5 33837.6 28316.6 23561.7
threshold=7.5000000000000009 1.0000000180025095e-35 3.5000000000000004 14.216827158352617 7.3784710793934805 97711.000000000015 11.214087479147148 5.5000000000000009 290793.50000000006 2494.5000000000005 6.5000000000000009 8.5000000000000018 99901.000000000015 44506.500000000007 4.2086080345752839 5.3757314111422287 1.0000000180025095e-35 12.885434365357701 12.800503054991752 12.800502922008993 12.71831128419216 12.718311082613779 12.967626112459937 12.967626211520555 374007.00000000006 189726.00000000003 10.718311046827838 10.049703855746351 14.216827079631768 14.131895651135594
decision_type=2 2 2 2 2 2 2 2 2 2 2 2 2 2 2 2 2 2 2 2 2 2 2 2 2 2 2 2 2 2
left_child=1 3 -3 7 -4 6 -6 10 9 11 15 -7 -9 -8 -2 16 -1 18 19 20 21 -12 -19 -24 25 28 27 -27 29 -17
right_child=14 2 4 -5 5 8 13 12 -10 -11 17 -13 -14 -15 -16 24 -18 22 -20 -21 -22 -23 23 -25 -26 26 -28 -29 -30 -31
leaf_value=0.57895619694779554 0.97467419561475177 -1.4755441326270871 -0.0071814640488191851 -4.1955089849454392 -0.75143960025462198 -0.28368258585713407 -5.3650887036323551 0.98109809756278998 -1.2159095828126116 -3.1084203578330376 0.031538444284466172 0.2655721486703157 4.4722949666976932 -1.6764398055876162 0.17889984680888874 0.22035632284943449 -3.1312289627889793 -2.4084000898897653 3.3339057520031932 -4.7449071407318115 1.6510644397757077 -2.3058579016348411 1.653676736145689 -0.45597532350011338 -1.6146382544590878 0.45207167405348558 1.4149634889616358 -3.5042579734647599 -1.947431813963389 1.3417397419888275
leaf_weight=41 430 405 4018 27 1115 2811 20 141 287 37 6108 1352 25 298 5715 6422 48 60 32 22 111 87 57 1087 65 52 383 37 59 193
leaf_count=41 430 405 4018 27 1115 2811 20 141 287 37 6108 1352 25 298 5715 6422 48 60 32 22 111 87 57 1087 65 52 383 37 59 193
internal_value=0 -0.0567529 -0.287493 0.101748 -0.239077 -0.396468 -1.00819 0.109468 -0.201104 -0.131759 0.0938614 -0.105303 1.50688 -1.90843 0.234585 0.241569 -1.42204 -0.0486908 0.0279233 0.0112053 0.0277982 -0.00128698 -0.453397 -0.350862 0.262102 0.279173 0.923265 -1.19269 0.233621 0.253074
internal_weight=0 25400 10343 15057 9938 5920 1433 15030 4487 4200 14864 4163 166 318 6145 7300 89 7564 6360 6328 6306 6195 1204 1144 7211 7146 472 89 6674 6615
internal_count=31545 25400 10343 15057 9938 5920 1433 15030 4487 4200 14864 4163 166 318 6145 7300 89 7564 6360 6328 6306 6195 1204 1144 7211 7146 472 89 6674 6615
is_linear=0
shrinkage=0.1


Tree=51
num_leaves=31
num_cat=0
split_feature=7 7 3 0 1 7 7 3 1 3 1 4 2 0 2 6 10 8 1 5 2 0 5 1 6 5 2 2 2 8
split_gain=37896.2 28162.7 34345.1 32210.3 32017.1 26788.3 36086.9 23018 20240.1 19996.3 39347 25621.2 21095.7 19840.5 18929.8 27559.4 29149.3 19359.3 43204.8 75143.3 88269.1 41667.5 55926 29478.9 24677 22874.2 21632.9 32156 20009.6 18861.5
threshold=4.5000000000000009 5.5000000000000009 2.5000000000000004 1998.5000000000002 12460.500000000002 3.5000000000000004 1.0000000180025095e-35 3.5000000000000004 337857.00000000006 3.5000000000000004 32972.500000000007 3.5000000000000004 9.2113477569599329 1784.5000000000002 8.4635166813575911 7.5000000000000009 1.0000000180025095e-35 70.380952000000022 165551.50000000003 1.5000000000000002 9.5457084484506272 1987.5000000000002 1.5000000000000002 279437.00000000006 5.5000000000000009 1.5000000000000002 14.052443525536576 13.718311074416297 10.548448111287895 67.857142500000023
decision_type=2 2 2 2 2 2 2 2 2 2 2 2 2 2 2 2 2 2 2 2 2 2 2 2 2 2 2 2 2 2
left_child=5 9 -3 4 -4 6 14 -5 -6 10 -2 12 -12 -11 15 16 -1 25 19 20 -19 24 26 -24 -20 -16 27 28 -23 -7
right_child=1 2 3 7 8 29 -8 -9 -10 13 11 -13 -14 -15 17 -17 -18 18 21 -21 -22 22 23 -25 -26 -27 -28 -29 -30 -31
leaf_value=-0.85163816605782638 1.6386400783763211 -3.6438458815217021 1.6280758242396747 3.1484663614204953 -0.17140216537246633 -0.52242758823536095 0.12446392991432771 0.26516588880615616 2.5235441249396122 0.012466963963303141 -1.8378445730209352 0.37614970486493332 -6.0836984265934344 0.37640553804898069 -1.0348368091197038 1.3286743394498315 2.8356043572227163 -0.11737105426463215 -4.5411131400614977 -0.96291347678901795 -8.0767084218365586 3.8072030651569366 -0.78958749229257763 -5.3434154842581068 -0.72453281945652437 0.15781060392753438 -1.6621744692325593 4.5116734870274859 0.37791250379461994 -0.15578000532962452
leaf_weight=201 34 26 102 28 5928 1855 6348 2483 28 2109 25 21 22 5170 245 140 24 22 32 148 38 20 44 21 36 468 24 30 114 5759
leaf_count=201 34 26 102 28 5928 1855 6348 2483 28 2109 25 21 22 5170 245 140 24 22 32 148 38 20 44 21 36 468 24 30 114 5759
internal_value=0 0.1082 -0.0148371 -0.00382601 -0.128648 -0.111029 0.0173011 0.297317 -0.158733 0.251475 -1.13897 -2.52777 -3.82527 0.270959 -0.406015 0.227095 -0.458332 -0.592074 -1.05043 -2.17312 -5.15828 -0.322954 0.26771 -2.26082 -2.52057 -0.252005 1.14194 1.55229 0.889747 -0.245106
internal_weight=0 15976 8595 8569 6058 15569 7955 2511 5956 7381 102 68 47 7279 1607 365 225 1242 529 208 60 321 253 65 68 713 188 164 134 7614
internal_count=31545 15976 8595 8569 6058 15569 7955 2511 5956 7381 102 68 47 7279 1607 365 225 1242 529 208 60 321 253 65 68 713 188 164 134 7614
is_linear=0
shrinkage=0.1


Tree=52
num_leaves=31
num_cat=0
split_feature=6 6 4 4 2 1 8 1 6 2 2 2 9 1 8 8 1 1 2 1 2 5 5 2 1 1 5 1 1 7
split_gain=33008.6 51622.1 34091.9 53408.1 37787.5 31821 30144.1 29900.5 29031.4 49473.8 27522 32843.7 27563.1 24904.2 24253.4 23340.6 31007.3 28924.2 26246.7 23452 24079.5 61620.5 31106.2 22481.6 27562.9 23913.7 23247.1 22561.7 22096.8 20576.3
threshold=4.5000000000000009 9.5000000000000018 1.0000000180025095e-35 5.5000000000000009 14.216827158352617 31405.000000000004 108.42500000000001 146114.00000000003 6.5000000000000009 6.7977632743883785 7.0497040002582461 6.8826947785883448 1.0000000180025095e-35 57701.500000000007 108.42500000000001 107.53333300000001 436932.50000000006 301719.50000000006 7.0497040002582461 218013.50000000003 8.9648865007608176 1.5000000000000002 1.5000000000000002 10.299019022915134 146114.00000000003 96110.500000000015 1.5000000000000002 230797.00000000003 235706.00000000003 4.5000000000000009
decision_type=2 2 2 2 2 2 2 2 2 2 2 2 2 2 2 2 2 2 2 2 2 2 2 2 2 2 2 2 2 2
left_child=15 2 4 23 5 14 10 -8 -5 -10 11 12 -7 -11 -2 16 -1 18 -17 20 21 -20 -22 24 -4 -25 28 -28 -27 -9
right_child=1 -3 3 8 -6 6 7 29 9 13 -12 -13 -14 -15 -16 17 -18 -19 19 -21 22 -23 -24 25 -26 26 27 -29 -30 -31
leaf_value=0.094569788464047955 0.42858120283572643 0.124899823205879 -0.7706001542287475 -0.45376982612944206 -4.1731334252790973 2.3447358071804048 -1.3225618983672054 -0.72982452547911447 0.63644675988516886 -1.2936164108275527 -0.0050099834701807042 -4.9638800045718323 -1.7502813581319956 -0.13054565249842043 2.5128062603903598 1.035867870278061 -3.5046081781387333 4.2008365983054752 -5.7370166426613221 -2.6065780039628348 3.4852095447267808 -0.1079780859922275 0.41432100493415391 -2.9180679608628943 0.53364634097230679 -2.498615837931633 -0.2369942902337841 -1.8800005765087837 0.60897775491078698 2.8290107920765877
leaf_weight=9016 659 8144 935 2082 22 22 333 33 916 213 5267 23 65 1357 61 513 24 21 21 30 35 263 573 78 196 150 321 113 27 32
leaf_count=9016 659 8144 935 2082 22 22 333 33 916 213 5267 23 65 1357 61 513 24 21 21 30 35 263 573 78 196 150 321 113 27 32
internal_value=0 -0.0722345 -0.196641 -0.360809 -0.0357224 -0.021708 -0.0998632 -0.939621 -0.178296 0.0524113 -0.0377052 -1.60321 -0.71476 -0.288338 0.605161 0.144861 0.0850144 0.516438 0.46252 0.143509 0.236001 -0.52421 0.591099 -0.818896 -0.544577 -1.26919 -1.0587 -0.664782 -2.02458 1.02222
internal_weight=0 21049 12905 6388 6517 6495 5775 398 4568 2486 5377 110 87 1570 720 10496 9040 1456 1435 922 892 284 608 1820 1131 689 611 434 177 65
internal_count=31545 21049 12905 6388 6517 6495 5775 398 4568 2486 5377 110 87 1570 720 10496 9040 1456 1435 922 892 284 608 1820 1131 689 611 434 177 65
is_linear=0
shrinkage=0.1


Tree=53
num_leaves=31
num_cat=0
split_feature=4 4 4 2 2 1 2 2 2 2 2 1 1 0 2 2 5 0 3 5 1 1 1 9 2 2 1 1 2 7
split_gain=30984.5 70123.5 50362.2 34724.7 45310.4 45245.6 41305 50788.5 35871.5 90919.3 77261.4 39068.2 34960.7 30617.4 28740.8 33402.8 28387.5 27450.5 31206.2 48686.3 105228 37039.1 34911.2 27049.4 25700.4 25638.9 36636.3 24824.3 38330.8 81727.5
threshold=7.5000000000000009 1.0000000180025095e-35 4.5000000000000009 14.216827079631768 14.216827018981308 131406.50000000003 14.052443525536576 14.052443464182593 13.800502882857462 13.800503045091398 13.885434373431893 192457.50000000003 144804.50000000003 1987.5000000000002 14.13189551363803 14.131895651135594 1.5000000000000002 1998.5000000000002 3.5000000000000004 1.5000000000000002 129708.00000000001 221909.50000000003 51004.000000000007 1.0000000180025095e-35 13.381210808385227 10.800503044380774 162203.50000000003 109759.00000000001 7.7977633451024291 1.0000000180025095e-35
decision_type=2 2 2 2 2 2 2 2 2 2 2 2 2 2 2 2 2 2 2 2 2 2 2 2 2 2 2 2 2 2
left_child=1 3 16 4 6 -6 7 8 17 11 -11 13 -9 -10 23 -16 25 27 -19 20 -20 -22 -21 -8 -4 26 -3 -1 29 -29
right_child=-2 2 24 -5 5 -7 14 12 9 10 -12 -13 -14 -15 15 -17 -18 18 19 22 21 -23 -24 -25 -26 -27 -28 28 -30 -31
leaf_value=0.1343335227736506 0.20149424115025938 -1.1077035965235984 -0.050984932104353176 -1.4198728956972921 0.70676001275241074 3.9171641085231514 -0.86163845492191005 1.1088361995888281 -3.4792292925027706 2.4361828168233237 -0.87140314818428066 -1.2328677946870978 4.9083094427079867 -8.6835142040252702 0.52783898807341056 -2.8958389767923869 -0.41093418038325602 -2.4564243187775485 -0.40672059609016903 1.1420359258306627 7.1711134650205315 2.4707414404551189 0.15636611849994597 -3.9054151091724636 -0.82539809598672864 -1.8272437143464424 1.0423920383547791 0.4528189576723996 -0.12976796884505676 -4.6335238816374442
leaf_weight=8707 6145 368 6663 151 191 57 61 91 26 90 328 33 33 20 124 37 2452 37 71 451 38 30 1768 56 458 301 101 68 2530 59
leaf_count=8707 6145 368 6663 151 191 57 61 91 26 90 328 33 33 20 124 37 2452 37 71 451 38 30 1768 56 458 301 101 68 2530 59
internal_value=0 -0.0487473 -0.249223 0.0889637 0.104248 1.44464 0.0815704 0.104911 0.0873834 -0.747241 -0.159243 -3.85842 2.11999 -5.74196 -1.12575 -0.258969 -0.57727 0.117532 0.425208 0.470424 2.28595 5.09742 0.356698 -2.31849 -0.100793 -1.10695 -0.644677 0.0526877 -0.214866 -1.91013
internal_weight=0 25400 10343 15057 14906 248 14658 14380 14256 497 418 79 124 46 278 161 3222 13759 2395 2358 139 68 2219 117 7121 770 469 11364 2657 127
internal_count=31545 25400 10343 15057 14906 248 14658 14380 14256 497 418 79 124 46 278 161 3222 13759 2395 2358 139 68 2219 117 7121 770 469 11364 2657 127
is_linear=0
shrinkage=0.1


Tree=54
num_leaves=31
num_cat=0
split_feature=2 1 2 0 7 1 3 0 1 2 8 6 0 2 6 6 4 6 4 8 5 1 2 1 5 2 6 2 2 0
split_gain=29451 61814.1 27866.8 27461.1 32101.3 36905.3 32096.4 32481.6 42401 38025.5 25555 23583 38320.8 31733.3 31564.1 29453.3 29264.6 28449.6 23342.1 22670.1 22335.7 30104.9 85853.3 34527.6 26766.5 86051.9 47236.7 40681.7 33967.4 32780.2
threshold=3.7128318227841999 1.0000000180025095e-35 5.7950235741987512 1784.5000000000002 1.0000000180025095e-35 10807.500000000002 3.5000000000000004 1998.5000000000002 126806.00000000001 13.967626134023268 66.119047000000009 3.5000000000000004 2494.5000000000005 14.13189551363803 9.5000000000000018 2.5000000000000004 1.0000000180025095e-35 7.5000000000000009 4.5000000000000009 70.291666500000005 2.5000000000000004 187641.50000000003 13.214087293751939 129708.00000000001 1.5000000000000002 9.5457084484506272 2.5000000000000004 11.381210805003299 7.4635167286422162 1889.0000000000002
decision_type=2 2 2 2 2 2 2 2 2 2 2 2 2 2 2 2 2 2 2 2 2 2 2 2 2 2 2 2 2 2
left_child=-1 2 -2 10 20 -6 7 8 -7 -9 -3 15 14 -14 16 -8 17 -13 -18 -10 21 22 24 -24 25 26 -5 -26 -28 -27
right_child=1 3 -4 4 5 6 11 9 19 -11 -12 12 13 -15 -16 -17 18 -19 -20 -21 -22 -23 23 -25 27 29 28 -29 -30 -31
leaf_value=0.87503691134876327 -1.3467419238317582 -0.16207711425520421 -6.5624189460277567 -4.506603605690457 1.3566140572726728 -0.57617583399290573 0.066551200437034858 -1.0910352571590527 -1.9585239015776539 4.2366763331350823 -1.6117651082815663 0.26316713807220726 -0.96109177995715622 -5.173494558334351 0.21051995730008755 0.53915936349296634 -0.63913348109929125 -0.21870077001733429 -0.13118667650068497 -5.8187956057488925 0.67966216522820144 -0.15707035080991305 -7.3695094125611451 -2.4868398396174114 -0.73495412517238312 -2.6635143992693529 -0.54067447513962785 2.8295088008377292 2.7997428717820543 -7.105798467535239
leaf_weight=380 21 6277 20 21 220 91 3494 37 29 21 124 3518 169 20 5990 2118 1113 1880 4834 32 147 567 28 30 111 46 90 45 46 26
leaf_count=380 21 6277 20 21 220 91 3494 37 29 21 124 3518 169 20 5990 2118 1113 1880 4834 32 147 567 28 30 111 46 90 45 46 26
internal_value=0 -0.0106695 -3.89097 -0.0055579 0.0422373 0.0674857 0.0553377 -1.17538 -1.94362 0.837964 -0.19016 0.0665086 0.00937416 -1.40685 0.0248149 0.244916 -0.0732347 0.0953436 -0.226251 -3.98358 -0.472027 -0.639649 -1.25731 -4.84399 -0.716976 -1.40517 -0.0924281 0.293256 0.589173 -4.26767
internal_weight=0 31165 41 31124 24723 23566 23346 210 152 58 6401 23136 17524 189 17335 5612 11345 5398 5947 61 1157 1010 443 58 385 229 157 156 136 72
internal_count=31545 31165 41 31124 24723 23566 23346 210 152 58 6401 23136 17524 189 17335 5612 11345 5398 5947 61 1157 1010 443 58 385 229 157 156 136 72
is_linear=0
shrinkage=0.1


Tree=55
num_leaves=31
num_cat=0
split_feature=7 7 8 7 7 1 1 10 5 2 0 2 5 8 2 1 2 2 0 2 2 5 1 2 8 0 2 2 2 2
split_gain=27075 24247.7 24770.1 24193.3 24861.7 22516.7 21735.6 18770 78844.6 34959 29873.3 29913.5 25028.7 24021.8 21056.4 19994.3 17940 29047 28164.6 36854.4 26655.1 34031.1 52412.1 24312.6 21852.4 19435.5 28355.4 17400.2 16944.6 25260.5
threshold=4.5000000000000009 5.5000000000000009 107.38750000000002 3.5000000000000004 1.0000000180025095e-35 269257.50000000006 337857.00000000006 1.0000000180025095e-35 1.5000000000000002 7.0497040002582461 1998.5000000000002 10.381210855076036 2.5000000000000004 67.857142500000023 7.8826948761610574 51600.500000000007 7.0497039337396776 8.7155715263263307 1998.5000000000002 10.381210653893129 12.052443659807267 2.5000000000000004 101384.50000000001 12.38121081195105 112.82142850000001 2494.5000000000005 11.800502851970709 8.7155714282740409 10.885434428367292 10.129155875499963
decision_type=2 2 2 2 2 2 2 2 2 2 2 2 2 2 2 2 2 2 2 2 2 2 2 2 2 2 2 2 2 2
left_child=3 -2 5 4 -1 -3 16 13 -9 -10 11 -11 -13 -5 -15 -14 24 -18 19 -19 -21 22 -22 25 -4 28 -27 -16 29 -20
right_child=1 2 6 7 -6 -7 -8 8 9 10 -12 12 15 14 27 -17 17 18 23 20 21 -23 -24 -25 -26 26 -28 -29 -30 -31
leaf_value=-0.32325406450333161 0.22440006569509396 -0.12595589165893653 0.96619725471699813 -0.45561996115203396 0.11705643883286543 -1.4392604975481589 2.7414576915177431 -3.9416627558794888 0.90105131646890324 -0.29277242384261537 -0.022398470762703154 -2.890708620567632 -3.913681709198725 -0.35285596742847619 0.74453247183329108 -0.62047210990987867 -0.65280169848556691 0.61811518070201599 0.89710360494410168 -1.1804632214535757 -3.3348028766697855 1.1773223206803605 0.38020828992128375 1.6636182404572475 -0.18681737545095844 0.18084832231203718 -3.1735734290546844 0.026899613338881984 1.1358956429816909 -0.58833754129905624
leaf_weight=1607 7381 5069 508 1855 6348 134 33 66 178 237 450 123 21 1388 385 151 493 388 232 368 58 148 110 170 243 84 36 2760 295 226
leaf_count=1607 7381 5069 508 1855 6348 134 33 66 178 237 450 123 21 1388 385 151 493 388 232 368 58 148 110 170 243 84 36 2760 295 226
internal_value=0 0.0914566 -0.0227092 -0.0938474 0.0281087 -0.159779 0.187543 -0.221266 -0.579661 -0.388375 -0.6221 -1.12937 -1.80148 -0.152481 -0.0284307 -1.02255 0.162452 0.0384378 0.199564 -0.160386 -0.601992 0.071671 -0.902355 0.569521 0.593118 0.356467 -0.825478 0.11475 0.544825 0.164113
internal_weight=0 15976 8595 15569 7955 5203 3392 7614 1226 1160 982 532 295 6388 4533 172 3359 2608 2115 1072 684 316 168 1043 751 873 120 3145 753 458
internal_count=31545 15976 8595 15569 7955 5203 3392 7614 1226 1160 982 532 295 6388 4533 172 3359 2608 2115 1072 684 316 168 1043 751 873 120 3145 753 458
is_linear=0
shrinkage=0.1


Tree=56
num_leaves=31
num_cat=0
split_feature=3 1 2 2 2 2 1 2 2 4 2 0 11 5 8 2 2 0 1 4 2 1 2 1 10 1 1 7 0 2
split_gain=25720 24678.1 23908.4 28924.3 51462.9 48539.8 43743.5 41048.6 41303.1 34798.2 33485.4 29314.7 46721.9 29933.6 36717.1 41115.4 43824.5 33234.2 32648.9 31720 55669.3 29011.4 47527.1 28767.9 28588 28136.9 26932.8 24227.4 23700 30258.7
threshold=5.5000000000000009 99901.000000000015 14.216827224845185 14.216827018981308 14.052443525536576 14.052443464182593 132313.50000000003 13.800502882857462 13.800503045091398 3.5000000000000004 14.216827079631768 1998.5000000000002 1.0000000180025095e-35 2.5000000000000004 107.53333300000001 7.0497039337396776 7.9648865348607698 2494.5000000000005 103745.00000000001 1.0000000180025095e-35 10.214087354423365 72302.500000000015 9.4635166539127926 48677.000000000007 1.0000000180025095e-35 33700.500000000007 144804.50000000003 3.5000000000000004 1987.5000000000002 13.885434373431893
decision_type=2 2 2 2 2 2 2 2 2 2 2 2 2 2 2 2 2 2 2 2 2 2 2 2 2 2 2 2 2 2
left_child=2 -2 3 4 5 7 10 11 9 27 -5 12 -1 18 17 24 -17 -15 19 20 -13 22 -21 -19 -16 -22 -7 -9 29 -10
right_child=1 -3 -4 6 -6 26 -8 8 28 -11 -12 13 -14 14 15 16 -18 23 -20 21 25 -23 -24 -25 -26 -27 -28 -29 -30 -31
leaf_value=-0.055531596066349179 0.53729096244765473 3.1837633955173006 -1.3960776288302676 0.72291176164591764 -1.030433814142194 1.0860510176937612 1.8577217459141349 -5.7431862339377409 1.8897019075078738 -0.025428680094276984 -1.5705093794347098 1.4935335672054535 0.7495689900383895 1.7661756777671433 0.64448398053646094 -2.8024100452661518 0.19686678806880872 3.0484605993543354 0.34120661499691418 -0.65250254273414621 1.6581936596796432 -0.38499356967475373 -4.3936673491688101 -1.0997076479400076 4.8242477512359621 -0.65350574626083346 4.425810610886777 -2.2329834631845062 -1.2072401065508844 -0.36017969769105274
leaf_weight=24135 365 39 124 189 493 90 208 32 74 41 96 195 743 389 36 54 498 21 2002 80 58 214 59 82 30 571 33 51 232 311
leaf_count=24135 365 39 124 189 493 90 208 32 74 41 96 195 743 389 36 54 498 21 2002 80 58 214 59 82 30 571 33 51 232 311
internal_value=0 0.792767 -0.0102848 -0.00474463 -0.0170172 -0.000380541 0.755107 -0.00853365 -0.743542 -2.40892 -0.049609 0.0101395 -0.0314867 0.251589 0.698669 0.185499 -0.0965407 1.34326 0.0954838 -0.322475 0.0173089 -1.11562 -2.24048 -0.253965 2.54438 -0.440344 1.98208 -3.58631 -0.408845 0.0722651
internal_weight=0 404 31141 31017 30524 30031 493 29908 741 124 285 29167 24878 4289 1110 618 552 492 3179 1177 824 353 139 103 66 629 123 83 617 385
internal_count=31545 404 31141 31017 30524 30031 493 29908 741 124 285 29167 24878 4289 1110 618 552 492 3179 1177 824 353 139 103 66 629 123 83 617 385
is_linear=0
shrinkage=0.1


Tree=57
num_leaves=31
num_cat=0
split_feature=6 6 4 2 5 6 2 0 0 3 6 2 8 5 2 1 2 9 2 5 5 2 1 1 2 1 2 2 8 2
split_gain=23960.5 36738.2 25881.7 28988.7 28334.2 31281.5 35903.5 25241.8 31120.9 22582.4 21500.9 20496.1 38460.3 26102.5 22897.6 29797 28445.3 24080.1 47929.4 30403.9 21836.4 35898.2 24902.5 21513.4 20722.2 19882.6 22203.6 18910.4 18795.5 18475.6
threshold=4.5000000000000009 8.5000000000000018 1.0000000180025095e-35 7.2962792698460364 2.5000000000000004 6.5000000000000009 6.7155715812121084 1998.5000000000002 2494.5000000000005 3.5000000000000004 7.5000000000000009 7.3784710198960282 108.42500000000001 2.5000000000000004 7.8826947682415867 31405.000000000004 8.5457084092551998 1.0000000180025095e-35 8.2962792918931179 2.5000000000000004 1.5000000000000002 12.633379762210422 92706.500000000015 189726.00000000003 12.800502922008993 45794.000000000007 9.378471039938848 10.718311104464735 59.466666500000009 11.052443603381732
decision_type=2 2 2 2 2 2 2 2 2 2 2 2 2 2 2 2 2 2 2 2 2 2 2 2 2 2 2 2 2 2
left_child=-1 2 10 4 -4 6 -6 11 -9 -5 -2 13 14 23 -13 29 17 -17 19 -19 21 22 -18 -3 -23 26 -11 -14 -15 -16
right_child=1 7 3 9 5 -7 -8 8 -10 25 -12 12 27 28 15 16 20 18 -20 -21 -22 24 -24 -25 -26 -27 -28 -29 -30 -31
leaf_value=0.12342039255818292 0.084232421337643637 0.53997374775973828 0.35854671423858653 -3.2458749678827106 -1.0490303606148705 0.12673878472366681 0.66192278297668372 0.5329955418581187 -1.7185410898178817 -0.86254929469432684 -0.38551653934499397 -0.58769855635642754 -0.8453316167719207 2.6388307351332445 -0.53909772074470919 -0.11653833755061581 -1.2991791206039489 1.5124466211805423 2.9765029517135453 -0.80002625643497416 0.089277666001490105 -4.8453345263004302 0.40369782600280468 3.3477600851229266 -1.407251169144268 -0.47540896218446815 -3.7040324039757255 -2.9436812462996356 -0.072983596485071009 -2.4755231014182493
leaf_weight=10496 3890 1074 884 31 716 750 148 1505 64 88 1300 681 196 26 240 193 120 124 112 105 3908 20 302 28 142 2740 40 55 1505 62
leaf_count=10496 3890 1074 884 31 716 750 148 1505 64 88 1300 681 196 26 240 193 120 124 112 105 3908 20 302 28 142 2740 40 55 1505 62
internal_value=0 -0.0615431 -0.192873 -0.3462 -0.0965299 -0.345779 -0.75595 0.0713561 0.441155 -0.561334 -0.0334311 0.00611215 -0.0923455 0.240197 -0.0416867 0.0281019 0.086071 0.776062 1.28126 0.452142 0.00404631 -0.566303 -0.0805326 0.611315 -1.83171 -0.532317 -1.75051 -1.30513 -0.0269306 -0.936642
internal_weight=0 21049 10587 5397 2498 1614 864 10462 1569 2899 5190 8893 6260 2633 6009 5328 5026 534 341 229 4492 584 422 1102 162 2868 128 251 1531 302
internal_count=31545 21049 10587 5397 2498 1614 864 10462 1569 2899 5190 8893 6260 2633 6009 5328 5026 534 341 229 4492 584 422 1102 162 2868 128 251 1531 302
is_linear=0
shrinkage=0.1


Tree=58
num_leaves=31
num_cat=0
split_feature=2 1 4 4 1 3 2 2 5 4 6 3 2 6 6 2 0 2 2 2 2 2 1 3 6 0 2 5 1 0
split_gain=22076.7 48655.5 22631 65654.1 33463.1 32644.2 29232 24531.7 51282.2 24208.1 23067.4 23031.8 21652.4 21500.7 26396.9 56064.4 27199.8 20153.4 20077.1 23977.4 23828 24969.1 22500.9 21535.6 21559.5 26318.4 19527.3 62409.2 52648.9 25122
threshold=3.7128318227841999 1.0000000180025095e-35 1.0000000180025095e-35 4.5000000000000009 15313.000000000002 2.5000000000000004 14.216827158352617 5.3757314111422287 1.5000000000000002 3.5000000000000004 11.500000000000002 4.5000000000000009 5.7950235741987512 6.5000000000000009 10.500000000000002 8.4635166813575911 1797.5000000000002 7.9648866523956254 12.800502922008993 12.71831128419216 12.718311082613779 12.633379762210422 167468.00000000003 4.5000000000000009 8.5000000000000018 1987.5000000000002 6.2113477306531157 2.5000000000000004 25415.000000000004 2396.5000000000005
decision_type=2 2 2 2 2 2 2 2 2 2 2 2 2 2 2 2 2 2 2 2 2 2 2 2 2 2 2 2 2 2
left_child=-1 12 4 9 10 -6 7 8 -7 -4 11 -3 -2 -9 18 16 -16 -18 19 20 21 -15 23 24 25 -20 27 -5 -28 -29
right_child=1 2 3 26 5 6 -8 13 -10 -11 -12 -13 -14 14 15 -17 17 -19 22 -21 -22 -23 -24 -25 -26 -27 28 29 -30 -31
leaf_value=0.75760660225231402 -1.2091777029491606 3.5809530891690935 -1.2204257752514094 0.83537519338331256 -1.7249966485827579 0.39968734552275459 -3.2170326976864425 0.21138790659827478 -4.4912186940511072 -0.38926076569173373 -1.839292519433158 0.90046390698650702 -5.8066573739051819 -0.10890638146189449 -0.43246248240272211 0.078218544382146191 1.3202387082869205 3.3897108384541106 -1.6303465738743546 1.6389529342693276 -2.1215959120670269 2.0760256389401994 0.38712680887624712 -0.40128931188481265 -0.65680979902390391 -4.7835211764451939 -1.8251324206321353 -0.13216962012643185 -0.02861793844232732 2.0915409362086885
leaf_weight=380 21 35 401 1107 102 53 27 7037 36 2778 28 381 20 3978 48 2076 107 84 100 80 58 53 173 363 128 36 166 2209 9428 52
leaf_count=380 21 35 401 1107 102 53 27 7037 36 2778 28 381 20 3978 48 2076 107 84 100 80 58 53 173 363 128 36 166 2209 9428 52
internal_value=0 -0.00923762 -0.00470263 -0.0868584 0.0838028 0.0576867 0.0702817 0.0764411 -1.57866 -0.494104 0.938986 1.12599 -3.45185 0.086727 -0.0337067 0.245194 1.69558 2.23037 -0.163644 -0.0755904 -0.109135 -0.0801787 -0.62251 -0.901086 -1.58831 -2.46501 0.0130208 0.220177 -0.0597021 -0.0810272
internal_weight=0 31165 31124 16141 14983 14539 14437 14410 89 3179 444 416 41 14321 7284 2315 239 191 4969 4169 4089 4031 800 627 264 136 12962 3368 9594 2261
internal_count=31545 31165 31124 16141 14983 14539 14437 14410 89 3179 444 416 41 14321 7284 2315 239 191 4969 4169 4089 4031 800 627 264 136 12962 3368 9594 2261
is_linear=0
shrinkage=0.1


Tree=59
num_leaves=31
num_cat=0
split_feature=4 4 4 2 2 3 0 2 2 2 2 1 1 3 2 1 2 10 2 3 2 5 0 2 9 2 1 0 0 3
split_gain=20519.9 42604.5 32472.4 24131.6 32730.4 36192.6 45406.2 25062.6 34363.8 23365.4 26760.5 22985 20760.5 34883.8 33910.7 39822.3 30801.6 30478.5 24329.8 23294 26830.5 104023 40643.8 23454.9 20461.9 20038.4 42175 23045 27420 23499
threshold=7.5000000000000009 1.0000000180025095e-35 3.5000000000000004 14.216827079631768 14.216827018981308 4.5000000000000009 1784.5000000000002 14.052443525536576 14.052443464182593 14.13189551363803 14.131895651135594 144804.50000000003 51600.500000000007 2.5000000000000004 5.2935395649344432 22510.500000000004 7.0497039337396776 1.0000000180025095e-35 8.3784710542976661 5.5000000000000009 6.9648865222572978 2.5000000000000004 1987.5000000000002 7.0497039337396776 1.0000000180025095e-35 13.466256322674548 39401.500000000007 1998.5000000000002 1798.5000000000002 4.5000000000000009
decision_type=2 2 2 2 2 2 2 2 2 2 2 2 2 2 2 2 2 2 2 2 2 2 2 2 2 2 2 2 2 2
left_child=1 3 -3 4 7 6 -6 8 12 24 -11 -10 14 18 15 -1 17 -16 -14 20 21 22 -15 -22 -9 27 -27 28 29 -18
right_child=-2 2 -4 -5 5 -7 -8 9 11 10 -12 -13 13 19 16 -17 25 -19 -20 -21 23 -23 -24 -25 -26 26 -28 -29 -30 -31
leaf_value=-0.36492348168347338 0.16397528124611904 -1.0736538228760533 -0.16016424904285942 -1.1901423173629684 0.17082079350948334 0.41660951972007754 5.1214819442142137 -0.68764391556137905 0.91696541956165345 0.60646689488522476 -2.4579535522976439 3.9977105949864247 -0.18387965382756413 -1.1046237647896859 0.82261484048109357 -4.9143941113582024 1.1597987023781646 3.4888284656466269 -3.6631185087290676 2.4808069788863101 3.2804528496482157 -6.9519289603939773 3.4328631382722126 0.011795421362825364 -3.334969258095537 -4.8177182594935104 0.80645084048310922 0.90045505877712684 -0.50344070242874539 0.17016750686939541
leaf_weight=74 6145 405 9938 151 32 172 44 61 91 124 37 33 37 82 343 26 275 49 44 38 22 27 26 10278 56 24 30 464 535 1882
leaf_count=74 6145 405 9938 151 32 172 44 61 91 124 37 33 37 82 343 26 275 49 44 38 22 27 26 10278 56 24 30 464 535 1882
internal_value=0 -0.0396704 -0.195934 0.0676705 0.0804123 1.21963 3.03699 0.0611378 0.0793188 -0.879306 -0.0977788 1.73684 0.0649015 -0.00656941 0.268657 -1.54779 0.319086 1.15589 -2.07384 0.00941919 0.000419407 -1.4002 -0.0122658 0.018777 -1.95474 0.216897 -1.69318 0.249579 0.137392 0.296337
internal_weight=0 25400 10343 15057 14906 248 76 14658 14380 278 161 124 14256 10554 3702 100 3602 392 81 10473 10435 135 108 10300 117 3210 54 3156 2692 2157
internal_count=31545 25400 10343 15057 14906 248 76 14658 14380 278 161 124 14256 10554 3702 100 3602 392 81 10473 10435 135 108 10300 117 3210 54 3156 2692 2157
is_linear=0
shrinkage=0.1


Tree=60
num_leaves=31
num_cat=0
split_feature=7 0 7 7 7 8 1 1 0 2 2 2 6 2 2 0 2 4 2 10 5 2 0 2 5 8 2 1 6 1
split_gain=19352.8 20313.2 19445.8 20167.8 18657 18214.5 17870.8 17512.6 15596.1 21470.5 29058.5 31846.3 21829.6 18580.5 15155.8 16515.1 15550.4 22483 14485.1 13586.3 42819.3 28096.2 21242.8 24277.8 19070.4 18045.1 17011.5 15336.8 15275.2 13135.1
threshold=4.5000000000000009 2494.5000000000005 3.5000000000000004 1.0000000180025095e-35 5.5000000000000009 107.38750000000002 269257.50000000006 337857.00000000006 1998.5000000000002 11.718311241326159 13.800502882857462 14.052443464182593 3.5000000000000004 11.718311088501716 10.718311046827838 1987.5000000000002 7.4635167286422162 1.0000000180025095e-35 5.7950235741987512 1.0000000180025095e-35 1.5000000000000002 7.0497040002582461 1998.5000000000002 10.381210855076036 2.5000000000000004 67.857142500000023 7.8826948761610574 51600.500000000007 6.5000000000000009 279437.00000000006
decision_type=2 2 2 2 2 2 2 2 2 2 2 2 2 2 2 2 2 2 2 2 2 2 2 2 2 2 2 2 2 2
left_child=1 2 3 -1 -2 6 -6 -7 13 -10 12 -12 -11 14 16 -16 17 18 -5 25 28 -22 23 -23 -25 29 -27 -26 -21 -4
right_child=4 -3 19 8 5 7 -8 -9 9 10 11 -13 -14 -15 15 -17 -18 -19 -20 20 21 22 -24 24 27 26 -28 -29 -30 -31
leaf_value=-0.28025644567230962 0.1939364183253825 -2.0718098743289128 -0.36175225969314462 -0.93735597759485256 -0.11022909439284068 0.13495239027190525 -1.2802284318300439 2.4499004457936144 -0.015027628342310587 4.264039397722966 -2.7092862782939786 1.2610691378856529 1.482974039205984 -0.21722047681002776 0.76340462509046003 -1.287794873544148 -0.087639488866799051 0.21714351549806943 1.9729828901210074 -4.3396893166206985 0.79751630033669851 -0.23730689821301132 -0.039625963217445784 -2.5472607115419903 -3.4486659333819434 -0.31357055087372537 0.10672931637644578 -0.56441477872677992 -1.1768565581395076 -2.7164741804202399
leaf_weight=1603 7381 51 1831 20 5069 3359 134 33 237 37 31 58 119 1612 600 42 1966 1494 118 37 178 237 420 123 21 1388 3145 151 26 24
leaf_count=1603 7381 51 1831 20 5069 3359 134 33 237 37 31 58 119 1612 600 42 1966 1494 118 37 178 237 420 123 21 1388 3145 151 26 24
internal_value=0 -0.0793432 -0.072795 0.0366082 0.0773219 -0.0228214 -0.140362 0.157474 0.1168 0.66356 1.31999 -0.121864 2.14259 0.0717659 0.181635 0.629214 0.101773 0.329949 1.55119 -0.187336 -0.497112 -0.355653 -0.571267 -0.990984 -1.59648 -0.129483 -0.0219661 -0.916562 -3.03439 -0.392218
internal_weight=0 15569 15518 7937 15976 8595 5203 3392 6334 482 245 89 156 5852 4240 642 3598 1632 138 7581 1193 1130 952 532 295 6388 4533 172 63 1855
internal_count=31545 15569 15518 7937 15976 8595 5203 3392 6334 482 245 89 156 5852 4240 642 3598 1632 138 7581 1193 1130 952 532 295 6388 4533 172 63 1855
is_linear=0
shrinkage=0.1


Tree=61
num_leaves=31
num_cat=0
split_feature=2 1 2 0 8 2 2 1 0 2 2 4 1 7 2 4 2 2 2 2 2 2 0 1 1 6 2 1 6 2
split_gain=17770.4 20827.9 53329.6 17596.7 21137.5 20736.1 34924.9 36667.1 34040.9 24236.8 43208 41239.5 30848.7 42934.7 23534.8 23137.3 29005.3 27961.2 27433.6 31282.4 29728.8 31101.4 25630.4 24062.4 22864.8 20273.8 20185.4 26576.9 19492.4 16413
threshold=3.2086081128967288 1.0000000180025095e-35 5.2086080500668741 1784.5000000000002 66.119047000000009 14.216827224845185 14.216827018981308 131406.50000000003 1987.5000000000002 13.800502882857462 13.800503045091398 3.5000000000000004 213725.00000000003 4.5000000000000009 14.216827079631768 2.5000000000000004 13.885434373431893 13.885434523009126 14.052443525536576 13.967626265634772 14.13189551363803 14.131895651135594 1987.5000000000002 170986.50000000003 209903.50000000003 3.5000000000000004 13.718311295379214 149115.00000000003 7.5000000000000009 13.885434373431893
decision_type=2 2 2 2 2 2 2 2 2 2 2 2 2 2 2 2 2 2 2 2 2 2 2 2 2 2 2 2 2 2
left_child=-1 2 -2 4 -3 6 9 8 -8 26 11 12 13 -11 -9 16 -12 23 19 24 22 25 -20 28 -19 -22 -5 -28 -18 -17
right_child=1 3 -4 5 -6 -7 7 14 -10 10 15 -13 -14 -15 -16 29 17 18 20 -21 21 -23 -24 -25 -26 -27 27 -29 -30 -31
leaf_value=0.83141174601865753 1.3632972023703838 -0.12567126446576182 -5.5234645487821625 0.04026410105482519 -1.4440609192175251 -1.4172214651594359 1.2750506004440449 4.0525723027146388 -1.4145349295366378 -8.8821348357200627 1.9854196013244865 0.5790488933694774 -0.75708986520767219 -2.4803269364617089 1.3762366251064384 -3.2532620327813286 -5.021151895876284 -0.87397653241905404 -3.88715454312258 1.9501125208974823 -1.3477644754492719 -2.686405455624616 -0.21307030425352208 0.55182371047826917 2.6686416495930065 2.1138087635859848 0.57455570459365846 4.342901150385539 -1.0595412783000782 -0.71640366481525919
leaf_weight=255 22 6307 23 23255 124 98 107 46 84 20 73 29 20 22 115 28 27 106 43 127 23 27 34 26 22 64 85 24 23 286
leaf_count=255 22 6307 23 23255 124 98 107 46 84 20 73 29 20 22 115 28 27 106 43 127 23 27 34 26 22 64 85 24 23 286
internal_value=0 -0.00677565 -2.1566 -0.0036794 -0.151092 0.0345252 0.0402815 1.02925 0.0921962 0.0259934 -0.456106 -2.53362 -3.98954 -5.52881 2.1409 -0.248127 0.118379 -0.14272 0.159402 0.838168 -0.746805 0.278528 -2.26483 -1.9157 -0.265089 1.19868 0.0466277 1.40428 -3.19881 -0.94262
internal_weight=0 31290 45 31245 6431 24814 24716 352 191 24364 1000 91 62 42 161 909 595 522 446 255 191 114 77 76 128 87 23364 109 50 314
internal_count=31545 31290 45 31245 6431 24814 24716 352 191 24364 1000 91 62 42 161 909 595 522 446 255 191 114 77 76 128 87 23364 109 50 314
is_linear=0
shrinkage=0.1


Tree=62
num_leaves=31
num_cat=0
split_feature=6 6 0 0 4 6 2 1 1 2 6 5 9 2 2 2 2 3 1 1 5 2 6 1 8 2 11 8 2 1
split_gain=17734.6 29390.6 18569.9 23590.8 18077.3 21466.8 40077.6 20225.6 22929.3 20993.6 20830.6 18826.1 17996.7 17667.5 33965.4 27853.8 26220.7 19692.9 15891.9 27282.2 25037.4 27860.6 15697.1 27918 15659.3 18200.9 15620.7 16886 39120.2 19031.2
threshold=4.5000000000000009 8.5000000000000018 1998.5000000000002 2494.5000000000005 1.0000000180025095e-35 6.5000000000000009 6.2113477738536842 253801.50000000003 337857.00000000006 11.96762621539207 6.5000000000000009 2.5000000000000004 1.0000000180025095e-35 11.885434328276213 11.800502851970709 11.885434395193943 11.885434486382373 4.5000000000000009 279437.00000000006 163807.50000000003 2.5000000000000004 11.800502851970709 2.5000000000000004 374007.00000000006 105.28750000000001 13.299019056159368 1.0000000180025095e-35 71.933333000000019 13.800503045091398 301719.50000000006
decision_type=2 2 2 2 2 2 2 2 2 2 2 2 2 2 2 2 2 2 2 2 2 2 2 2 2 2 2 2 2 2
left_child=22 4 26 18 7 -6 -7 9 24 13 -11 -12 -8 14 -2 -15 17 -17 19 20 -4 -22 -1 -24 25 -9 27 -3 29 -29
right_child=1 2 3 -5 5 6 12 8 -10 10 11 -13 -14 15 -16 16 -18 -19 -20 -21 21 -23 23 -25 -26 -27 -28 28 -30 -31
leaf_value=-0.026094225603819576 0.055443923689635848 0.082984553118393575 -0.0073184437991433609 -1.4972432583570481 -0.48278919862708652 0.6568043777041217 -0.5937216973841235 -0.067808570464452114 -0.42946761508245723 -0.0079940451545841337 -1.0596460839891504 -0.0084038513341570305 0.019355823759359261 2.8114674571207017 -2.3077742657353801 0.36148054081460707 1.3929981153402755 -3.7766704123953114 -0.84882546539964354 1.3593575593435541 0.53029836149531118 2.6987840196916038 0.23798354479188943 -2.413278396725655 3.2836685934662819 3.2913566337979363 0.78446373485117094 -0.20500811891049256 -3.5879935955300049 2.1419629560198103
leaf_weight=4837 3189 5883 766 64 2912 566 1002 54 74 771 554 246 917 59 62 23 67 23 87 318 257 77 5619 40 45 23 253 2688 34 35
leaf_count=4837 3189 5883 766 64 2912 566 1002 54 74 771 554 246 917 59 62 23 67 23 87 318 257 77 5619 40 45 23 253 2688 34 35
internal_value=0 -0.052947 0.0659218 0.383105 -0.170412 -0.298553 -0.0826594 -0.0371607 0.959306 -0.0762691 -0.378915 -0.736389 -0.300761 0.0626312 0.0103749 1.05034 0.13081 -1.70759 0.463066 0.543556 0.307716 1.03022 0.106181 0.219243 1.80168 0.935578 0.00996093 -0.0127184 -0.216933 -0.174841
internal_weight=0 21049 10462 1569 10587 5397 2485 5190 196 4994 1571 800 1919 3423 3251 172 113 46 1505 1418 1100 334 10496 5659 122 77 8893 8640 2757 2723
internal_count=31545 21049 10462 1569 10587 5397 2485 5190 196 4994 1571 800 1919 3423 3251 172 113 46 1505 1418 1100 334 10496 5659 122 77 8893 8640 2757 2723
is_linear=0
shrinkage=0.1


Tree=63
num_leaves=31
num_cat=0
split_feature=3 8 1 7 0 7 7 7 3 1 0 3 8 2 6 10 1 2 2 2 9 6 2 2 6 1 1 1 1 2
split_gain=17242.3 21780.3 15676.3 15606.9 15877.4 15911.1 16654.5 15794.8 15808.7 15943.2 18208.5 20431.9 13395.4 12219.2 22598.2 19038.9 16941.9 14856.3 17848.9 14418.5 18023.9 45714 17910.3 23237.9 17657.7 24801.8 15232.4 12852.5 28797 43123.9
threshold=5.5000000000000009 107.70833300000002 99901.000000000015 4.5000000000000009 2494.5000000000005 3.5000000000000004 1.0000000180025095e-35 5.5000000000000009 2.5000000000000004 10807.500000000002 1998.5000000000002 3.5000000000000004 69.19642850000001 8.3784710542976661 7.5000000000000009 1.0000000180025095e-35 49100.500000000007 8.049703866539339 7.5457085690999843 10.718311046827838 1.0000000180025095e-35 2.5000000000000004 10.049703855746351 10.299019022915134 11.500000000000002 111801.50000000001 269257.50000000006 436932.50000000006 269257.50000000006 13.129155881842857
decision_type=2 2 2 2 2 2 2 2 2 2 2 2 2 2 2 2 2 2 2 2 2 2 2 2 2 2 2 2 2 2
left_child=3 2 -2 4 5 6 13 -5 -9 -10 -11 -12 -8 14 15 16 -1 18 -16 20 -15 -22 26 -24 27 -26 -23 28 -21 -30
right_child=1 -3 -4 7 -6 -7 12 8 9 10 11 -13 -14 19 17 -17 -18 -19 -20 24 21 22 23 -25 25 -27 -28 -29 29 -31
leaf_value=0.87556499513983743 0.18370448013693552 2.8047107270785743 2.4104347058704922 0.1704826704726933 -1.8589971117973327 -0.17827076598420449 -0.08657890315233302 -2.4927096962928772 1.5133747663960531 -0.13088591496211097 2.8773861501898086 0.16077610645412044 0.21379242638409726 -0.22555444932641078 1.3702620940363925 2.2776153398056826 -1.2629230770823006 3.5233071115178372 -1.9258820322155952 -0.32864900281201453 -5.6515081782639029 0.57903107194339531 -4.8695502467777416 -0.57971457881586896 -4.7249659848213197 -0.49266215536329483 -2.3980231679004169 -1.5075616654703172 -0.029513814881091983 3.061788364137922
leaf_weight=50 327 42 35 7218 50 7505 2410 26 67 5916 28 2466 3867 161 92 24 143 24 20 586 25 68 23 28 20 45 23 59 127 70
leaf_count=50 327 42 35 7218 50 7505 2410 26 67 5916 28 2466 3867 161 92 24 143 24 20 586 25 68 23 28 20 45 23 59 127 70
internal_value=0 0.649095 0.398996 -0.00842087 -0.0799017 -0.0741141 0.0252751 0.0616913 -0.0306591 -0.0231077 -0.0353484 0.191275 0.0984674 -0.264038 0.254813 -0.378604 -0.708911 1.26548 0.781665 -0.412341 -0.980531 -1.70838 -1.01417 -2.51435 -0.206865 -1.79491 -0.173411 -0.0842726 0.022974 1.06892
internal_weight=0 404 362 31141 15420 15370 7865 15721 8503 8477 8410 2494 6277 1588 353 217 193 136 112 1235 328 167 142 51 907 65 91 842 783 197
internal_count=31545 404 362 31141 15420 15370 7865 15721 8503 8477 8410 2494 6277 1588 353 217 193 136 112 1235 328 167 142 51 907 65 91 842 783 197
is_linear=0
shrinkage=0.1


Tree=64
num_leaves=31
num_cat=0
split_feature=6 0 6 2 6 4 4 9 2 1 2 5 2 0 1 6 1 0 1 3 9 1 7 2 2 1 2 0 2 1
split_gain=15112.1 26437 24954.9 22927.1 18638.4 18938.7 30961.7 18748.8 18483.6 17728.2 28153.8 18885.9 19025.2 16799.6 15538.2 14722.4 14347.1 14046.5 13133.9 12748.8 16440.1 20102.3 16360.9 12486.8 72334.8 43154.5 28057.2 27702.9 25753.1 25391.8
threshold=3.5000000000000004 2494.5000000000005 2.5000000000000004 14.13189551363803 9.5000000000000018 1.0000000180025095e-35 4.5000000000000009 1.0000000180025095e-35 14.216827158352617 119191.50000000001 7.2113477741039729 1.5000000000000002 11.96762621539207 1987.5000000000002 49100.500000000007 7.5000000000000009 31405.000000000004 1987.5000000000002 183099.00000000003 3.5000000000000004 1.0000000180025095e-35 143304.00000000003 3.5000000000000004 8.4635166326890445 8.7155715263263307 118385.00000000001 5.3757314111422287 1889.0000000000002 4.2086080345752839 174904.50000000003
decision_type=2 2 2 2 2 2 2 2 2 2 2 2 2 2 2 2 2 2 2 2 2 2 2 2 2 2 2 2 2 2
left_child=2 4 -1 14 5 8 7 9 15 -7 -11 12 13 -12 -3 23 -17 -14 -19 20 22 -22 -6 25 27 26 28 -25 -2 -27
right_child=1 3 -4 -5 19 6 -8 -9 -10 10 11 -13 17 -15 -16 16 -18 18 -20 -21 21 -23 -24 24 -26 29 -28 -29 -30 -31
leaf_value=-0.021858635520054608 0.85169602203369144 1.1955841310562627 0.34266584326538901 -4.4091048288345336 -0.089463538508261414 -1.4091384637141877 -0.10519210474070771 -0.25158247503851838 -2.9450486715350834 2.7174328290499172 -2.1257769307494168 -0.19917315341228126 -0.72516237769437875 1.9238638454249928 -1.2740130928012876 0.54573612538730998 -0.24579895703379875 -5.6879648935794833 -2.3327249220439366 0.1081562696189264 2.3566409976394089 -1.5786112337112428 -3.0888155942613427 -2.9000264191412715 0.13487195795286275 -3.3068886950280936 0.86523305921843241 0.48112374967144378 -3.5279901714160524 0.97546204090118405
leaf_weight=4837 25 31 3070 20 31 404 6237 764 21 26 20 245 23 21 143 254 2326 20 28 7972 27 25 44 111 3994 45 701 31 29 20
leaf_count=4837 25 31 3070 20 31 404 6237 764 21 26 20 245 23 21 143 254 2326 20 28 7972 27 25 44 111 3994 45 701 31 29 20
internal_value=0 -0.040031 0.119673 -1.20259 -0.0304108 -0.0951877 -0.204622 -0.604458 0.0175918 -0.94702 -0.459564 -0.690942 -1.76669 -0.0515707 -0.834027 0.0258476 -0.167873 -2.7571 -3.73074 0.0923206 -0.90171 0.464693 -1.84908 0.126695 0.056018 0.483181 0.696038 -2.16189 -1.50036 -1.98924
internal_weight=0 23638 7907 194 23444 15345 7788 1551 7557 787 383 357 112 41 174 7536 2580 71 48 8099 127 52 75 4956 4136 820 755 142 54 65
internal_count=31545 23638 7907 194 23444 15345 7788 1551 7557 787 383 357 112 41 174 7536 2580 71 48 8099 127 52 75 4956 4136 820 755 142 54 65
is_linear=0
shrinkage=0.1


Tree=65
num_leaves=31
num_cat=0
split_feature=2 5 1 5 1 0 2 11 1 3 1 1 4 4 1 2 2 2 5 1 2 2 2 6 6 6 1 2 6 1
split_gain=15519.9 68946 43074.5 25118.4 53752.4 47187 38071.4 31586.6 26550.5 24449.6 58031.7 24714.6 24136 23816.2 29455.2 35796.7 26247.4 19361 22484.7 24933.6 17974.4 31937 25419.9 31571 29896.7 26892.7 23008 22646.6 51544.5 44637.9
threshold=6.2113477306531157 2.5000000000000004 197927.00000000003 1.5000000000000002 94405.500000000015 1889.0000000000002 10.800503044380774 1.0000000180025095e-35 55703.500000000007 2.5000000000000004 57701.500000000007 279437.00000000006 1.0000000180025095e-35 1.0000000180025095e-35 57190.500000000007 8.7155714282740409 10.299018888389265 6.2113478189397897 2.5000000000000004 48108.000000000007 14.216827224845185 14.216827035688331 14.052443649551043 7.5000000000000009 6.5000000000000009 11.500000000000002 101384.50000000001 13.129155881842857 1.5000000000000002 260706.50000000003
decision_type=2 2 2 2 2 2 2 2 2 2 2 2 2 2 2 2 2 2 2 2 2 2 2 2 2 2 2 2 2 2
left_child=1 2 -1 4 5 13 12 20 -8 10 -5 17 -7 14 -2 -16 -17 18 -11 -20 21 22 24 -24 26 -26 -6 -28 -29 -30
right_child=3 -3 -4 9 7 6 8 -9 -10 11 -12 -13 -14 -15 15 16 -18 -19 19 -21 -22 -23 23 -25 25 -27 27 28 29 -31
leaf_value=0.61358357911288075 0.49843972982377499 -0.12701062177747038 4.9704717843428909 2.2111262168884278 1.1795965263872972 0.28489752173423771 -7.1925925981430785 1.540479566038601 -2.854662213214608 0.89225803743238041 -3.6337056681794944 -0.69266448396223568 -2.5515307493733639 -1.0974495208084718 1.3318067703475345 -3.8826853194020012 -0.96059686646741982 0.039177932473132955 1.8160682036326481 -1.4402173545423562 -2.3707103645100314 2.2605083285734575 -0.13111108022076742 -4.682295179367066 0.60822828428480891 -0.8120474461420083 -0.80100346316195514 4.6874551219940193 -1.4045178087808754 2.8764166813908201
leaf_weight=1693 317 2914 23 25 81 55 21 126 43 69 53 486 66 442 47 44 102 22685 26 246 34 58 35 27 753 162 761 25 93 33
leaf_count=1693 317 2914 23 25 81 55 21 126 43 69 53 486 66 442 47 44 102 22685 26 246 34 58 35 27 753 162 761 25 93 33
internal_value=0 0.169116 0.67198 -0.0290919 -0.286408 -0.844167 -2.30555 0.00343271 -4.27805 0.0071767 -1.76036 0.0130404 -1.26225 -0.56018 -0.0945465 -1.06852 -1.84123 0.0279354 -0.71997 -1.12895 -0.0904897 -0.0522611 -0.120353 -2.11308 -0.0555997 0.35677 -0.435577 -0.57903 0.539655 -0.283321
internal_weight=0 4630 1716 26915 3325 1137 185 2188 64 23590 78 23512 121 952 510 193 146 23026 341 272 2062 2028 1970 62 1908 915 993 912 151 126
internal_count=31545 4630 1716 26915 3325 1137 185 2188 64 23590 78 23512 121 952 510 193 146 23026 341 272 2062 2028 1970 62 1908 915 993 912 151 126
is_linear=0
shrinkage=0.1


Tree=66
num_leaves=31
num_cat=0
split_feature=4 4 4 2 2 3 0 2 2 5 1 2 2 2 2 1 1 1 2 0 7 2 1 7 2 5 1 3 5 2
split_gain=14421.4 27236.5 24948.4 19533.4 23816.7 26290.9 30366.9 16252.2 23024.1 19273.6 17976.2 16171.3 16262.1 15426.5 19440.7 23150.9 60933.1 17836.3 34127.1 23115.2 22989.5 22932.1 28724.9 58280.3 21601.6 27583.1 25578.2 20806.7 19881.3 34664.8
threshold=7.5000000000000009 1.0000000180025095e-35 3.5000000000000004 14.216827079631768 14.216827018981308 4.5000000000000009 1784.5000000000002 14.052443525536576 14.052443464182593 2.5000000000000004 125078.50000000001 14.13189551363803 14.131895651135594 5.3757314111422287 4.2086080345752839 22510.500000000004 65402.000000000007 67874.000000000015 7.5457085690999843 1889.0000000000002 3.5000000000000004 7.7977633451024291 118385.00000000001 3.5000000000000004 7.8826948761610574 2.5000000000000004 6100.5000000000009 4.5000000000000009 2.5000000000000004 7.2113478298466758
decision_type=2 2 2 2 2 2 2 2 2 2 2 2 2 2 2 2 2 2 2 2 2 2 2 2 2 2 2 2 2 2
left_child=1 3 -3 4 7 6 -6 8 13 10 -10 -9 -13 14 -1 -16 -17 18 19 20 27 22 28 -24 25 -20 -26 -15 -19 -30
right_child=-2 2 -4 -5 5 -7 -8 11 9 -11 -12 12 -14 17 15 16 -18 21 24 -21 -22 -23 23 -25 26 -27 -28 -29 29 -31
leaf_value=0.53245316460019065 0.13746560939113467 -0.92754102971358798 -0.12684511906076781 -1.0790818644181781 0.2408296125009656 0.35140630471151929 4.2894364783032373 -1.6044097820663046 1.0921364019314448 -0.29213257821839911 4.1240258126773623 0.48944211479636934 -1.8994093785414827 4.1293222493138808 -0.072557990691241095 -7.4987015652656552 -0.81760833263397226 0.74333841313741045 0.55128290696325255 2.249851124897599 0.29188797557423635 0.0066372300442362909 -0.2969298945532905 -5.5356493585450313 -2.5365885186195376 -1.5198186629893389 0.17710392340337502 1.1211301884404175 -4.8752496695518497 -0.47118782266708359
leaf_weight=63 6145 405 9938 151 32 172 44 117 48 43 33 124 37 29 51 20 43 112 102 100 492 8085 54 35 35 174 4562 111 20 168
leaf_count=63 6145 405 9938 151 32 172 44 117 48 43 33 124 37 29 51 20 43 112 102 100 492 8085 54 35 35 174 4562 111 20 168
internal_value=0 -0.0332569 -0.158198 0.0525679 0.0640317 1.03582 2.58476 0.0475899 0.0622306 1.41898 2.32735 -0.709724 -0.0595486 0.0504294 -0.877328 -1.65642 -2.93859 0.0620931 0.200489 0.837145 0.613615 -0.0294466 -0.779415 -2.3571 0.104853 -0.754412 0.156443 1.74426 -0.311369 -0.939705
internal_weight=0 25400 10343 15057 14906 248 76 14658 14380 124 81 278 161 14256 177 114 63 14079 5605 732 632 8474 389 89 4873 276 4597 140 300 188
internal_count=31545 25400 10343 15057 14906 248 76 14658 14380 124 81 278 161 14256 177 114 63 14079 5605 732 632 8474 389 89 4873 276 4597 140 300 188
is_linear=0
shrinkage=0.1


Tree=67
num_leaves=31
num_cat=0
split_feature=2 5 8 0 3 8 2 10 5 2 1 2 4 2 1 4 2 11 1 2 1 1 8 1 2 0 6 1 2 8
split_gain=13418.7 46345 36321.7 33908.7 27727.4 29592.3 25607.8 23110.9 23053.4 46780.7 33119.5 70663 41709.2 40392.8 42299.9 33533.3 32086.7 31617.8 27655 26515.2 23967.3 22965.7 25172.5 22710.7 22610.7 23502.8 22866.6 22407 22268.3 33129.9
threshold=7.2113477551689362 2.5000000000000004 107.70833300000002 2396.5000000000005 2.5000000000000004 108.42500000000001 6.9648865222572978 1.0000000180025095e-35 2.5000000000000004 9.6306400247916866 100001.00000000001 12.299018842506205 1.0000000180025095e-35 9.211347665284972 44506.500000000007 5.5000000000000009 9.5457084484506272 1.0000000180025095e-35 47508.500000000007 9.2113478452717477 112446.00000000001 125078.50000000001 111.79761850000001 29903.000000000004 10.967626342517006 1998.5000000000002 9.5000000000000018 247186.50000000003 9.378471039938848 107.53333300000001
decision_type=2 2 2 2 2 2 2 2 2 2 2 2 2 2 2 2 2 2 2 2 2 2 2 2 2 2 2 2 2 2
left_child=1 2 27 6 -2 8 -3 -5 10 17 11 12 13 23 16 -14 -15 20 -13 -19 -10 22 -4 -6 -7 -26 -27 -1 -16 -30
right_child=4 3 21 7 5 24 -8 -9 9 -11 -12 18 15 14 28 -17 -18 19 -20 -21 -22 -23 -24 -25 25 26 -28 -29 29 -31
leaf_value=0.236269394574913 -1.7702433803969104 -0.21481360360996948 1.4579016002454521 0.66562004915454942 -0.045087913361939826 -0.64487444023035623 0.46456812370799172 4.0582134862099926 -0.067325718604392917 0.38996000940397835 0.052396604263647131 -1.8717191513260034 -1.1861002011388861 -1.2228147848398381 -2.0734260242225395 -0.19043056811179779 0.86975570664796276 2.4108895540237429 -0.67802569223167108 -0.24589227623664414 -0.8139945490436491 2.7890662335251508 -0.14799883635152108 1.1023005295180148 -0.66910498675292107 0.59464541208529009 3.7161982075921425 3.5963086128234867 -0.39309427150206061 1.60886180204424
leaf_weight=2595 92 4006 283 57 247 1224 644 31 2993 3756 8587 233 465 84 72 1241 574 89 1162 65 502 76 149 572 123 123 29 20 1363 88
leaf_count=2595 92 4006 283 57 247 1224 644 31 2993 3756 8587 233 465 84 72 1241 574 89 1162 65 502 76 149 572 123 123 29 20 1363 88
internal_value=0 0.113209 0.412279 -0.0839207 -0.0375752 -0.0308185 -0.120723 1.86074 -0.00164553 0.142221 -0.0741762 -0.252324 -0.067032 0.157469 -0.067387 -0.461818 0.602619 -0.112783 -0.877402 1.28952 -0.174573 1.18603 0.904015 0.756263 -0.460784 0.358586 1.1902 0.261968 -0.356858 -0.27168
internal_weight=0 7861 3123 4738 23684 23592 4650 88 22093 7405 14688 6101 4706 3000 2181 1706 658 3649 1395 154 3495 508 432 819 1499 275 152 2615 1523 1451
internal_count=31545 7861 3123 4738 23684 23592 4650 88 22093 7405 14688 6101 4706 3000 2181 1706 658 3649 1395 154 3495 508 432 819 1499 275 152 2615 1523 1451
is_linear=0
shrinkage=0.1


Tree=68
num_leaves=31
num_cat=0
split_feature=2 1 2 6 0 1 6 6 0 4 6 2 4 0 2 5 7 2 1 2 2 1 1 5 6 8 7 5 5 2
split_gain=12786.6 14368.2 41693.1 13115.1 22169 18938.6 17788.5 17320.5 18682.5 17390.9 19545.3 22414.8 17906.4 15768.9 27249.8 36844.4 28839.5 19680.4 15615.7 14976.7 60515.4 33773.7 23765.7 17199.9 15256.9 14723.8 17803.2 25280.3 17497.8 14578
threshold=3.2086081128967288 1.0000000180025095e-35 5.2086080500668741 3.5000000000000004 2494.5000000000005 90501.500000000015 2.5000000000000004 8.5000000000000018 1998.5000000000002 1.0000000180025095e-35 7.5000000000000009 5.1236765645041364 4.5000000000000009 1987.5000000000002 12.800502922008993 1.5000000000000002 3.5000000000000004 12.633379762210422 279437.00000000006 8.4635166326890445 8.7977632840741951 128540.50000000001 174904.50000000003 2.5000000000000004 6.5000000000000009 69.19642850000001 4.5000000000000009 1.5000000000000002 1.5000000000000002 9.7977633665312869
decision_type=2 2 2 2 2 2 2 2 2 2 2 2 2 2 2 2 2 2 2 2 2 2 2 2 2 2 2 2 2 2
left_child=-1 2 -2 6 7 -6 -3 9 -9 10 11 -5 -11 25 15 -15 -16 -17 -14 21 23 -13 -23 -21 -25 -12 28 -28 -27 -10
right_child=1 3 -4 4 5 -7 -8 8 29 12 13 19 18 14 16 17 -18 -19 -20 20 -22 22 -24 24 -26 26 27 -29 -30 -31
leaf_value=0.70525425244780149 1.3209377028725364 -0.011150810811295153 -4.7683008344277091 -3.0831594526767732 -0.232691085830741 -2.2240616301929252 0.29810578844509411 0.0092661626832315543 -0.19305082508236976 -0.55051896845775339 -0.56374049665112247 0.70281355987256133 -0.11454656278384899 3.2951231131951015 -5.6502346212213688 -1.0366892840422637 -1.2633319484426622 1.5801809623837473 -1.2975587650349265 -0.18766356953259172 0.12739773238290863 -3.4996485299923843 0.84463033318519598 -2.7491517525133879 -0.21689558051526547 2.6952181148529055 -3.8516280361940156 -0.094164815671436974 0.44740277076096729 0.556866274496429
leaf_weight=255 22 4794 23 22 109 85 3039 8811 333 1322 380 716 5255 24 22 282 47 32 114 58 3942 34 20 115 30 40 20 171 258 1170
leaf_count=255 22 4794 23 22 109 85 3039 8811 333 1322 380 716 5255 24 22 282 47 32 114 58 3942 34 20 115 30 40 20 171 258 1170
internal_value=0 -0.00574752 -1.79134 -0.00317585 -0.0406508 -1.1052 0.108833 -0.0317559 0.0648528 -0.108974 0.0115002 0.101671 -0.220841 -0.33738 -0.851055 -0.481354 -2.66205 -0.770002 -0.139665 0.115926 0.0406895 0.520934 -1.89066 -1.64307 -2.22524 -0.096798 0.266061 -0.487616 0.749123 0.390717
internal_weight=0 31290 45 31245 23412 194 7833 23218 10314 12904 6213 4937 6691 1276 407 338 69 314 5369 4915 4145 770 54 203 145 869 489 191 298 1503
internal_count=31545 31290 45 31245 23412 194 7833 23218 10314 12904 6213 4937 6691 1276 407 338 69 314 5369 4915 4145 770 54 203 145 869 489 191 298 1503
is_linear=0
shrinkage=0.1


Tree=69
num_leaves=31
num_cat=0
split_feature=2 5 1 5 1 0 2 11 1 6 4 1 1 6 2 4 3 1 2 5 1 7 2 2 9 8 3 6 8 2
split_gain=12470.8 47514.4 31729.1 19622.7 44728.5 38016.2 28885.3 25044.3 20860.1 18265 20219 17972.6 17574.2 25350.6 22488.5 17110.9 16148.5 46717 14635.3 16765.4 19573.8 14532.6 19953.1 14399.8 14575.7 14262.7 14644.9 14226.3 14171.3 14171.3
threshold=6.2113477306531157 2.5000000000000004 197927.00000000003 1.5000000000000002 94405.500000000015 1889.0000000000002 10.800503044380774 1.0000000180025095e-35 55703.500000000007 2.5000000000000004 1.0000000180025095e-35 279437.00000000006 85503.000000000015 4.5000000000000009 9.8826948097157743 1.0000000180025095e-35 2.5000000000000004 57701.500000000007 6.2113478189397897 2.5000000000000004 48108.000000000007 1.0000000180025095e-35 4.2086080345752839 5.8799551395101384 1.0000000180025095e-35 70.642856500000008 4.5000000000000009 4.5000000000000009 70.380952000000022 14.216827224845185
decision_type=2 2 2 2 2 2 2 2 2 2 2 2 2 2 2 2 2 2 2 2 2 2 2 2 2 2 2 2 2 2
left_child=1 2 21 4 5 12 9 29 -8 -7 -11 16 15 -14 -15 -2 17 -5 19 -18 -21 22 -1 24 -3 -23 -27 -22 -19 -6
right_child=3 23 -4 11 7 6 8 -9 -10 10 -12 -13 13 14 -16 -17 18 28 -20 20 27 25 -24 -25 -26 26 -28 -29 -30 -31
leaf_value=1.6508244929490268 0.066525472843751127 0.10412322240119493 4.2582731506098872 2.1455538177490232 -0.038802412382641135 -3.8463143916357136 -6.3755427229972117 1.379526541512164 -2.5304690638253859 0.93840381412402452 -1.9146097697593547 -0.59584269932022804 0.43583968877792362 -1.0187215539671126 -4.3318049743771558 -0.84647503535773971 0.76540929241024935 -4.7649521204141472 0.033278292548756618 1.62944773710691 -0.76170799409636869 0.080658621914428491 -1.5429730521121496 0.75466456081777977 -0.36077007498666402 1.62576331615448 0.62310455387681429 -2.426383765205129 -1.4939951458462963 -2.0974205585087051
leaf_weight=27 458 1222 23 25 2028 21 21 126 43 46 54 486 40 42 40 372 69 26 22685 26 173 407 71 187 1505 170 1018 73 27 34
leaf_count=27 458 1222 23 25 2028 21 21 126 43 46 54 486 40 42 40 372 69 26 22685 26 173 407 71 187 1505 170 1018 73 27 34
internal_value=0 0.151596 0.56905 -0.0260781 -0.25351 -0.762301 -2.07401 0.0108852 -3.79213 -1.16525 -0.602224 0.0059783 -0.5074 -1.62807 -2.63486 -0.342675 0.0186378 -1.41779 0.0235037 -0.626753 -0.979911 0.518931 -0.663049 -0.0942341 -0.152446 0.591554 0.766583 -1.2557 -3.09862 -0.0727466
internal_weight=0 4630 1716 26915 3325 1137 185 2188 64 121 100 23590 952 122 82 830 23104 78 23026 341 272 1693 98 2914 2727 1595 1188 246 53 2062
internal_count=31545 4630 1716 26915 3325 1137 185 2188 64 121 100 23590 952 122 82 830 23104 78 23026 341 272 1693 98 2914 2727 1595 1188 246 53 2062
is_linear=0
shrinkage=0.1


Tree=70
num_leaves=31
num_cat=0
split_feature=0 8 7 1 1 5 3 1 2 1 8 5 1 2 2 2 1 2 6 3 2 1 3 0 2 2 6 1 2 2
split_gain=11348.4 19279.4 18392.5 18183.2 19172.4 14021.2 20048.2 18577.2 59610.5 26025.8 18372.7 48220.2 18314.7 18076.1 17730.8 14184.4 22595.1 32612.8 15810.4 12828.5 23485.6 21114.5 13408.6 25136.2 27996.2 29737.6 20878.9 29623.8 18888.9 25732.8
threshold=1653.5000000000002 66.119047000000009 1.0000000180025095e-35 1.0000000180025095e-35 10807.500000000002 2.5000000000000004 4.5000000000000009 187641.50000000003 13.214087293751939 129708.00000000001 103.01666650000001 1.5000000000000002 174904.50000000003 13.129155881842857 14.052443525536576 13.129155881842857 290793.50000000006 12.299018960740458 8.5000000000000018 3.5000000000000004 14.052443464182593 235706.00000000003 4.5000000000000009 2494.5000000000005 14.216827018981308 14.216827224845185 3.5000000000000004 167468.00000000003 13.800502882857462 13.718311295379214
decision_type=2 2 2 2 2 2 2 2 2 2 2 2 2 2 2 2 2 2 2 2 2 2 2 2 2 2 2 2 2 2
left_child=1 -1 5 -4 -5 7 -7 8 12 -10 13 14 -2 -9 15 16 -12 18 -18 20 21 -6 23 24 28 26 -26 -28 29 -21
right_child=2 -3 3 4 19 6 -8 10 9 -11 11 -13 -14 -15 -16 -17 17 -19 -20 22 -22 -23 -24 -25 25 -27 27 -29 -30 -31
leaf_value=-0.09373001766345565 -0.32257770382020978 -1.3730257682440181 -2.8238537788391116 0.92525892777136542 -0.80226697360540367 2.8146229936230571 -0.04556375558559711 -0.95029280736152799 -6.1507326913731442 -1.9116085660457611 2.9776965141296388 -2.6915628961614662 -2.7825921759460912 0.78810602596827917 -1.4017282171682879 3.3441706476984798 3.1569810692469282 -2.4813673845926925 -0.32787991088369622 0.18944354154608167 1.6297540966102055 -4.1824409076145725 0.0024293639514418991 -1.8016878094524147 0.40366877072896712 -0.377471596963944 1.2021923370850391 4.9874952359633014 -0.44721708989767861 3.2282170857701988
leaf_weight=6430 365 120 22 249 154 31 117 268 28 30 43 37 33 77 22 37 30 30 23 5869 35 21 16716 64 39 62 39 44 482 28
leaf_count=6430 365 120 22 249 154 31 117 268 28 30 43 37 33 77 22 37 30 30 23 5869 35 21 16716 64 39 62 39 44 482 28
internal_value=0 -0.117167 0.030704 0.049722 0.0523781 -0.356217 0.553529 -0.487833 -0.963016 -3.95808 -0.105675 0.603949 -0.526549 -0.562302 1.26305 1.62271 1.11721 0.153339 1.64468 0.04315 -0.734948 -1.20789 0.05015 0.170521 0.189753 1.40584 2.31212 3.20886 0.154676 0.203872
internal_weight=0 6550 24995 23824 23802 1171 148 1023 456 58 567 222 398 345 185 163 126 83 53 23553 210 175 23343 6627 6563 184 122 83 6379 5897
internal_count=31545 6550 24995 23824 23802 1171 148 1023 456 58 567 222 398 345 185 163 126 83 53 23553 210 175 23343 6627 6563 184 122 83 6379 5897
is_linear=0
shrinkage=0.1


Tree=71
num_leaves=31
num_cat=0
split_feature=6 6 8 7 2 1 5 2 2 4 1 0 0 2 2 8 7 5 3 2 2 8 1 1 1 1 1 0 4 0
split_gain=10990.3 17787.4 14932.3 19828.7 19561.2 22758.9 35471 34587.2 33166.8 21031.8 18629.5 17441.3 14324.7 12446.9 13824.3 12115.8 20067.2 24616.5 13091.3 13850.7 11082.3 10997.2 19870.2 19355.5 17414.2 15407.3 11504 10676.2 12859 12169.4
threshold=4.5000000000000009 8.5000000000000018 73.100000000000009 4.5000000000000009 10.214087382575022 235706.00000000003 1.5000000000000002 11.633379620101193 12.299018960740458 1.0000000180025095e-35 8914.5000000000018 1998.5000000000002 2396.5000000000005 5.2086080835447861 7.7977632060930979 70.291666500000005 5.5000000000000009 1.5000000000000002 4.5000000000000009 9.2113476967525525 5.4607770192898117 107.53333300000001 436932.50000000006 301719.50000000006 218013.50000000003 167468.00000000003 22510.500000000004 1998.5000000000002 4.5000000000000009 2494.5000000000005
decision_type=2 2 2 2 2 2 2 2 2 2 2 2 2 2 2 2 2 2 2 2 2 2 2 2 2 2 2 2 2 2
left_child=21 2 15 4 9 6 8 -7 -6 13 -5 -8 -13 -4 -15 -2 20 18 19 -18 -17 22 -1 24 25 26 -23 28 -3 -29
right_child=1 27 3 10 5 7 11 -9 -10 -11 -12 12 -14 14 -16 16 17 -19 -20 -21 -22 23 -24 -25 -26 -27 -28 29 -30 -31
leaf_value=0.050157778984095416 -0.17717620784757251 -0.096488501597642912 -1.7108810023827985 2.9198613385856156 -0.51752978591691878 -3.3085389545985628 -1.9028663442366653 1.2234773175856648 -5.544454484837396 -0.58236962471532427 -0.14398760687908183 -0.3596135411221324 -2.7303403428622657 3.0475239773591358 0.49496989439094002 1.9186693702873432 -5.0657524191197894 -0.16503791158977743 -0.72925013631582258 -1.3886684417724611 0.19830266377982808 1.4064247088772912 -2.8310359756151837 3.3526025181724912 -2.0121040463447573 1.8386634849237673 0.1975688796100955 0.34872370853351797 0.14626923174755777 -1.0592262927209959
leaf_weight=9016 3258 5052 22 20 21 21 144 85 35 576 2572 284 28 24 183 38 21 634 40 20 2561 84 24 21 32 66 1253 1505 3841 64
leaf_count=9016 3258 5052 22 20 21 21 144 85 35 576 2572 284 28 24 183 38 21 634 40 20 2561 84 24 21 32 66 1253 1505 3841 64
internal_value=0 -0.0416809 -0.133063 -0.285007 -0.584936 -1.00809 -1.28421 0.325625 -3.65936 -0.26008 -0.120347 -0.992527 -0.572371 0.550571 0.790918 -0.0402367 0.0943888 -0.374767 -2.01635 -3.27205 0.223456 0.0835881 0.0425086 0.338642 0.294535 0.347146 0.273518 0.0507932 0.00836166 0.291293
internal_weight=0 21049 10587 4015 1423 618 512 106 56 805 2592 456 312 229 207 6572 3314 715 81 41 2599 10496 9040 1456 1435 1403 1337 10462 8893 1569
internal_count=31545 21049 10587 4015 1423 618 512 106 56 805 2592 456 312 229 207 6572 3314 715 81 41 2599 10496 9040 1456 1435 1403 1337 10462 8893 1569
is_linear=0
shrinkage=0.1


Tree=72
num_leaves=31
num_cat=0
split_feature=2 2 1 1 2 5 6 4 1 2 4 2 5 1 7 2 2 1 6 2 2 2 1 1 1 1 2 2 2 5
split_gain=10145.1 21484.1 30175.5 18248.3 14299.3 17633.4 18024.3 15658.6 53323.5 34792.2 22661.8 21945.4 19199.6 15840.7 23875.6 20527.9 15756 15174.7 13888.8 15221.1 38152.5 49296.6 31967 22966.5 18647.7 16072.5 36672.5 25039 22097.4 22312.7
threshold=4.2935395344526022 4.6279003121167248 1.0000000180025095e-35 119877.00000000001 6.2113477306531157 2.5000000000000004 6.5000000000000009 1.0000000180025095e-35 25415.000000000004 6.2113478484872404 4.5000000000000009 9.7977632278899858 1.5000000000000002 159218.50000000003 1.5000000000000002 10.381210753157612 14.216827158352617 206374.00000000003 6.5000000000000009 12.885434499934819 13.214087371832372 13.214087486191055 167468.00000000003 157894.00000000003 32283.000000000004 109759.00000000001 12.299018842506205 12.129155980216849 7.4635167286422162 1.5000000000000002
decision_type=2 2 2 2 2 2 2 2 2 2 2 2 2 2 2 2 2 2 2 2 2 2 2 2 2 2 2 2 2 2
left_child=3 -2 -3 -1 5 -4 -7 9 11 -6 12 -9 13 -10 -15 17 18 -16 19 25 -21 -22 23 24 -23 26 27 -11 -27 -30
right_child=1 2 4 -5 7 6 -8 8 10 16 -12 -13 -14 14 15 -17 -18 -19 -20 20 21 22 -24 -25 -26 28 -28 -29 29 -31
leaf_value=0.24488239840020501 -0.65974157480373985 -3.4041127204895023 0.50592978406938083 2.6418034820845637 -4.1183175230026245 -0.23522027443098123 0.36542124150887967 -1.3473870315876875 -1.2225333558707572 0.22686142983818441 -0.0053852026222082463 -4.526726174622774 -0.17798797192296911 -2.9134597840905192 0.33620517640500458 -0.43654288681895298 -2.3580799809208624 3.4886172661414516 -0.035682090965493567 1.384644473401913 -3.7013072986155748 -2.4747375654953498 1.3209455859943713 -2.4071836879378874 0.19862099305778194 -2.9407025090579331 -0.71794063159946697 1.6029132444601861 -1.035528117999182 0.033540819322904654
leaf_weight=847 500 26 1204 33 20 1161 877 165 382 3802 9428 25 1909 30 37 197 27 26 7466 335 32 27 232 38 776 29 411 137 236 1130
leaf_count=847 500 26 1204 33 20 1161 877 165 382 3802 9428 25 1909 30 37 197 27 26 7466 335 32 27 232 38 776 29 411 137 236 1130
internal_value=0 -0.00960688 0.00116943 0.334767 0.00410706 0.202506 0.0232501 -0.0198067 -0.103558 0.049705 -0.0772602 -1.76572 -0.339809 -0.799504 -0.242273 0.0659411 0.0553843 1.6372 0.059832 0.159082 0.4498 0.166386 0.281732 -0.00494769 0.108732 0.0862121 0.180932 0.274721 -0.20915 -0.151159
internal_weight=0 30665 30165 880 30139 3242 2038 26897 12199 14698 12009 190 2581 672 290 260 14678 63 14651 7185 1440 1105 1073 841 803 5745 4350 3939 1395 1366
internal_count=31545 30665 30165 880 30139 3242 2038 26897 12199 14698 12009 190 2581 672 290 260 14678 63 14651 7185 1440 1105 1073 841 803 5745 4350 3939 1395 1366
is_linear=0
shrinkage=0.1


Tree=73
num_leaves=31
num_cat=0
split_feature=3 8 1 7 7 1 7 8 0 2 2 2 1 4 6 6 11 2 0 2 2 2 2 5 1 8 0 8 1 4
split_gain=9883.36 16933.8 11236.5 9996.08 13599.6 13245.5 11886.9 13177.1 22250.8 18271.9 64431.8 20083.5 23091.1 16418.7 16730.8 17039.6 14495.1 21620 14467.4 19702.6 61674 13040.4 37882.9 17584.8 43046.7 27410.1 23163.7 22670 22546.3 22325.5
threshold=5.5000000000000009 107.70833300000002 99901.000000000015 4.5000000000000009 3.5000000000000004 374007.00000000006 5.5000000000000009 73.100000000000009 1797.5000000000002 8.6306398721604456 8.296279149929644 9.7977632278899858 32972.500000000007 1.0000000180025095e-35 7.5000000000000009 9.5000000000000018 1.0000000180025095e-35 5.2935395649344432 1998.5000000000002 11.718311241326159 12.052443549301717 11.885434328276213 11.885434395193943 2.5000000000000004 108201.00000000001 105.28750000000001 1998.5000000000002 107.38750000000002 279437.00000000006 1.0000000180025095e-35
decision_type=2 2 2 2 2 2 2 2 2 2 2 2 2 2 2 2 2 2 2 2 2 2 2 2 2 2 2 2 2 2
left_child=3 2 -2 4 5 -1 7 8 -5 10 -10 12 -11 14 -13 -16 18 -18 19 -9 -21 -8 -23 24 25 -24 -27 28 -26 -29
right_child=1 -3 -4 6 -6 -7 21 16 9 11 -12 13 -14 -15 15 -17 17 -19 -20 20 -22 22 23 -25 27 26 -28 29 -30 -31
leaf_value=0.045941761385311364 0.088634068193056539 2.3921443333228427 1.9738494014739993 0.016370254791295568 -0.1596130251412313 -0.92201764865054026 -0.10941544834558921 -0.26615953733248743 0.45844881494157247 -3.4910506992884303 2.7841229751018379 1.4455156029767491 -0.23527429417788404 -0.14207804383717276 -1.4255428196191788 0.82086588479578504 2.0894143173290836 0.13313521451123481 0.50327260749828484 -5.91875242636754 -0.21512883075645994 3.0064548806003906 -0.19800671222782007 0.57420026509730493 0.23448482294082643 -2.6264036063675409 -0.64148295536041267 2.4740400964547611 -1.4806704304447134 0.45272703137662679
leaf_weight=7738 327 42 35 2482 7538 144 6042 1102 1424 23 130 224 412 257 50 104 62 636 216 26 70 46 373 609 875 111 125 85 84 153
leaf_count=7738 327 42 35 2482 7538 144 6042 1102 1424 23 130 224 412 257 50 104 62 636 216 26 70 46 373 609 875 111 125 85 84 153
internal_value=0 0.491431 0.270906 -0.00637546 -0.0635821 0.0282577 0.0497359 0.144114 0.231012 0.434037 0.653003 0.116025 -0.407419 0.474605 0.893885 0.0915124 -0.0659706 0.306902 -0.250034 -0.385855 -1.75986 -0.0303796 0.163661 0.109513 -0.0471839 -0.731646 -1.57507 0.301051 0.0842522 1.17462
internal_weight=0 404 362 31141 15420 7882 15721 7218 5106 2624 1554 1070 435 635 378 154 2112 698 1414 1198 96 8503 2461 2415 1806 609 236 1197 959 238
internal_count=31545 404 362 31141 15420 7882 15721 7218 5106 2624 1554 1070 435 635 378 154 2112 698 1414 1198 96 8503 2461 2415 1806 609 236 1197 959 238
is_linear=0
shrinkage=0.1


Tree=74
num_leaves=31
num_cat=0
split_feature=4 4 4 2 2 3 0 5 1 2 2 5 2 1 2 2 2 1 1 2 6 0 1 5 7 1 2 8 1 2
split_gain=9429.74 15037.5 17705.3 13934.9 18441 20621.5 21865.7 14677.3 13249.2 17349.7 12255.9 14308.9 28770.5 26609.4 12012.7 28847.3 17827.8 18234.6 14794.3 14544.9 32904.3 12611.6 16727.8 17344.6 13594.4 13482.8 25594.2 17223 16350.9 11952
threshold=7.5000000000000009 1.0000000180025095e-35 3.5000000000000004 14.216827079631768 14.216827018981308 4.5000000000000009 1784.5000000000002 1.5000000000000002 25415.000000000004 6.4635167680783994 5.3757314111422287 1.5000000000000002 3.7128318227841999 23448.000000000004 13.214087486191055 13.129155881842857 14.216827158352617 94405.500000000015 221909.50000000003 14.216827224845185 5.5000000000000009 1797.5000000000002 226002.00000000003 1.5000000000000002 1.0000000180025095e-35 93208.500000000015 8.3784710542976661 71.261904000000015 40683.000000000007 14.052443525536576
decision_type=2 2 2 2 2 2 2 2 2 2 2 2 2 2 2 2 2 2 2 2 2 2 2 2 2 2 2 2 2 2
left_child=1 3 -3 4 10 6 -6 -5 9 -4 11 -1 -13 -14 15 21 17 -16 -19 20 -18 22 23 -10 -23 26 27 -26 -28 -12
right_child=-2 2 8 7 5 -7 -8 -9 14 -11 29 12 13 -15 16 -17 19 18 -20 -21 -22 24 -24 -25 25 -27 28 -29 -30 -31
leaf_value=0.30361574367738109 0.11115797083457729 -0.76784037208483547 -0.30848365652215004 0.84317219836844337 0.28451627239119265 0.2955298086238462 3.7199943770061843 -1.4705535487247552 -0.83769167571043046 -2.1400891508374893 0.05491333795391537 1.1536775983613115 -0.93198296265168623 -4.6884485208626954 -2.4811214636353887 1.8164507652980735 -0.64228076667357714 -0.19591037548564341 -1.2415650213528904 -0.34558802726222021 3.3914938072363534 -1.039106840454042 -1.3640820674193923 -0.068060969657968262 0.64360637836073853 0.16479916328576413 -3.2721459938929636 -0.11443398386034374 -0.68437692677193418 -0.60716260564413005
leaf_weight=71 6145 405 198 36 32 172 44 115 349 70 14203 29 44 33 51 83 39 442 195 102 42 120 129 1819 353 3533 26 1986 401 278
leaf_count=71 6145 405 198 36 32 172 44 115 349 70 14203 29 44 33 51 83 39 442 195 102 42 120 129 1819 353 3533 26 1986 401 278
internal_value=0 -0.0268924 -0.119729 0.0368789 0.0465615 0.901675 2.27348 -0.918937 -0.0933162 -0.786888 0.0320938 -0.794987 -1.53084 -2.5419 -0.0740942 -0.0390271 -0.428348 -0.661678 -0.516009 0.448873 1.44931 -0.0566963 -0.257781 -0.191954 0.0152608 0.0353471 -0.130001 -3.11417e-05 -0.841946 0.0422031
internal_weight=0 25400 10343 15057 14906 248 76 151 9938 268 14658 177 106 77 9670 8799 871 688 637 183 81 8716 2297 2168 6419 6299 2766 2339 427 14481
internal_count=31545 25400 10343 15057 14906 248 76 151 9938 268 14658 177 106 77 9670 8799 871 688 637 183 81 8716 2297 2168 6419 6299 2766 2339 427 14481
is_linear=0
shrinkage=0.1


Tree=75
num_leaves=31
num_cat=0
split_feature=2 6 0 2 6 6 1 1 2 1 2 2 2 2 4 0 2 2 8 1 4 1 3 2 2 2 1 8 0 5
split_gain=8646.21 8105.48 14886.1 17529 14399.9 12508.4 10738.2 10244.8 21701.2 17166.5 12364.2 10149.5 25004.7 13490.8 13372.7 11130.8 9919.58 14945 9286.72 40815.6 17150.5 14411.3 19844.1 13883 16210.4 13828 12343 11675.1 12223.5 11015.8
threshold=3.2086081128967288 3.5000000000000004 2494.5000000000005 14.13189551363803 2.5000000000000004 9.5000000000000018 40105.000000000007 31405.000000000004 8.2113476801323593 10807.500000000002 9.5457084484506272 14.131895651135594 14.052443649551043 14.216827079631768 1.0000000180025095e-35 1784.5000000000002 14.216827158352617 14.216827224845185 101.49999950000002 194705.00000000003 6.5000000000000009 90501.500000000015 3.5000000000000004 13.633379615470686 12.633379556866762 7.2113477551689362 101911.50000000001 107.38750000000002 2396.5000000000005 1.5000000000000002
decision_type=2 2 2 2 2 2 2 2 2 2 2 2 2 2 2 2 2 2 2 2 2 2 2 2 2 2 2 2 2 2
left_child=-1 4 5 6 11 -3 -4 8 -7 -10 -11 12 18 15 -15 -13 -9 -18 21 23 -21 22 -2 24 25 -20 -25 28 -27 -23
right_child=1 2 3 -5 -6 7 -8 16 9 10 -12 13 -14 14 -16 -17 17 -19 19 20 -22 29 -24 26 -26 27 -28 -29 -30 -31
leaf_value=0.5799362665297938 2.9391178784271084 -0.080203528435826926 1.4286358460136084 -3.710241004228592 0.25350145486904152 0.13851734578242064 -0.89082709523226267 0.098557189998494693 -3.6241167275801951 -1.7197246690129124 -0.21755516615924458 -0.21979261724544422 -2.5731880582295936 -2.5337463283538817 0.60796570437295105 2.1299339143766298 2.8493476942181588 -0.45177251547574998 0.60328891505016369 2.6706934090534395 -0.45094490078362554 -0.96112722457089328 0.044145666162735235 -2.522208525087589 1.4673813930735358 -0.21340868075688682 0.084544842433430911 -0.40399747132520442 2.4469099567782493 -0.22146192646292628
leaf_weight=255 24 15213 23 20 3042 436 151 7289 23 86 151 28 39 20 42 72 32 24 267 88 22 235 1764 39 82 39 34 568 31 1406
leaf_count=255 24 15213 23 20 3042 436 151 7289 23 86 151 28 39 20 42 72 32 24 267 88 22 235 1764 39 82 39 34 568 31 1406
internal_value=0 -0.00472623 -0.0341601 -0.9065 0.0832826 -0.0268825 -0.584231 0.0739972 -0.292684 -1.01578 -0.762646 -0.0245936 -0.0517702 0.753461 -0.40549 1.47201 0.108743 1.43458 -0.0303883 0.212883 2.04637 -0.113394 0.0830044 0.0226156 0.121038 -0.000951551 -1.3081 -0.253823 0.964732 -0.327386
internal_weight=0 31290 23448 194 7842 23254 174 8041 696 260 237 4800 4638 162 62 100 7345 56 4599 1170 110 3429 1788 1060 987 905 73 638 70 1641
internal_count=31545 31290 23448 194 7842 23254 174 8041 696 260 237 4800 4638 162 62 100 7345 56 4599 1170 110 3429 1788 1060 987 905 73 638 70 1641
is_linear=0
shrinkage=0.1


Tree=76
num_leaves=31
num_cat=0
split_feature=3 8 1 7 7 10 5 2 0 2 1 1 5 1 8 2 4 8 6 3 2 2 2 8 5 1 2 3 1 2
split_gain=7994.1 13662.1 9529.85 7757.7 11275.5 12021.6 36722.9 20121 27034.1 18259.2 15117.3 13720 13334.2 12373.8 12228 12024.3 23162 29157.1 21633.5 13794.6 13544.3 11268.5 11454 11215.9 18013.3 21533.5 20094.3 13580 11970.4 10905.3
threshold=5.5000000000000009 107.70833300000002 99901.000000000015 4.5000000000000009 3.5000000000000004 1.0000000180025095e-35 1.5000000000000002 10.214087382575022 1998.5000000000002 9.7977633665312869 59807.500000000007 156426.00000000003 2.5000000000000004 51600.500000000007 101.49999950000002 7.9648866523956254 3.5000000000000004 71.261904000000015 10.500000000000002 4.5000000000000009 6.2113478189397897 7.0497040002582461 7.8826948761610574 67.857142500000023 2.5000000000000004 104480.00000000001 9.6306400247916866 4.5000000000000009 279437.00000000006 7.5457085690999843
decision_type=2 2 2 2 2 2 2 2 2 2 2 2 2 2 2 2 2 2 2 2 2 2 2 2 2 2 2 2 2 2
left_child=3 2 -2 4 29 14 11 9 12 21 -10 -7 -9 -14 15 16 17 18 19 20 -6 -8 -23 24 27 26 -26 28 -17 -1
right_child=1 -3 -4 -5 5 6 7 8 10 -11 -12 -13 13 -15 -16 23 -18 -19 -20 -21 -22 22 -24 -25 25 -27 -28 -29 -30 -31
leaf_value=0.2309179139129959 0.076032875586209955 2.1492240880216875 1.8121918784720557 0.043697519843508434 -0.9956685803153299 -4.0415317598316411 0.64643225775196633 -2.1274817840952891 -1.7504461296061251 2.3605140332960421 0.17019753914792091 -1.1459406260649363 -3.0044995177875866 -0.46916100866366905 0.63747789857443427 -0.01053869340782451 -0.15874061784666382 -0.30258312120591063 -5.1394868419283917 -0.70965196392429419 -4.2623531818389893 -1.5540712150745095 -0.022500981782897583 0.08287988826358765 -0.14776368142644827 -0.99429931605563449 1.4529809262649513 -0.92678727816773177 -2.5172771620750432 -0.040519690648263974
leaf_weight=1975 327 42 35 15721 22 36 174 128 47 36 320 30 22 154 224 401 1490 202 21 67 30 64 206 2994 152 102 162 434 20 5907
leaf_count=1975 327 42 35 15721 22 36 174 128 47 36 320 30 22 154 224 401 1490 202 21 67 30 64 206 2994 152 102 162 434 20 5907
internal_value=0 0.441972 0.243894 -0.00573382 -0.0561301 -0.143571 -0.431378 -0.299838 -0.653465 0.194504 -0.0757705 -2.72535 -1.35088 -0.786078 -0.0881588 -0.114818 -0.329092 -1.07127 -2.18037 -1.65817 -2.88029 0.0188817 -0.38554 -0.0227786 -0.27167 0.268039 0.678098 -0.534266 -0.129624 0.0274947
internal_weight=0 404 362 31141 15420 7538 1217 1151 671 480 367 66 304 176 6321 6097 1832 342 140 119 52 444 270 4265 1271 416 314 855 421 7882
internal_count=31545 404 362 31141 15420 7538 1217 1151 671 480 367 66 304 176 6321 6097 1832 342 140 119 52 444 270 4265 1271 416 314 855 421 7882
is_linear=0
shrinkage=0.1


Tree=77
num_leaves=31
num_cat=0
split_feature=2 2 1 1 2 3 4 1 2 4 1 5 1 0 7 8 11 2 2 1 7 2 2 0 2 6 2 9 6 1
split_gain=7116.69 17421.7 22709.2 14155.8 10257.4 14397.9 11551.2 40754.8 26986.5 15498.6 16688.4 17012.8 14837.9 13172.7 14477.7 12410.4 12298.7 12039.6 11714.9 45200.6 40000.4 38965.7 22681.4 18382.7 18022.4 15958 15757.3 13295 13151.8 12306.2
threshold=4.2935395344526022 4.6279003121167248 1.0000000180025095e-35 119877.00000000001 6.2113477306531157 3.5000000000000004 1.0000000180025095e-35 23448.000000000004 6.2113478484872404 4.5000000000000009 159218.50000000003 1.5000000000000002 169199.50000000003 1987.5000000000002 5.5000000000000009 71.933333000000019 1.0000000180025095e-35 14.216827158352617 7.7155714574286547 130659.00000000001 3.5000000000000004 7.8826948761610574 8.049703866539339 1797.5000000000002 8.1264161302764748 10.500000000000002 8.2113476801323593 1.0000000180025095e-35 10.500000000000002 192457.50000000003
decision_type=2 2 2 2 2 2 2 2 2 2 2 2 2 2 2 2 2 2 2 2 2 2 2 2 2 2 2 2 2 2
left_child=3 -2 -3 -1 5 -4 8 -8 -6 10 11 13 -12 15 -15 -9 -14 18 19 25 -21 28 23 -23 -24 -10 27 -26 -20 -28
right_child=1 2 4 -5 6 -7 7 9 17 -11 12 -13 16 14 -16 -17 -18 -19 21 20 -22 22 24 -25 26 -27 29 -29 -30 -31
leaf_value=0.20121795752447499 -0.59349769646786155 -2.9524555770250469 2.5627970349788667 2.3123261877984711 -3.6271639302372933 0.15366335184784374 -1.715196137780961 -1.1102003163328538 0.41849909831980314 -0.008149874292762635 1.1827908031212597 -0.2985032883444475 -0.20767883402716458 -4.2565163831710811 -1.1057110878399441 0.45415987983819045 1.152733270762718 -2.0610646071257412 -1.1029858430498902 -0.19043430354860094 -5.5292264026144275 -1.0999020788599463 -1.7482120255407478 1.4198975211534746 0.078605715741240798 1.6917434980341217 0.010967760818049109 2.0810069072246553 0.97957573993639524 0.38469826658829254
leaf_weight=847 500 26 25 33 20 3217 152 260 721 9461 104 1285 741 25 35 63 73 27 374 36 23 34 56 195 63 114 11981 70 33 951
leaf_count=847 500 26 25 33 20 3217 152 260 721 9461 104 1285 741 25 35 63 73 27 374 36 23 34 56 195 63 114 11981 70 33 951
internal_value=0 -0.00804625 0.0016579 0.280385 0.00420632 0.172241 -0.0160475 -0.0879806 0.0436553 -0.0674496 -0.284401 -0.472859 0.0580281 -1.05784 -2.41855 -0.805077 -0.0856763 0.0486571 0.052545 0.403321 -2.27166 0.0297498 0.0591355 1.04578 0.0419157 0.592331 0.0495886 1.1325 -0.934129 0.0384513
internal_weight=0 30665 30165 880 30139 3242 26897 12199 14698 12047 2586 1668 918 383 60 323 814 14678 14651 894 59 13757 13350 229 13121 835 13065 133 407 12932
internal_count=31545 30665 30165 880 30139 3242 26897 12199 14698 12047 2586 1668 918 383 60 323 814 14678 14651 894 59 13757 13350 229 13121 835 13065 133 407 12932
is_linear=0
shrinkage=0.1


Tree=78
num_leaves=31
num_cat=0
split_feature=0 11 8 2 4 2 1 1 1 2 5 1 1 2 5 0 1 7 2 8 2 10 2 2 2 3 2 1 2 6
split_gain=6986.72 22779.9 22707.6 58061.1 41258.4 44564.1 44725.3 30787.2 29929.5 27830.4 29041 25400.1 19929 19662.8 19365.4 25250.7 25140.8 24227.7 23541.3 24922.5 22368.2 18429.3 16595.3 17713.8 23941.1 16515.5 16365.8 16227 15633.6 24371.4
threshold=1998.5000000000002 1.0000000180025095e-35 73.100000000000009 10.381210855076036 2.5000000000000004 12.052443659807267 153267.50000000003 30723.500000000004 253801.50000000003 12.885434365357701 2.5000000000000004 101384.50000000001 99901.000000000015 13.466256512014908 2.5000000000000004 2396.5000000000005 116740.50000000001 2.5000000000000004 7.2113478298466758 110.64285700000001 8.5457084092551998 1.0000000180025095e-35 13.800502882857462 12.967626112459937 12.800502922008993 4.5000000000000009 11.885434328276213 318585.00000000006 13.299019056159368 1.5000000000000002
decision_type=2 2 2 2 2 2 2 2 2 2 2 2 2 2 2 2 2 2 2 2 2 2 2 2 2 2 2 2 2 2
left_child=1 2 27 8 5 -5 7 -7 -4 -9 12 -6 13 -11 16 26 17 -2 21 20 -20 -17 23 24 -8 -14 -16 -1 -19 -30
right_child=14 -3 3 4 11 6 22 9 -10 10 -12 -13 25 -15 15 18 -18 28 19 -21 -22 -23 -24 -25 -26 -27 -28 -29 29 -31
leaf_value=0.024751379698452831 -2.3908047212494745 0.52293296008868106 -0.041547566079052495 -1.1407874240083569 -3.9430315462025733 -4.2482372808456423 2.3842655123054208 0.45159386262996959 2.579920542240143 -3.0983799700737 -0.19078742788964614 -1.3651229418532544 -5.7662432968616493 0.72855060717155196 0.30367030217494384 0.54190319661508535 0.22099700963985877 -0.11583111523696728 2.1134981028162518 -1.6385477843653895 -0.067379127321689117 3.5406335294246674 0.094245225664169083 4.8158848416805276 -1.3562657177448274 -1.9337920107624749 1.5322509413740852 -0.84671544668575138 -4.1545903858931172 -0.66329033271549576
leaf_weight=19782 54 751 4279 553 44 20 77 277 44 25 173 291 23 29 179 57 2113 1312 52 92 492 32 63 20 22 22 275 216 23 153
leaf_count=19782 54 751 4279 553 44 20 77 277 44 25 173 291 23 29 179 57 2113 1312 52 92 492 32 63 20 22 22 275 216 23 153
internal_value=0 -0.0200207 -0.0357279 -0.207017 -0.713833 -0.45953 0.0421141 -0.394337 -0.014866 -0.25394 -0.972444 -1.70371 -2.33837 -1.04318 0.110628 0.463036 -0.00304957 -0.31006 0.0968189 -0.116344 0.141087 1.6201 1.40662 2.10141 1.55304 -3.8926 1.04785 0.0153386 -0.234549 -1.11954
internal_weight=0 26711 25960 5962 1639 1304 751 569 4323 549 272 335 99 54 4834 1179 3655 1542 725 636 544 89 182 119 99 45 454 19998 1488 176
internal_count=31545 26711 25960 5962 1639 1304 751 569 4323 549 272 335 99 54 4834 1179 3655 1542 725 636 544 89 182 119 99 45 454 19998 1488 176
is_linear=0
shrinkage=0.1


Tree=79
num_leaves=31
num_cat=0
split_feature=7 3 0 2 2 6 1 2 1 4 7 0 2 0 11 5 6 2 1 6 1 2 1 2 3 2 8 8 0 1
split_gain=6810.28 9963.71 19508.7 21941.8 19792.9 22281.8 17720.9 12885.6 24322.2 11969.4 11372.2 17808.5 14887.7 13420.6 11156.9 22650 11789.2 15246.2 15933.4 13612.9 11503.5 12915 11039.9 26123.1 20402.9 34307.6 20396.7 14811.4 11856.6 17321
threshold=1.0000000180025095e-35 4.5000000000000009 2494.5000000000005 14.216827018981308 14.216827224845185 3.5000000000000004 206374.00000000003 14.052443649551043 235706.00000000003 3.5000000000000004 3.5000000000000004 1987.5000000000002 14.13189551363803 1784.5000000000002 1.0000000180025095e-35 2.5000000000000004 3.5000000000000004 14.052443525536576 301719.50000000006 2.5000000000000004 33700.500000000007 4.3757313781456642 41968.500000000007 12.381210673512902 2.5000000000000004 8.296279149929644 58.249999500000008 70.380952000000022 2387.0000000000005 178908.50000000003
decision_type=2 2 2 2 2 2 2 2 2 2 2 2 2 2 2 2 2 2 2 2 2 2 2 2 2 2 2 2 2 2
left_child=-1 2 3 7 5 -5 9 22 10 -7 -9 12 -12 -14 16 20 19 18 -18 -3 -16 -22 23 26 25 -24 -2 -27 -26 -30
right_child=1 14 -4 4 -6 6 -8 8 -10 -11 11 -13 13 -15 15 -17 17 -19 -20 -21 21 -23 24 -25 28 27 -28 -29 29 -31
leaf_value=-0.20054905401112763 3.0388135502735776 -0.045984940957572898 -1.6171693303368309 -0.018917180430978092 -0.29645995892835469 1.0577282207450647 4.3073759525052964 1.2358882571591272 -2.7173988337102148 3.5802383790413539 -1.5747797161340715 -2.3088324631963455 -1.0352255237102508 2.124455274895924 1.1170508944496667 1.1359483811411806 -0.076163007879881756 -0.90083234114048294 -2.1266323108422127 0.30171414688843623 2.3869066531685266 -0.058016304413003553 1.0203579582273961 -2.6295908341805143 0.067386352875359476 -5.1164086442102086 0.55162932011108767 -1.5909111004179488 0.40473835742514996 2.6701597224175933
leaf_weight=1607 36 2953 66 67 89 87 31 45 46 24 32 42 20 41 97 234 13939 231 38 1820 22 1205 32 24 8021 22 392 26 216 40
leaf_count=1607 36 2953 66 67 89 87 31 45 46 24 32 42 20 41 97 234 13939 231 38 1820 22 1205 32 24 8021 22 392 26 216 40
internal_value=0 0.010765 0.0960452 0.10816 0.952431 1.48425 2.1935 0.080314 -0.665271 1.60314 -0.140838 -0.599746 0.172099 1.08849 -0.0282607 0.228991 -0.0493764 -0.0950549 -0.0817377 0.0865967 0.0686981 -0.0141791 0.0994424 0.580809 0.073407 -1.51592 0.760832 -3.20676 0.0887684 0.75871
internal_weight=0 29938 9399 9333 298 209 142 9035 226 111 180 135 93 61 20539 1558 18981 14208 13977 4773 1324 1227 8809 452 8357 80 428 48 8277 256
internal_count=31545 29938 9399 9333 298 209 142 9035 226 111 180 135 93 61 20539 1558 18981 14208 13977 4773 1324 1227 8809 452 8357 80 428 48 8277 256
is_linear=0
shrinkage=0.1


Tree=80
num_leaves=31
num_cat=0
split_feature=0 8 7 2 8 0 8 2 2 2 1 2 2 5 6 2 4 1 1 1 1 1 2 2 3 2 2 6 2 1
split_gain=6543.97 15270.7 11370.8 11031.3 12315.4 12222.4 11389.4 57375.3 56361 40876.5 42315.2 24942.9 32319.3 23912.9 15618.4 15198.6 14486.8 41578.6 18368.6 23738.6 21038.6 18466.4 14736.7 13671.6 13229.3 14898.2 13218.3 12946.7 30992.7 13418
threshold=1653.5000000000002 66.119047000000009 1.0000000180025095e-35 3.2086081128967288 77.000000000000014 1889.0000000000002 71.261904000000015 8.5457084092551998 8.2962792918931179 9.7155714935771851 32283.000000000004 14.13189551363803 14.052443649551043 2.5000000000000004 3.5000000000000004 5.627900343178081 1.0000000180025095e-35 52263.000000000007 194705.00000000003 279437.00000000006 247186.50000000003 31405.000000000004 10.381210753157612 13.967626134023268 3.5000000000000004 14.052443525536576 14.131895651135594 6.5000000000000009 8.882694809487294 235706.00000000003
decision_type=2 2 2 2 2 2 2 2 2 2 2 2 2 2 2 2 2 2 2 2 2 2 2 2 2 2 2 2 2 2
left_child=1 -1 -2 4 -4 -6 7 8 13 10 -9 12 16 -5 -8 -15 18 -18 21 20 -20 -11 -19 -24 -23 -26 -13 28 -12 -29
right_child=2 -3 3 6 5 -7 14 9 -10 11 27 26 -14 15 -16 -17 17 22 19 -21 -22 24 23 -25 25 -27 -28 29 -30 -31
leaf_value=-0.06811458878336811 -0.28091107332628829 -1.2066708728050193 1.5062145106348339 0.90398793907215202 -2.1587519775737416 1.2140566485268731 0.16393721193377656 -2.132895922028657 1.9662200534041958 1.0318017763170331 -1.6093354980568759 2.6778009126352713 -2.3447090422665631 0.87473171398324789 -0.081152601530934523 -0.23532349029454319 -2.6947793449958168 0.55672428821716824 1.2428116968993483 -1.7768140429258346 4.5871043073634308 -2.0776809886649805 -0.19705451684048811 1.747784065878069 0.1644448807481998 -2.1943219140723902 0.76763721703835164 0.067267783224016581 -0.19696109209707197 -2.5544606482982637
leaf_weight=6430 1171 120 102 525 22 21 3410 132 279 242 208 43 54 159 10947 550 60 359 87 20 24 27 1565 37 3244 27 230 816 614 20
leaf_count=6430 1171 120 102 525 22 21 3410 132 279 242 208 43 54 159 10947 550 60 359 87 20 24 27 1565 37 3244 27 230 816 614 20
internal_value=0 -0.0889736 0.0233158 0.0382691 0.907838 -0.511566 0.0329443 0.119013 0.682633 0.00981122 -0.40973 0.134579 0.0902072 0.392421 -0.0229401 0.013617 0.113307 -0.101705 0.231678 1.39449 1.9659 0.188647 -0.0223653 -0.152136 0.126778 0.144975 1.06851 -0.272542 -0.55435 0.00454701
internal_weight=0 6550 24995 23824 145 43 23679 9322 1513 7809 1790 6019 5746 1234 14357 709 5692 2021 3671 131 111 3540 1961 1602 3298 3271 273 1658 822 836
internal_count=31545 6550 24995 23824 145 43 23679 9322 1513 7809 1790 6019 5746 1234 14357 709 5692 2021 3671 131 111 3540 1961 1602 3298 3271 273 1658 822 836
is_linear=0
shrinkage=0.1


Tree=81
num_leaves=31
num_cat=0
split_feature=3 8 1 6 1 2 1 7 6 2 8 1 2 2 5 1 2 3 1 4 2 1 2 2 0 8 0 6 1 8
split_gain=6168.41 11246.1 7430.58 6333.22 11768.1 12507 16124.9 10760.8 10417.8 16906.8 14663.2 12878 11384.7 36011.2 16889.7 40193.2 32816.4 10792.7 18882 11565.3 10371.2 10352.4 18605.7 9977.19 12692.8 9406.03 10035 8828.09 9566.92 9523.32
threshold=5.5000000000000009 107.70833300000002 99901.000000000015 10.500000000000002 25415.000000000004 8.2962792918931179 15313.000000000002 5.5000000000000009 11.500000000000002 6.2113478189397897 58.249999500000008 337857.00000000006 13.800502882857462 13.967626134023268 1.5000000000000002 156426.00000000003 10.800502925080496 4.5000000000000009 121556.00000000001 4.5000000000000009 13.466256512014908 230797.00000000003 10.548448111287895 9.5457084484506272 1797.5000000000002 105.28750000000001 1797.5000000000002 4.5000000000000009 436932.50000000006 71.933333000000019
decision_type=2 2 2 2 2 2 2 2 2 2 2 2 2 2 2 2 2 2 2 2 2 2 2 2 2 2 2 2 2 2
left_child=3 2 -2 27 5 7 -7 -5 9 -6 -11 12 14 -14 15 17 -17 18 19 -12 -16 -10 -23 -8 -25 26 -24 28 -1 -29
right_child=1 -3 -4 4 8 6 23 -9 21 10 11 -13 13 -15 20 16 -18 -19 -20 -21 -22 22 25 24 -26 -27 -28 29 -30 -31
leaf_value=0.050450372989610859 0.060300244787417426 1.9371950623534975 1.5933555272647313 0.295765295718451 -0.38735875502978206 -3.9171839430218656 -2.4432188828786217 -1.5211969754317911 0.034593255822349206 -0.34760657499035991 4.1165811262403933 -1.6650392081056322 -3.3160392992198471 0.69082765817642222 0.40800354267742245 1.0449678235583837 5.778819911926985 -0.40254370837527165 -0.69052334576845176 0.90314727794556393 2.079710538293186 1.5451469898223877 -2.0419573704898357 -1.8130247978937057 1.4392530850001746 -3.0506227773648722 0.15860216395799506 -0.0044216827873027218 -1.7379136498769125 -0.16365286368859744
leaf_weight=10316 327 42 35 159 338 21 24 41 2569 251 24 28 32 75 1587 27 32 68 28 21 38 26 40 21 28 27 43 8545 30 6702
leaf_count=10316 327 42 35 159 338 21 24 41 2569 251 24 28 32 75 1587 27 32 68 28 21 38 26 40 21 28 27 43 8545 30 6702
internal_value=0 0.388237 0.208524 -0.0050367 0.091822 -0.52386 -1.47524 -0.076712 0.126274 0.271332 0.372027 0.464184 0.495043 -0.507488 0.553821 1.42096 3.61248 0.503946 1.34835 2.61698 0.447096 -0.0104182 -0.860672 -0.772763 0.0454197 -1.42932 -0.901908 -0.0260335 0.0452647 -0.0744136
internal_weight=0 404 362 31141 5548 294 94 200 5254 2549 2211 1960 1932 107 1825 200 59 141 73 45 1625 2705 136 73 49 110 83 25593 10346 15247
internal_count=31545 404 362 31141 5548 294 94 200 5254 2549 2211 1960 1932 107 1825 200 59 141 73 45 1625 2705 136 73 49 110 83 25593 10346 15247
is_linear=0
shrinkage=0.1


Tree=82
num_leaves=31
num_cat=0
split_feature=0 11 8 2 4 2 1 5 2 1 1 5 8 2 1 2 2 2 2 2 1 1 1 6 0 2 8 2 2 1
split_gain=6134.5 16852.2 16520.1 46960.2 33616.3 36775.7 38184.7 27830.5 32874.4 25236.5 20524.1 18432.9 15651.9 20448.8 17314.7 23494.5 45808.7 25797.9 24760.9 24673.5 21115.6 19923.4 18745 18308.4 15598.3 16288 21827.1 15542.5 22000.7 33550.7
threshold=1998.5000000000002 1.0000000180025095e-35 73.100000000000009 10.381210855076036 2.5000000000000004 12.052443659807267 143304.00000000003 2.5000000000000004 12.299018842506205 253801.50000000003 101384.50000000001 1.5000000000000002 101.49999950000002 10.466256497482624 163807.50000000003 13.466256322674548 11.885434328276213 11.885434395193943 11.38121058124352 11.214087321352418 301719.50000000006 52263.000000000007 113817.00000000001 1.5000000000000002 1987.5000000000002 3.2086081128967288 77.000000000000014 14.216827079631768 13.800503045091398 132313.50000000003
decision_type=2 2 2 2 2 2 2 2 2 2 2 2 2 2 2 2 2 2 2 2 2 2 2 2 2 2 2 2 2 2
left_child=1 2 -1 9 5 -5 7 8 -7 24 -6 -10 13 -2 15 16 18 -18 19 21 -16 -14 -19 -17 25 26 -4 28 29 -25
right_child=12 -3 3 4 10 6 -8 -9 11 -11 -12 -13 14 -15 20 23 17 22 -20 -21 -22 -23 -24 27 -26 -27 -28 -29 -30 -31
leaf_value=0.011286972783530972 -1.0086199850834248 0.44823850889760908 1.4294841131052145 -1.0234911534847662 -3.5406181871891023 1.4604447276251658 1.2427492058337339 0.15630197870087323 -4.7602616047859199 2.3771264456889845 -1.2233214255870415 -1.5204312393234838 0.66030950290846158 -0.0028667947071519765 0.88459315346969825 -2.647446371614933 4.2684318145116178 0.46586870694497851 -1.2637872444934586 2.1011387915934545 -0.57356725852873369 -0.20722218609909732 1.7984834563600112 -0.29766387699047725 0.11918738963242329 -0.36660675879460164 -1.9747505333112636 -2.1829747648466205 0.49299425506177025 -4.5933467686176304
leaf_weight=19998 237 751 104 553 44 35 198 354 20 44 291 144 355 1375 627 40 24 318 147 59 118 1041 158 75 2656 1496 23 42 194 24
leaf_count=19998 237 751 104 553 44 35 198 354 20 44 291 144 355 1375 627 40 24 318 147 59 118 1041 158 75 2656 1496 23 42 194 24
internal_value=0 -0.01876 -0.0322699 -0.17837 -0.634168 -0.404622 0.0510832 -0.375589 -1.32177 -0.00556127 -1.52768 -1.91553 0.103661 -0.150735 0.230938 0.103805 0.233887 1.0695 -0.0269151 0.0980473 0.653636 0.0133894 0.908207 -0.625352 -0.0300619 -0.274305 0.812969 -0.383908 -0.126021 -1.33904
internal_weight=0 26711 25960 5962 1639 1304 751 553 199 4323 335 164 4834 1612 3222 2477 2102 500 1602 1455 745 1396 476 375 4279 1623 127 335 293 99
internal_count=31545 26711 25960 5962 1639 1304 751 553 199 4323 335 164 4834 1612 3222 2477 2102 500 1602 1455 745 1396 476 375 4279 1623 127 335 293 99
is_linear=0
shrinkage=0.1


Tree=83
num_leaves=31
num_cat=0
split_feature=4 4 1 2 2 2 6 6 1 1 3 2 5 2 1 4 2 2 2 4 2 2 5 6 8 1 6 0 6 2
split_gain=5655.09 10849.6 13865.9 41483 15572.4 13754.3 12653.8 14705.3 11895.5 11134.9 15420.9 10904.1 11903.3 21439.9 22248 10864 14511.5 11716.5 10655.4 10159.6 16431.6 10159 9656.12 12020.8 9550.74 10744.9 9470.4 9910.61 9439.01 13006.2
threshold=7.5000000000000009 1.0000000180025095e-35 93208.500000000015 7.7155714996325715 11.214087479147148 7.7977632416148017 6.5000000000000009 5.5000000000000009 230797.00000000003 290793.50000000006 4.5000000000000009 5.3757314111422287 1.5000000000000002 3.7128318227841999 23448.000000000004 6.5000000000000009 11.214087479147148 10.129156023305759 14.216827158352617 3.5000000000000004 10.718311273639339 7.7155714574286547 1.5000000000000002 5.5000000000000009 111.79761850000001 31405.000000000004 11.500000000000002 2396.5000000000005 6.5000000000000009 12.885434499934819
decision_type=2 2 2 2 2 2 2 2 2 2 2 2 2 2 2 2 2 2 2 2 2 2 2 2 2 2 2 2 2 2
left_child=1 11 3 21 5 -5 7 8 19 26 -11 12 -1 -14 -15 16 17 -10 28 20 -4 24 23 -7 25 -3 27 -8 29 -13
right_child=-2 2 6 4 -6 22 9 -9 15 10 -12 18 13 14 -16 -17 -18 -19 -20 -21 -22 -23 -24 -25 -26 -27 -28 -29 -30 -31
leaf_value=0.25508633449044027 0.086081650457144138 -0.50380739636959571 0.14830544641677371 -2.8661056385040284 -1.4358571721298192 -2.2812107672614435 0.32943638263578467 -0.60255017928170373 -0.11988411144334443 -0.2260417044603012 -2.9774536514282226 0.061123785141653335 0.89934761441987132 -0.81879173463041133 -4.2536410172780359 -1.6045828570554286 -0.77460957708773703 2.364190204681889 -1.9421380678812665 0.076333103904361793 -2.7376751775250714 1.7523647754423082 -0.33064984052628277 -0.45897306822154715 -0.81178797215588983 0.052986018105616164 -0.17583757575146708 -0.85595419031299957 -0.032129053553422826 0.39647525267521699
leaf_weight=71 6145 403 47 25 260 62 2085 563 49 110 25 5858 29 44 33 81 181 31 27 2308 34 31 700 87 163 2476 549 73 7554 1441
leaf_count=71 6145 403 47 25 260 62 2085 563 49 110 25 5858 29 44 33 81 181 31 27 2308 34 31 700 87 163 2476 549 73 7554 1441
internal_value=0 -0.0208257 -0.0996819 -0.239514 -0.756434 -0.554317 -0.0038095 -0.137198 -0.0412647 0.150793 -0.735562 0.0333425 -0.74692 -1.41807 -2.29087 -0.592865 -0.278884 0.842695 0.0426239 0.0377004 -1.06309 -0.0487599 -0.486243 -1.21722 -0.0671145 -0.0249535 0.194996 0.289337 0.0462318 0.12733
internal_weight=0 25400 10343 4207 1134 874 6136 3294 2731 2842 135 15057 177 106 77 342 261 80 14880 2389 81 3073 849 149 3042 2879 2707 2158 14853 7299
internal_count=31545 25400 10343 4207 1134 874 6136 3294 2731 2842 135 15057 177 106 77 342 261 80 14880 2389 81 3073 849 149 3042 2879 2707 2158 14853 7299
is_linear=0
shrinkage=0.1


Tree=84
num_leaves=31
num_cat=0
split_feature=0 8 7 5 3 1 2 1 2 1 2 2 2 2 2 1 2 2 10 6 6 1 6 1 8 1 8 6 1 1
split_gain=5466.9 13111.3 9712.47 10248 15780.9 12442.5 41769.9 29252.8 21764.5 23798.3 19216.4 15099.9 22798.7 15435.4 15374.3 14879.1 10535.1 45418 34948.7 19238.2 18964.1 29131.7 18936.9 16909.5 31221.3 16316 11024.7 11001.9 10393.8 15301.6
threshold=1653.5000000000002 66.119047000000009 1.0000000180025095e-35 2.5000000000000004 4.5000000000000009 269257.50000000006 13.800502882857462 165551.50000000003 13.129155881842857 279437.00000000006 14.052443525536576 11.800502930244749 12.129155819204298 11.052443526333628 12.800502922008993 235706.00000000003 9.5457084484506272 10.381210855076036 1.0000000180025095e-35 8.5000000000000018 11.500000000000002 247186.50000000003 7.5000000000000009 189726.00000000003 105.28750000000001 48677.000000000007 69.19642850000001 6.5000000000000009 100001.00000000001 127700.50000000001
decision_type=2 2 2 2 2 2 2 2 2 2 2 2 2 2 2 2 2 2 2 2 2 2 2 2 2 2 2 2 2 2
left_child=1 -1 3 5 -5 6 16 -8 9 -7 -10 13 -13 -11 -14 -9 18 19 22 -18 21 23 25 24 -19 -2 -25 -28 -27 -30
right_child=2 -3 -4 4 -6 8 7 15 10 11 -12 12 14 -15 -16 -17 17 20 -20 -21 -22 -23 -24 26 -26 28 27 -29 29 -31
leaf_value=-0.061994572444630629 1.1652945680277689 -1.1169806551436583 0.035130813582100295 2.5239789170603597 -0.013616176548167172 2.6920576841934869 -5.8648918338443927 0.15128118991851808 2.4425998107800559 -0.86115613152951376 -0.54446559060703625 -4.5574462981451127 0.42827555537223816 1.3465478530296915 -2.5077060022661763 -3.4593832197643466 -4.2825944916768508 0.66292992039530907 3.0068102919393116 -0.76289980808893842 -3.0299785886492052 -3.1347601757049564 0.83884787222092183 0.071248731942012394 -2.7817437303066255 -2.6584035139841338 1.2339726484027402 4.1995453173463995 1.3082372422019641 -1.7537831513905058
leaf_weight=6430 28 120 23824 31 117 23 23 25 62 81 33 21 42 52 31 21 44 106 36 24 21 25 87 29 35 48 29 22 24 51
leaf_count=6430 28 120 23824 31 117 23 23 25 62 81 33 21 42 52 31 21 44 106 36 24 21 25 87 29 35 48 29 22 24 51
internal_value=0 -0.0813226 0.0213108 -0.259858 0.517907 -0.372379 -0.621157 -2.95301 0.116523 -0.373094 1.40499 -0.68366 -1.65381 0.00200633 -0.818511 -1.49707 -0.356957 -0.733109 0.102936 -3.04035 -0.145497 0.10074 -0.336305 0.466746 -0.192131 -1.01338 1.62802 2.51324 -1.50934 -0.773937
internal_weight=0 6550 24995 1171 148 1023 678 69 345 250 95 227 94 133 73 46 609 335 274 68 267 246 238 221 141 151 80 51 123 75
internal_count=31545 6550 24995 1171 148 1023 678 69 345 250 95 227 94 133 73 46 609 335 274 68 267 246 238 221 141 151 80 51 123 75
is_linear=0
shrinkage=0.1


Tree=85
num_leaves=31
num_cat=0
split_feature=3 0 2 2 2 1 6 0 1 1 5 2 8 4 2 2 5 0 7 4 2 1 1 2 7 2 1 1 2 2
split_gain=4967.81 15134.6 18533.7 19939.4 14597.2 28248.2 14346.8 13256.4 25881.5 32603.4 15909.8 16193.9 15859.8 13969.3 13115.1 12413.4 18138.2 11745.7 11265.2 12198.9 10531.2 9944.56 30012.4 24439 18532 17785.8 19872.2 17967.4 13503.3 12775.3
threshold=4.5000000000000009 2494.5000000000005 14.216827018981308 14.216827224845185 14.052443649551043 235706.00000000003 3.5000000000000004 2387.0000000000005 123304.50000000001 111103.50000000001 1.5000000000000002 8.3784709779336115 107.53333300000001 5.5000000000000009 14.216827079631768 7.3784710793934805 2.5000000000000004 1987.5000000000002 4.5000000000000009 5.5000000000000009 14.216827035688331 6100.5000000000009 35254.500000000007 6.2113477738536842 4.5000000000000009 7.7977633451024291 42603.500000000007 209903.50000000003 7.7155714996325715 7.5457085690999843
decision_type=2 2 2 2 2 2 2 2 2 2 2 2 2 2 2 2 2 2 2 2 2 2 2 2 2 2 2 2 2 2
left_child=1 2 4 6 7 17 14 13 9 -9 -10 -12 -13 21 -4 -15 -17 18 19 -6 -2 23 29 24 -1 26 -24 28 -28 -23
right_child=20 -3 3 -5 5 -7 -8 8 10 -11 11 12 -14 15 -16 16 -18 -19 -20 -21 -22 22 25 -25 -26 -27 27 -29 -30 -31
leaf_value=-2.0604158661582255 -0.021632193869057053 -1.4532683740962637 1.7659960107505321 -0.43235956549644472 1.8376700588564079 -2.6475592282311671 1.7982486225933916 0.48527546661093057 3.7883583024144176 -3.4478318085273112 3.231904027525049 1.7479793071746828 -1.6010485814167905 0.57731160336110832 -0.9215356243045435 0.18094866726024889 -1.0329477248769818 -1.3768340914337724 -0.95376505147327073 -0.5560310063940106 -0.8142135183839404 2.1470312588127505 -3.1214297564966338 -3.9820247341286059 1.9190912523269654 0.0011431734956811269 -0.41961962094629657 1.5767334343389026 -2.2675461732915472 0.46641653487268758
leaf_weight=22 20896 66 30 95 60 58 166 173 32 24 26 31 26 751 46 1824 132 54 44 33 169 84 28 22 25 5769 676 43 42 98
leaf_count=22 20896 66 30 95 60 58 166 173 32 24 26 31 26 751 46 1824 132 54 44 33 169 84 28 22 25 5769 676 43 42 98
internal_value=0 0.0562623 0.0658291 0.795324 0.0414329 -0.714707 1.27727 0.0605903 0.701993 0.00611519 1.89406 1.16373 0.220353 0.0395607 0.139332 0.231719 0.0990293 -0.127767 0.364566 0.988292 -0.0279909 -0.0368339 -0.0246062 -1.23125 0.0563432 -0.0597599 -0.50507 -0.408805 -0.527716 1.24208
internal_weight=0 10480 10414 337 10077 249 242 9828 312 197 115 83 57 9516 76 2707 1956 191 137 93 21065 6809 6740 69 47 6558 789 761 718 182
internal_count=31545 10480 10414 337 10077 249 242 9828 312 197 115 83 57 9516 76 2707 1956 191 137 93 21065 6809 6740 69 47 6558 789 761 718 182
is_linear=0
shrinkage=0.1


Tree=86
num_leaves=31
num_cat=0
split_feature=1 2 2 2 6 3 2 8 2 2 6 3 1 6 8 2 1 7 1 3 2 0 2 6 2 2 8 5 2 1
split_gain=5172.99 24477.3 15490.2 21677.2 11762 9736.24 33984.6 10591.3 5540.46 5534.34 5310.68 9671.52 10404 8360.09 8988.89 17111.6 18946.9 17361.5 27461.6 13915.1 30236.8 13037.6 23385.3 24474.6 22441.2 20347.6 11946.4 19929 17381.6 15566.5
threshold=13952.000000000002 10.718311104464735 9.6306400247916866 8.6306398721604456 7.5000000000000009 4.5000000000000009 4.879955035284862 73.100000000000009 7.2962792698460364 6.2113477306531157 9.5000000000000018 5.5000000000000009 99901.000000000015 4.5000000000000009 73.100000000000009 14.216827224845185 185261.50000000003 1.0000000180025095e-35 157894.00000000003 4.5000000000000009 9.4635166539127926 1889.0000000000002 5.2935395649344432 6.5000000000000009 5.2086080770159571 4.879955035284862 108.42500000000001 2.5000000000000004 7.0497039337396776 138606.00000000003
decision_type=2 2 2 2 2 2 2 2 2 2 2 2 2 2 2 2 2 2 2 2 2 2 2 2 2 2 2 2 2 2
left_child=1 2 3 5 -5 6 -1 8 9 -7 11 13 -13 -2 -15 16 17 18 -16 20 -18 24 23 25 -19 -23 27 -24 -28 -29
right_child=10 -3 -4 4 -6 7 -8 -9 -10 -11 -12 12 -14 14 15 -17 19 21 -20 -21 -22 22 26 -25 -26 -27 28 29 -30 -31
leaf_value=-0.56476723648781002 0.031391032468878276 -2.158884963240379 2.1115334692001344 -3.6662580919265753 -0.31552594466642903 0.075558201223611843 3.4110085898533811 0.91219973435248347 0.71802871046644279 -0.92287474324845753 0.064285748539433404 0.38906627602047394 2.5736017107963565 -0.024693655981300397 -0.75876855496521844 -2.9202528388603874 3.2759184534733112 -0.49109204568701081 -4.8512669849395751 -0.50570021944792098 0.36299054983453083 -1.2456972903572023 -0.32877564441370516 2.1448017287322068 -2.8889444524688379 1.5116039583540481 -0.022788820480227744 0.41178252663637172 -0.85407656314126612 -1.1979187017908464
leaf_weight=43 10180 39 50 20 22 140 43 163 66 92 7973 135 26 7817 91 23 39 552 20 147 413 64 1325 88 42 46 439 793 589 65
leaf_count=43 10180 39 50 20 22 140 43 163 66 92 7973 135 26 7817 91 23 39 552 20 147 413 64 1325 88 42 46 439 793 589 65
internal_value=0 0.273236 0.421675 0.278224 -1.91111 0.446326 1.42312 0.264104 -0.0903907 -0.320372 -0.00600168 -0.0304798 0.741848 -0.0359496 -0.0905602 -0.199276 -0.185998 -0.262505 -1.49616 0.339462 0.614327 -0.228297 -0.152964 0.901776 -0.660637 -0.092644 -0.218002 -0.0856385 -0.499081 0.289835
internal_weight=0 678 639 589 42 547 86 461 298 232 30867 22894 161 22733 12553 4736 4713 4114 111 599 452 4003 3409 198 594 110 3211 2183 1028 858
internal_count=31545 678 639 589 42 547 86 461 298 232 30867 22894 161 22733 12553 4736 4713 4114 111 599 452 4003 3409 198 594 110 3211 2183 1028 858
is_linear=0
shrinkage=0.1


Tree=87
num_leaves=31
num_cat=0
split_feature=0 2 11 1 2 2 2 8 4 1 6 1 2 1 5 1 4 3 1 1 8 1 4 3 1 1 8 2 2 4
split_gain=5183.33 13724.1 12941.2 14614.7 12799.1 54960.1 21534.7 20767 20609 19725.5 26845.7 33595.3 22542.1 16933.6 22294.2 16612.7 20910.4 17152.7 14622 14493.1 22402.3 17736.8 21381.3 14704.1 13973.2 13923.7 17540 21019.3 21115.9 15818
threshold=1998.5000000000002 5.627900343178081 1.0000000180025095e-35 127700.50000000001 11.885434328276213 11.885434395193943 11.299018898358916 107.38750000000002 5.5000000000000009 169199.50000000003 9.5000000000000018 185261.50000000003 11.885434486382373 174904.50000000003 1.5000000000000002 103745.00000000001 4.5000000000000009 4.5000000000000009 203374.00000000003 165551.50000000003 97.499999500000015 157894.00000000003 3.5000000000000004 4.5000000000000009 253801.50000000003 108905.00000000001 110.64285700000001 7.9648866523956254 7.3784710198960282 5.5000000000000009
decision_type=2 2 2 2 2 2 2 2 2 2 2 2 2 2 2 2 2 2 2 2 2 2 2 2 2 2 2 2 2 2
left_child=2 -2 -1 -4 6 -6 13 15 9 12 11 -11 -9 25 24 16 17 -7 19 21 -21 23 -23 -17 -15 26 -3 28 -28 -30
right_child=1 4 3 -5 5 7 -8 8 -10 10 -12 -13 -14 14 -16 18 -18 -19 -20 20 -22 22 -24 -25 -26 -27 27 -29 29 -31
leaf_value=-0.029083229812320956 1.5499350504018368 0.230832523607711 0.20827676585351584 1.4512543407612826 4.1749514710903171 -1.3254136106260777 -0.80878032179157755 -2.4590849535805841 1.8218356729499878 -3.3007412122643518 -4.0177593340476356 1.1645987798297217 0.91196631247271387 3.6655935506562929 0.29228251307081859 -0.10428770644809005 -2.452097884504771 0.10368381352820739 -0.28343010374939587 -0.0077716733807715295 1.9112112068960851 -3.4714967570134569 0.17032085813974079 0.99735220477614606 0.5674141168594361 -0.51231606619543402 -0.27449340152740481 1.1616215944290162 -4.817384535294992 -1.2051147001710805
leaf_weight=25960 64 1125 640 111 35 114 352 21 126 23 21 63 358 37 226 281 49 319 415 107 141 28 38 213 24 521 50 34 27 22
leaf_count=25960 64 1125 640 111 35 114 352 21 126 23 21 63 358 37 226 281 49 319 415 107 141 28 38 213 24 521 50 34 27 22
internal_value=0 0.0952864 -0.0172444 0.391992 0.0757691 0.241858 -0.0857864 0.182446 0.682147 0.386673 -0.812339 -0.0296201 0.72518 0.0373956 0.750177 0.00308057 -0.494139 -0.272568 0.199041 0.446845 1.08326 0.165003 -1.37469 0.370711 2.44664 -0.077595 0.102444 -0.983545 -1.72027 -3.19555
internal_weight=0 4834 26711 751 4770 2352 2418 2317 612 486 107 86 379 2066 287 1705 482 433 1223 808 248 560 66 494 61 1779 1258 133 99 49
internal_count=31545 4834 26711 751 4770 2352 2418 2317 612 486 107 86 379 2066 287 1705 482 433 1223 808 248 560 66 494 61 1779 1258 133 99 49
is_linear=0
shrinkage=0.1


Tree=88
num_leaves=31
num_cat=0
split_feature=0 8 2 8 1 2 2 5 11 2 1 2 4 2 1 6 2 2 1 5 2 1 2 2 0 2 2 1 7 1
split_gain=4664.41 11356.1 7896.19 82791.2 29867.5 24075 20315.4 22029.3 19450.9 15775.9 14420.1 14411.4 25174.5 21503.1 19484.7 14689.1 13062.7 12874.2 22278.9 12676.3 27165.9 26497.5 26471.1 46214.7 21829.6 20798.4 32089.2 19205.6 28565.2 14655.2
threshold=1653.5000000000002 66.119047000000009 8.5457084092551998 70.642856500000008 6100.5000000000009 8.7155715263263307 8.3784709779336115 2.5000000000000004 1.0000000180025095e-35 7.0497040002582461 98203.500000000015 6.2113477738536842 1.0000000180025095e-35 7.8826948761610574 200461.50000000003 6.5000000000000009 8.2962792918931179 8.049703866539339 72302.500000000015 2.5000000000000004 12.38121081195105 100001.00000000001 11.214087356844512 11.129155930014244 2396.5000000000005 10.718311046827838 10.718311104464735 98203.500000000015 4.5000000000000009 60842.000000000007
decision_type=2 2 2 2 2 2 2 2 2 2 2 2 2 2 2 2 2 2 2 2 2 2 2 2 2 2 2 2 2 2
left_child=1 -1 3 10 -4 -6 7 11 16 -10 -2 14 13 -13 -5 17 -9 -15 -19 21 -21 22 23 24 25 27 -27 29 -29 -7
right_child=2 -3 4 6 5 19 -8 8 9 -11 -12 12 -14 15 -16 -17 -18 18 -20 20 -22 -23 -24 -25 -26 26 -28 28 -30 -31
leaf_value=-0.057129291038262087 1.0600324739819591 -1.0389656059164556 -3.2884127616017524 0.45571474479694407 -0.7551952137266873 -0.67591311260814368 -1.0528803142614265 -0.12439947993015872 0.26061591740463164 2.092803665655 2.3617583329307621 0.2763170433686053 -0.10594237004598446 2.1517005223494308 3.6004915189743047 2.5745114860655391 1.8714118029132036 1.2546584584211049 -2.8038937137240456 0.012885620062994752 0.59357228395849293 0.056440946155681682 -0.58380418661134648 3.3347672042250638 0.90490827705555921 3.4017139350666721 0.15149423940139906 -0.025379785398642225 -5.0140060571107004 0.016133243761868431
leaf_weight=6430 206 120 28 1323 432 612 169 5251 143 70 145 497 1749 39 20 79 33 38 21 3862 1018 6446 1605 40 192 34 285 24 22 612
leaf_count=6430 206 120 28 1323 432 612 169 5251 143 70 145 497 1749 39 20 79 33 38 21 3862 1018 6446 1605 40 192 34 285 24 22 612
internal_value=0 -0.0751171 0.0196846 0.0897719 -0.0253893 -0.0193721 0.0336532 0.0534766 -0.0741679 0.862743 1.59778 0.239791 0.0941537 0.613394 0.502547 1.55988 -0.111935 0.741955 -0.189911 0.00217585 0.134021 -0.0629987 -0.287724 -0.0267629 -0.102261 -0.223957 0.497913 -0.405278 -2.41124 -0.32989
internal_weight=0 6550 24995 9783 15212 15184 9432 9263 5497 213 351 3766 2423 674 1343 177 5284 98 59 14752 4880 9872 3426 1821 1781 1589 319 1270 46 1224
internal_count=31545 6550 24995 9783 15212 15184 9432 9263 5497 213 351 3766 2423 674 1343 177 5284 98 59 14752 4880 9872 3426 1821 1781 1589 319 1270 46 1224
is_linear=0
shrinkage=0.1


Tree=89
num_leaves=31
num_cat=0
split_feature=0 1 2 4 2 1 1 1 2 1 2 3 5 2 6 2 2 4 2 0 1 7 2 4 5 2 2 1 1 7
split_gain=4566.8 15564.4 9963.46 12449.8 11171.2 13969.7 16593.4 7462.23 7116.94 12878.3 12300.7 15266 10286.6 12999.5 10166.8 9498.97 30297.1 24412.5 20646.5 20309.2 19170.4 17289.2 13006.7 37993.4 21761.2 17389.4 15875.5 26208.5 24644.9 13801.2
threshold=2494.5000000000005 37302.000000000007 10.967626342517006 3.5000000000000004 11.885434486382373 67416.500000000015 100001.00000000001 70246.000000000015 14.216827018981308 72302.500000000015 14.216827224845185 4.5000000000000009 1.5000000000000002 14.216827158352617 10.500000000000002 13.800502882857462 13.800503045091398 3.5000000000000004 13.718311295379214 1998.5000000000002 149115.00000000003 4.5000000000000009 13.885434373431893 3.5000000000000004 2.5000000000000004 13.967626134023268 14.052443649551043 185261.50000000003 235706.00000000003 3.5000000000000004
decision_type=2 2 2 2 2 2 2 2 2 2 2 2 2 2 2 2 2 2 2 2 2 2 2 2 2 2 2 2 2 2
left_child=8 -2 -3 4 7 -6 -7 -4 15 -10 11 12 13 -11 -14 18 17 19 -1 21 -20 -17 23 24 -18 -24 27 -27 29 -28
right_child=1 2 3 -5 5 6 -8 -9 9 10 -12 -13 14 -15 -16 16 22 -19 20 -21 -22 -23 25 -25 -26 26 28 -29 -30 -31
leaf_value=0.0032968723362607026 1.8930423057996313 0.62287351152171266 -3.1600483200766827 -2.6075448702543209 2.147257497906685 -2.1175239731971587 1.0668763331572215 -0.71769232338872457 -1.0709090868460722 4.0610733516238353 -0.39572817803670968 0.09214257395080247 0.63308732838026793 0.92827062790210446 2.8478220247974 -3.2456384739360296 3.4557418859523277 0.24422408473200916 0.63767045647539999 -5.5145864987373354 3.6608395588066842 0.1192455686055697 -0.97006606796433115 -1.9888196433401284 0.34504376690496102 -0.046351091028686536 0.84474029106905268 1.6674387581582764 -2.2911829642951491 -0.59687096940950279
leaf_weight=29223 26 46 22 39 24 36 30 29 58 27 120 191 152 26 24 37 46 41 94 20 27 26 242 34 44 376 98 117 64 206
leaf_count=29223 26 46 22 39 24 36 30 29 58 27 120 191 152 26 24 37 46 41 94 20 27 26 242 34 44 376 98 117 64 206
internal_value=0 -0.423998 -0.69056 -1.02622 -0.588826 0.0812179 -0.670069 -1.77126 0.00341442 0.345084 0.497172 0.752286 1.30289 2.52423 0.935097 -0.00324198 -0.262502 -1.75215 0.00869439 -2.73831 1.31226 -1.85696 -0.111959 0.859082 1.93496 -0.221124 -0.0106205 0.36037 -0.507627 -0.132141
internal_weight=0 252 226 180 141 90 66 51 31293 598 540 420 229 53 176 30695 1351 124 29344 83 121 63 1227 124 90 1103 861 493 368 304
internal_count=31545 252 226 180 141 90 66 51 31293 598 540 420 229 53 176 30695 1351 124 29344 83 121 63 1227 124 90 1103 861 493 368 304
is_linear=0
shrinkage=0.1


Tree=90
num_leaves=31
num_cat=0
split_feature=7 7 1 3 2 0 2 7 8 1 2 1 4 1 2 2 8 0 8 8 1 5 8 2 2 2 1 5 4 2
split_gain=4684.96 9857.65 9458.27 9208.68 20609 13363.7 8466.2 7813.04 12355.6 12242.9 13052.5 15859.2 39266.7 11558.7 16500.4 12129.2 9785.51 12718.1 9919.1 11146.1 11348.4 9751.34 13837 9693.23 38761.1 13631.3 14431.4 14270.1 10843.6 9672
threshold=4.5000000000000009 3.5000000000000004 374007.00000000006 3.5000000000000004 11.21408740296715 1889.0000000000002 13.129155881842857 5.5000000000000009 101.49999950000002 6100.5000000000009 10.466256497482624 150451.50000000003 2.5000000000000004 25415.000000000004 9.5457084484506272 8.5457084092551998 73.100000000000009 1797.5000000000002 108.42500000000001 110.64285700000001 65402.000000000007 2.5000000000000004 59.466666500000009 8.6306398721604456 8.296279149929644 9.7977632278899858 32972.500000000007 2.5000000000000004 7.5000000000000009 8.1264161302764748
decision_type=2 2 2 2 2 2 2 2 2 2 2 2 2 2 2 2 2 2 2 2 2 2 2 2 2 2 2 2 2 2
left_child=1 2 -1 6 -5 -6 -4 16 9 -9 11 13 -13 14 -11 21 17 -2 -18 -20 -21 22 -15 24 -19 26 -25 -27 -28 -24
right_child=7 -3 3 4 5 -7 -8 8 -10 10 -12 12 -14 15 -16 -17 18 23 19 20 -22 -23 29 25 -26 27 28 -29 -30 -31
leaf_value=0.053613981035543504 0.027610373978430282 -0.12037194604718736 -2.9221191262205441 -2.4401902373347966 -1.1326629244762918 1.8660281612759544 -0.30418231714339483 2.212326338074424 0.099159402288702153 -1.1956661463892739 0.03736881309387808 -4.0545569294377382 -0.47643528773490368 -1.4509565818847883 1.2059112902843592 -0.46934582724579077 -0.16351766505123255 0.34843873561205041 1.4096843002473607 -0.48728499408615261 0.77011334982645874 -0.16064686598365799 0.41845793965854017 -2.606503099661607 2.1377838895627947 0.13091675396662297 -0.36800747187756705 1.2202823938243093 1.2030622743368149 1.9769414892213213
leaf_weight=7811 2547 7614 30 28 23 42 21 22 4087 215 2004 38 159 36 33 760 1786 1461 85 152 136 850 346 26 132 484 362 160 50 45
leaf_count=7811 2547 7614 30 28 23 42 21 22 4087 215 2004 38 159 36 33 760 1786 1461 85 152 136 850 346 26 132 484 362 160 50 45
internal_value=0 -0.0390383 0.0388088 -0.764269 -0.172079 0.804953 -1.84415 0.0380438 -0.0267615 -0.140923 -0.152463 -0.305736 -1.16663 -0.231515 -0.876101 -0.153038 0.113508 0.187544 -0.0655634 0.403462 0.106486 0.0352111 0.425092 0.339825 0.496708 0.108849 -0.32154 0.401567 -0.177344 0.597823
internal_weight=0 15569 7955 144 93 65 51 15976 8595 4508 4486 2482 197 2285 248 2037 7381 5222 2159 373 288 1277 427 2675 1593 1082 438 644 412 391
internal_count=31545 15569 7955 144 93 65 51 15976 8595 4508 4486 2482 197 2285 248 2037 7381 5222 2159 373 288 1277 427 2675 1593 1082 438 644 412 391
is_linear=0
shrinkage=0.1


Tree=91
num_leaves=31
num_cat=0
split_feature=1 2 2 2 6 3 2 8 3 1 2 0 2 2 3 1 1 2 0 1 1 4 10 1 6 2 7 5 1 1
split_gain=4384.27 18629.2 12623.4 15148.4 9089.95 7646.45 27389.8 8863.03 5408.72 17767 12225.8 10656.2 13253.2 12432.4 11180.7 19539.8 17952.1 21417.8 12114.5 18712.2 26834.6 20372.5 17316.7 10599.5 10402 10597.5 10287.1 9378.54 8751.07 8450.5
threshold=13952.000000000002 10.718311104464735 9.6306400247916866 8.6306398721604456 7.5000000000000009 4.5000000000000009 5.2935395649344432 73.100000000000009 4.5000000000000009 31405.000000000004 9.7155714935771851 2494.5000000000005 14.216827018981308 14.216827224845185 3.5000000000000004 72302.500000000015 99901.000000000015 10.299019022915134 2362.5000000000005 123304.50000000001 111103.50000000001 3.5000000000000004 1.0000000180025095e-35 59807.500000000007 3.5000000000000004 14.216827079631768 1.0000000180025095e-35 1.5000000000000002 150451.50000000003 230797.00000000003
decision_type=2 2 2 2 2 2 2 2 2 2 2 2 2 2 2 2 2 2 2 2 2 2 2 2 2 2 2 2 2 2
left_child=1 2 3 5 -5 6 -1 -7 9 10 -2 12 14 24 15 23 17 -17 26 20 -20 -21 -23 -11 25 -14 -16 -15 -29 -26
right_child=8 -3 -4 4 -6 7 -8 -9 -10 11 -12 -13 13 27 18 16 -18 -19 19 21 -22 22 -24 -25 29 -27 -28 28 -30 -31
leaf_value=-0.33016511549552285 0.59520922509150775 -1.8702347339727941 1.9065343360900879 -3.1215891325473786 -0.17595361769199372 -0.093699740858720432 3.2634503659449123 0.82344873012757747 -0.035317018262253072 -1.1755123492998956 2.6077755130827427 -1.2297872530691552 1.5354486926396689 -1.7354248216075281 -0.30803323535041677 -0.41172276301817456 -0.45714964772867639 4.1098105680942538 0.52628854264505209 3.4062237368073576 -3.0595509320497514 1.8420510840970417 -1.4676070613861085 -3.962130003883725 1.1303793245688416 -0.88039734988756801 0.059883825203997237 -1.2895567121959868 1.2008862677008607 2.9181529476787107
leaf_weight=48 123 39 50 20 22 298 38 163 20489 39 40 66 30 31 837 22 321 20 160 43 24 43 25 21 133 46 8257 21 43 33
leaf_count=48 123 39 50 20 22 298 38 163 20489 39 40 66 30 31 837 22 321 20 160 43 24 43 25 21 133 46 8257 21 43 33
internal_value=0 0.251545 0.381043 0.251545 -1.57864 0.392071 1.25771 0.230585 -0.00552524 0.0532918 1.08909 0.0367637 0.0450002 0.661614 0.0238222 -0.479093 -0.202773 1.74139 0.0464799 0.677161 0.0585704 1.70257 0.625265 -2.15083 1.04217 0.0732261 0.0260212 -0.307797 0.38371 1.48578
internal_weight=0 678 639 589 42 547 86 461 30867 10378 163 10215 10149 337 9812 423 363 42 9389 295 184 111 68 60 242 76 9094 95 64 166
internal_count=31545 678 639 589 42 547 86 461 30867 10378 163 10215 10149 337 9812 423 363 42 9389 295 184 111 68 60 242 76 9094 95 64 166
is_linear=0
shrinkage=0.1


Tree=92
num_leaves=31
num_cat=0
split_feature=2 2 1 1 1 9 6 7 4 2 1 4 0 2 3 2 5 1 6 5 1 1 7 4 2 4 11 0 8 4
split_gain=4132.88 12271.8 17989.3 10943.3 8146.19 9929.66 9589.9 9055.28 6732.22 6667.44 11319.8 9399.66 6525.61 6180.46 10359.5 8724.33 13018.9 15196.2 10873.7 8610.56 35150.8 23879.2 24350.1 19207.3 18408.5 17116.4 14428 13638.8 11880.3 21448.7
threshold=4.2935395344526022 4.6279003121167248 1.0000000180025095e-35 128540.50000000001 13952.000000000002 1.0000000180025095e-35 6.5000000000000009 4.5000000000000009 6.5000000000000009 4.0469642217642985 52263.000000000007 6.5000000000000009 1889.0000000000002 6.2113477306531157 3.5000000000000004 6.2113478189397897 2.5000000000000004 47508.500000000007 4.5000000000000009 1.5000000000000002 94405.500000000015 85503.000000000015 4.5000000000000009 1.0000000180025095e-35 13.214087371832372 4.5000000000000009 1.0000000180025095e-35 1889.0000000000002 55.999999500000008 1.0000000180025095e-35
decision_type=2 2 2 2 2 2 2 2 2 2 2 2 2 2 2 2 2 2 2 2 2 2 2 2 2 2 2 2 2 2
left_child=3 4 -3 9 -2 6 8 -8 -6 10 11 -1 -12 14 -4 16 -15 -18 -19 20 21 23 25 24 -17 -23 28 -25 29 -22
right_child=1 2 13 -5 5 -7 7 -9 -10 -11 12 -13 -14 15 -16 19 17 18 -20 -21 26 22 -24 27 -26 -27 -28 -29 -30 -31
leaf_value=-0.62285536813735964 1.2619280276894571 -2.6272461010859565 2.1624880542755127 2.3662442414656932 -2.3688368510454896 -0.91748376065378745 2.4025897602240249 0.12967300582390565 -0.20995635112317712 0.60312360155706601 -1.0666008611422355 0.47374218641546184 0.53123566666617994 0.49569359040077859 0.1189568863852476 0.1152511843795558 1.501921096801758 -0.65299475701718501 -2.1001803893293882 0.01671843856809517 2.9176304868961638 -4.628264692425728 -0.70802904765966335 -0.6845447490675276 -2.3584828527644279 -1.2170871031781039 1.120125036907196 -2.2203413843244748 -0.033295619251400503 -0.46487559305654991
leaf_weight=100 25 26 25 23 20 314 24 65 52 240 127 358 32 98 3217 502 25 174 74 23240 38 38 86 357 32 24 125 69 1978 37
leaf_count=100 25 26 25 23 20 314 24 65 52 240 127 358 32 98 3217 502 25 174 74 23240 38 38 86 357 32 24 125 69 1978 37
internal_value=0 -0.0061317 0.00201282 0.213669 -0.497491 -0.590092 0.048425 0.742594 -0.809645 0.155899 -0.0180626 0.23431 -0.745024 0.004281 0.134715 -0.0114407 -0.493015 -0.847936 -1.08482 -0.00470531 -0.156223 -0.61478 -1.79713 -0.432501 -0.0329876 -3.30781 0.0770553 -0.933301 0.0135464 1.24893
internal_weight=0 30665 30165 880 500 475 161 89 72 857 617 458 159 30139 3242 26897 371 273 248 26526 3286 1108 148 960 534 62 2178 426 2053 75
internal_count=31545 30665 30165 880 500 475 161 89 72 857 617 458 159 30139 3242 26897 371 273 248 26526 3286 1108 148 960 534 62 2178 426 2053 75
is_linear=0
shrinkage=0.1


Tree=93
num_leaves=31
num_cat=0
split_feature=0 2 2 2 5 1 0 2 1 1 3 1 1 1 4 1 1 2 1 7 7 7 2 5 2 1 1 7 10 5
split_gain=3877.68 9856.43 57779 21201 16202.1 27430.3 23828.3 18058.7 15113.6 12840.4 12144 20669.2 11511.5 11498.6 10686.1 8587 16666.1 14703.1 7349.33 7316.16 7301.06 7928.14 9925.5 24940.6 15635.7 12205.7 9264.52 8247.22 8421.83 21768.5
threshold=1653.5000000000002 7.5457085690999843 8.6306398721604456 7.2962792698460364 2.5000000000000004 112446.00000000001 1497.5000000000002 9.6306400247916866 98203.500000000015 137601.50000000003 4.5000000000000009 38102.000000000007 189726.00000000003 88007.000000000015 2.5000000000000004 99901.000000000015 100705.00000000001 9.6306400247916866 109759.00000000001 4.5000000000000009 1.0000000180025095e-35 3.5000000000000004 13.967626265634772 1.5000000000000002 13.800502882857462 134256.50000000003 10807.500000000002 4.5000000000000009 1.0000000180025095e-35 1.5000000000000002
decision_type=2 2 2 2 2 2 2 2 2 2 2 2 2 2 2 2 2 2 2 2 2 2 2 2 2 2 2 2 2 2
left_child=1 3 8 9 10 6 7 19 -3 -1 11 -4 -12 -13 -5 -15 -17 -18 -19 -6 -2 22 24 -24 -22 -26 -23 28 -28 -30
right_child=20 2 4 14 5 -7 -8 -9 -10 -11 12 13 -14 15 -16 16 17 18 -20 -21 21 26 23 -25 25 -27 27 -29 29 -31
leaf_value=-0.065342065254236636 -0.22583047252889632 -0.88431828095055209 2.1389758480356096 1.7129060732126236 -0.001967194903156032 -1.3301169840991498 -1.072884340915415 1.3521737588880942 -2.2499778607399157 1.6831509768269783 -0.26115350646565938 -0.52625803914178848 -1.6012117891614119 0.89730463716037134 0.46793012349186719 -2.5510043090830248 -1.4958614170275353 1.1301030999861468 0.12079738712017729 1.8424397093554337 0.14217934048070607 0.64142720055367264 3.5938269589628491 0.39694824323254196 -0.094150717130729145 -2.567636448144913 -0.042737206502477088 0.039338356153592664 -2.1321655436884615 -0.23740146244518257
leaf_weight=1806 1171 410 47 100 207 80 72 317 101 43 1483 318 67 136 222 24 54 78 961 24 4212 224 28 190 42 38 4836 13037 64 1153
leaf_count=1806 1171 410 47 100 207 80 72 317 101 43 1483 318 67 136 222 24 54 78 961 24 4212 224 28 190 42 38 4836 13037 64 1153
internal_value=0 -0.0684899 -0.154864 0.10573 -0.022836 0.412562 0.637424 0.862136 -1.15424 -0.0246794 -0.119041 0.072589 -0.319079 0.0107684 0.854569 0.147061 0.0557151 0.112953 0.196568 0.189659 0.0179479 0.0299302 0.149309 0.807557 0.115875 -1.26906 0.00205417 -0.00544816 -0.10191 -0.337044
internal_weight=0 6550 4379 2171 3868 700 620 548 511 1849 3168 1618 1550 1571 322 1253 1117 1093 1039 231 24995 23824 4510 218 4292 80 19314 19090 6053 1217
internal_count=31545 6550 4379 2171 3868 700 620 548 511 1849 3168 1618 1550 1571 322 1253 1117 1093 1039 231 24995 23824 4510 218 4292 80 19314 19090 6053 1217
is_linear=0
shrinkage=0.1


Tree=94
num_leaves=31
num_cat=0
split_feature=0 5 0 2 10 8 2 1 7 2 8 1 1 1 5 6 2 1 1 1 8 4 1 4 1 8 2 3 2 2
split_gain=3865.49 11451.4 17408.5 15306.3 16860.1 16646.4 15570.8 15140.2 15193.4 13296.8 13140.2 11376.9 15745.8 15852.1 10083.9 33750 17538 35874.9 28097.4 24775.2 18811.3 17264.7 15884.4 30022.8 14257.7 15267.2 16627.1 15243.1 14181.5 11663.1
threshold=1998.5000000000002 2.5000000000000004 2396.5000000000005 7.2113478298466758 1.0000000180025095e-35 110.64285700000001 8.6306399880237166 116740.50000000001 2.5000000000000004 8.7977632840741951 103.01666650000001 74801.000000000015 58696.500000000007 47508.500000000007 1.5000000000000002 2.5000000000000004 13.466256512014908 279437.00000000006 159218.50000000003 218013.50000000003 107.53333300000001 1.0000000180025095e-35 279437.00000000006 3.5000000000000004 337857.00000000006 101.49999950000002 11.466256292457603 4.5000000000000009 10.633379682591041 13.466256322674548
decision_type=2 2 2 2 2 2 2 2 2 2 2 2 2 2 2 2 2 2 2 2 2 2 2 2 2 2 2 2 2 2
left_child=-1 7 -3 4 -4 6 -5 8 10 -8 -2 12 13 -11 15 21 18 19 20 -18 -17 -9 23 -20 25 26 -16 29 -29 -27
right_child=1 2 3 5 -6 -7 9 14 -10 11 -12 -13 -14 -15 24 16 17 -19 22 -21 -22 -23 -24 -25 -26 27 -28 28 -30 -31
leaf_value=-0.014891742657217997 -0.64673300764777453 0.83886636685957472 0.24621957848992265 1.5660008727558077 3.1144424021244053 -1.3667243853211404 -2.261903484662374 4.9966005643208824 -0.18357991835713305 0.71547409079157487 -3.8465963250114807 -0.50083938612155232 1.6992551010449728 -1.3261506249670123 -0.88054293162708519 0.38550450373918582 -0.84142817583951079 2.3656488080819447 4.6362713854102529 -5.0862277138233187 -3.0870304584503176 1.277203873029122 0.093775979236320223 0.97852282445934236 -1.4854459632907 1.2456937805220889 0.10542094360750456 -0.90406926175722713 0.36719834980382415 0.26030680084867136
leaf_weight=26711 33 454 57 63 32 92 27 24 1488 101 21 217 75 61 244 39 44 24 34 20 26 26 54 66 57 259 572 130 270 224
leaf_count=26711 33 454 57 63 32 92 27 24 1488 101 21 217 75 61 244 39 44 24 34 20 26 26 54 66 57 259 572 130 270 224
internal_value=0 0.0822866 0.353282 0.049206 1.27749 -0.122677 0.0877139 -0.00512897 -0.243377 -0.105908 -1.89112 0.0223121 0.501316 -0.0532858 0.168737 0.653236 0.260846 -0.931498 0.739961 -2.16793 -1.00351 3.06251 1.47584 2.22216 0.0702368 0.122429 -0.189402 0.410598 -0.0459636 0.788703
internal_weight=0 4834 1179 725 89 636 544 3655 1542 481 54 454 237 162 2113 357 307 88 219 64 65 50 154 100 1756 1699 816 883 400 483
internal_count=31545 4834 1179 725 89 636 544 3655 1542 481 54 454 237 162 2113 357 307 88 219 64 65 50 154 100 1756 1699 816 883 400 483
is_linear=0
shrinkage=0.1


Tree=95
num_leaves=31
num_cat=0
split_feature=4 5 2 1 2 11 1 1 1 2 2 1 1 8 7 2 1 1 10 4 2 1 2 5 1 6 7 2 2 2
split_gain=3824.51 8378.2 14897.4 15731.2 13293.4 12501.9 10234.4 7853.26 10795.8 16430.7 13390.7 12407.2 12006.1 8863.38 8612.64 14775 8234.71 7788.34 7599.85 7127.51 12851.2 11861.1 9654.3 13725.1 12782.1 9681.39 9595.4 9534.81 9303.23 10900.6
threshold=7.5000000000000009 2.5000000000000004 5.7950235741987512 27223.500000000004 9.2113478452717477 1.0000000180025095e-35 137601.50000000003 200461.50000000003 119877.00000000001 11.299018898358916 10.718311273639339 169199.50000000003 64426.500000000007 103.01666650000001 4.5000000000000009 9.9648865156069686 122402.50000000001 107539.50000000001 1.0000000180025095e-35 1.0000000180025095e-35 14.216827079631768 25415.000000000004 14.216827018981308 2.5000000000000004 80100.500000000015 6.5000000000000009 3.5000000000000004 14.131895651135594 5.3757314111422287 5.2086080500668741
decision_type=2 2 2 2 2 2 2 2 2 2 2 2 2 2 2 2 2 2 2 2 2 2 2 2 2 2 2 2 2 2
left_child=19 2 6 4 -4 -3 18 8 9 13 16 -12 -11 -5 -15 17 -10 -16 -2 20 22 26 27 24 -24 -26 -21 28 29 -1
right_child=1 5 3 7 -6 -7 -8 -9 10 12 11 -13 -14 14 15 -17 -18 -19 -20 21 -22 -23 23 -25 25 -27 -28 -29 -30 -31
leaf_value=-0.41082541935003491 0.43234866905610919 -0.10024975606809763 -0.57489997034156048 0.30990916248089451 -3.4371412119269373 0.96894123700627111 2.8555354669690134 -0.34714770822894653 1.7895122619775627 -2.7655391693115234 1.1889592134405542 0.094293005387117337 -0.50739752602884947 -1.0639417403030629 -0.02081875523185208 2.2425237549675834 -0.045050583576940632 -2.1333196568489075 1.6396610827795393 0.34314444110249032 -0.8911193918732816 -0.062949542112317819 -0.44056119775772101 0.022574676878543365 3.2749423395364716 1.0607253038883211 -1.0309111736841263 -1.5776604678179769 0.038495557653132305 -2.8896612989902497
leaf_weight=157 516 2688 86 927 20 114 20 308 26 27 316 154 184 102 137 27 415 20 58 66 151 10056 25 144 39 40 221 37 14444 20
leaf_count=157 516 2688 86 927 20 114 20 308 26 27 316 154 184 102 137 27 415 20 58 66 151 10056 25 144 39 40 221 37 14444 20
internal_value=0 0.0707911 0.177692 0.0795636 -1.11495 -0.0567495 0.631823 0.127471 0.190075 0.0180917 0.458906 0.830281 -0.796354 0.159764 -0.326897 0.0816825 0.0631096 -0.289927 0.554342 -0.0171264 0.0267778 -0.0810407 0.0360762 0.654792 1.53017 2.15382 -0.714926 0.0256081 0.0296653 -0.69092
internal_weight=0 6145 3343 2749 106 2802 594 2643 2335 1424 911 470 211 1213 286 184 441 157 574 25400 15057 10343 14906 248 104 79 287 14658 14621 177
internal_count=31545 6145 3343 2749 106 2802 594 2643 2335 1424 911 470 211 1213 286 184 441 157 574 25400 15057 10343 14906 248 104 79 287 14658 14621 177
is_linear=0
shrinkage=0.1


Tree=96
num_leaves=31
num_cat=0
split_feature=2 8 1 1 2 2 8 4 2 1 2 8 2 8 2 2 8 2 2 2 8 1 2 3 9 3 3 5 2 2
split_gain=3793.97 17785.6 24779.1 26780.7 23972.3 41241.1 21742.7 18858.6 17980.9 16620.5 15908.6 16579.3 14592.9 14516.1 18820.5 21519.8 14097.5 15446.4 13355.7 12536 14658.6 12300 12156.9 11276.2 16059.2 9973.13 9598.01 9322.39 9184.26 8882.36
threshold=7.2962792698460364 107.70833300000002 82704.500000000015 29903.000000000004 7.0497040002582461 7.0497039337396776 112.33333300000002 4.5000000000000009 6.2113477997104605 247186.50000000003 6.9648866484284611 71.261904000000015 7.2113477551689362 110.64285700000001 7.8826948761610574 7.8826947682415867 111.79761850000001 7.0497039337396776 6.5457084857763412 3.2086081128967288 77.000000000000014 60305.000000000007 6.2113477306531157 2.5000000000000004 1.0000000180025095e-35 4.5000000000000009 2.5000000000000004 1.5000000000000002 5.8799551395101384 5.7950235741987512
decision_type=2 2 2 2 2 2 2 2 2 2 2 2 2 2 2 2 2 2 2 2 2 2 2 2 2 2 2 2 2 2
left_child=1 4 3 -3 5 9 27 -7 -8 10 11 22 -6 23 15 -15 17 18 -5 20 -13 -20 26 24 -2 -12 -1 -4 29 -28
right_child=13 2 6 16 12 7 8 -9 -10 -11 25 19 -14 14 -16 -17 -18 -19 21 -21 -22 -23 -24 -25 -26 -27 28 -29 -30 -31
leaf_value=1.6077300146222115 -2.4325601599786593 1.0585864226680157 2.9054310287748066 -0.037728970321095602 0.89581433410504696 -4.2116023405905691 0.62277514104816056 -1.1653250708576228 -1.9567121614248326 2.8206545686721807 2.4453603357076648 1.2122160048152393 0.063692577311331128 -0.88501657857849281 0.01392959289608852 -4.0467025935649872 -0.66168990445788956 -0.92758357325325846 1.7882496795703458 -0.32038730392035453 -1.4846204223632813 0.32311482944658826 -0.25428680821534105 -0.0045640766631528827 0.23969518162987452 0.50734446426996826 0.21766841353362279 1.1859257660478166 0.72880538469719847 -0.33268205343241186
leaf_weight=48 46 242 35 372 422 31 88 59 39 20 32 104 421 209 272 24 320 115 97 2599 25 140 790 22593 44 156 1241 318 259 384
leaf_count=48 46 242 35 372 422 31 88 59 39 20 32 104 421 209 272 24 320 115 97 2599 25 140 790 22593 44 156 1241 318 259 384
internal_value=0 0.0577681 0.3396 0.110751 -0.0177462 -0.0907817 0.952723 -2.2146 -0.169351 -0.0569989 -0.0672069 -0.0984055 0.480247 -0.0208197 -0.55109 -1.21068 -0.108958 0.135344 0.336061 -0.272629 0.689573 0.922769 0.0762019 -0.00901412 -1.12612 0.83722 0.21134 1.35641 0.175763 0.0876164
internal_weight=0 8357 1766 1286 6591 5748 480 90 127 5658 5638 5450 843 23188 505 233 1044 724 609 2728 129 237 2722 22683 90 188 1932 353 1884 1625
internal_count=31545 8357 1766 1286 6591 5748 480 90 127 5658 5638 5450 843 23188 505 233 1044 724 609 2728 129 237 2722 22683 90 188 1932 353 1884 1625
is_linear=0
shrinkage=0.1


Tree=97
num_leaves=31
num_cat=0
split_feature=2 2 2 2 1 2 2 0 2 2 5 11 8 1 2 2 1 2 1 4 2 5 1 2 2 0 1 5 7 2
split_gain=3647.72 70551.1 26026 56943.7 24993.7 18378.2 35876.2 47943.7 23989.5 19521.8 18622.3 19531.6 19223.8 23577.4 16592.8 16382.5 23343.6 16347.7 15790.4 19144 33432.5 15173.2 26216.3 23262.9 27723.4 18840.9 15343.5 14765.6 14196.5 22071.7
threshold=10.214087382575022 10.129156023305759 10.718311046827838 10.718311104464735 8914.5000000000018 10.129155875499963 9.7977633665312869 2396.5000000000005 9.2113477569599329 9.8826946903049482 2.5000000000000004 1.0000000180025095e-35 58.249999500000008 99901.000000000015 10.214087354423365 9.2113476752594519 74801.000000000015 7.0497040002582461 100705.00000000001 1.0000000180025095e-35 7.5457084015702538 2.5000000000000004 98801.500000000015 11.214087356844512 11.129155930014244 1497.5000000000002 114509.50000000001 2.5000000000000004 2.5000000000000004 10.049703969428512
decision_type=2 2 2 2 2 2 2 2 2 2 2 2 2 2 2 2 2 2 2 2 2 2 2 2 2 2 2 2 2 2
left_child=1 5 -2 27 -5 6 8 9 10 -8 12 18 13 -1 -3 -14 -17 -13 -12 20 -20 22 23 24 -6 26 -23 -4 -11 -30
right_child=2 14 3 4 21 -7 7 -9 -10 28 11 17 15 -15 -16 16 -18 -19 19 -21 -22 25 -24 -25 -26 -27 -28 -29 29 -31
leaf_value=-0.080073955952178089 -0.38645894022508259 2.5228884620772258 3.4529090711883472 -3.4535679136003767 0.052624540371855481 -1.2067756287513243 1.6733474252044513 2.3582918213061772 -0.35630008679784597 -1.8972578543153678 -0.030621822583788788 0.12428410403443489 0.16863807036498593 -2.3070701910621105 0.8869623198624581 -0.84737670103023799 2.5727055791765454 1.7910070153474811 -4.833078877492385 -0.2067651143364235 -0.79484555434150961 1.5396591196331797 0.052129956782220349 -0.43966203316094427 2.4584124966076129 0.13652952591957324 -1.2791084238751369 1.2352732231355694 -0.028008165292295759 1.6321462623696581
leaf_weight=158 1860 124 51 21 424 124 93 137 1860 33 6476 143 5939 68 124 29 64 100 22 1257 301 158 6282 2395 54 2548 22 73 510 95
leaf_count=158 1860 124 51 21 424 124 93 137 1860 33 6476 143 5939 68 124 29 64 100 22 1257 301 158 6282 2395 54 2548 22 73 510 95
internal_value=0 0.0301583 -0.0383428 0.0154895 -0.00671749 0.00630041 0.0150028 0.641552 -0.0181241 0.319811 0.0250858 -0.0731309 0.155335 -0.750144 1.70493 0.189261 1.50623 0.810178 -0.0997749 -0.383215 -1.0699 -0.000626114 -0.0623095 -0.312539 0.324408 0.206379 1.19514 2.14737 0.122508 0.232677
internal_weight=0 17657 13888 12028 11904 17409 17285 868 16417 731 14557 8299 6258 226 248 6032 93 243 8056 1580 323 11883 9155 2873 478 2728 180 124 638 605
internal_count=31545 17657 13888 12028 11904 17409 17285 868 16417 731 14557 8299 6258 226 248 6032 93 243 8056 1580 323 11883 9155 2873 478 2728 180 124 638 605
is_linear=0
shrinkage=0.1


Tree=98
num_leaves=31
num_cat=0
split_feature=6 6 5 8 2 5 0 3 1 2 2 1 8 2 8 2 1 2 1 2 2 2 1 2 2 5 1 2 3 1
split_gain=3839.55 8878.62 10878.8 15331.2 36190.9 25855.1 12073.3 12129.6 10991.9 11707.1 10958.2 10061 10600.6 9784.21 11770 8467.73 8330.86 7624.21 10193.4 7579.1 7378.47 7885.93 7342.96 7000.36 27402.8 13242.9 30508.8 25538.1 10369.6 18472.7
threshold=10.500000000000002 11.500000000000002 2.5000000000000004 107.38750000000002 10.718311104464735 1.5000000000000002 1998.5000000000002 4.5000000000000009 25415.000000000004 7.6306400539070376 11.214087321352418 162203.50000000003 110.64285700000001 6.7155715812121084 58.249999500000008 13.885434523009126 337857.00000000006 4.7128318055313878 279437.00000000006 12.214087524829111 4.2935395344526022 4.4607770304784928 119191.50000000001 13.800502882857462 13.967626134023268 1.5000000000000002 156426.00000000003 10.800502925080496 4.5000000000000009 121556.00000000001
decision_type=2 2 2 2 2 2 2 2 2 2 2 2 2 2 2 2 2 2 2 2 2 2 2 2 2 2 2 2 2 2
left_child=-1 13 3 8 11 -6 19 -8 9 -3 -4 12 -5 20 22 17 23 -10 -19 -7 -2 -22 -15 25 -25 26 28 -28 29 -16
right_child=1 2 10 4 5 6 7 -9 15 -11 -12 -13 -14 14 16 -17 -18 18 -20 -21 21 -23 -24 24 -26 -27 27 -29 -30 -31
leaf_value=-0.016347306580096508 0.8956106795796327 -0.074029151292947626 0.077109453975422085 -0.85962015277630577 -4.8045107438014112 -3.8674618689910227 1.2697051751613619 -1.4371911784215849 1.6973974560697873 -2.2769698044988842 0.98957821407895175 2.3405593240261076 0.94598670571014809 -0.71486967635908349 2.5684974258596247 0.78029934773221621 -1.3705437324665211 -0.053210523842388217 -1.6733752131462099 -1.4175469560282572 -1.432333158169474 -0.16702208324064546 0.41030933802155245 -2.8386413644999267 0.65665128366152459 0.34907035422259236 0.85509363633614999 5.0311216227710247 -0.38397488876392971 -0.71719312412398206
leaf_weight=25866 56 52 814 74 26 23 25 49 24 45 157 20 58 174 44 128 27 1331 40 28 56 409 87 32 75 1662 27 32 76 28
leaf_count=25866 56 52 814 74 26 23 25 49 24 45 157 20 58 174 44 128 27 1331 40 28 56 409 87 32 75 1662 27 32 76 28
internal_value=0 0.0744567 -0.0482025 -0.185974 -0.838856 -1.93536 -1.33858 -0.522699 -0.0638614 -1.09601 0.224646 0.250438 -0.0662474 0.201917 0.291831 0.00187632 0.374137 -0.0695489 -0.10048 -2.52241 -0.188807 -0.319404 -0.33981 0.397976 -0.38867 0.443012 1.19726 3.12006 0.430746 1.29073
internal_weight=0 5679 2894 1923 303 151 125 74 1620 97 971 152 132 2785 2264 1523 2003 1395 1371 51 521 465 261 1976 107 1869 207 59 148 72
internal_count=31545 5679 2894 1923 303 151 125 74 1620 97 971 152 132 2785 2264 1523 2003 1395 1371 51 521 465 261 1976 107 1869 207 59 148 72
is_linear=0
shrinkage=0.1


Tree=99
num_leaves=31
num_cat=0
split_feature=3 0 2 2 2 1 9 2 1 6 2 2 1 2 2 1 7 0 1 1 5 6 1 1 1 1 1 7 2 1
split_gain=3328.73 8688.74 9895.37 10182.5 9096.66 18349.9 10009.4 13476.2 12790.9 9778.02 9097.71 20189.5 15061.4 12349.7 22580.6 16341.1 15499.7 21537.2 17783.9 16756 14610.1 10991.3 11871.9 10432.7 10326.8 8841.64 10315.5 8660.81 8120.2 8799.33
threshold=4.5000000000000009 2494.5000000000005 14.216827018981308 14.216827224845185 14.052443649551043 235706.00000000003 1.0000000180025095e-35 14.13189551363803 132313.50000000003 4.5000000000000009 14.052443464182593 14.052443525536576 121556.00000000001 13.800502882857462 13.718311295379214 141135.00000000003 4.5000000000000009 1987.5000000000002 260706.50000000003 147783.50000000003 1.5000000000000002 5.5000000000000009 206374.00000000003 167468.00000000003 203374.00000000003 218013.50000000003 143304.00000000003 3.5000000000000004 14.216827035688331 209903.50000000003
decision_type=2 2 2 2 2 2 2 2 2 2 2 2 2 2 2 2 2 2 2 2 2 2 2 2 2 2 2 2 2 2
left_child=1 2 4 -4 10 6 8 -8 -6 -9 13 -12 -13 14 -1 -16 17 18 20 -19 -15 23 -23 -18 -21 26 -5 -10 29 -2
right_child=28 -3 3 25 5 -7 7 9 27 -11 11 12 -14 16 15 -17 21 19 -20 24 -22 22 -24 -25 -26 -27 -28 -29 -30 -31
leaf_value=0.052870174815093852 -0.0075607041135687947 -1.0977043139212059 0.9307438864457338 -1.5037642473266239 -2.7063712087961345 -2.1192598760128023 -0.86438692318829335 3.3017558466820489 1.3369881845437563 0.61300813743942673 2.5958668348524307 -2.1386314091738314 0.73493159192761315 -2.5557446943747033 0.59398815554380424 4.4289544820785522 -0.20147183845783104 -4.4157557450808014 1.7366965355295123 0.47664375245571144 -0.29356111800223589 0.1545970597443567 -2.4455742597579957 2.2896405452489854 -2.4030657392559629 -1.7833030090800355 1.1710534426181212 -0.97498520252316512 -0.7132969627189919 -0.44841972548538744
leaf_weight=9186 20433 66 242 21 26 58 37 21 26 38 45 24 76 37 25 20 29 26 33 20 125 87 22 40 33 28 46 43 169 463
leaf_count=9186 20433 66 242 21 26 58 37 21 26 38 45 24 76 37 25 20 29 26 33 20 125 87 22 40 33 28 46 43 169 463
internal_value=0 0.0460547 0.0533034 0.586341 0.0354773 -0.561432 -0.0883741 0.631759 -0.816088 1.57002 0.0506005 0.836839 0.0452765 0.0388268 0.0638169 2.29842 -0.471536 -0.943521 -0.379214 -2.33643 -0.810233 0.255001 -0.370208 1.24265 -1.31638 -0.29098 0.332678 -0.103807 -0.0229126 -0.017329
internal_weight=0 10480 10414 337 10077 249 191 96 95 59 9828 145 100 9683 9231 45 452 274 195 79 162 178 109 69 53 95 67 69 21065 20896
internal_count=31545 10480 10414 337 10077 249 191 96 95 59 9828 145 100 9683 9231 45 452 274 195 79 162 178 109 69 53 95 67 69 21065 20896
is_linear=0
shrinkage=0.1


end of trees

feature_importances:
YM_MFG=860
NUM_TRAVEL=581
CAREVU=333
EXHAUST=239
AveragePrice=218
SOU=195
INSIDEVU=175
SalesMonth=140
COLOR=134
BRAND_TYPE_TOYOTA_RAV4=81
BRAND_TYPE_TOYOTA_ALTIS=22
BRAND_TYPE_TOYOTA_CAMRY=22

parameters:
[boosting: gbdt]
[objective: regression]
[metric: l2]
[tree_learner: serial]
[device_type: cpu]
[linear_tree: 0]
[data: ]
[valid: ]
[num_iterations: 100]
[learning_rate: 0.1]
[num_leaves: 31]
[num_threads: -1]
[deterministic: 0]
[force_col_wise: 0]
[force_row_wise: 0]
[histogram_pool_size: -1]
[max_depth: -1]
[min_data_in_leaf: 20]
[min_sum_hessian_in_leaf: 0.001]
[bagging_fraction: 1]
[pos_bagging_fraction: 1]
[neg_bagging_fraction: 1]
[bagging_freq: 0]
[bagging_seed: 3]
[feature_fraction: 1]
[feature_fraction_bynode: 1]
[feature_fraction_seed: 2]
[extra_trees: 0]
[extra_seed: 6]
[early_stopping_round: 0]
[first_metric_only: 0]
[max_delta_step: 0]
[lambda_l1: 0]
[lambda_l2: 0]
[linear_lambda: 0]
[min_gain_to_split: 0]
[drop_rate: 0.1]
[max_drop: 50]
[skip_drop: 0.5]
[xgboost_dart_mode: 0]
[uniform_drop: 0]
[drop_seed: 4]
[top_rate: 0.2]
[other_rate: 0.1]
[min_data_per_group: 100]
[max_cat_threshold: 32]
[cat_l2: 10]
[cat_smooth: 10]
[max_cat_to_onehot: 4]
[top_k: 20]
[monotone_constraints: ]
[monotone_constraints_method: basic]
[monotone_penalty: 0]
[feature_contri: ]
[forcedsplits_filename: ]
[refit_decay_rate: 0.9]
[cegb_tradeoff: 1]
[cegb_penalty_split: 0]
[cegb_penalty_feature_lazy: ]
[cegb_penalty_feature_coupled: ]
[path_smooth: 0]
[interaction_constraints: ]
[verbosity: -1]
[saved_feature_importance_type: 0]
[max_bin: 255]
[max_bin_by_feature: ]
[min_data_in_bin: 3]
[bin_construct_sample_cnt: 200000]
[data_random_seed: 1]
[is_enable_sparse: 1]
[enable_bundle: 1]
[use_missing: 1]
[zero_as_missing: 0]
[feature_pre_filter: 1]
[pre_partition: 0]
[two_round: 0]
[header: 0]
[label_column: ]
[weight_column: ]
[group_column: ]
[ignore_column: ]
[categorical_feature: ]
[forcedbins_filename: ]
[objective_seed: 5]
[num_class: 1]
[is_unbalance: 0]
[scale_pos_weight: 1]
[sigmoid: 1]
[boost_from_average: 1]
[reg_sqrt: 0]
[alpha: 0.9]
[fair_c: 1]
[poisson_max_delta_step: 0.7]
[tweedie_variance_power: 1.5]
[lambdarank_truncation_level: 30]
[lambdarank_norm: 1]
[label_gain: ]
[eval_at: ]
[multi_error_top_k: 1]
[auc_mu_weights: ]
[num_machines: 1]
[local_listen_port: 12400]
[time_out: 120]
[machine_list_filename: ]
[machines: ]
[gpu_platform_id: -1]
[gpu_device_id: -1]
[gpu_use_dp: 0]
[num_gpu: 1]

end of parameters

pandas_categorical:[]
