tree
version=v3
num_class=1
num_tree_per_iteration=1
label_index=0
max_feature_idx=12
objective=regression
feature_names=EXHAUST NUM_TRAVEL YM_MFG INSIDEVU CAREVU SOU SalesMonth COLOR AveragePrice BRAND_TYPE_TOYOTA_ALTIS BRAND_TYPE_TOYOTA_CAMRY BRAND_TYPE_TOYOTA_RAV4 BRAND_TYPE_TOYOTA_YARIS
feature_infos=[4:3456] [0:921700] [0:32.395514132354954] [2:6] [0:9] none [1:12] [0:6] [54.333333000000003:113.14285700000001] [0:1] [0:1] [0:1] [0:1]
tree_sizes=2848 2864 2868 2835 2847 2840 2813 2829 2804 2800 2832 2799 2788 2781 2782 2784 2758 2763 2775 2774 2764 2778 2790 2775 2789 2790 2771 2771 2769 2753 2760 2779 2776 2773 2760 2762 2787 2796 2784 2791 2796 2781 2802 2766 2785 2797 2782 2727 2776 2758 2785 2731 2793 2787 2772 2748 2813 2772 2784 2737 2754 2680 2746 2704 2780 2767 2759 2732 2765 2762 2774 2752 2693 2737 2718 2788 2741 2679 2754 2678 2763 2675 2659 2742 2753 2683 2699 2688 2680 2700 2712 2676 2743 2656 2711 2720 2666 2737 2696 2705

Tree=0
num_leaves=31
num_cat=0
split_feature=2 1 4 2 8 8 2 2 4 4 2 2 2 4 8 4 2 1 8 3 2 2 11 1 3 3 3 1 8 2
split_gain=2.26815e+08 4.05239e+07 2.31752e+07 3.11856e+07 2.26291e+07 9.37758e+06 6.39545e+06 6.33712e+06 6.09343e+06 5.95477e+06 5.93836e+06 5.5003e+06 3.92877e+06 3.79484e+06 3.68331e+06 3.60457e+06 4.67753e+06 3.49376e+06 2.91609e+06 2.26298e+06 2.05655e+06 1.92591e+06 1.33765e+06 1.18468e+06 1.13141e+06 1.13022e+06 1.08972e+06 914568 899990 873255
threshold=14.217432089598018 120144.50000000001 1.0000000180025095e-35 17.217432031575566 70.642856500000008 70.642856500000008 21.639463947440642 16.217432103845347 1.0000000180025095e-35 1.0000000180025095e-35 10.050308759974641 15.80384752441468 9.2119526668970373 1.0000000180025095e-35 109.60003963333334 1.0000000180025095e-35 9.379075990657304 194632.00000000003 73.550118933333351 4.5000000000000009 19.220171727076153 11.38181571343975 1.0000000180025095e-35 239481.50000000003 4.5000000000000009 4.5000000000000009 4.5000000000000009 237605.00000000003 59.466666500000009 19.305103240028874
decision_type=2 2 2 2 2 2 2 2 2 2 2 2 2 2 2 2 2 2 2 2 2 2 2 2 2 2 2 2 2 2
left_child=1 4 3 11 9 13 17 -4 23 19 22 14 -11 27 -2 -6 18 20 -17 -1 24 -15 -10 -7 -5 -16 -13 -3 -21 -19
right_child=2 5 7 6 15 8 -8 -9 10 12 -12 26 -14 21 25 16 -18 29 -20 28 -22 -23 -24 -25 -26 -27 -28 -29 -30 -31
leaf_value=485.2028382753906 479.46705134270155 483.61479546207926 466.78585185242014 471.48822397365484 500.97215556816548 494.73210007608384 453.31312421586114 458.53048061427603 486.41743301025872 487.87223866246381 477.8311429970982 473.57956197342213 478.54695648375338 477.74832092121665 485.3878523785246 492.6663120572743 484.57551692423829 467.28876089803418 500.76334792186651 489.01273116906629 467.57614946886537 471.77268270872582 495.73085192750051 482.95713962774909 477.77629051885174 493.30696331734117 479.76715186299515 474.74208293500595 493.13126093555996 463.61648808091866
leaf_weight=759 1114 833 1804 1380 1663 624 302 1919 445 811 1134 1181 1020 1109 456 850 372 1365 933 870 1336 1050 236 99 361 298 375 135 1360 1232
leaf_count=759 1114 833 1804 1380 1663 624 302 1919 445 811 1134 1181 1020 1109 456 850 372 1365 933 870 1336 1050 236 99 361 298 375 135 1360 1232
internal_value=478.702 487.413 469.208 471.853 491.724 480.84 467.493 462.531 485.356 487.168 482.264 479.462 482.677 477.175 483.12 497.474 494.775 468.248 496.903 489.919 470.527 474.842 489.645 493.12 472.792 488.518 475.071 482.377 491.524 465.547
internal_weight=0 14303 13123 9400 8638 5665 5976 3723 2538 4820 1815 3424 1831 3127 1868 3818 2155 5674 1783 2989 3077 2159 681 723 1741 754 1556 968 2230 2597
internal_count=27426 14303 13123 9400 8638 5665 5976 3723 2538 4820 1815 3424 1831 3127 1868 3818 2155 5674 1783 2989 3077 2159 681 723 1741 754 1556 968 2230 2597
is_linear=0
shrinkage=1


Tree=1
num_leaves=31
num_cat=0
split_feature=2 1 4 2 8 8 2 2 4 2 4 2 2 4 4 2 3 8 8 3 1 2 1 1 3 11 7 1 2 1
split_gain=1.8372e+08 3.28243e+07 1.87719e+07 2.53085e+07 1.83296e+07 7.59584e+06 7.28069e+06 5.13306e+06 4.93568e+06 4.82593e+06 4.82336e+06 3.45671e+06 3.28472e+06 3.07382e+06 2.9197e+06 3.7888e+06 2.77216e+06 2.75414e+06 2.36204e+06 1.83301e+06 1.71755e+06 1.55999e+06 1.15173e+06 1.04649e+06 1.04156e+06 1.021e+06 1.00229e+06 863838 841356 803252
threshold=14.217432089598018 120144.50000000001 1.0000000180025095e-35 16.217431962237601 70.642856500000008 70.642856500000008 19.220171727076153 16.217432103845347 1.0000000180025095e-35 10.214692380248467 1.0000000180025095e-35 23.061267622958475 8.5463133228274444 1.0000000180025095e-35 1.0000000180025095e-35 9.379075990657304 4.5000000000000009 109.60003963333334 73.550118933333351 4.5000000000000009 230878.00000000003 11.38181571343975 208009.00000000003 160614.00000000003 4.5000000000000009 1.0000000180025095e-35 2.5000000000000004 197103.00000000003 18.30510319022876 41364.500000000007
decision_type=2 2 2 2 2 2 2 2 2 2 2 2 2 2 2 2 2 2 2 2 2 2 2 2 2 2 2 2 2 2
left_child=1 4 3 17 10 13 16 -4 26 25 19 24 -12 -3 -6 18 20 23 -16 -1 -5 -15 -19 -2 -8 -10 -7 -11 -9 -21
right_child=2 5 7 6 14 8 11 28 9 27 12 -13 -14 21 15 -17 -18 22 -20 29 -22 -23 -24 -25 -26 -27 -28 -29 -30 -31
leaf_value=5.8505777310476947 2.3985884178779933 3.3076671245746496 -10.724710421718477 -6.1315482199857225 20.042963481795265 0.24878850652460469 -12.595552391771285 -16.640251730131723 6.8858743726161498 1.530023468976714 9.3004805781223165 -25.444735838039758 0.4429349967880003 -0.85848798862548437 12.567704114945498 5.2859884425637222 -0.68794249437864652 9.2665687426570411 19.855036544774251 14.49264557266528 -11.013572441443847 -6.236562423865001 0.50726202651074059 -3.4752055035537759 -6.2977119459181417 14.868772555555893 14.065057488130378 -4.098557578671203 -21.049854936151114 10.320100505787913
leaf_weight=759 830 968 1804 2509 1663 57 2459 1260 456 633 648 203 1183 1109 850 372 711 715 933 652 1011 1050 190 478 294 247 666 479 659 1578
leaf_count=759 830 968 1804 2509 1663 57 2459 1260 456 633 648 203 1183 1109 850 372 711 715 933 652 1011 1050 190 478 294 247 666 479 659 1578
internal_value=0 7.83972 -8.54465 -6.16442 11.7192 1.92422 -9.04371 -14.5544 5.98871 3.20542 7.61942 -12.8516 3.57766 -1.37468 16.895 14.4657 -6.38334 3.18647 16.381 10.0953 -7.53374 -3.47404 7.4276 0.252049 -11.923 9.69068 12.9758 -0.894518 -18.1545 11.5401
internal_weight=0 14303 13123 9400 8638 5665 7187 3723 2538 1815 4820 2956 1831 3127 3818 2155 4231 2213 1783 2989 3520 2159 905 1308 2753 703 723 1112 1919 2230
internal_count=27426 14303 13123 9400 8638 5665 7187 3723 2538 1815 4820 2956 1831 3127 3818 2155 4231 2213 1783 2989 3520 2159 905 1308 2753 703 723 1112 1919 2230
is_linear=0
shrinkage=0.1


Tree=2
num_leaves=31
num_cat=0
split_feature=2 1 8 4 2 4 4 2 2 1 2 2 2 0 1 4 2 3 8 11 11 0 3 2 1 1 11 7 0 1
split_gain=1.49074e+08 2.94389e+07 1.79022e+07 1.48454e+07 1.75068e+07 5.99495e+06 4.31822e+06 4.29797e+06 3.62636e+06 3.45658e+06 3.37825e+06 3.11502e+06 2.88237e+06 2.52757e+06 2.49073e+06 2.25501e+06 3.25032e+06 1.77672e+06 1.72945e+06 1.62621e+06 1.53904e+06 1.28966e+06 1.25524e+06 868415 858624 817966 813002 784468 769373 765276
threshold=14.469601081753671 145907.00000000003 70.642856500000008 1.0000000180025095e-35 17.217432031575566 1.0000000180025095e-35 1.0000000180025095e-35 21.639463947440642 9.5463133949422865 80812.500000000015 9.379075990657304 16.384555321431392 15.80384752441468 2263.0000000000005 194632.00000000003 1.0000000180025095e-35 9.5463133949422865 4.5000000000000009 109.60003963333334 1.0000000180025095e-35 1.0000000180025095e-35 1797.5000000000002 4.5000000000000009 19.220171727076153 214811.50000000003 54015.000000000007 1.0000000180025095e-35 2.5000000000000004 1785.0000000000002 253257.50000000003
decision_type=2 2 2 2 2 2 2 2 2 2 2 2 2 2 2 2 2 2 2 2 2 2 2 2 2 2 2 2 2 2
left_child=1 2 5 4 12 17 13 14 -7 19 26 -5 18 27 22 -11 20 -1 -2 -4 -17 -12 23 -6 -14 -19 -8 -3 -16 -23
right_child=3 6 9 11 7 8 10 -9 -10 15 21 -13 24 -15 28 16 -18 25 -20 -21 -22 29 -24 -25 -26 -27 -28 -29 -30 -31
leaf_value=5.0312676682962598 0.49770383366539672 -4.7623192891193806 15.577746651501267 -10.478042541967092 -5.8794203718676084 6.6679400624701985 3.0404233169971513 -20.741503962617838 -1.0559016862427772 15.233514890194852 -6.7037950818045999 -16.537594589747361 -1.4905695274640394 11.275209221568439 -16.394974324521463 9.848506168467388 2.8819024695293525 12.297995441707123 7.353494574951462 22.181101046747237 18.617459874574831 -0.89144861221846716 -2.4137763825449872 -9.6366032828667478 -6.8484054418723339 8.5577702304683978 12.781497534636026 3.1186436453886079 -10.251532474030894 -6.1500852849860657
leaf_weight=987 925 157 1821 1596 1380 1043 430 302 1457 980 934 1811 1152 404 223 627 541 978 611 469 294 1268 587 1110 404 1454 107 646 2374 354
leaf_count=987 925 157 1821 1596 1380 1043 430 302 1457 980 934 1811 1152 404 223 627 541 978 611 469 294 1268 587 1110 404 1454 107 646 2374 354
internal_value=0 6.73449 9.55394 -8.07113 -5.95664 5.88824 -0.249229 -9.11718 2.16649 14.1392 -2.22885 -13.699 0.151834 4.82365 -8.49847 11.5219 9.03396 8.60962 3.22484 16.9301 12.6477 -3.74367 -6.57365 -7.55431 -2.88168 10.0619 4.98138 1.57778 -10.7791 -2.03914
internal_weight=0 14951 10651 12475 9068 5919 4300 5976 2500 4732 3093 3407 3092 1207 5674 2442 1462 3419 1536 2290 921 2556 3077 2490 1556 2432 537 803 2597 1622
internal_count=27426 14951 10651 12475 9068 5919 4300 5976 2500 4732 3093 3407 3092 1207 5674 2442 1462 3419 1536 2290 921 2556 3077 2490 1556 2432 537 803 2597 1622
is_linear=0
shrinkage=0.1


Tree=3
num_leaves=31
num_cat=0
split_feature=2 1 8 4 2 8 4 2 2 3 4 2 2 4 2 1 11 4 2 2 3 8 2 0 2 2 2 1 8 3
split_gain=1.2117e+08 2.17809e+07 1.33678e+07 1.23588e+07 1.67738e+07 4.33509e+06 3.71007e+06 3.48324e+06 3.48136e+06 2.99037e+06 2.98623e+06 2.50829e+06 2.50357e+06 2.31628e+06 3.05049e+06 2.07122e+06 1.79984e+06 1.65621e+06 1.34893e+06 1.33989e+06 1.27687e+06 921727 915173 914807 881069 824996 779162 758473 754581 712987
threshold=14.217432089598018 128540.50000000001 70.642856500000008 1.0000000180025095e-35 17.217432031575566 70.642856500000008 1.0000000180025095e-35 15.803847657335021 21.639463947440642 4.5000000000000009 1.0000000180025095e-35 10.214692380248467 8.5463133228274444 1.0000000180025095e-35 9.9654914320625689 224602.50000000003 1.0000000180025095e-35 1.0000000180025095e-35 18.47234063215296 15.80384752441468 4.5000000000000009 109.60003963333334 15.80384752441468 1992.5000000000002 11.46686137608731 18.055788138460318 11.29962391281787 239481.50000000003 59.466666500000009 3.5000000000000004
decision_type=2 2 2 2 2 2 2 2 2 2 2 2 2 2 2 2 2 2 2 2 2 2 2 2 2 2 2 2 2 2
left_child=1 2 6 4 9 17 20 -5 15 19 27 -12 -8 29 16 18 -15 -3 -6 21 -1 -2 23 -11 -19 -9 -14 -7 -22 -4
right_child=3 5 13 7 8 10 12 25 -10 22 11 -13 26 14 -16 -17 -18 24 -20 -21 28 -23 -24 -25 -26 -27 -28 -29 -30 -31
leaf_value=4.7272268298668285 -1.186199631342292 2.1667390206336394 3.2695038769303295 -8.1167138773534031 -3.7699455348547026 11.564000064542245 7.6345823324289643 -12.897607704172026 -18.667353195228326 3.9288017713597849 7.1840277526656955 -0.89276885402711081 2.0879088323902404 11.431729818379459 3.4609015724153687 -10.45155410652194 18.678586113266231 -1.1658384196857023 -7.6978221449026067 -3.7692728192257641 7.0044781840727257 4.5149399206912344 1.109355960671107 11.400769510818334 -5.4458160747652826 -16.922970007170672 -2.7523647971886351 2.0438507081432777 10.725669415814487 16.614203722448991
leaf_weight=842 750 821 41 1512 1333 541 667 1416 302 364 605 1055 846 1469 394 1800 447 1014 2541 1181 891 456 375 298 915 795 548 99 1403 1705
leaf_count=842 750 821 41 1512 1333 541 667 1416 302 364 605 1055 846 1469 394 1800 447 1014 2541 1181 891 456 375 298 915 795 548 99 1403 1705
internal_value=0 6.36677 9.24967 -6.93926 -5.00794 1.0845 5.89182 -11.8155 -8.20546 0.572773 4.28823 2.05088 2.59599 13.5521 11.4745 -7.64863 13.1224 -1.59498 -6.34628 -1.37509 8.05785 0.969455 5.05643 7.29232 -3.196 -14.345 0.185133 10.0914 9.28034 16.3008
internal_weight=0 14303 9253 13123 9400 5050 5197 3723 5976 3424 2300 1660 2061 4056 2310 5674 1916 2750 3874 2387 3136 1206 1037 662 1929 2211 1394 640 2294 1746
internal_count=27426 14303 9253 13123 9400 5050 5197 3723 5976 3424 2300 1660 2061 4056 2310 5674 1916 2750 3874 2387 3136 1206 1037 662 1929 2211 1394 640 2294 1746
is_linear=0
shrinkage=0.1


Tree=4
num_leaves=31
num_cat=0
split_feature=2 1 8 4 2 2 4 2 4 2 4 2 2 2 8 8 0 3 1 3 1 11 1 0 2 11 3 1 0 3
split_gain=9.81476e+07 1.79077e+07 1.19593e+07 1.00106e+07 1.37022e+07 4.1814e+06 3.75566e+06 2.83106e+06 2.57083e+06 3.5207e+06 2.38449e+06 2.33986e+06 2.33965e+06 2.04185e+06 1.89238e+06 1.6601e+06 1.51686e+06 1.27403e+06 1.23541e+06 1.14187e+06 967035 912511 740869 739905 727251 702365 758772 668969 665070 652336
threshold=14.217432089598018 146904.50000000003 70.642856500000008 1.0000000180025095e-35 18.220171687770605 15.80384752441468 1.0000000180025095e-35 15.888779117351705 1.0000000180025095e-35 9.379075990657304 1.0000000180025095e-35 23.061267622958475 8.5463133228274444 9.2119526668970373 73.550118933333351 109.60003963333334 2263.0000000000005 4.5000000000000009 169498.50000000003 4.5000000000000009 277201.00000000006 1.0000000180025095e-35 219230.50000000003 1756.5000000000002 11.214692389267986 1.0000000180025095e-35 4.5000000000000009 204115.50000000003 1797.5000000000002 3.5000000000000004
decision_type=2 2 2 2 2 2 2 2 2 2 2 2 2 2 2 2 2 2 2 2 2 2 2 2 2 2 2 2 2 2
left_child=1 2 6 4 5 15 19 -5 25 14 16 17 -8 -12 -10 -2 -3 20 -7 29 23 27 -17 -6 -14 26 -4 -15 -21 -1
right_child=3 10 8 7 11 18 12 -9 9 -11 13 -13 24 21 -16 22 -18 -19 -20 28 -22 -23 -24 -25 -26 -27 -28 -29 -30 -31
leaf_value=-6.1352967919974493 0.43661640810728397 1.3462958573756199 9.0178747036103584 -7.4136193325472268 -12.273666178321138 -1.0527085582813036 6.7900325338031626 -12.995284471852322 8.5206754785412482 3.1650429699905098 4.3863849991187456 -18.959376917684022 1.7831447209199045 -2.1183568281713585 14.621686974765538 7.9435080376955192 9.3581182206218898 -3.1448078175457486 -5.1107456105866325 6.8698232725821446 -12.083540891886669 1.1681745191921349 -0.35485501369604699 -7.3379066198409779 -2.3159218498502065 17.554274975267404 14.597139382848244 -5.9230996547860135 10.269942844710421 4.8063626851903072
leaf_weight=58 1114 719 317 1575 340 1461 703 2148 967 628 480 203 974 1076 1072 624 352 485 1542 1440 655 471 130 2846 779 544 1055 810 958 900
leaf_count=58 1114 719 317 1575 340 1461 703 2148 967 628 480 203 974 1076 1072 624 352 485 1542 1440 655 471 130 2846 779 544 1055 810 958 900
internal_value=0 5.73009 7.89965 -6.24533 -4.50715 -0.825656 4.88766 -10.634 11.7193 9.71188 -0.0407736 -8.46664 1.91615 -1.55847 11.7283 2.88919 3.9795 -7.97427 -3.13646 7.06229 -8.58408 -2.76914 6.51276 -7.86464 -0.0384028 14.5137 13.3081 -3.75242 8.22817 4.14392
internal_weight=0 14303 10395 13123 9400 4871 5812 3723 4583 2667 3908 4529 2456 2837 2039 1868 1071 4326 3003 3356 3841 2357 754 3186 1753 1916 1372 1886 2398 958
internal_count=27426 14303 10395 13123 9400 4871 5812 3723 4583 2667 3908 4529 2456 2837 2039 1868 1071 4326 3003 3356 3841 2357 754 3186 1753 1916 1372 1886 2398 958
is_linear=0
shrinkage=0.1


Tree=5
num_leaves=31
num_cat=0
split_feature=2 1 4 2 8 1 8 3 0 1 2 4 2 4 1 2 1 0 4 7 11 2 2 1 2 11 8 0 2 9
split_gain=7.96764e+07 1.63111e+07 7.99217e+06 9.82346e+06 5.74177e+06 5.5439e+06 5.09807e+06 2.85883e+06 2.06031e+06 2.00965e+06 1.92356e+06 1.91833e+06 2.11767e+06 1.39038e+06 1.32318e+06 1.17791e+06 1.08369e+06 1.06753e+06 1.04427e+06 977797 863556 852234 682291 678013 671133 647784 602248 543279 494648 456834
threshold=14.469600940678431 95771.000000000015 1.0000000180025095e-35 18.220171687770605 73.550118933333351 183811.50000000003 70.642856500000008 4.5000000000000009 1998.5000000000002 42821.000000000007 17.217432192716945 1.0000000180025095e-35 11.29962391281787 1.0000000180025095e-35 277201.00000000006 16.05578820962932 208009.00000000003 1797.5000000000002 1.0000000180025095e-35 2.5000000000000004 1.0000000180025095e-35 9.2968841625024119 15.80384752441468 190612.50000000003 12.214692435793845 1.0000000180025095e-35 73.550118933333351 1756.5000000000002 23.061267622958475 1.0000000180025095e-35
decision_type=2 2 2 2 2 2 2 2 2 2 2 2 2 2 2 2 2 2 2 2 2 2 2 2 2 2 2 2 2 2
left_child=1 4 3 7 9 6 13 14 16 -1 23 26 20 -3 15 29 27 -11 19 -7 -13 -20 -9 -4 -15 -6 -8 -5 -10 -2
right_child=2 5 10 8 25 18 11 22 28 17 -12 12 -14 24 -16 -17 -18 -19 21 -21 -22 -23 -24 -25 -26 -27 -28 -29 -30 -31
leaf_value=9.8445991585604773 2.1816404729227541 3.5581841909547323 -6.6467886967842027 -9.8379070156451434 11.957690729147664 -5.9006514619118065 1.4748183844694451 5.7430082526198412 -11.556532048824785 3.6601433761378397 -13.098586481050839 5.4378515795750735 0.013736963306509623 0.52674231382973191 -7.730460604115831 -3.3042571583538543 -8.8712917006345915 7.304156739707075 2.1601432548280735 3.6330602882582634 11.351190565526487 -4.0727688747065462 0.9020903103566561 -10.205323542445264 -3.56765602102928 15.840008588363787 11.315251132313081 -5.030707040826023 -18.472400250846956 -2.0846395562330886
leaf_weight=1471 759 1287 1244 264 1261 138 67 557 286 1699 1249 692 571 1345 426 1894 1670 1526 255 488 384 1570 610 940 570 652 867 2147 162 375
leaf_count=1471 759 1287 1244 264 1261 138 67 557 286 1699 1249 692 571 1345 426 1894 1670 1526 255 488 384 1570 610 940 570 652 867 2147 162 375
internal_value=0 4.96266 -5.85399 -4.31028 8.6628 1.99276 3.68202 -1.06648 -7.61998 6.78154 -9.96847 6.98909 4.93606 1.01633 -2.51225 -1.77812 -6.9133 5.38441 -1.99297 1.53138 7.54819 -3.20187 3.21262 -8.17839 -0.691956 13.2809 10.6094 -5.55709 -14.0574 0.770834
internal_weight=0 14843 12583 9150 6609 8234 5783 4621 4529 4696 3433 2581 1647 3202 3454 3028 4081 3225 2451 626 1076 1825 1167 2184 1915 1913 934 2411 448 1134
internal_count=27426 14843 12583 9150 6609 8234 5783 4621 4529 4696 3433 2581 1647 3202 3454 3028 4081 3225 2451 626 1076 1825 1167 2184 1915 1913 934 2411 448 1134
is_linear=0
shrinkage=0.1


Tree=6
num_leaves=31
num_cat=0
split_feature=2 1 4 2 8 8 1 1 2 4 2 4 2 4 3 2 2 11 1 1 11 4 2 2 0 1 4 2 7 8
split_gain=6.4634e+07 1.27681e+07 6.7095e+06 8.42688e+06 4.84792e+06 4.72418e+06 3.00905e+06 2.15915e+06 1.84e+06 1.83391e+06 1.63537e+06 1.29013e+06 1.45558e+06 1.1378e+06 1.04691e+06 1.02999e+06 994422 931768 801931 787218 778984 695629 697248 677463 675044 639839 603540 756740 598686 580187
threshold=14.384555310000369 94137.500000000015 1.0000000180025095e-35 17.803847497836163 70.642856500000008 70.642856500000008 172326.00000000003 145907.00000000003 20.891518752970089 1.0000000180025095e-35 16.721655872173638 1.0000000180025095e-35 9.379075990657304 1.0000000180025095e-35 4.5000000000000009 7.6312448478793771 11.29962391281787 1.0000000180025095e-35 368270.50000000006 291515.00000000006 1.0000000180025095e-35 1.0000000180025095e-35 11.29962391281787 15.80384752441468 1992.5000000000002 250905.00000000003 1.0000000180025095e-35 7.0503087695433697 2.5000000000000004 59.466666500000009
decision_type=2 2 2 2 2 2 2 2 2 2 2 2 2 2 2 2 2 2 2 2 2 2 2 2 2 2 2 2 2 2
left_child=1 5 3 7 9 13 11 23 14 25 -4 -6 20 29 19 -15 -11 26 -9 -5 -13 28 -23 24 -2 -3 -7 -28 -8 -1
right_child=2 4 10 8 6 17 21 18 -10 16 -12 12 -14 15 -16 -17 -18 -19 -20 -21 -22 22 -24 -25 -26 -27 27 -29 -30 -31
leaf_value=4.9591281099365716 1.9994755003769513 2.9690863907416505 -6.9590726070752087 -5.7571407943959825 9.795931063550686 11.824019185954228 -6.1339048475027091 -1.9716140201380838 -11.70560726335604 0.058295594028507675 -11.285920212002246 5.6888505774248941 1.6757367962152341 6.7416047157796504 -1.6707165276584643 0.75627863749042545 -3.6632622720595638 14.348213190732489 -10.843477746092271 -9.818881267449818 12.296021666508935 2.6171663431076393 -2.7495176977140465 0.15167391462030128 7.4568282962539429 -4.618867035682003 10.339238443099536 5.1103374640806853 6.3816251421788923 8.1199202531273613
leaf_weight=1018 598 1503 1949 3561 870 979 44 2131 584 1440 1583 538 713 461 554 764 1432 628 107 551 267 413 585 816 365 120 780 429 291 1352
leaf_count=1018 598 1503 1949 3561 870 979 44 2131 584 1440 1583 538 713 461 554 764 1432 628 107 551 267 413 585 816 365 120 780 429 291 1352
internal_value=0 4.54108 -5.18966 -3.77615 1.93122 7.88575 4.60104 -0.328745 -6.41391 -0.278882 -8.89831 6.72567 4.96603 5.48323 -5.7516 3.00872 -1.7973 10.9529 -2.39578 -6.30141 7.8803 0.794886 -0.528635 2.27161 4.06794 2.40805 9.97836 8.48382 4.73779 6.76225
internal_weight=0 14627 12799 9267 8216 6411 3721 4017 5250 4495 3532 2388 1518 3595 4666 1225 2872 2816 2238 4112 805 1333 998 1779 963 1623 2188 1209 335 2370
internal_count=27426 14627 12799 9267 8216 6411 3721 4017 5250 4495 3532 2388 1518 3595 4666 1225 2872 2816 2238 4112 805 1333 998 1779 963 1623 2188 1209 335 2370
is_linear=0
shrinkage=0.1


Tree=7
num_leaves=31
num_cat=0
split_feature=2 1 8 1 4 2 2 1 4 2 11 4 4 4 2 8 0 1 4 2 1 2 2 8 4 3 0 2 2 3
split_gain=5.24469e+07 9.85645e+06 6.39769e+06 5.88933e+06 2.63726e+06 3.17938e+06 2.46786e+06 2.21009e+06 1.57628e+06 2.20123e+06 1.50144e+06 1.48519e+06 1.28459e+06 1.25188e+06 1.14836e+06 1.13388e+06 1.11487e+06 1.03161e+06 842417 815159 801733 726334 709037 694512 583267 582998 565925 521505 511256 509271
threshold=14.217432002575164 148002.00000000003 70.642856500000008 145907.00000000003 1.0000000180025095e-35 18.220171760026293 15.888779117351705 62100.500000000007 1.0000000180025095e-35 9.379075990657304 1.0000000180025095e-35 1.0000000180025095e-35 1.0000000180025095e-35 1.0000000180025095e-35 15.469601034619256 103.01666650000001 1998.5000000000002 221889.50000000003 1.0000000180025095e-35 18.220171687770605 277201.00000000006 16.217431962237601 10.381815680770794 109.60003963333334 2.5000000000000004 3.5000000000000004 1756.5000000000002 9.2968841625024119 7.3790759488177686 3.5000000000000004
decision_type=2 2 2 2 2 2 2 2 2 2 2 2 2 2 2 2 2 2 2 2 2 2 2 2 2 2 2 2 2 2
left_child=1 2 7 6 5 20 11 -1 25 15 17 23 29 19 -6 -10 26 18 -3 -8 21 -5 -14 -2 -12 -4 -7 -26 -17 -9
right_child=3 10 8 4 14 16 13 12 9 -11 24 -13 22 -15 -16 28 -18 -19 -20 -21 -22 -23 -24 -25 27 -27 -28 -29 -30 -31
leaf_value=6.3784672940358584 1.662517246981766 3.331033161663127 -0.56531069278717039 0.53148116355222441 -5.6800914449791442 -10.22784314828592 -0.16131760971743847 -7.9311065299170354 7.1126709264823562 1.8996517172958762 9.6184576756245388 -3.0526137947918817 2.4704509426346348 -7.6790271393829421 -10.035224407062683 14.294095804177079 -12.397179096796105 -3.7697335044461355 -1.0870349123236946 -4.1147622245835 -6.1727128020566155 -3.038986006822832 -1.4031420070874063 6.7603066642424636 9.2191566932139946 11.080958263373233 -5.8564842287569316 1.1506670146921407 8.1220930448770527 4.2400249601287907
leaf_weight=1928 720 601 44 915 909 333 983 35 1438 634 148 484 876 535 1813 408 338 974 1531 1111 478 1510 1026 425 97 1859 2677 460 200 1936
leaf_count=1928 720 601 44 915 909 333 983 35 1438 634 148 484 876 535 1813 408 338 974 1531 1111 478 1510 1026 425 97 1859 2677 460 200 1936
internal_value=0 4.22189 5.81825 -4.5295 -5.98285 -4.85155 -1.46681 3.61201 8.61083 7.04806 -0.127768 1.59158 2.23485 -3.36187 -8.58085 8.64342 -6.95159 -1.07341 0.158396 -2.25887 -2.4296 -1.69178 0.38091 3.55471 4.03844 10.8117 -6.34009 2.55577 12.2638 4.0239
internal_weight=0 14195 10384 13231 8973 6251 4258 5801 4583 2680 3811 1629 3873 2629 2722 2046 3348 3106 2132 2094 2903 2425 1902 1145 705 1903 3010 557 608 1971
internal_count=27426 14195 10384 13231 8973 6251 4258 5801 4583 2680 3811 1629 3873 2629 2722 2046 3348 3106 2132 2094 2903 2425 1902 1145 705 1903 3010 557 608 1971
is_linear=0
shrinkage=0.1


Tree=8
num_leaves=31
num_cat=0
split_feature=2 2 1 4 4 8 8 2 3 4 3 1 2 1 2 2 1 0 8 0 8 1 2 11 4 0 11 3 1 8
split_gain=4.27015e+07 6.66495e+06 6.6634e+06 5.90586e+06 3.24418e+06 3.22811e+06 2.92891e+06 2.53086e+06 1.42327e+06 1.42161e+06 1.39154e+06 1.28731e+06 1.22179e+06 960814 870045 828113 768763 677574 626652 593478 555730 534305 511207 495922 431078 403640 395387 379918 379209 371783
threshold=13.466861198289314 15.803847657335021 99694.000000000015 1.0000000180025095e-35 1.0000000180025095e-35 73.550118933333351 70.642856500000008 19.724395453491873 4.5000000000000009 1.0000000180025095e-35 4.5000000000000009 45619.500000000007 9.379075990657304 176301.00000000003 24.809327049402182 1.0000000180025095e-35 303942.50000000006 1992.5000000000002 59.466666500000009 2726.5000000000005 87.666666500000005 206687.00000000003 18.30510319022876 1.0000000180025095e-35 1.0000000180025095e-35 2263.0000000000005 1.0000000180025095e-35 3.5000000000000004 67507.500000000015 59.466666500000009
decision_type=2 2 2 2 2 2 2 2 2 2 2 2 2 2 2 2 2 2 2 2 2 2 2 2 2 2 2 2 2 2
left_child=2 3 5 10 7 11 13 8 16 25 20 29 15 24 -9 -11 27 -12 -13 21 -2 -5 -6 -17 -4 -8 28 -3 -7 -1
right_child=1 4 6 19 22 26 9 14 -10 12 17 18 -14 -15 -16 23 -18 -19 -20 -21 -22 -23 -24 -25 -26 -27 -28 -29 -30 -31
leaf_value=4.91076095107901 -0.87363723473863153 -8.2680174761260599 2.8691198065787944 -3.2653678954676071 -7.591975773170053 10.382446375686166 4.3306240598712353 -6.6892808115197715 0.55988947056217631 -13.118000518757365 2.8372087682674696 1.7385704121585324 0.75758387053841958 -2.5572571727299618 -16.112259014833324 4.4046923839813932 -7.6537918698967919 7.8979159233554945 4.8209325026536103 -13.57908055331256 2.7096991370706616 -6.6967272975150198 -10.916305279767931 9.3589873853840349 0.030621368348327183 9.3465261463230824 11.865481437300399 -3.1539509231979652 6.7388331242443291 8.3185566573407854
leaf_weight=445 1111 151 837 1304 1552 681 226 2013 902 23 602 962 1179 1079 103 591 463 472 2098 74 709 696 659 307 1483 553 694 3824 492 1141
leaf_count=445 1111 151 837 1304 1552 681 226 2013 902 23 602 962 1179 1079 103 591 463 472 2098 74 709 696 659 307 1483 553 694 3824 492 1141
internal_value=0 -3.68889 4.2207 -0.712044 -5.21874 6.46157 1.89595 -4.22116 -3.0614 4.24287 2.20677 5.05028 2.88946 -0.091914 -7.14796 5.61853 -3.79741 5.06128 3.8519 -4.78487 0.522289 -4.45948 -8.58281 6.09842 1.05468 7.89134 9.97354 -3.34822 8.85418 7.3624
internal_weight=0 14635 12791 4968 9667 6513 6278 7456 5340 2879 2894 4646 2100 3399 2116 921 4438 1074 3060 2074 1820 2000 2211 898 2320 779 1867 3975 1173 1586
internal_count=27426 14635 12791 4968 9667 6513 6278 7456 5340 2879 2894 4646 2100 3399 2116 921 4438 1074 3060 2074 1820 2000 2211 898 2320 779 1867 3975 1173 1586
is_linear=0
shrinkage=0.1


Tree=9
num_leaves=31
num_cat=0
split_feature=2 1 1 2 8 4 8 1 4 2 4 1 2 0 11 1 2 4 0 1 8 2 3 2 4 2 0 8 2 8
split_gain=3.45882e+07 5.48056e+06 5.47065e+06 3.06279e+06 2.99011e+06 2.28013e+06 2.20448e+06 1.49045e+06 1.4449e+06 1.86967e+06 1.17208e+06 1.04633e+06 931367 873185 865126 821154 722671 658512 646564 593205 549045 449482 432522 403470 402623 399021 359757 338370 326926 325692
threshold=13.466861198289314 172326.00000000003 79880.000000000015 15.80384752441468 70.642856500000008 1.0000000180025095e-35 77.000000000000014 171314.00000000003 1.0000000180025095e-35 18.220171760026293 1.0000000180025095e-35 176301.00000000003 19.220171727076153 1987.5000000000002 1.0000000180025095e-35 30322.000000000004 15.469601034619256 1.0000000180025095e-35 1998.5000000000002 354438.50000000006 67.857142500000023 16.217431962237601 4.5000000000000009 24.809327049402182 1.0000000180025095e-35 11.29962391281787 1756.5000000000002 59.466666500000009 10.381815680770794 87.666666500000005
decision_type=2 2 2 2 2 2 2 2 2 2 2 2 2 2 2 2 2 2 2 2 2 2 2 2 2 2 2 2 2 2
left_child=2 3 6 5 11 13 15 14 9 19 12 17 22 -2 24 -1 -10 27 26 21 -17 29 -5 -14 -6 -26 -11 -4 -19 -3
right_child=1 8 4 10 7 -7 -8 -9 16 18 -12 -13 23 -15 -16 20 -18 28 -20 -21 -22 -23 -24 -25 25 -27 -28 -29 -30 -31
leaf_value=7.911817678542886 1.3769176267608407 -1.7768699874055411 0.88466759691066299 -1.8711796449329929 6.506096303408019 -2.9583729997721129 10.474333899052523 1.1149601645127849 -5.185492713109932 -9.0166552463720802 -6.1789183803713064 -2.3015314930937736 -4.1994034044029469 5.6579517717201577 7.8809829319764182 2.8991551365006165 -8.708833556927619 1.6168838100374647 -10.791744696705734 -7.7612154721876996 5.6831629252818416 -2.9418696589361808 1.257065381664856 -14.556219805203952 3.952569953023616 -1.0242470944895963 -5.1256923856595709 4.236742230427792 -1.022209924315205 2.070422355336405
leaf_weight=923 1255 479 471 1591 488 940 1058 1048 995 267 947 1079 1059 768 1004 1243 1403 825 261 177 1647 1275 612 39 884 197 2160 835 1089 407
leaf_count=923 1255 479 471 1591 488 940 1058 1048 995 267 947 1079 1059 768 1004 1243 1403 825 261 177 1647 1275 612 39 884 197 2160 835 1089 407
internal_value=0 -3.32001 3.79863 -1.35648 2.17677 1.11119 6.4357 4.29391 -5.2272 -4.26356 -3.07769 0.393521 -2.188 3.00214 5.58872 5.31509 -7.2469 1.29662 -6.06235 -2.1955 4.48575 -1.73963 -1.00214 -4.56727 4.12191 3.0456 -5.55375 3.02784 0.11533 -0.00954721
internal_weight=0 14635 12791 7211 7920 2963 4871 3621 7424 5026 4248 4299 3301 2023 2573 3813 2398 3220 2688 2338 2890 2161 2203 1098 1569 1081 2427 1306 1914 886
internal_count=27426 14635 12791 7211 7920 2963 4871 3621 7424 5026 4248 4299 3301 2023 2573 3813 2398 3220 2688 2338 2890 2161 2203 1098 1569 1081 2427 1306 1914 886
is_linear=0
shrinkage=0.1


Tree=10
num_leaves=31
num_cat=0
split_feature=2 3 1 8 4 4 4 2 0 2 4 2 4 2 2 3 11 1 3 2 2 4 0 2 11 1 1 0 0 2
split_gain=2.809e+07 6.22391e+06 3.24114e+06 2.62187e+06 2.05048e+06 1.70334e+06 1.44336e+06 1.46285e+06 1.40365e+06 1.40048e+06 1.54309e+06 1.29549e+06 1.19085e+06 1.25236e+06 923156 639610 632001 585114 517685 510040 472823 431168 439856 425733 412860 397001 386839 407961 408846 376175
threshold=14.469600940678431 4.5000000000000009 167942.50000000003 70.642856500000008 1.0000000180025095e-35 1.0000000180025095e-35 1.0000000180025095e-35 9.2968841625024119 2263.0000000000005 18.220171687770605 1.0000000180025095e-35 10.381815680770794 1.0000000180025095e-35 19.724395453491873 8.5463133228274444 3.5000000000000004 1.0000000180025095e-35 277201.00000000006 4.5000000000000009 1.0000000180025095e-35 17.721655850362616 1.0000000180025095e-35 1998.5000000000002 6.7983681905340507 1.0000000180025095e-35 237605.00000000003 274454.50000000006 2263.0000000000005 2996.5000000000005 17.217432031575566
decision_type=2 2 2 2 2 2 2 2 2 2 2 2 2 2 2 2 2 2 2 2 2 2 2 2 2 2 2 2 2 2
left_child=1 4 9 5 8 -3 -5 16 15 10 18 19 13 17 -7 -1 23 29 -2 -6 -14 22 -11 -8 -21 -17 27 -13 -29 -4
right_child=2 3 12 6 11 14 7 -9 -10 21 -12 26 20 -15 -16 25 -18 -19 -20 24 -22 -23 -24 -25 -26 -27 -28 28 -30 -31
leaf_value=-6.1720892131838028 -0.25154909173801998 4.7460609566682255 -0.88132093087671359 8.7317340264337844 -13.00245392633521 4.3641296352373429 6.9391779215391303 1.363486798728659 6.3784743837029794 -2.706801674100868 -3.6023974833431143 -3.2954969066946398 -5.9280552704229725 -6.6024655396374996 -0.10234593542902554 1.9633522456038301 9.7518977319079205 -5.4580068404444768 2.7145856407122873 0.9863894687533018 -9.2272815909302022 -7.5625058000415679 -8.1018423392725669 3.6057854331997476 6.354619418001838 -3.3162993097001583 -6.481777830938185 0.46333441629758854 -13.442358606511897 -3.2911546499062996
leaf_weight=117 1576 2560 1038 1569 23 623 860 811 656 1504 1123 1303 1414 1403 1799 1534 439 799 939 702 627 269 168 691 180 157 254 543 22 1723
leaf_count=117 1576 2560 1038 1569 23 623 860 811 656 1504 1123 1303 1414 1403 1799 1534 439 799 939 702 627 269 168 691 180 157 254 543 22 1723
internal_value=0 2.94663 -3.47587 4.51571 0.274257 2.94754 6.30349 4.94329 2.4161 -1.67761 -0.520324 -1.46922 -4.90826 -4.07207 1.04655 0.978423 6.4022 -3.07484 0.855887 1.69859 -6.94159 -3.8467 -3.24889 5.45409 2.08195 1.47317 -2.82024 -2.32236 -0.0781262 -2.38518
internal_weight=0 14843 12583 9352 5491 4982 4370 2801 2464 5579 3638 3027 7004 4963 2422 1808 1990 3560 2515 905 2041 1941 1672 1551 882 1691 2122 1868 565 2761
internal_count=27426 14843 12583 9352 5491 4982 4370 2801 2464 5579 3638 3027 7004 4963 2422 1808 1990 3560 2515 905 2041 1941 1672 1551 882 1691 2122 1868 565 2761
is_linear=0
shrinkage=0.1


Tree=11
num_leaves=31
num_cat=0
split_feature=2 3 1 11 4 2 4 8 1 7 0 2 1 2 2 1 8 4 2 0 7 1 1 3 3 1 1 0 4 2
split_gain=2.31448e+07 4.05304e+06 3.70552e+06 2.115e+06 1.93705e+06 2.61343e+06 1.80026e+06 1.52948e+06 1.19856e+06 896706 818391 808566 759950 690982 641515 607889 416964 411420 450007 399301 376283 354612 324736 315379 291380 272316 268377 268329 268104 418822
threshold=13.299623815287461 4.5000000000000009 79117.000000000015 1.0000000180025095e-35 1.0000000180025095e-35 18.220171760026293 1.0000000180025095e-35 77.000000000000014 170260.00000000003 3.5000000000000004 1797.5000000000002 16.217431962237601 197103.00000000003 15.469601034619256 16.132500488838925 26140.000000000004 67.857142500000023 1.0000000180025095e-35 8.5463133228274444 1992.5000000000002 4.5000000000000009 248704.50000000003 299250.00000000006 3.5000000000000004 3.5000000000000004 244969.00000000003 250905.00000000003 1756.5000000000002 1.0000000180025095e-35 8.2119527516493402
decision_type=2 2 2 2 2 2 2 2 2 2 2 2 2 2 2 2 2 2 2 2 2 2 2 2 2 2 2 2 2 2
left_child=2 4 7 8 5 14 11 15 10 -7 -4 19 28 -6 20 -1 -17 24 -19 -3 22 27 -2 -16 -12 -15 -10 -11 -5 -30
right_child=1 6 3 12 13 9 -8 -9 26 21 17 -13 -14 25 23 16 -18 18 -20 -21 -22 -23 -24 -25 -26 -27 -28 -29 29 -31
leaf_value=6.9540191525157473 -0.35630391039556975 2.1951860686679825 0.15451062822371894 8.6177808671103175 -3.9462536931191075 -8.8009938915428361 -2.7886704527970516 8.764206562143146 -0.48120057342617656 -6.4352312024548759 -5.7139442664605609 -0.04758412824021524 0.70864892128971813 -6.2416795529115143 -7.3328565209581145 2.4126647241703729 4.8007609153602466 3.9287101801210329 0.79973178628611086 5.8665142349927368 1.9989313623702714 -5.8345698278315306 -6.4078598448385797 -1.9357286421199889 4.8170112221090919 -9.1018481373512881 -3.3392713234839939 -3.1494483108144964 8.8561527834100229 3.7674407068174336
leaf_weight=752 1162 685 1740 384 1362 454 1188 1031 1280 278 27 1014 287 1418 114 1284 1698 760 1163 522 761 863 96 2154 977 435 442 2345 236 514
leaf_count=752 1162 685 1740 384 1362 454 1188 1031 1280 278 27 1014 287 1418 114 1284 1698 760 1163 522 761 863 96 2154 977 435 442 2345 236 514
internal_value=0 -2.67314 3.15696 1.81612 -3.57487 -2.7615 0.353427 5.35464 1.04004 -4.62064 1.87202 2.03412 5.30551 -5.65624 -1.05283 4.41322 3.77249 2.89301 2.03635 3.78295 0.243688 -4.07621 -0.818108 -2.20701 4.53381 -6.91312 -1.21481 -3.49769 6.46891 5.36869
internal_weight=0 14851 12575 7810 11442 8227 3409 4765 6389 3940 4667 2221 1421 3215 4287 3734 2982 2927 1923 1207 2019 3486 1258 2268 1004 1853 1722 2623 1134 750
internal_count=27426 14851 12575 7810 11442 8227 3409 4765 6389 3940 4667 2221 1421 3215 4287 3734 2982 2927 1923 1207 2019 3486 1258 2268 1004 1853 1722 2623 1134 750
is_linear=0
shrinkage=0.1


Tree=12
num_leaves=31
num_cat=0
split_feature=2 1 1 2 4 11 8 3 4 0 2 1 1 1 4 4 2 4 2 3 2 3 0 9 8 3 2 7 2 2
split_gain=1.87669e+07 3.4176e+06 2.93833e+06 2.36736e+06 1.65735e+06 1.60775e+06 1.23221e+06 947854 901690 781477 686060 609979 583873 497485 491784 491248 530265 475106 459750 357463 356100 337519 321384 307778 303840 292715 290043 260297 255368 342636
threshold=13.21469228998698 204115.50000000003 79880.000000000015 15.803847657335021 1.0000000180025095e-35 1.0000000180025095e-35 77.000000000000014 4.5000000000000009 1.0000000180025095e-35 1987.5000000000002 19.472340637515984 195880.00000000003 291515.00000000006 35254.500000000007 1.0000000180025095e-35 1.0000000180025095e-35 8.5463133228274444 1.0000000180025095e-35 18.47234063215296 4.5000000000000009 24.809327049402182 3.5000000000000004 2726.5000000000005 1.0000000180025095e-35 59.466666500000009 3.5000000000000004 17.636724343307144 1.5000000000000002 3.713436701193165 8.5463133228274444
decision_type=2 2 2 2 2 2 2 2 2 2 2 2 2 2 2 2 2 2 2 2 2 2 2 2 2 2 2 2 2 2
left_child=2 3 6 4 9 7 13 14 10 -2 19 -7 17 -1 25 -9 -17 18 -3 -5 -12 -15 23 -6 -23 -4 -19 -27 -16 -30
right_child=1 12 5 8 22 11 -8 15 -10 -11 20 -13 -14 21 28 16 -18 26 -20 -21 -22 24 -24 -25 -26 27 -28 -29 29 -31
leaf_value=5.6901358370842132 0.68975795669694484 -1.6172556842331731 -6.3409223032494388 -1.6816310244837891 -0.78678244158662425 5.8745583686204714 7.8764745436666335 3.8317294718624284 -4.8273001406976324 4.2491000769109677 -3.4411953653041203 0.67564643468004426 -6.2309596510516361 -8.8511036136875987 -12.2481164672158 3.2707299870604993 0.21919632318833299 -4.5136757736885427 -4.3494729313943372 0.8142049170971154 -11.655460033416748 1.6342204460586314 -10.316805616669035 -3.8663729360790891 4.019515404821016 -2.5112023357735125 -7.9959603747225705 2.3220353747028084 1.9597944289314395 -2.0391759646463359
leaf_weight=1174 1563 1202 48 2412 961 1070 1036 1066 1365 1019 1305 286 1381 23 22 869 1652 930 1263 753 55 757 46 490 1813 129 322 818 255 1341
leaf_count=1174 1563 1202 48 2412 961 1070 1036 1066 1365 1019 1305 286 1381 23 22 869 1652 930 1263 753 55 757 46 490 1813 129 322 818 255 1341
internal_value=0 -2.36915 2.88826 -1.29214 0.55963 1.65893 4.82223 0.976753 -2.57455 2.09447 -1.89499 4.77803 -4.47523 3.98225 -0.471921 2.03206 1.27107 -3.82291 -3.01717 -1.08783 -3.77339 3.20899 -2.08764 -1.82675 3.31692 1.2775 -5.40928 1.66365 -1.54774 -1.40024
internal_weight=0 15067 12359 9969 4079 7556 4803 6200 5890 2582 4525 1356 5098 3767 2613 3587 2521 3717 2465 3165 1360 2593 1497 1451 2570 995 1252 947 1618 1596
internal_count=27426 15067 12359 9969 4079 7556 4803 6200 5890 2582 4525 1356 5098 3767 2613 3587 2521 3717 2465 3165 1360 2593 1497 1451 2570 995 1252 947 1618 1596
is_linear=0
shrinkage=0.1


Tree=13
num_leaves=31
num_cat=0
split_feature=2 3 1 4 1 8 2 0 8 4 2 4 7 3 4 2 4 2 8 0 11 2 7 2 1 0 3 0 1 4
split_gain=1.53413e+07 4.52407e+06 1.58574e+06 1.51654e+06 1.2949e+06 1.06787e+06 957404 874480 792579 714560 677886 550502 548745 526131 473500 734360 413782 475368 410805 400486 338434 329762 317471 293927 261225 258635 256342 245111 237741 237248
threshold=15.217431998125011 4.5000000000000009 67507.500000000015 1.0000000180025095e-35 194632.00000000003 73.550118933333351 12.299623792800263 2263.0000000000005 77.000000000000014 1.0000000180025095e-35 18.47234063215296 1.0000000180025095e-35 2.5000000000000004 3.5000000000000004 1.0000000180025095e-35 9.2119526668970373 1.0000000180025095e-35 9.2119526668970373 59.466666500000009 1998.5000000000002 1.0000000180025095e-35 19.891518771549162 4.5000000000000009 13.466861198289314 21610.500000000004 2996.5000000000005 3.5000000000000004 2996.5000000000005 280005.50000000006 5.5000000000000009
decision_type=2 2 2 2 2 2 2 2 2 2 2 2 2 2 2 2 2 2 2 2 2 2 2 2 2 2 2 2 2 2
left_child=1 3 8 7 9 16 20 13 18 10 26 12 -6 -1 -7 -16 -4 -18 -3 -12 -5 -14 28 -9 -20 -17 -2 29 -15 -8
right_child=4 2 5 6 11 14 27 23 -10 -11 19 -13 21 22 15 25 17 -19 24 -21 -22 -23 -24 -25 -26 -27 -28 -29 -30 -31
leaf_value=-5.3699212228222724 -6.3843911644238149 2.1138890694850554 2.6766361013536888 -0.58805390904045607 -6.9279651362378649 5.8166688301938301 -4.3382611462159639 6.2075840253442598 7.8626607290085637 -3.8580634982345821 -2.2097078496227964 -6.0737477176377102 -2.5005395753644084 0.44531045255578489 5.6751260428694357 1.3558380807020718 2.286977813034563 -0.49252857554068508 7.0937901359810329 -6.5950816236882135 2.8511015662902528 -4.9381088734671943 2.5380217185870708 1.9864914992873399 4.3267726794977799 -8.0993665003776556 -0.11688583848107831 -10.938263092041016 -4.3720486597166408 -1.9547266896758388
leaf_weight=139 67 707 1507 1458 424 914 754 437 748 1531 1892 1162 2305 1329 567 811 1009 1577 432 234 356 731 821 265 1623 30 2509 40 111 936
leaf_count=139 67 707 1507 1458 424 914 754 437 748 1531 1892 1162 2305 1329 567 811 1009 1577 432 234 356 731 821 265 1623 30 2509 40 111 936
internal_value=0 1.91421 3.2663 -0.104972 -2.92219 2.33131 -1.51823 1.50966 4.97512 -1.98167 -1.3707 -4.19054 -3.55808 0.60159 4.04429 2.89375 1.35952 0.591973 4.19312 -2.69239 0.0868851 -3.08745 0.968702 4.61415 4.90845 1.01855 -0.279899 -3.20127 0.0739724 -3.01815
internal_weight=0 16571 9925 6646 10855 6415 3544 3102 3510 6233 4702 4622 3460 2400 2322 1408 4093 2586 2762 2126 1814 3036 2261 702 2055 841 2576 1730 1440 1690
internal_count=27426 16571 9925 6646 10855 6415 3544 3102 3510 6233 4702 4622 3460 2400 2322 1408 4093 2586 2762 2126 1814 3036 2261 702 2055 841 2576 1730 1440 1690
is_linear=0
shrinkage=0.1


Tree=14
num_leaves=31
num_cat=0
split_feature=2 3 1 8 1 4 2 4 4 4 4 2 2 2 1 4 2 3 3 4 7 8 11 0 2 0 0 0 1 11
split_gain=1.24851e+07 2.5916e+06 2.05342e+06 1.60144e+06 1.1333e+06 1.0057e+06 801439 692370 609094 588598 847384 721357 548918 431042 399901 398130 408669 390759 372269 366494 382799 346753 326659 319426 298691 286381 249642 245780 230941 233179
threshold=13.21469228998698 4.5000000000000009 158321.50000000003 70.380952000000022 208009.00000000003 2.5000000000000004 17.055788166459809 1.0000000180025095e-35 1.0000000180025095e-35 1.0000000180025095e-35 4.5000000000000009 7.2119526487244219 7.6312448478793771 16.132500488838925 248704.50000000003 1.0000000180025095e-35 18.220171760026293 3.5000000000000004 3.5000000000000004 1.0000000180025095e-35 3.5000000000000004 77.000000000000014 1.0000000180025095e-35 2263.0000000000005 23.061267622958475 1992.5000000000002 1987.5000000000002 1756.5000000000002 38503.000000000007 1.0000000180025095e-35
decision_type=2 2 2 2 2 2 2 2 2 2 2 2 2 2 2 2 2 2 2 2 2 2 2 2 2 2 2 2 2 2
left_child=2 4 3 8 6 13 7 26 18 17 -11 21 -10 25 22 16 -6 -5 -1 20 -8 -12 -4 28 -18 -3 -2 -22 -19 -30
right_child=1 5 14 9 15 -7 19 -9 12 10 11 -13 -14 -15 -16 -17 24 23 -20 -21 27 -23 -24 -25 -26 -27 -28 -29 29 -31
leaf_value=-7.4573298672835042 -0.45559486455783543 1.617188055730173 -0.14839656049729033 -2.789717806013007 -1.9993583030190558 -1.8458940183654997 -5.8643701153386338 -2.566035824601451 2.9184971231388328 -0.29149239232472929 4.8191527778970054 2.6739590145667145 -0.82912922228031383 0.18703484429926345 -2.5117594906327696 -5.3773821295855884 -4.00266377261815 6.7515630993542661 2.7892070103929707 -4.9932652731080287 -5.2698884625597442 8.7024646816483475 3.0371728270250089 7.1091850494054221 -9.8571064737180016 4.6815909831462745 1.8232944630852925 -1.7887646338620184 3.5207956564351996 11.722206009758844
leaf_weight=36 1308 699 1584 57 1361 1237 292 1296 547 551 748 1614 1369 1031 567 1309 1652 373 2351 672 220 332 404 854 92 541 760 2597 936 36
leaf_count=36 1308 699 1584 57 1361 1237 292 1296 547 551 748 1614 1369 1031 567 1309 1652 373 2351 672 220 332 404 854 92 541 760 2597 936 36
internal_value=0 -1.93238 2.35579 3.01381 -2.65489 0.448295 -1.87662 -0.753804 1.56874 4.14418 3.2817 4.01251 0.240783 1.69793 -0.169162 -3.91467 -3.29803 5.38476 2.63467 -2.87561 -2.41788 6.01291 0.498973 5.59665 -4.3115 2.95416 0.381908 -2.06063 4.63628 3.82455
internal_weight=0 15067 12359 9804 11559 3508 7145 3364 4303 5501 3245 2694 1916 2271 2555 4414 3105 2256 2387 3781 3109 1080 1988 2199 1744 1240 2068 2817 1345 972
internal_count=27426 15067 12359 9804 11559 3508 7145 3364 4303 5501 3245 2694 1916 2271 2555 4414 3105 2256 2387 3781 3109 1080 1988 2199 1744 1240 2068 2817 1345 972
is_linear=0
shrinkage=0.1


Tree=15
num_leaves=31
num_cat=0
split_feature=2 3 1 4 1 8 2 4 8 2 1 1 0 0 4 8 1 8 0 4 1 2 3 2 0 7 11 0 4 2
split_gain=1.02995e+07 2.72324e+06 1.26838e+06 1.23763e+06 1.12517e+06 1.04377e+06 847282 861320 501456 445396 398492 375695 371029 370715 401112 364287 347353 296914 283721 239810 215592 204820 202274 182484 178919 173527 171490 164163 165942 159454
threshold=12.299623792800263 4.5000000000000009 66503.500000000015 1.0000000180025095e-35 216205.00000000003 73.550118933333351 17.055788166459809 1.0000000180025095e-35 77.000000000000014 16.469600906814225 180783.00000000003 209461.50000000003 2263.0000000000005 1998.5000000000002 1.0000000180025095e-35 87.666666500000005 303942.50000000006 59.466666500000009 1756.5000000000002 1.0000000180025095e-35 23896.500000000004 18.472340708664809 3.5000000000000004 1.0000000180025095e-35 2726.5000000000005 4.5000000000000009 1.0000000180025095e-35 2726.5000000000005 4.5000000000000009 6.5463134105686445
decision_type=2 2 2 2 2 2 2 2 2 2 2 2 2 2 2 2 2 2 2 2 2 2 2 2 2 2 2 2 2 2
left_child=2 4 8 9 6 11 7 15 20 12 26 17 -3 14 18 -2 19 -4 -8 21 -1 -6 -20 -19 -5 -22 -7 28 -9 -28
right_child=1 3 5 24 16 10 13 27 -10 -11 -12 -13 -14 -15 -16 -17 -18 23 22 -21 25 -23 -24 -25 -26 -27 29 -29 -30 -31
leaf_value=5.0948837857448197 -0.39356680689852358 1.985406881834711 -0.30346496214330115 -1.4302427011493251 -1.4256483860137186 3.205090514822194 -5.0448798137484125 -3.6607647877646197 6.5613445519811311 0.050941692612450934 0.97833220590665515 -1.7976635990953593 5.368189883959003 -5.9432197507387539 -4.5000930296787081 2.0462835676480533 -5.1242900886364193 -6.6907180052537187 -6.0516102785916672 -4.3271239548087115 2.1191865617861314 -3.4235072771643758 -1.4031325542950159 1.7230491941276735 -8.0419898555392315 3.9384186072341301 9.1797106450254269 -9.3384012829173706 -1.5434890836624626 4.6898543652518638
leaf_weight=638 1635 1550 1044 1604 1012 959 256 543 657 946 515 483 410 313 710 978 1108 26 97 1000 1088 1041 2678 3015 42 1012 88 33 1163 782
leaf_count=638 1635 1550 1044 1604 1012 959 256 543 657 946 515 483 410 313 710 978 1108 26 97 1000 1088 1041 2678 3015 42 1012 88 33 1163 782
internal_value=0 -1.50368 2.49747 0.591972 -2.26276 1.72002 -1.59703 -0.628046 4.08032 1.83294 3.4355 0.839743 2.69303 -2.63724 -2.36064 0.519626 -3.60766 1.15158 -1.85948 -3.05724 3.48499 -2.43869 -1.56562 1.65111 -1.59895 2.99588 4.12737 -2.35252 -2.21739 5.144
internal_weight=0 17119 10307 4552 12567 6912 8406 4352 3395 2906 2344 4568 1960 4054 3741 2613 4161 4085 3031 3053 2738 2053 2775 3041 1646 2100 1829 1739 1706 870
internal_count=27426 17119 10307 4552 12567 6912 8406 4352 3395 2906 2344 4568 1960 4054 3741 2613 4161 4085 3031 3053 2738 2053 2775 3041 1646 2100 1829 1739 1706 870
is_linear=0
shrinkage=0.1


Tree=16
num_leaves=31
num_cat=0
split_feature=2 3 0 4 4 2 1 0 4 3 0 2 7 7 8 4 2 1 4 4 2 3 2 4 0 1 0 0 4 3
split_gain=8.48802e+06 2.56361e+06 963947 912072 885239 881958 797939 629767 619322 559223 549094 548816 534928 380387 363931 338829 460747 336531 319171 318148 317166 293316 272643 235694 214862 214358 186315 182601 177518 168087
threshold=15.217431998125011 4.5000000000000009 1795.0000000000002 1.0000000180025095e-35 1.0000000180025095e-35 7.3790759488177686 126102.50000000001 1998.5000000000002 1.0000000180025095e-35 3.5000000000000004 1797.5000000000002 9.379075990657304 4.5000000000000009 1.5000000000000002 77.000000000000014 1.0000000180025095e-35 7.6312448478793771 382001.50000000006 5.5000000000000009 4.5000000000000009 1.0000000180025095e-35 3.5000000000000004 18.639463939785717 4.5000000000000009 1756.5000000000002 45619.500000000007 2263.0000000000005 2996.5000000000005 4.5000000000000009 3.5000000000000004
decision_type=2 2 2 2 2 2 2 2 2 2 2 2 2 2 2 2 2 2 2 2 2 2 2 2 2 2 2 2 2 2
left_child=1 3 15 9 25 14 21 8 12 -1 -11 20 17 -12 23 -3 -17 24 -13 -7 -5 -2 28 -6 -8 -4 -27 -21 -10 -26
right_child=6 2 4 11 5 19 7 -9 22 10 13 18 -14 -15 -16 16 -18 -19 -20 27 -22 -23 -24 -25 29 26 -28 -29 -30 -31
leaf_value=-4.4200511941489058 -8.5937787818354234 2.0009998562673648 6.0960741574349617 -10.096922519932624 -0.44433338260650634 -1.4295904049676571 -4.6194125664271217 -5.7681998253073132 -4.5951272575349753 0.148599817312626 -2.0052912165651788 -3.0125107498046462 -0.47870331527913612 3.4323180291704163 6.7962016129067964 2.5812216969989557 -1.1494982368745987 -6.7600693610849349 -0.88585667369269316 1.6857019277800149 1.8598720170065057 -0.24852727153576884 -6.0555935627294666 3.884018057875025 -5.2257861274480817 3.2906301564943252 5.2792365355210729 -7.0863260234395673 -2.5053014158440514 -1.9075508352504558
leaf_weight=170 43 1793 667 23 150 418 362 583 632 1507 143 1219 1950 1282 399 476 1087 177 1676 2112 626 2051 431 780 160 1270 749 24 1139 3327
leaf_count=170 43 1793 667 23 150 418 362 583 632 1507 143 1219 1950 1282 399 476 1087 177 1676 2112 626 2051 431 780 160 1270 749 24 1139 3327
internal_value=0 1.42384 2.44165 -0.0961314 3.14606 2.18056 -2.17361 -2.59277 -2.3664 1.15603 1.47934 -1.19213 -1.83815 2.88665 4.2698 1.06286 -0.0133353 -2.4966 -1.78133 1.09341 1.43613 -0.419896 -3.80001 3.1859 -2.30054 4.54182 4.02835 1.58714 -3.25108 -2.05981
internal_weight=0 16571 9925 6646 6569 3883 10855 8761 8178 3102 2932 3544 5976 1425 1329 3356 1563 4026 2895 2554 649 2094 2202 930 3849 2686 2019 2136 1771 3487
internal_count=27426 16571 9925 6646 6569 3883 10855 8761 8178 3102 2932 3544 5976 1425 1329 3356 1563 4026 2895 2554 649 2094 2202 930 3849 2686 2019 2136 1771 3487
is_linear=0
shrinkage=0.1


Tree=17
num_leaves=31
num_cat=0
split_feature=2 3 8 4 1 1 2 4 1 7 1 0 4 8 0 8 1 4 2 7 4 2 0 6 0 0 2 7 3 2
split_gain=6.94702e+06 1.86501e+06 909410 852736 843469 757811 672555 674189 421999 357331 330196 314636 341784 304279 263167 220484 190686 181345 192939 180311 172480 390619 168922 167410 166959 199175 150026 148474 137225 136283
threshold=12.299623792800263 4.5000000000000009 73.550118933333351 1.0000000180025095e-35 253257.50000000003 54015.000000000007 17.217432031575566 1.0000000180025095e-35 172326.00000000003 4.5000000000000009 169498.50000000003 1998.5000000000002 1.0000000180025095e-35 87.666666500000005 1756.5000000000002 59.466666500000009 401850.00000000006 1.0000000180025095e-35 19.973710585790151 4.5000000000000009 1.0000000180025095e-35 7.883299771119499 2726.5000000000005 4.5000000000000009 2726.5000000000005 2263.0000000000005 16.132500488838925 3.5000000000000004 5.5000000000000009 15.888779117351705
decision_type=2 2 2 2 2 2 2 2 2 2 2 2 2 2 2 2 2 2 2 2 2 2 2 2 2 2 2 2 2 2
left_child=2 4 5 9 6 28 7 13 20 23 15 12 14 -2 -8 -7 17 18 -6 -17 -4 -22 29 -3 25 -9 -11 -16 -1 -15
right_child=1 3 8 -5 16 10 11 24 -10 26 -12 -13 -14 22 27 19 -18 -19 -20 -21 21 -23 -24 -25 -26 -27 -28 -29 -30 -31
leaf_value=2.9231910041024158 -0.50594607020913773 2.1237795320010067 5.0131213686310803 -1.3192775000278294 -2.0471439903498094 -0.030139221865507666 -4.3234675039884758 -2.2733099352140402 1.008108511525015 3.6422470193167009 -0.88302403290847042 -5.0458008112987507 -3.8902407382148696 2.5876776097020406 -3.8096097973756429 0.96198890893385824 -6.0513551265293204 -4.6208980272056968 -4.8312155264862788 2.512407043399115 4.826625259116275 1.7429928085628039 -2.5731673235478612 -0.01367086759027325 -7.9142413078470426 0.52418731190390511 1.1681467812508346 -1.1962279351900047 6.7469743039872911 0.086149637855046646
leaf_weight=1805 1903 523 1001 1646 1201 1122 335 1854 584 807 962 387 841 781 234 1804 268 650 314 1284 857 789 92 1224 47 295 352 3063 99 302
leaf_count=1805 1903 523 1001 1646 1201 1122 335 1854 584 807 962 387 841 781 234 1804 268 650 314 1284 857 789 92 1224 47 295 352 3063 99 302
internal_value=0 -1.23494 2.05112 0.499331 -1.86312 1.41639 -1.4617 -0.679675 3.4412 1.52942 0.788491 -2.31034 -2.07368 0.275324 -1.65304 1.17044 -3.53513 -3.22365 -2.62417 1.60666 3.978 3.3485 1.54065 0.626218 -2.01824 -1.88929 2.89084 -1.38171 3.12201 1.89011
internal_weight=0 17119 10307 4552 12567 7076 10134 5274 3231 2906 5172 4860 4473 3078 3632 4210 2433 2165 1515 3088 2647 1646 1175 1747 2196 2149 1159 3297 1904 1083
internal_count=27426 17119 10307 4552 12567 7076 10134 5274 3231 2906 5172 4860 4473 3078 3632 4210 2433 2165 1515 3088 2647 1646 1175 1747 2196 2149 1159 3297 1904 1083
is_linear=0
shrinkage=0.1


Tree=18
num_leaves=31
num_cat=0
split_feature=2 3 7 4 4 2 3 7 1 2 3 4 4 2 2 3 4 2 0 2 7 4 4 11 8 4 2 0 1 1
split_gain=5.71139e+06 1.84267e+06 788517 640386 587036 615602 508215 417062 385515 364355 342843 340321 400375 351293 292532 269900 252689 251842 238811 237075 236760 195601 259832 194880 185564 176445 176196 167073 154784 133733
threshold=15.469600909866509 4.5000000000000009 4.5000000000000009 1.0000000180025095e-35 1.0000000180025095e-35 19.891518771549162 3.5000000000000004 4.5000000000000009 62100.500000000007 9.379075990657304 4.5000000000000009 1.0000000180025095e-35 4.5000000000000009 9.2119526668970373 24.809327049402182 3.5000000000000004 5.5000000000000009 1.0000000180025095e-35 1797.5000000000002 18.973710536499187 4.5000000000000009 1.0000000180025095e-35 5.5000000000000009 1.0000000180025095e-35 77.000000000000014 4.5000000000000009 8.5463133228274444 1797.5000000000002 277201.00000000006 428727.50000000006
decision_type=2 2 2 2 2 2 2 2 2 2 2 2 2 2 2 2 2 2 2 2 2 2 2 2 2 2 2 2 2 2
left_child=1 3 11 6 5 10 -1 23 24 17 15 18 -13 -14 -7 -2 -11 -5 -3 25 29 -10 -23 28 -4 -6 -24 -9 -8 -17
right_child=4 2 8 9 19 14 7 27 21 16 -12 12 13 -15 -16 20 -18 -19 -20 -21 -22 22 26 -25 -26 -27 -28 -29 -30 -31
leaf_value=-4.2439098265799853 -4.335172237129882 0.95448884638133036 3.5398401465972564 -9.1441454503847215 -4.0159675207827243 -2.7811239930559517 0.26354957549520747 1.1181369124496381 3.2559789120205522 -2.5377062470923288 0.64179405214134411 -2.2817001193658788 2.2728562943008663 -0.19301392629442105 -8.276800224619004 -1.579900909728496 -0.70279580174647249 1.5104134373628675 2.9566036964795557 -5.3640143948162304 -0.19630333219068147 -0.23610273614525795 3.6628917287453464 5.2230538971520764 6.0084738033922065 -2.0594352399221507 1.4483123814329657 3.4278728999528134 -3.2172324039953217 -6.8460420596356304
leaf_weight=182 280 1135 1209 23 720 1624 1579 509 1253 1295 1084 470 1051 1283 103 3041 1785 626 1254 425 1708 530 602 74 407 1281 891 814 139 49
leaf_count=182 280 1135 1209 23 720 1624 1579 509 1253 1295 1084 470 1051 1283 103 3041 1785 626 1254 425 1708 530 602 74 407 1281 891 814 139 49
internal_value=0 1.12043 1.9866 -0.122848 -1.85863 -1.44029 0.892473 1.19258 2.89763 -1.02055 -0.972633 1.12838 0.381147 0.917367 -3.10889 -1.31726 -1.47429 1.13283 2.00541 -3.21902 -1.14115 2.27415 1.66603 0.198357 4.16158 -2.76343 2.34126 2.53924 -0.0180736 -1.66341
internal_weight=0 17111 10085 7026 10315 7889 3297 3115 4892 3729 6162 5193 2804 2334 1727 5078 3080 649 2389 2426 4798 3276 2023 1792 1616 2001 1493 1323 1718 3090
internal_count=27426 17111 10085 7026 10315 7889 3297 3115 4892 3729 6162 5193 2804 2334 1727 5078 3080 649 2389 2426 4798 3276 2023 1792 1616 2001 1493 1323 1718 3090
is_linear=0
shrinkage=0.1


Tree=19
num_leaves=31
num_cat=0
split_feature=2 1 11 1 1 4 2 7 2 8 0 3 0 2 1 8 4 1 7 4 6 2 8 8 0 4 4 4 4 3
split_gain=4.70715e+06 1.3444e+06 682238 708936 556608 506727 466882 377595 333829 363340 315904 287715 239161 226046 212477 209595 206818 206451 196616 167579 166589 165853 164744 153417 142908 139420 136958 132422 206431 130913
threshold=12.299623792800263 152246.00000000003 1.0000000180025095e-35 54015.000000000007 277201.00000000006 1.0000000180025095e-35 16.551792737947281 4.5000000000000009 16.217432103845347 87.666666500000005 2996.5000000000005 3.5000000000000004 1987.5000000000002 1.0000000180025095e-35 287610.00000000006 72.65011893333336 1.0000000180025095e-35 246705.50000000003 2.5000000000000004 4.5000000000000009 4.5000000000000009 6.5463134105686445 59.466666500000009 62.958333000000003 2726.5000000000005 1.0000000180025095e-35 1.0000000180025095e-35 1.0000000180025095e-35 4.5000000000000009 2.5000000000000004
decision_type=2 2 2 2 2 2 2 2 2 2 2 2 2 2 2 2 2 2 2 2 2 2 2 2 2 2 2 2 2 2
left_child=2 5 3 23 8 6 12 13 9 15 25 -8 -2 -5 27 -3 18 21 -10 -7 -20 -4 -9 -1 -14 -11 -23 29 -29 -15
right_child=1 4 17 7 -6 19 11 22 16 10 -12 -13 24 14 -16 -17 -18 -19 20 -21 -22 26 -24 -25 -26 -27 -28 28 -30 -31
leaf_value=1.6872199750700489 0.63770388682828727 -0.70660602651361015 7.2507993638104411 -9.3427677192687995 -3.3450598028464129 -2.9116565499542051 -8.5248010638025082 0.11416431945835681 -3.9103406907305529 2.1770836950664765 -5.3224683968417619 -0.44065993504827095 2.7306487268761503 -6.4839359348470511 -4.4397797436608624 -2.9006111718161138 -3.1038618726722773 -1.2336942331913192 -0.32405665008815587 -0.79122304198366122 -1.8110440635955809 5.2343334012809288 2.0036343773625966 3.4140548436994025 -1.7524509222883928 0.057112295005813267 2.9052517145294985 -2.1264138685835796 0.33858926896016456 1.3000431334326707
leaf_weight=759 1947 1189 145 25 1817 512 45 567 329 583 83 2031 1104 22 96 687 1141 78 1087 1370 2455 374 2479 1597 76 663 777 421 1760 1207
leaf_count=759 1947 1189 145 25 1817 512 45 567 329 583 83 2031 1104 22 96 687 1141 78 1087 1370 2455 374 2479 1597 76 663 777 421 1760 1207
internal_value=0 -1.01654 1.68838 1.3693 -1.7612 0.0380691 0.546697 0.836119 -1.41097 -0.613895 0.651121 -0.615894 1.31854 0.132374 0.199938 -1.51006 -1.92066 3.76285 -1.57191 -1.36809 -1.3547 4.06357 1.65192 2.85774 2.44191 1.04904 3.66205 0.330558 -0.137232 1.1607
internal_weight=0 17119 10307 8933 10034 7085 5203 6577 8217 3205 1329 2076 3127 3531 3506 1876 5012 1374 3871 1882 3542 1296 3046 2356 1180 1246 1151 3410 2181 1229
internal_count=27426 17119 10307 8933 10034 7085 5203 6577 8217 3205 1329 2076 3127 3531 3506 1876 5012 1374 3871 1882 3542 1296 3046 2356 1180 1246 1151 3410 2181 1229
is_linear=0
shrinkage=0.1


Tree=20
num_leaves=31
num_cat=0
split_feature=3 2 1 7 11 0 4 0 7 7 7 1 4 3 11 2 3 4 4 2 0 1 4 4 3 0 1 4 2 2
split_gain=3.91939e+06 1.06225e+06 772925 449581 422333 382234 404548 427615 295272 294023 291753 270541 256492 290742 205471 188332 178454 164568 271869 202402 153995 144015 137446 131931 130464 123651 116396 112355 110777 108921
threshold=4.5000000000000009 15.384555342817711 100802.00000000001 4.5000000000000009 1.0000000180025095e-35 1998.5000000000002 1.0000000180025095e-35 1756.5000000000002 4.5000000000000009 4.5000000000000009 4.5000000000000009 227867.50000000003 1.0000000180025095e-35 2.5000000000000004 1.0000000180025095e-35 8.4641215348017962 3.5000000000000004 1.0000000180025095e-35 4.5000000000000009 7.1270211328533843 2726.5000000000005 23896.500000000004 4.5000000000000009 1.0000000180025095e-35 3.5000000000000004 2263.0000000000005 428727.50000000006 5.5000000000000009 24.809327049402182 6.7983681905340507
decision_type=2 2 2 2 2 2 2 2 2 2 2 2 2 2 2 2 2 2 2 2 2 2 2 2 2 2 2 2 2 2
left_child=1 3 4 11 8 6 7 -3 21 -4 16 14 13 -5 23 -14 -9 -10 -19 -20 29 -2 -8 24 -1 -15 -18 -17 -7 -11
right_child=2 5 9 12 -6 28 22 10 17 20 -12 -13 15 25 -16 27 26 18 19 -21 -22 -23 -24 -25 -26 -27 -28 -29 -30 -31
leaf_value=-4.029273713693807 3.151685462179636 -4.1592342175820463 -0.1526613401718957 -8.2808289016996124 4.7477913038309323 -3.6463551808559225 -3.9688018805106591 -4.2989699815675406 3.2979722974488923 4.1223390344556394 0.033133179520239614 -2.5627788993066232 2.4680044249807258 1.3348081047503262 2.5939175745392489 -1.5806449992559606 -1.2458607450093631 -1.4549566301628265 3.6874951915294454 0.86995557940524559 -3.6828004919489228 0.94226281655331745 -2.2081743460604732 -1.3063462681654083 0.22014106266007155 3.3650163671724549 -5.7624896256060438 0.26499251667422236 -7.3886463560956592 1.2750512633921998
leaf_weight=76 331 457 3072 28 556 499 731 213 1541 143 1895 729 249 896 210 577 3509 218 572 460 60 2714 1127 1504 1464 451 58 770 94 2222
leaf_count=76 331 457 3072 28 556 499 731 213 1541 143 1895 729 249 896 210 577 3509 218 572 460 60 2714 1127 1504 1464 451 58 770 94 2222
internal_value=0 -1.04572 1.36659 -0.127112 2.11432 -1.78999 -1.60819 -1.21651 1.86342 0.497128 -0.979532 -0.821548 0.803868 1.80491 -0.431457 -0.0585557 -1.4872 2.60639 1.7538 2.43162 1.32028 1.18243 -2.90086 -0.640172 0.0104297 2.01456 -1.3193 -0.525604 -4.23957 1.44721
internal_weight=0 15537 11889 6954 6392 8583 7990 6132 5836 5497 5675 3983 2971 1375 3254 1596 3780 2791 1250 1032 2425 3045 1858 3044 1540 1347 3567 1347 593 2365
internal_count=27426 15537 11889 6954 6392 8583 7990 6132 5836 5497 5675 3983 2971 1375 3254 1596 3780 2791 1250 1032 2425 3045 1858 3044 1540 1347 3567 1347 593 2365
is_linear=0
shrinkage=0.1


Tree=21
num_leaves=31
num_cat=0
split_feature=2 1 8 2 4 4 4 7 2 1 3 1 0 3 3 4 0 0 4 6 7 4 6 2 2 0 1 2 1 11
split_gain=3.23918e+06 928917 502918 472136 475471 382638 478589 297012 281934 265045 247825 230089 171756 163423 153136 152354 141082 207648 173452 142356 132354 135582 135082 129872 147534 129512 119341 113878 112817 112147
threshold=12.299623792800263 192607.00000000003 73.550118933333351 18.220171760026293 1.0000000180025095e-35 1.0000000180025095e-35 4.5000000000000009 4.5000000000000009 8.5463133228274444 299250.00000000006 3.5000000000000004 180783.00000000003 2362.5000000000005 5.5000000000000009 3.5000000000000004 4.5000000000000009 2726.5000000000005 2263.0000000000005 1.0000000180025095e-35 5.5000000000000009 3.5000000000000004 1.0000000180025095e-35 5.5000000000000009 1.0000000180025095e-35 6.2119527325603281 1799.0000000000002 72401.000000000015 15.888779117351705 99694.000000000015 1.0000000180025095e-35
decision_type=2 2 2 2 2 2 2 2 2 2 2 2 2 2 2 2 2 2 2 2 2 2 2 2 2 2 2 2 2 2
left_child=2 3 5 4 7 10 -7 14 23 16 -1 29 15 26 -2 -6 17 18 19 -3 -5 22 -22 -8 -25 -9 -12 -27 -16 -4
right_child=1 9 11 20 12 6 8 25 -10 -11 13 -13 -14 -15 28 -17 -18 -19 -20 -21 21 -23 -24 24 -26 27 -28 -29 -30 -31
leaf_value=-3.9115857757930019 -5.4690771713256838 -0.27374065791733709 2.2585634827921921 -3.6280618494844057 -2.0260945482905477 -1.8823860411463795 -4.80084003662241 0.72509786259436182 -0.015318173685462622 -3.0946983938542258 2.4171576140916198 0.49637246349048847 -6.2511520417531337 7.0279468936304896 0.9749075734070316 -0.37531851745749756 -4.4126362269170256 0.96092749669722155 -2.4209861564728943 -1.687886397391769 0.07684719620637917 -3.0114315459833425 -1.5800351970583002 3.4609777417811722 1.3079251221010886 2.9344404120195273 1.1019902733948466 0.825679767299345 -0.31228770815906803 3.5619046565169938
leaf_weight=74 50 1193 1584 251 780 803 29 1050 1795 1277 1565 515 60 62 1013 1974 159 350 1559 1765 836 357 1196 455 1059 794 1234 378 2077 1132
leaf_count=74 50 1193 1584 251 780 803 29 1050 1795 1277 1565 515 60 62 1013 1974 159 350 1559 1765 836 357 1196 455 1059 794 1234 378 2077 1132
internal_value=0 -0.843263 1.40058 -0.280935 0.0944973 0.928568 0.309481 0.646944 0.836764 -1.80822 1.80204 2.43432 -0.958174 1.94982 0.0208618 -0.842859 -1.48136 -1.38559 -1.56741 -1.11754 -1.44364 -1.21413 -0.898365 1.82801 1.95498 1.53169 1.83734 2.25431 0.109696 2.80178
internal_weight=0 17119 10307 10816 8176 7076 4141 5362 3338 6303 2935 3231 2814 2861 3140 2754 5026 4867 4517 2958 2640 2389 2032 1543 1514 2222 2799 1172 3090 2716
internal_count=27426 17119 10307 10816 8176 7076 4141 5362 3338 6303 2935 3231 2814 2861 3140 2754 5026 4867 4517 2958 2640 2389 2032 1543 1514 2222 2799 1172 3090 2716
is_linear=0
shrinkage=0.1


Tree=22
num_leaves=31
num_cat=0
split_feature=3 2 7 7 2 4 1 0 1 1 4 3 7 11 11 4 2 4 8 1 2 6 3 8 1 1 0 1 11 0
split_gain=2.71323e+06 712074 538461 331721 305563 289737 271449 261246 233157 194475 183021 222926 175657 173216 163354 152083 170606 143230 141159 140485 135932 123145 113560 109488 105682 100804 100452 100018 95772.4 91764.6
threshold=4.5000000000000009 15.469600909866509 4.5000000000000009 4.5000000000000009 20.891518752970089 1.0000000180025095e-35 54015.000000000007 1756.5000000000002 115340.50000000001 299250.00000000006 1.0000000180025095e-35 2.5000000000000004 2.5000000000000004 1.0000000180025095e-35 1.0000000180025095e-35 1.0000000180025095e-35 10.381815680770794 1.0000000180025095e-35 59.466666500000009 32121.500000000004 7.4641216448607572 5.5000000000000009 3.5000000000000004 77.000000000000014 262950.00000000006 291515.00000000006 2726.5000000000005 124703.50000000001 1.0000000180025095e-35 1797.5000000000002
decision_type=2 2 2 2 2 2 2 2 2 2 2 2 2 2 2 2 2 2 2 2 2 2 2 2 2 2 2 2 2 2
left_child=1 3 8 9 5 7 23 -3 18 14 11 -5 -9 15 17 -8 -17 -1 -2 -20 -12 -14 -23 -4 -7 -22 -18 -24 -21 -13
right_child=2 4 6 10 -6 24 13 12 -10 -11 20 29 21 -15 -16 16 26 -19 19 28 25 22 27 -25 -26 -27 -28 -29 -30 -31
leaf_value=-0.056693232397766795 -0.26301193191191918 -3.4863124905083023 2.6139305264912838 -7.3187206234250759 -3.6766246336487103 -2.0876166442308643 1.9122810859617894 -2.6252963253808854 -0.24066854712363803 -3.4540824508080719 2.7518333348517237 0.64685999405799111 -0.057261846565901525 3.0327083901003324 1.9948091641929346 1.493692037576444 -0.15990025562351928 -1.3283575110693402 3.0538356407326237 0.84946220628475 -0.074170069463761965 -3.7807658233313726 0.46060457549541201 4.7899416078707118 -4.1239121576561821 -2.8277751157614026 -5.5466531468762295 -1.1586450873913055 2.9461022482163988 2.3394271480128603
leaf_weight=1720 719 393 1032 28 592 1501 1646 493 2516 244 156 517 2095 603 238 1039 902 1826 395 2464 1307 145 449 298 307 148 36 2536 239 842
leaf_count=1720 719 393 1032 28 592 1501 1646 493 2516 244 156 517 2095 603 238 1039 902 1826 395 2464 1307 145 449 298 307 148 36 2536 239 842
internal_value=0 -0.870064 1.13703 -0.124963 -1.48516 -1.32133 1.85554 -0.992322 0.506684 -0.717757 0.671493 1.51355 -0.820909 1.46341 -0.541313 1.20222 0.611045 -0.711532 0.999306 1.29227 -0.0534854 -0.650658 -1.04783 3.10149 -2.43338 -0.354262 -0.366641 -0.91508 1.03485 1.69553
internal_weight=0 15537 11889 7026 8511 7919 5556 6111 6333 4028 2998 1387 5718 4226 3784 3623 1977 3546 3817 3098 1611 5225 3130 1330 1808 1455 938 2985 2703 1359
internal_count=27426 15537 11889 7026 8511 7919 5556 6111 6333 4028 2998 1387 5718 4226 3784 3623 1977 3546 3817 3098 1611 5225 3130 1330 1808 1455 938 2985 2703 1359
is_linear=0
shrinkage=0.1


Tree=23
num_leaves=31
num_cat=0
split_feature=2 1 4 4 2 4 4 2 0 3 0 3 2 1 4 2 3 0 8 0 11 1 4 6 7 4 4 2 0 2
split_gain=2.22259e+06 646992 367930 669117 348819 330604 256809 247860 230319 226239 214227 212838 166414 163707 169866 155489 152883 138895 130657 128888 121664 124586 112086 129941 111463 109103 107641 105079 97053 130318
threshold=12.299623792800263 204115.50000000003 1.0000000180025095e-35 7.5000000000000009 16.384555321431392 1.0000000180025095e-35 4.5000000000000009 7.2119526487244219 1987.5000000000002 3.5000000000000004 2263.0000000000005 2.5000000000000004 20.891518752970089 401850.00000000006 1.0000000180025095e-35 8.5463133228274444 5.5000000000000009 2362.5000000000005 109.60003963333334 2726.5000000000005 1.0000000180025095e-35 72401.000000000015 1.0000000180025095e-35 4.5000000000000009 4.5000000000000009 4.5000000000000009 3.5000000000000004 19.220171727076153 2263.0000000000005 14.302363621840827
decision_type=2 2 2 2 2 2 2 2 2 2 2 2 2 2 2 2 2 2 2 2 2 2 2 2 2 2 2 2 2 2
left_child=2 4 9 6 5 8 26 -5 -2 -1 16 -6 13 14 24 -8 20 18 25 28 21 -11 23 -13 -3 -7 -4 -25 29 -10
right_child=1 12 3 7 11 17 15 -9 19 10 -12 22 -14 -15 -16 -17 -18 -19 -20 -21 -22 -23 -24 27 -26 -27 -28 -29 -30 -31
leaf_value=-2.9978456469981567 0.16788865019787555 -1.307000031967094 -3.7278068688383863 3.4028377543075834 -10.92711929139637 -2.1310498788521328 1.2813044363380501 1.2459328346595147 -1.2117644225018367 2.0796869063612617 3.6206145304889135 0.23082348452643286 -3.8406107563370711 -3.9095954741766819 -2.1089012278015375 -0.22396899895775799 6.4437635934714113 -5.5396160824545504 1.3201238609563848 -1.7831241145425913 6.7442711244689093 0.81581588384561377 -1.7314548619451324 -0.50849265431360935 -0.024707232892072849 -0.45210681334259584 -0.95899225415281308 -1.7562829690188708 2.8168167993800992 1.8979939652173767
leaf_weight=92 2423 2041 163 846 21 518 1196 1439 175 1723 689 1293 313 260 1785 1610 66 58 312 98 45 1425 1113 1802 1015 1531 1013 1079 696 586
leaf_count=92 2423 2041 163 846 21 518 1196 1439 175 1723 689 1293 313 260 1785 1610 66 58 312 98 45 1425 1113 1802 1015 1531 1013 1079 696 586
internal_value=0 -0.698515 1.16017 0.680462 -0.280412 0.216858 -0.102271 2.04451 0.777456 1.90431 2.01855 -0.879702 -1.60245 -1.46511 -1.33383 0.417623 1.67985 -0.705035 -0.586269 1.72728 1.58137 1.50757 -0.839793 -0.602031 -0.881108 -0.876554 -1.34277 -0.975818 1.9634 1.18287
internal_weight=0 17119 10307 6267 11705 6397 3982 2285 3978 4040 3948 5308 5414 5101 4841 2806 3259 2419 2361 1555 3193 3148 5287 4174 3056 2049 1176 2881 1457 761
internal_count=27426 17119 10307 6267 11705 6397 3982 2285 3978 4040 3948 5308 5414 5101 4841 2806 3259 2419 2361 1555 3193 3148 5287 4174 3056 2049 1176 2881 1457 761
is_linear=0
shrinkage=0.1


Tree=24
num_leaves=31
num_cat=0
split_feature=3 2 7 11 4 3 4 0 1 7 2 4 1 0 4 6 11 0 4 4 4 4 1 0 1 0 6 8 4 2
split_gain=1.88202e+06 526573 407785 289662 259049 271537 202928 187079 183459 155248 153549 144887 136120 135802 133659 145513 123308 120879 106862 118889 106840 179723 96289.3 96113.4 95427.1 92822.1 85569.6 84583 79998.9 95624.1
threshold=4.5000000000000009 18.220171760026293 4.5000000000000009 1.0000000180025095e-35 1.0000000180025095e-35 3.5000000000000004 4.5000000000000009 1998.5000000000002 54015.000000000007 4.5000000000000009 12.053048408706305 1.0000000180025095e-35 428727.50000000006 2726.5000000000005 1.0000000180025095e-35 4.5000000000000009 1.0000000180025095e-35 1756.5000000000002 1.0000000180025095e-35 5.5000000000000009 1.0000000180025095e-35 7.5000000000000009 260217.00000000003 2726.5000000000005 98020.000000000015 2726.5000000000005 5.5000000000000009 77.000000000000014 2.5000000000000004 7.3790759488177686
decision_type=2 2 2 2 2 2 2 2 2 2 2 2 2 2 2 2 2 2 2 2 2 2 2 2 2 2 2 2 2 2
left_child=1 3 10 4 5 -1 -6 11 27 12 20 17 24 22 15 -12 18 -3 26 -20 -2 -22 -8 -11 -7 -21 -10 -4 -5 -30
right_child=2 7 8 28 6 9 13 -9 16 23 14 -13 -14 -15 -16 -17 -18 -19 19 25 21 -23 -24 -25 -26 -27 -28 -29 29 -31
leaf_value=-2.9229850402436197 1.5612609944793947 -2.8255730461834663 2.1680176988727768 2.6424832709409571 -2.0336162344981883 1.0065649847140281 -0.30434493302194865 -3.6232077399761673 2.5792153888285458 0.93715263371864455 1.7281595726201524 -2.8917813870643356 -6.0468580398844871 -6.3846183562278753 -1.0352193091515305 -0.20053292619180688 2.5739426222792017 -0.97550839783323784 -0.64223189678211057 1.1545051670089872 -0.3469023508280219 1.5422978620263046 -2.0593395832549319 -2.0857986165059579 -0.48444765816696544 -5.1193626075983047 1.0800708569081514 4.0805962640167079 5.0262120827384615 0.26331780719467335
leaf_weight=312 1314 398 1032 324 1473 510 2566 427 598 2005 557 578 41 40 1052 1314 603 3135 599 1354 1255 841 356 111 2711 24 1048 298 46 504
leaf_count=312 1314 398 1032 324 1473 510 2566 427 598 2005 557 578 41 40 1052 1314 603 3135 599 1354 1255 841 356 111 2711 24 1048 298 46 504
internal_value=0 -0.724636 0.946982 -0.350696 -0.501471 -0.0549059 -1.0744 -1.63097 1.57225 0.111483 0.398427 -1.42404 -0.321248 -0.597386 -0.133413 0.373642 1.24988 -1.18392 1.02951 0.53396 0.854313 0.411121 -0.518164 0.778576 -0.248367 1.04524 1.62472 2.59655 1.39598 0.661669
internal_weight=0 15537 11889 10999 10125 5690 4435 4538 5556 5378 6333 4111 3262 2962 2923 1871 4226 3533 3623 1977 3410 2096 2922 2116 3221 1378 1646 1330 874 550
internal_count=27426 15537 11889 10999 10125 5690 4435 4538 5556 5378 6333 4111 3262 2962 2923 1871 4226 3533 3623 1977 3410 2096 2922 2116 3221 1378 1646 1330 874 550
is_linear=0
shrinkage=0.1


Tree=25
num_leaves=31
num_cat=0
split_feature=1 2 1 8 2 0 8 7 0 11 1 3 4 2 0 7 7 4 2 2 0 2 4 1 4 6 6 4 8 8
split_gain=1.53778e+06 507497 325842 300501 246024 293872 218648 195217 179513 161054 161921 152162 106374 101270 98558.9 89934.8 86336.1 122979 124069 84590.6 84892.2 84354.1 83222.7 80588.7 76313.1 84781.7 75088.3 72827 69390.9 68073.4
threshold=152246.00000000003 12.214692322379818 260217.00000000003 59.466666500000009 15.803847657335021 1795.0000000000002 72.65011893333336 4.5000000000000009 2996.5000000000005 1.0000000180025095e-35 32121.500000000004 3.5000000000000004 1.0000000180025095e-35 14.217431932097645 2726.5000000000005 4.5000000000000009 2.5000000000000004 1.0000000180025095e-35 18.387295049390378 23.061267622958475 1756.5000000000002 6.1270212311059717 1.0000000180025095e-35 382001.50000000006 1.0000000180025095e-35 6.5000000000000009 4.5000000000000009 1.0000000180025095e-35 59.466666500000009 77.000000000000014
decision_type=2 2 2 2 2 2 2 2 2 2 2 2 2 2 2 2 2 2 2 2 2 2 2 2 2 2 2 2 2 2
left_child=1 3 4 27 5 6 28 11 13 10 29 -3 -9 -7 22 -12 23 18 -18 20 -6 -11 26 -4 25 -22 -13 -1 -2 -5
right_child=2 7 16 9 19 8 -8 12 -10 21 15 14 -14 -15 -16 -17 17 -19 -20 -21 24 -23 -24 -25 -26 -27 -28 -29 -30 -31
leaf_value=0.54427617349221324 -1.2080354106601088 -5.2261267714084143 -2.1682329862452239 2.2595213458918733 -2.637976247875764 0.49938261891408015 -2.8449571563066844 1.0892537418126516 -3.9208193331229979 5.5169219838004366 0.63488624075802402 0.81741228982197611 -0.36901158909930526 2.0638954690274072 -3.1795242755559454 1.5005078793342237 0.089574338758551197 -2.429748459506579 -1.8514129035787805 -3.8702614627205407 -0.12679252947178304 2.3796742656405327 -0.89349813029188818 -5.1462201097276479 -1.5706402668042623 -1.1293054159107994 -0.25023120925246273 -0.86428441633022468 0.21201158463868894 5.1828038486202113
leaf_weight=835 571 63 278 759 293 1925 466 2028 82 95 2402 948 664 527 114 2399 618 964 705 104 1650 876 1240 135 1190 1726 2159 655 866 89
leaf_count=835 571 63 278 759 293 1925 466 2028 82 95 2402 948 664 527 114 2399 618 964 705 104 1650 876 1240 135 1190 1726 2159 655 866 89
internal_value=0 0.665341 -0.842729 1.20814 -0.564611 -0.0235427 -0.962657 0.0552926 0.68172 1.49693 1.29243 -0.345931 0.729563 0.835638 -0.277011 1.06743 -1.81099 -1.57069 -0.944739 -1.04833 -0.987935 2.68661 -0.200893 -3.14167 -0.882052 -0.639333 0.0755255 -0.0749233 -0.352252 2.56633
internal_weight=0 15326 12100 8110 9400 4437 1903 7216 2534 6620 5649 4524 2692 2452 4461 4801 2700 2287 1323 4963 4859 971 4347 413 4566 3376 3107 1490 1437 848
internal_count=27426 15326 12100 8110 9400 4437 1903 7216 2534 6620 5649 4524 2692 2452 4461 4801 2700 2287 1323 4963 4859 971 4347 413 4566 3376 3107 1490 1437 848
is_linear=0
shrinkage=0.1


Tree=26
num_leaves=31
num_cat=0
split_feature=3 3 2 7 4 4 11 3 4 4 7 11 4 4 6 0 2 4 7 2 0 0 3 2 1 2 2 0 0 2
split_gain=1.31077e+06 380212 316426 284568 224275 181631 166808 153253 129798 203245 119278 115448 128858 192543 116751 109216 109116 108668 107137 101382 96239.8 89773.5 88701.3 87081.9 85600.9 85215.5 84227.3 76374.3 75655.8 69283
threshold=4.5000000000000009 3.5000000000000004 18.639463939785717 4.5000000000000009 1.0000000180025095e-35 4.5000000000000009 1.0000000180025095e-35 5.5000000000000009 1.0000000180025095e-35 7.5000000000000009 4.5000000000000009 1.0000000180025095e-35 1.0000000180025095e-35 4.5000000000000009 4.5000000000000009 2726.5000000000005 6.2119527325603281 1.0000000180025095e-35 3.5000000000000004 8.4641215348017962 2263.0000000000005 2726.5000000000005 2.5000000000000004 6.7983681905340507 428727.50000000006 15.302363651084969 4.209212975448259 2263.0000000000005 1799.0000000000002 11.381815582379001
decision_type=2 2 2 2 2 2 2 2 2 2 2 2 2 2 2 2 2 2 2 2 2 2 2 2 2 2 2 2 2 2
left_child=1 22 4 11 6 -6 10 8 20 23 24 12 14 -14 -2 19 -15 18 -4 26 -5 -12 25 28 -3 -1 -7 -21 -10 -16
right_child=3 2 17 7 5 15 -8 -9 9 -11 21 -13 13 16 29 -17 -18 -19 -20 27 -22 -23 -24 -25 -26 -27 -28 -29 -30 -31
leaf_value=-3.6870542454887443 1.6518747105404803 -0.25372125393935557 -2.6981938782845933 1.4361870833969992 -1.6231186109214601 -4.931482955217362 2.4331006378896776 5.3379234636983561 0.7549372616471558 1.8408872027166514 0.76290654033990302 1.9591095950965789 -1.9836929178406608 1.9874100689997349 1.0857432162091187 -5.5870350263057613 -0.12407270209021222 -2.8226628109652321 -0.90031369220577684 -0.67934328442386172 2.9131123206114182 -2.0695095649715198 -2.4094921822890196 -0.25201934040897267 -4.5957386141238006 -9.9712466393747636 1.7559170108969 0.61199162644577809 4.2690356609068418 -0.10899949659228514
leaf_weight=71 868 3505 375 2001 1562 20 310 93 316 1119 2165 408 530 278 722 39 2046 418 2854 2535 566 118 606 1385 46 31 323 559 76 1481
leaf_count=71 868 3505 375 2001 1562 20 310 93 316 1119 2165 408 530 278 722 39 2046 418 2854 2535 566 118 606 1385 46 31 323 559 76 1481
internal_value=0 -0.604742 -0.496651 0.790301 -0.232843 -0.727413 0.172698 1.31263 1.2441 0.785191 0.0525872 0.332056 0.220016 -0.263739 0.669588 -0.324912 0.128506 -1.30551 -1.10911 -0.265202 1.76184 0.616509 -2.8687 0.120405 -0.309968 -5.59696 1.36598 -0.446035 1.43624 0.282559
internal_weight=0 15537 14829 11889 11182 5038 6144 5556 5463 2896 5834 6333 5925 2854 3071 3476 2324 3647 3229 3437 2567 2283 708 1777 3551 102 343 3094 392 2203
internal_count=27426 15537 14829 11889 11182 5038 6144 5556 5463 2896 5834 6333 5925 2854 3071 3476 2324 3647 3229 3437 2567 2283 708 1777 3551 102 343 3094 392 2203
is_linear=0
shrinkage=0.1


Tree=27
num_leaves=31
num_cat=0
split_feature=2 0 0 8 4 2 0 0 7 4 8 4 6 4 7 0 2 1 2 4 1 3 11 1 3 2 1 1 1 4
split_gain=1.07876e+06 548220 302916 262410 243287 312796 224232 230472 183848 158636 157005 152023 148987 130205 107597 99436 85349.1 81733.9 81015.6 75024.9 69827.7 66623 65979.3 64508.5 63417.5 63044.1 61891.6 64137 61441.8 60992.7
threshold=15.469600909866509 1797.5000000000002 2996.5000000000005 72.65011893333336 1.0000000180025095e-35 8.5463133228274444 1756.5000000000002 1998.5000000000002 1.0000000180025095e-35 5.5000000000000009 59.466666500000009 1.0000000180025095e-35 4.5000000000000009 7.5000000000000009 2.5000000000000004 2263.0000000000005 18.973710536499187 130401.50000000001 14.384555445129317 3.5000000000000004 280005.50000000006 5.5000000000000009 1.0000000180025095e-35 220701.00000000003 4.5000000000000009 14.217432002575164 70304.000000000015 295210.00000000006 283673.50000000006 2.5000000000000004
decision_type=2 2 2 2 2 2 2 2 2 2 2 2 2 2 2 2 2 2 2 2 2 2 2 2 2 2 2 2 2 2
left_child=1 3 4 10 8 13 -2 11 23 25 -1 12 24 19 -14 21 28 -16 -5 -6 -12 22 -10 -3 -8 -7 -11 -28 -13 -20
right_child=6 2 -4 18 5 9 7 -9 15 26 20 16 14 -15 17 -17 -18 -19 29 -21 -22 -23 -24 -25 -26 -27 27 -29 -30 -31
leaf_value=-0.50497321570225218 -2.7127009699712179 0.16082646009576229 -3.3239888381738605 -4.6315502977732459 -2.6903105222342312 -1.2631595788151788 0.13869102028354202 -2.4403406130795644 1.2503417897377602 -1.2987661231288596 0.60824519096637397 -0.80808794774541948 -2.1482098219451653 2.3829267890633621 0.36101015715438001 2.4252143732422264 -2.6489620643477609 -0.71222985773747904 -0.61182026368487319 1.020253306731314 -1.6533148604881516 5.5403262100721662 4.9190256347656254 -3.3641266079836116 1.6338704856630615 0.79785991509471632 0.74897372806535945 -1.7176834936614509 -2.7255710967167008 -2.5465428802184764
leaf_weight=2993 583 131 163 99 57 977 1765 701 2505 181 3015 1728 427 984 903 1419 372 3313 332 1238 143 38 50 86 338 175 2094 111 185 320
leaf_count=2993 583 131 163 99 57 977 1765 701 2505 181 3015 1728 427 984 903 1419 372 3313 332 1238 143 38 50 86 338 175 2094 111 185 320
internal_value=0 0.486943 0.952353 -0.201462 1.02174 0.602141 -0.807763 -0.693647 1.59889 0.0136037 0.0139897 -0.558066 -0.319282 1.51581 -0.635561 1.75224 -1.26303 -0.482359 -1.9661 0.856931 0.505838 1.38395 1.32214 -1.23616 0.379 -0.950071 0.478882 0.624802 -0.993521 -1.56138
internal_weight=0 17111 10209 6902 10046 5817 10315 9732 4229 3538 6151 9031 6746 2279 4643 4012 2285 4216 751 1295 3158 2593 2555 217 2103 1152 2386 2205 1913 652
internal_count=27426 17111 10209 6902 10046 5817 10315 9732 4229 3538 6151 9031 6746 2279 4643 4012 2285 4216 751 1295 3158 2593 2555 217 2103 1152 2386 2205 1913 652
is_linear=0
shrinkage=0.1


Tree=28
num_leaves=31
num_cat=0
split_feature=1 2 1 8 7 3 0 0 2 3 4 2 4 8 0 8 6 4 4 7 1 3 2 4 2 1 4 7 1 1
split_gain=918329 301938 218655 198008 155830 132680 130639 262968 109367 108611 111073 90118.7 100374 89981.4 79283.7 98987.9 78768.1 78358.5 77500.8 73396.2 71940.4 63878.7 62913.1 57372.5 56129.6 54780 54709.3 81769.5 57352.4 52903.5
threshold=152246.00000000003 11.214692303535058 277201.00000000006 77.000000000000014 4.5000000000000009 5.5000000000000009 2726.5000000000005 2263.0000000000005 15.970970904018033 3.5000000000000004 1.0000000180025095e-35 6.7983681905340507 1.0000000180025095e-35 59.466666500000009 2996.5000000000005 107.70833300000002 4.5000000000000009 7.5000000000000009 4.5000000000000009 1.5000000000000002 110802.50000000001 3.5000000000000004 19.891518771549162 1.0000000180025095e-35 11.129760971533949 95004.000000000015 1.0000000180025095e-35 2.5000000000000004 382001.50000000006 19772.000000000004
decision_type=2 2 2 2 2 2 2 2 2 2 2 2 2 2 2 2 2 2 2 2 2 2 2 2 2 2 2 2 2 2
left_child=1 3 4 5 19 13 7 9 14 20 16 -5 -13 -1 15 -6 -11 -14 -12 -2 -3 -15 26 -10 29 -8 27 28 -4 -23
right_child=2 6 22 11 8 -7 25 -9 23 10 18 12 17 21 -16 -17 -18 -19 -20 -21 -22 24 -24 -25 -26 -27 -28 -29 -30 -31
leaf_value=-0.19819195516587457 -1.6570877611079933 -6.145615617138275 -1.1124917014495477 3.5478412059363942 0.31103636222419251 3.8307616412191465 0.42963875730832418 1.600696509313261 -0.20085308158610315 0.86850691818217252 -1.6404238165338907 2.6022737570272838 -0.12020889130158303 -2.4415163672689735 -3.3105931926805243 2.1377403044585686 0.012094019453382581 1.9839925330827866 -0.23892879396186184 -0.63532435452552194 -0.79502909669169686 2.142807932210633 -2.8543104990025969 -1.5041999204962708 4.3743313419106213 -3.0642898197840438 -2.0031055906435262 -0.3502766214979513 -4.1575447214032533 0.74976117694523747
leaf_weight=1035 809 47 143 302 1623 133 60 1146 1363 1515 538 584 390 58 52 363 3689 324 1480 5367 54 296 329 449 46 178 735 758 109 3451
leaf_count=1035 809 47 143 302 1623 133 60 1146 1363 1515 538 584 390 58 52 363 3689 324 1480 5367 54 296 329 449 46 178 735 758 109 3451
internal_value=0 0.514157 -0.651238 1.02323 -0.457895 0.714419 0.127162 0.192096 0.0414318 -0.0283402 0.017203 1.99194 1.62994 0.629591 0.543995 0.64492 0.261415 0.834639 -0.612568 -0.769166 -3.28491 0.852067 -1.58588 -0.523813 0.90243 -2.18347 -1.34673 -0.869078 -2.4296 0.859807
internal_weight=0 15326 12100 6619 10026 5019 8707 8469 3850 7323 7222 1600 1298 4886 2038 1986 5204 714 2018 6176 101 3851 2074 1812 3793 238 1745 1010 252 3747
internal_count=27426 15326 12100 6619 10026 5019 8707 8469 3850 7323 7222 1600 1298 4886 2038 1986 5204 714 2018 6176 101 3851 2074 1812 3793 238 1745 1010 252 3747
is_linear=0
shrinkage=0.1


Tree=29
num_leaves=31
num_cat=0
split_feature=3 3 7 7 1 2 4 3 8 4 4 2 3 1 8 2 3 1 0 6 7 2 1 7 1 6 4 0 0 0
split_gain=776614 272421 215105 193382 109526 107249 100657 99189.9 91199.7 90107.7 140891 93709.4 84228.4 81749.6 81298.2 79637.7 74549.4 73572 70011.7 64459.9 64024.1 77447.6 61393.9 55242.1 54755.7 51378.1 50408.3 48173.4 47982 46103.1
threshold=4.5000000000000009 3.5000000000000004 4.5000000000000009 4.5000000000000009 208009.00000000003 15.469600909866509 1.0000000180025095e-35 5.5000000000000009 107.53333300000001 1.0000000180025095e-35 5.5000000000000009 7.7161764651601512 5.5000000000000009 265638.00000000006 59.466666500000009 23.061267622958475 2.5000000000000004 33771.500000000007 2726.5000000000005 3.5000000000000004 3.5000000000000004 16.384555321431392 142344.50000000003 2.5000000000000004 94137.500000000015 5.5000000000000009 1.0000000180025095e-35 2726.5000000000005 1785.0000000000002 2263.0000000000005
decision_type=2 2 2 2 2 2 2 2 2 2 2 2 2 2 2 2 2 2 2 2 2 2 2 2 2 2 2 2 2 2
left_child=1 16 4 12 -3 8 15 9 -4 24 -11 -12 13 14 -2 28 22 -16 -6 -18 21 26 -1 -21 29 -26 -19 -13 -7 -5
right_child=3 2 5 7 18 6 -8 -9 -10 10 11 27 -14 -15 17 -17 19 20 -20 23 -22 -23 -24 -25 25 -27 -28 -29 -30 -31
leaf_value=-3.5592360584041742 -0.62529962733549216 -0.42685015326148401 0.29316145127433901 1.5162537752578695 -1.0934525228570686 -2.3298726830301404 -1.4757640545193322 4.2772764179014393 1.8305308232279129 -0.57000572158608553 1.8324770254145233 0.56362816878796929 3.3572589854633108 -2.3751636414498583 1.6991716385374418 -3.8035369656704092 -0.23158524272576819 1.4312144759592145 -4.6935277119549843 -4.9390546272198357 -0.023295188133945328 -2.0535990730859339 -9.4298731099004325 -2.0529908350966566 1.7733027552819316 0.29123841544015899 0.39484542754056068 -3.9588806380828228 0.18334164201424161 2.8816144427245289
leaf_weight=79 924 6121 2450 1255 3029 79 605 93 458 758 849 1265 85 122 398 54 159 848 55 81 2809 96 23 366 371 633 1051 24 1978 308
leaf_count=79 924 6121 2450 1255 3029 79 605 93 458 758 849 1265 85 122 398 54 159 848 55 81 2809 96 23 366 371 633 1051 24 1978 308
internal_value=0 -0.46549 -0.373995 0.60832 -0.671696 0.113263 -0.3386 1.03891 0.535292 0.983776 0.601411 1.01672 0.230564 0.188027 0.239073 -0.012696 -2.38185 0.392607 -1.15766 -1.96086 0.284361 0.717547 -4.88301 -2.57597 1.41515 0.838894 0.857637 0.479423 0.0868205 1.78531
internal_weight=0 15537 14829 11889 9205 5624 2716 5556 2908 5463 2896 2138 6333 6248 6126 2111 708 5202 3084 606 4804 1995 102 447 2567 1004 1899 1289 2057 1563
internal_count=27426 15537 14829 11889 9205 5624 2716 5556 2908 5463 2896 2138 6333 6248 6126 2111 708 5202 3084 606 4804 1995 102 447 2567 1004 1899 1289 2057 1563
is_linear=0
shrinkage=0.1


Tree=30
num_leaves=31
num_cat=0
split_feature=2 2 4 6 11 4 4 6 2 2 0 4 3 4 2 1 2 4 6 2 0 1 3 2 0 0 2 8 2 1
split_gain=641186 238011 206815 163087 161080 163761 249934 158211 148169 134737 124060 119999 103675 89613.2 96908.7 82093.7 80447 77637.4 76034.2 72009 68411 75731.4 67875 73346.9 57443.8 56170.9 69674.2 105541 54192.9 60254.6
threshold=12.299623792800263 19.220171727076153 1.0000000180025095e-35 6.5000000000000009 1.0000000180025095e-35 1.0000000180025095e-35 4.5000000000000009 9.5000000000000018 6.7983681905340507 1.0000000180025095e-35 2362.5000000000005 7.5000000000000009 4.5000000000000009 2.5000000000000004 24.809327049402182 244969.00000000003 6.1270212311059717 3.5000000000000004 4.5000000000000009 3.713436701193165 2263.0000000000005 19772.000000000004 5.5000000000000009 6.5463134105686445 2362.5000000000005 2263.0000000000005 14.217432002575164 72.65011893333336 14.217432002575164 110069.50000000001
decision_type=2 2 2 2 2 2 2 2 2 2 2 2 2 2 2 2 2 2 2 2 2 2 2 2 2 2 2 2 2 2
left_child=4 2 3 12 5 20 17 -5 9 -8 11 15 -2 14 18 25 -6 -7 -3 -11 21 -1 23 -23 -9 26 -4 -28 29 -27
right_child=1 13 10 7 16 6 8 24 -10 19 -12 -13 -14 -15 -16 -17 -18 -19 -20 -21 -22 22 -24 -25 -26 28 27 -29 -30 -31
leaf_value=2.2962041559363051 0.2344797586412446 -0.1161024307284285 -1.6500397588407567 -0.9192847768052177 4.3332597582947976 -3.3319933185942712 -4.9198953601080575 0.36025005298193474 0.11045941229912022 4.4394478332164677 -3.905978608434483 0.39565035527097403 1.3299013905516111 -2.6254434526270618 -3.9678737312555317 -1.8204367796320449 1.4144581344944378 -0.90887476888857788 -1.2108342212564132 1.4181985163049815 2.2896641884504758 -3.0112500658741705 6.215486873279918 0.70845409424347339 -2.3036518567197382 -3.7688375506645593 0.96696789548388729 -0.84405011119453277 2.9023270623981956 0.44009575217794206
leaf_weight=322 3009 952 722 2214 102 155 32 2228 3153 86 118 934 1212 360 103 732 1272 900 1902 954 361 54 22 2894 84 39 393 1776 75 266
leaf_count=322 3009 952 722 2214 102 155 32 2228 3153 86 118 934 1212 360 103 732 1272 900 1902 954 361 54 22 2894 84 39 393 1776 75 266
internal_value=0 -0.375178 -0.192385 0.101889 0.623138 0.468095 0.11196 -0.315105 0.455762 1.47138 -0.701586 -0.624997 0.549014 -1.13578 -0.954422 -0.86314 1.63114 -1.26488 -0.845668 1.66803 0.982849 0.839543 0.681616 0.640318 0.263465 -0.648911 -0.79915 -0.515913 0.494093 -0.0980957
internal_weight=0 17119 13802 8747 10307 8933 5280 4526 4225 1072 5055 4937 4221 3317 2957 4003 1374 1055 2854 1040 3653 3292 2970 2948 2312 3271 2891 2169 380 305
internal_count=27426 17119 13802 8747 10307 8933 5280 4526 4225 1072 5055 4937 4221 3317 2957 4003 1374 1055 2854 1040 3653 3292 2970 2948 2312 3271 2891 2169 380 305
is_linear=0
shrinkage=0.1


Tree=31
num_leaves=31
num_cat=0
split_feature=1 2 0 0 7 8 2 0 0 3 6 4 2 7 4 2 6 8 7 2 4 11 3 6 1 1 4 4 6 1
split_gain=543448 207636 210725 170277 163516 116352 128013 113839 120806 110813 105527 86911.4 79558.8 79187.1 113367 96687.6 87741.8 74129.5 69729.1 68362.6 67430.7 62777 73451.7 59946 57661.3 56663.1 54929.6 105492 52456.1 48272.6
threshold=126102.50000000001 16.384555321431392 1797.5000000000002 2726.5000000000005 4.5000000000000009 72.65011893333336 15.803847657335021 1756.5000000000002 1797.5000000000002 2.5000000000000004 5.5000000000000009 1.0000000180025095e-35 14.217431932097645 1.0000000180025095e-35 1.0000000180025095e-35 8.5463133228274444 5.5000000000000009 60.141983933333343 3.5000000000000004 14.217432002575164 5.5000000000000009 1.0000000180025095e-35 3.5000000000000004 3.5000000000000004 253257.50000000003 52863.500000000007 1.0000000180025095e-35 4.5000000000000009 4.5000000000000009 55367.000000000007
decision_type=2 2 2 2 2 2 2 2 2 2 2 2 2 2 2 2 2 2 2 2 2 2 2 2 2 2 2 2 2 2
left_child=4 2 5 13 21 12 -7 -3 18 -6 11 -10 -2 23 16 -16 -15 -11 -9 -14 -17 22 29 -4 -12 -19 28 -28 -24 -1
right_child=1 7 3 -5 9 6 -8 8 10 17 24 -13 19 14 15 20 -18 25 -20 -21 -22 -23 26 -25 -26 -27 27 -29 -30 -31
leaf_value=1.194747611454555 -0.60696717083193408 -2.3177838396643646 1.5749603463431536 -2.8073321285098793 -5.3686470406396047 -2.2409868685715408 -0.045713158012872721 -1.9551544727308479 -0.036853086461145157 0.1972690497384865 -1.4000902128232315 -2.2978020966691632 6.1334442658857871 2.4352611201396028 1.5765719120933985 -0.67405165062848971 0.73074103503593679 1.7566413573720969 -0.24249488516273782 0.47285876226302759 0.41414060233039551 1.4256526906844429 0.96305203419390795 -2.0695610279838248 -2.8305516986963268 0.91818812580278619 -1.5832741767234708 0.088969415235213747 0.12864603050938617 -4.3881477935334381
leaf_weight=21 1686 452 59 160 28 738 415 253 893 1083 1143 210 22 502 480 885 758 1063 3937 706 1597 372 1054 192 374 3334 475 1833 2642 59
leaf_count=21 1686 452 59 160 28 738 415 253 893 1083 1143 210 22 502 480 885 758 1063 3937 706 1597 372 1054 192 374 3334 475 1833 2642 59
internal_value=0 -0.391564 -0.0467066 0.3981 0.506049 -0.624444 -1.45084 -0.780966 -0.678962 0.906294 -1.21159 -0.467315 -0.229732 0.512759 0.615349 0.277381 1.40984 0.938356 -0.345908 0.64392 0.0261268 0.164575 0.0874678 -1.21288 -1.75276 1.12089 0.127576 -0.255188 0.366596 -2.92264
internal_weight=0 15462 8200 4633 11964 3567 1153 7262 6810 5508 2620 1103 2414 4473 4222 2962 1260 5480 4190 728 2482 6456 6084 251 1517 4397 6004 2308 3696 80
internal_count=27426 15462 8200 4633 11964 3567 1153 7262 6810 5508 2620 1103 2414 4473 4222 2962 1260 5480 4190 728 2482 6456 6084 251 1517 4397 6004 2308 3696 80
is_linear=0
shrinkage=0.1


Tree=32
num_leaves=31
num_cat=0
split_feature=3 3 7 3 11 4 4 2 6 0 2 1 8 1 1 0 2 0 3 4 2 0 4 4 1 6 1 11 7 0
split_gain=459592 199484 150284 134487 129767 114456 176201 93484.3 89094.7 84470.1 70847.5 66366.6 68793.6 63234.1 59622 58409.5 57910 53526.9 52685.9 52194.8 52061.2 50735 49646.2 51866.7 51333.3 48687.4 44325.2 43216.8 41365.6 41166.6
threshold=4.5000000000000009 3.5000000000000004 4.5000000000000009 5.5000000000000009 1.0000000180025095e-35 1.0000000180025095e-35 4.5000000000000009 6.2119527325603281 5.5000000000000009 2726.5000000000005 18.806587243049698 72401.000000000015 59.466666500000009 262950.00000000006 126102.50000000001 2726.5000000000005 4.209212975448259 1987.5000000000002 2.5000000000000004 3.5000000000000004 8.4641215348017962 2263.0000000000005 1.0000000180025095e-35 4.5000000000000009 428727.50000000006 3.5000000000000004 99694.000000000015 1.0000000180025095e-35 2.5000000000000004 2726.5000000000005
decision_type=2 2 2 2 2 2 2 2 2 2 2 2 2 2 2 2 2 2 2 2 2 2 2 2 2 2 2 2 2 2
left_child=1 18 10 4 5 8 19 -8 21 14 16 12 -10 29 -4 -12 -3 -6 20 -7 -1 -2 24 -24 27 -20 -5 -18 -27 -9
right_child=3 2 9 26 17 6 7 13 11 -11 15 -13 -14 -15 -16 -17 22 -19 25 -21 -22 -23 23 -25 -26 28 -28 -29 -30 -31
leaf_value=-1.0416250626246135 1.0060958722350688 -5.7353760337829591 0.74796232963126297 2.5581548656610882 2.5888485917981887 -3.0794035566176556 1.303325298714805 0.17569697800731521 -0.30343149932192981 -1.802436811859728 -0.90530504446855553 -0.028086518253813898 1.2963758028086585 -2.1901368370756877 0.0020666179772179426 -3.7773783324515984 -0.11288567716389486 1.0302640719067282 -0.14116183995450818 -0.92551569469781081 -5.7691502067175779 2.6452831371494061 -1.2745750391984991 -0.37190091788767865 -3.3900644779205322 -4.2234985546565351 7.0998659782409677 2.3280727942851751 -1.7260864634403346 -2.9382066540939866
leaf_weight=36 1727 20 1473 153 302 129 725 3353 366 218 2360 2026 1012 121 3933 73 3657 815 159 880 66 212 923 2051 47 81 25 74 366 43
leaf_count=36 1727 20 1473 153 302 129 725 3353 366 218 2360 2026 1012 121 3933 73 3657 815 159 880 66 212 923 2051 47 81 25 74 366 43
internal_value=0 -0.358092 -0.279797 0.467968 0.426503 0.318414 -0.0131448 0.269371 0.644264 0.12748 -0.528632 0.336067 0.871463 0.0562305 0.205305 -0.991479 -0.362343 1.45165 -1.99796 -1.20089 -4.10061 1.18532 -0.346428 -0.652052 -0.105844 -1.64405 3.19604 -0.0644721 -2.17864 0.136269
internal_weight=0 15537 14829 11889 11711 10594 5251 4242 5343 5624 9205 3404 1378 3517 5406 2433 6772 1117 708 1009 102 1939 6752 2974 3778 606 178 3731 447 3396
internal_count=27426 15537 14829 11889 11711 10594 5251 4242 5343 5624 9205 3404 1378 3517 5406 2433 6772 1117 708 1009 102 1939 6752 2974 3778 606 178 3731 447 3396
is_linear=0
shrinkage=0.1


Tree=33
num_leaves=31
num_cat=0
split_feature=2 1 8 0 0 3 2 2 2 3 4 6 8 2 4 4 6 6 6 2 2 2 3 4 4 4 2 4 8 0
split_gain=396523 192657 132286 108407 252506 82977.6 81388.1 79371.2 71462.8 71165.1 75327.7 72332.6 69957.1 63470.2 63311.4 72218 69039.2 74496.3 59031.2 51898.2 50675.3 47240.6 47113.7 54462 79194.6 46118.8 73830.8 45997.3 45724.8 43467.8
threshold=11.214692389267986 197103.00000000003 101.49999950000002 2263.0000000000005 2726.5000000000005 2.5000000000000004 1.0000000180025095e-35 3.713436701193165 6.7983681905340507 3.5000000000000004 1.0000000180025095e-35 6.5000000000000009 59.466666500000009 14.217432089598018 1.0000000180025095e-35 4.5000000000000009 6.5000000000000009 9.5000000000000018 9.5000000000000018 16.132500488838925 14.469601081753671 19.973710585790151 3.5000000000000004 1.0000000180025095e-35 3.5000000000000004 1.0000000180025095e-35 10.214692380248467 7.5000000000000009 109.60003963333334 2263.0000000000005
decision_type=2 2 2 2 2 2 2 2 2 2 2 2 2 2 2 2 2 2 2 2 2 2 2 2 2 2 2 2 2 2
left_child=2 3 6 5 13 -2 -1 -8 -4 -3 11 19 -9 -5 16 -16 -7 -18 -12 28 -6 -22 -14 -24 -25 26 -10 -27 -11 -28
right_child=1 9 8 4 20 14 7 12 25 10 18 -13 22 -15 15 -17 17 -19 -20 -21 21 -23 23 24 -26 27 29 -29 -30 -31
leaf_value=-4.1186128664016719 -5.3978753407796232 -2.003334343473294 2.693342980642508 1.0284681669519515 -4.3547546536235489 0.34487674645052724 3.2750142867941605 -0.31729073534860569 2.791803463287168 0.51297573623688597 -1.3931936872029151 -0.78822162292583753 -2.1664643395692109 3.289653808503028 -1.2029212564557137 -0.19411624636145702 -0.70056418778347584 0.15807300044760422 -0.28080457290511068 -0.17082982364330343 -0.79605378890859679 -5.2455990974719713 1.0261904393053027 -2.432535933740068 0.41272930535091307 0.010824859110127255 -1.249352321188937 1.4855868746306791 3.0163931921124458 1.5961039981460126
leaf_weight=40 30 392 328 1423 59 3628 95 1216 308 304 1604 1768 64 136 1002 2432 1951 2096 679 1471 290 26 1678 101 3112 521 93 356 96 127
leaf_count=40 30 392 328 1423 59 3628 95 1216 308 304 1604 1768 64 136 1002 2432 1951 2096 679 1471 290 26 1678 101 3112 521 93 356 96 127
internal_value=0 -0.244849 0.590483 -0.0257699 0.665321 -0.14576 0.377827 0.406531 1.36429 -0.698449 -0.612073 -0.329582 0.362372 1.22572 -0.131577 -0.488473 0.0281085 -0.255864 -1.06235 0.10381 -1.66446 -1.16216 0.529167 0.56444 0.323289 1.05402 1.79241 0.609474 1.1138 0.393252
internal_weight=0 19387 8039 13073 1934 11139 6306 6266 1733 6314 5922 3639 6171 1559 11109 3434 7675 4047 2283 1871 375 316 4955 4891 3213 1405 528 877 400 220
internal_count=27426 19387 8039 13073 1934 11139 6306 6266 1733 6314 5922 3639 6171 1559 11109 3434 7675 4047 2283 1871 375 316 4955 4891 3213 1405 528 877 400 220
is_linear=0
shrinkage=0.1


Tree=34
num_leaves=31
num_cat=0
split_feature=2 0 0 7 8 2 8 8 1 0 0 4 6 2 7 3 3 11 2 2 7 2 0 0 2 6 3 1 4 2
split_gain=331875 244839 131524 124152 122710 119415 112493 103824 100066 88515.2 117046 92206.9 101038 86689.3 59329.8 56199 56168.4 53640.5 52620.1 51421.3 51280.2 50860.8 48980.8 279678 43701.9 43403 46453.5 43251.6 41687.7 41889.5
threshold=16.384555321431392 1797.5000000000002 2726.5000000000005 3.5000000000000004 72.65011893333336 15.803847657335021 107.53333300000001 59.466666500000009 248704.50000000003 1756.5000000000002 1797.5000000000002 1.0000000180025095e-35 5.5000000000000009 15.888779117351705 4.5000000000000009 5.5000000000000009 3.5000000000000004 1.0000000180025095e-35 18.055788138460318 14.384555445129317 2.5000000000000004 18.30510319022876 2263.0000000000005 1992.5000000000002 7.6312448478793771 3.5000000000000004 3.5000000000000004 200343.50000000003 1.0000000180025095e-35 9.2968841625024119
decision_type=2 2 2 2 2 2 2 2 2 2 2 2 2 2 2 2 2 2 2 2 2 2 2 2 2 2 2 2 2 2
left_child=1 4 6 -2 7 19 8 24 15 -5 -11 12 -12 14 25 17 -14 22 -13 -6 -10 -18 23 -3 -1 -8 -27 -21 -19 -30
right_child=3 2 -4 9 5 -7 13 -9 20 10 11 18 16 -15 -16 -17 21 28 -20 27 -22 -23 -24 -25 -26 26 -28 -29 29 -31
leaf_value=1.2959534523266178 -1.698686270708258 0.44755063689749203 -1.7600937139027377 -1.6692199841960527 -3.7682253316797394 0.22168454889119868 1.9505869694180946 0.41204582406669454 -3.856390589800748 -0.0018695537842467582 0.25381808409014267 -1.2125044836956813 -4.5829012680053713 -0.61324059034023826 1.7882326611775463 2.8339430883234624 -0.25157179907793681 1.5783803743445715 -3.297892529098549 -0.93779501969270374 -0.61265592383586354 -1.5334505888831993 1.0478051782044051 -2.1367784958897214 -0.49553085291285986 -3.4635279973347988 0.55355302546424479 -2.4237094581234757 1.279887495516965 0.015970689697458993
leaf_weight=143 794 4474 242 505 99 549 235 3158 55 4763 925 304 45 246 1357 102 539 667 201 669 428 727 803 462 2850 30 712 277 467 598
leaf_count=143 794 4474 242 505 99 549 235 3158 55 4763 925 304 45 246 1357 102 539 667 201 669 428 727 803 462 2850 30 712 277 467 598
internal_value=0 0.239164 0.545115 -0.505959 -0.190549 -0.97246 0.597565 0.0120792 0.41352 -0.387714 -0.301472 -0.822088 -0.546451 1.17224 1.36043 0.502527 -1.1111 0.470697 -2.04253 -1.59982 -0.982025 -0.98769 0.323495 0.205662 -0.409937 0.766235 0.391137 -1.37289 0.958451 0.570195
internal_weight=0 18623 10878 8803 7745 1594 10636 6151 8056 8009 7504 2741 2236 2580 2334 7573 1311 7471 505 1045 483 1266 5739 4936 2993 977 742 946 1732 1065
internal_count=27426 18623 10878 8803 7745 1594 10636 6151 8056 8009 7504 2741 2236 2580 2334 7573 1311 7471 505 1045 483 1266 5739 4936 2993 977 742 946 1732 1065
is_linear=0
shrinkage=0.1


Tree=35
num_leaves=31
num_cat=0
split_feature=1 7 2 3 1 2 2 1 3 2 4 7 8 7 4 4 1 1 8 1 8 7 2 0 6 1 0 2 2 1
split_gain=283736 165335 82633.8 80001 77267.3 68598.1 62312.8 61010.2 54910.7 47546.3 53600.7 45315.1 44479.1 56249.8 49822 46414.9 41501.9 40494.5 40490.3 44142.2 39533.8 38914.3 38536.9 33160.6 46652.5 34866.6 32171.8 31271.5 30289 30223.2
threshold=182816.00000000003 4.5000000000000009 19.472340637515984 2.5000000000000004 291515.00000000006 1.0000000180025095e-35 12.299623792800263 11640.500000000002 3.5000000000000004 19.891518771549162 1.0000000180025095e-35 2.5000000000000004 60.141983933333343 5.5000000000000009 1.0000000180025095e-35 7.5000000000000009 91515.500000000015 382001.50000000006 62.958333000000003 32121.500000000004 109.60003963333334 4.5000000000000009 20.554532454635801 2726.5000000000005 3.5000000000000004 95771.000000000015 2263.0000000000005 17.636724343307144 14.469601081753671 69204.000000000015
decision_type=2 2 2 2 2 2 2 2 2 2 2 2 2 2 2 2 2 2 2 2 2 2 2 2 2 2 2 2 2 2
left_child=1 5 3 -3 21 -1 18 -5 -8 10 11 17 -9 -14 16 29 26 -6 -7 -20 27 22 -2 -10 -25 -26 28 -19 -15 -16
right_child=4 2 -4 7 9 6 8 12 23 -11 -12 -13 13 14 15 -17 -18 20 19 -21 -22 -23 -24 24 25 -27 -28 -29 -30 -31
leaf_value=-5.2772204828262339 -0.42988750328028691 -4.6315402700983244 -1.0739681847541538 3.0482922825419791 -0.23650734671185503 -0.26322423049259464 -2.4305896920551149 0.060821065136114162 -0.15965094629509366 -2.345806153686826 -1.6001570251230921 0.11119016046221016 1.057345280730668 0.50049022717678804 -1.8227687225997451 0.80091606206169319 0.4234501874332402 -5.9700607078019967 1.5384282124171289 0.3095890097374005 -0.047961132454149652 -0.024472687578959238 -1.5372070733741015 1.1082927714946658 0.64839366800759146 -3.751630231414933 2.1440269858503749 -1.8775481957377811 2.2631505923542554 -0.16435298323039604
leaf_weight=25 3879 29 302 103 113 1131 112 1286 5994 257 581 595 2671 470 125 510 1458 43 324 2990 33 2544 342 43 23 83 295 33 123 909
leaf_count=25 3879 29 302 103 113 1131 112 1286 5994 257 581 595 2671 470 125 510 1458 43 324 2990 33 2544 342 43 23 83 295 33 123 909
internal_value=0 0.214085 0.549741 0.611198 -0.483243 -0.045082 -0.0328574 0.630322 -0.236289 -1.0957 -0.865889 -0.343723 0.598584 0.703989 0.461363 0.020223 0.751695 -1.56297 0.253412 0.429729 -2.93811 -0.33341 -0.519606 -0.196283 -1.6699 -2.79691 1.29064 -4.19305 0.866101 -0.364838
internal_weight=0 19006 8281 7979 8420 10725 10700 7950 6255 1655 1398 817 7847 6561 3890 1544 2346 222 4445 3314 109 6765 4221 6143 149 106 888 76 593 1034
internal_count=27426 19006 8281 7979 8420 10725 10700 7950 6255 1655 1398 817 7847 6561 3890 1544 2346 222 4445 3314 109 6765 4221 6143 149 106 888 76 593 1034
is_linear=0
shrinkage=0.1


Tree=36
num_leaves=31
num_cat=0
split_feature=3 3 3 7 7 0 1 7 4 4 2 4 2 4 2 0 1 0 0 8 2 11 2 1 6 0 1 8 4 3
split_gain=234177 112413 88238.1 87326.3 78333 54380.8 43124.9 42693.2 42589 64527.6 41065.1 39392.6 49996.8 40024.8 39850.2 39002.3 38411 37883.1 41816.2 38693 66066.7 51627.7 40422.6 37845 37448.1 39289.7 36348.6 36037.2 36419.4 35870
threshold=4.5000000000000009 3.5000000000000004 5.5000000000000009 4.5000000000000009 4.5000000000000009 2726.5000000000005 309061.00000000006 3.5000000000000004 1.0000000180025095e-35 7.5000000000000009 16.384555321431392 1.0000000180025095e-35 6.4641215585554699 4.5000000000000009 23.061267622958475 1785.0000000000002 99694.000000000015 2726.5000000000005 2263.0000000000005 70.642856500000008 14.551792934264737 1.0000000180025095e-35 14.217431932097645 14678.000000000002 5.5000000000000009 1998.5000000000002 123906.00000000001 59.466666500000009 1.0000000180025095e-35 2.5000000000000004
decision_type=2 2 2 2 2 2 2 2 2 2 2 2 2 2 2 2 2 2 2 2 2 2 2 2 2 2 2 2 2 2
left_child=1 29 4 6 7 11 17 10 23 -10 27 14 -13 -14 24 -9 -4 18 19 22 21 -21 -3 -6 25 -5 -22 -2 -29 -1
right_child=2 3 16 5 8 -7 -8 15 9 -11 -12 12 13 -15 -16 -17 -18 -19 -20 20 26 -23 -24 -25 -26 -27 -28 28 -30 -31
leaf_value=-3.2215708578334139 -0.25081925822013995 -0.24837616777906169 1.9499862618695678 0.62465276082873455 3.1338770579960613 -1.4348730315142442 -1.184384546656805 -1.0136127149339857 -0.060412229166576327 0.90901061149465523 -1.6092779872222591 2.3452306328946118 -0.8960886711216326 0.049599676318723723 -2.4650577552927038 -0.043597975639599933 6.177859309673309 -1.8283878104253248 0.61711505998455918 -2.0483985827042113 0.23138020647084759 1.6833790293553983 0.71301142083451907 0.80838018688651359 0.1695582025495527 2.1661536256673979 -0.51039070858014757 1.0690129042380219 0.23993047993248073 -1.1946079343385232
leaf_weight=102 629 1807 153 1029 72 218 631 484 1777 1119 104 77 655 1413 48 2887 25 165 471 387 779 41 577 2495 1987 197 4347 957 1187 606
leaf_count=102 629 1807 153 1029 72 218 631 484 1777 1119 104 77 655 1413 48 2887 25 165 471 387 779 41 577 2495 1987 197 4347 957 1187 606
internal_value=0 -0.255611 0.334042 -0.196837 0.300456 0.113623 -0.38652 0.0586198 0.577042 0.314168 0.341575 0.176067 -0.15677 -0.249929 0.394998 -0.18287 2.54379 -0.327801 -0.298357 -0.352676 -0.497324 -1.69092 -0.0156913 0.873606 0.437726 0.872349 -0.397664 0.414741 0.610001 -1.48663
internal_weight=0 15537 11889 14829 11711 5624 9205 6248 5463 2896 2877 5406 2145 2068 3261 3371 178 8574 8409 7938 5554 428 2384 2567 3213 1226 5126 2773 2144 708
internal_count=27426 15537 11889 14829 11711 5624 9205 6248 5463 2896 2877 5406 2145 2068 3261 3371 178 8574 8409 7938 5554 428 2384 2567 3213 1226 5126 2773 2144 708
is_linear=0
shrinkage=0.1


Tree=37
num_leaves=31
num_cat=0
split_feature=1 7 4 4 1 3 2 0 4 7 2 2 0 0 4 4 2 8 7 4 8 6 1 2 6 6 2 3 7 2
split_gain=202431 130270 62388.2 71835.6 89668 57243.4 58329.2 55265.3 50442.6 56885.5 59005.7 55447.1 46431.5 73144.6 42571.5 42008.1 41301.1 40382.3 47258.9 39041.2 37121.7 37078.8 36830.6 35255.7 34689.7 31504.6 38850.9 37750.8 31323.1 30512.2
threshold=200343.50000000003 4.5000000000000009 7.5000000000000009 1.0000000180025095e-35 98020.000000000015 2.5000000000000004 9.2119526668970373 2726.5000000000005 1.0000000180025095e-35 1.5000000000000002 18.220171760026293 18.639463939785717 2263.0000000000005 2726.5000000000005 4.5000000000000009 3.5000000000000004 13.718916086174206 77.000000000000014 5.5000000000000009 1.0000000180025095e-35 108.42500000000001 9.5000000000000018 382001.50000000006 14.217432089598018 6.5000000000000009 4.5000000000000009 20.724395498857557 3.5000000000000004 5.5000000000000009 7.2119526487244219
decision_type=2 2 2 2 2 2 2 2 2 2 2 2 2 2 2 2 2 2 2 2 2 2 2 2 2 2 2 2 2 2
left_child=1 2 3 4 24 -3 17 8 9 16 -11 15 19 23 -5 -10 -2 18 -7 25 -15 29 -18 -14 -1 -8 27 -27 -21 -17
right_child=7 5 -4 14 -6 6 12 -9 11 10 -12 -13 13 20 -16 21 22 -19 -20 28 -22 -23 -24 -25 -26 26 -28 -29 -30 -31
leaf_value=0.90220604871226073 -3.346566447493148 -3.8502427774090919 0.55360939914190133 -1.0261451091600893 -0.24129682146875081 0.93695313482904974 0.83210099664671167 -2.2407759771264835 -3.1506251933053138 0.42505512453185346 -0.43713411714399569 -2.2092065509131626 0.92399263971857026 -4.4353123382285791 -0.27809988865050778 2.7336826394001648 -0.30941618145317645 1.5822512898205205 -0.28359629952850929 0.2215764028333812 -0.45899396048651808 0.063339638206297941 -2.3583391415554544 3.2756179310492612 0.16494989754350708 -2.8982893542239543 -2.1302477045398618 0.27941161914273599 -0.64530016385479261 -0.85748246422752039
leaf_weight=1180 73 31 1431 1132 4358 1287 971 174 64 1489 1700 242 1315 27 2320 24 370 613 421 784 180 690 115 67 1390 38 72 2311 890 1667
leaf_count=1180 73 31 1431 1132 4358 1287 971 174 64 1489 1700 242 1315 27 2320 24 370 613 421 784 180 690 115 67 1390 38 72 2311 890 1667
internal_value=0 0.153064 -0.0653849 -0.15072 0.0349757 0.439519 0.454334 -0.482217 -0.434658 -0.197548 -0.0345628 -0.765306 0.30379 0.775421 -0.523403 -0.622393 -1.12902 0.885991 0.636103 0.155858 -0.977644 -0.554435 -0.795243 1.038 0.503457 0.350878 0.157872 0.228006 -0.239308 -0.806514
internal_weight=0 20818 11811 10380 6928 9007 8976 6608 6434 3747 3189 2687 6655 1589 3452 2445 558 2321 1708 5066 207 2381 485 1382 2570 3392 2421 2349 1674 1691
internal_count=27426 20818 11811 10380 6928 9007 8976 6608 6434 3747 3189 2687 6655 1589 3452 2445 558 2321 1708 5066 207 2381 485 1382 2570 3392 2421 2349 1674 1691
is_linear=0
shrinkage=0.1


Tree=38
num_leaves=31
num_cat=0
split_feature=2 8 1 3 0 0 6 11 8 0 8 0 0 2 4 1 4 1 7 2 4 4 0 6 7 2 2 4 2 2
split_gain=173656 155244 84981.7 81974.4 77053.3 104765 76121.6 71745.7 89996.7 117297 100052 86801.8 63879.9 59930.4 58385.5 52638.7 48028.2 43583.5 42498.3 42067.7 41524.5 70889.1 40617.8 39882.9 41755 39358 51045.4 38895.8 51233.1 38141.1
threshold=16.384555321431392 107.53333300000001 239481.50000000003 2.5000000000000004 1756.5000000000002 1797.5000000000002 3.5000000000000004 1.0000000180025095e-35 72.65011893333336 2263.0000000000005 59.466666500000009 2996.5000000000005 1992.5000000000002 6.8832997178291313 1.0000000180025095e-35 69204.000000000015 1.0000000180025095e-35 19772.000000000004 3.5000000000000004 18.30510319022876 1.0000000180025095e-35 5.5000000000000009 2445.5000000000005 3.5000000000000004 4.5000000000000009 13.466861198289314 13.968231261337571 7.5000000000000009 15.803847657335021 14.217432002575164
decision_type=2 2 2 2 2 2 2 2 2 2 2 2 2 2 2 2 2 2 2 2 2 2 2 2 2 2 2 2 2 2
left_child=1 2 7 -2 -5 18 -7 8 10 12 -1 25 27 -3 17 -16 19 -15 -6 -8 -12 29 -17 -19 -25 -11 -27 28 -10 -22
right_child=3 13 -4 4 5 6 16 -9 9 11 20 -13 -14 14 15 22 -18 23 -20 -21 21 -23 -24 24 -26 26 -28 -29 -30 -31
leaf_value=-0.31219387125661768 -5.6739036527173274 2.2589002662859454 -0.7404684437654111 -1.486667904198919 -1.1533597763008989 0.13441260362308707 -0.24564355460438178 0.7283311947026524 -1.1427129839048484 1.503206199942217 0.65669422238793818 -3.6157694146988244 -1.8832733181317431 5.6451910427638463 -2.4470154838611005 0.62173840878724185 -1.9997452339277932 2.0442902353847816 0.08355537098204957 -1.1831765591898327 -0.70820804984095276 0.44911398126554725 -1.1108923901746304 0.025049166833238486 1.2795176028414765 -1.0875199351203504 1.2016691610884311 0.54619221506963356 0.19385028638160773 0.95783484251994011
leaf_weight=2884 29 277 1246 557 295 781 808 1711 1007 401 3154 47 458 21 73 821 402 317 4757 1174 1012 2710 162 446 655 189 201 271 401 159
leaf_count=2884 29 277 1246 557 295 781 808 1711 1007 401 3154 47 458 21 73 821 402 317 4757 1174 1012 2710 162 446 655 189 201 271 401 159
internal_value=0 0.173003 0.0522633 -0.365993 -0.348449 -0.271294 -0.722417 0.119894 0.0391557 -0.443247 0.183843 0.559473 -0.836453 0.863424 0.708495 0.143798 -1.00312 1.12289 0.0113285 -0.800973 0.387193 0.168175 0.336198 1.05592 0.77135 0.80756 0.0922929 -0.550899 -0.762058 -0.48199
internal_weight=0 18623 15851 8803 8774 8217 3165 14605 12894 2975 9919 838 2137 2772 2495 1056 2384 1439 5052 1982 7035 3881 983 1418 1101 791 390 1679 1408 1171
internal_count=27426 18623 15851 8803 8774 8217 3165 14605 12894 2975 9919 838 2137 2772 2495 1056 2384 1439 5052 1982 7035 3881 983 1418 1101 791 390 1679 1408 1171
is_linear=0
shrinkage=0.1


Tree=39
num_leaves=31
num_cat=0
split_feature=2 4 6 6 4 2 2 2 0 11 1 4 4 2 0 6 2 4 8 7 8 6 3 8 2 1 8 0 2 1
split_gain=143703 94010.6 140017 112500 88176.1 68214.3 68083.2 67390.1 63139.6 53057.5 52488.3 50757.5 77396 46704.2 44519.8 44892.4 43632.1 43185.1 42480.7 38979.1 38483.8 38386.5 35814.6 33493.9 61826 33326.4 33058.4 32385.7 32272.5 32242
threshold=11.214692389267986 1.0000000180025095e-35 6.5000000000000009 9.5000000000000018 4.5000000000000009 16.132500488838925 1.0000000180025095e-35 4.209212975448259 2263.0000000000005 1.0000000180025095e-35 121620.00000000001 1.0000000180025095e-35 3.5000000000000004 21.058527836621362 2362.5000000000005 9.5000000000000018 19.05852795690133 3.5000000000000004 70.380952000000022 2.5000000000000004 109.60003963333334 4.5000000000000009 3.5000000000000004 71.261904000000015 8.5463133228274444 19772.000000000004 72.65011893333336 2263.0000000000005 15.970970904018033 401850.00000000006
decision_type=2 2 2 2 2 2 2 2 2 2 2 2 2 2 2 2 2 2 2 2 2 2 2 2 2 2 2 2 2 2
left_child=6 2 5 10 16 8 -1 -8 20 11 -4 25 -13 22 15 21 17 -3 -14 -12 26 -6 -5 24 -20 -9 -2 -11 -28 -19
right_child=1 4 3 13 14 -7 7 9 -10 27 19 12 18 -15 -16 -17 -18 29 23 -21 -22 -23 -24 -25 -26 -27 28 -29 -30 -31
leaf_value=-3.4394042557858406 0.55007434587511106 -2.5724221586966687 -0.15655463702148864 -1.7162703225106903 -0.014042872062587284 0.064126979335191278 2.1200837489045052 1.5596923725385414 1.6357819351918335 1.7158538766346423 -2.1682304011449278 -2.3505351046128058 -0.33773636951675456 -2.0163482719192318 -2.483594480121837 0.31493376736267853 -2.6083356353870166 -0.67285505806165102 1.7310774459299154 -0.86095942361668376 1.4805232172656173 -0.7146572351070628 0.21526658448600242 0.041884804480561449 0.14983077097824668 0.4461241923057257 -0.65481238540986819 0.54315062009067416 2.5423816519625047 -3.7845406784730802
leaf_weight=47 1276 139 1053 99 1499 3642 216 304 597 396 259 134 1465 102 85 1324 159 1615 410 1911 318 1635 3164 1545 623 2318 442 581 34 34
leaf_count=47 1276 139 1053 99 1499 3642 216 304 597 396 259 134 1465 102 85 1324 159 1615 410 1911 318 1635 3164 1545 623 2318 442 581 34 34
internal_value=0 -0.1474 0.008811 -0.31363 -0.457824 0.345511 0.355472 0.377789 0.729763 0.329392 -0.735873 0.230373 0.0138958 0.090795 -0.216519 -0.173294 -1.02087 -0.879699 0.0922618 -1.01699 0.468461 -0.379552 0.156663 0.336617 0.777431 0.575234 0.284765 1.01847 -0.426441 -0.737014
internal_weight=0 19387 12897 6588 6490 6309 8039 7992 2667 7776 3223 6799 4177 3365 4543 4458 1947 1788 4043 2170 2070 3134 3263 2578 1033 2622 1752 977 476 1649
internal_count=27426 19387 12897 6588 6490 6309 8039 7992 2667 7776 3223 6799 4177 3365 4543 4458 1947 1788 4043 2170 2070 3134 3263 2578 1033 2622 1752 977 476 1649
is_linear=0
shrinkage=0.1


Tree=40
num_leaves=31
num_cat=0
split_feature=1 7 3 4 4 1 2 3 8 7 4 6 2 1 4 0 6 6 4 2 4 2 0 4 0 0 1 1 6 6
split_gain=127067 97414.4 46014.8 45927.1 55863 58236.3 42420.1 41486.5 52911.7 39140.3 40538.5 63190.3 45603.9 39334.9 35007.6 32991.4 32595.4 69582 30122.8 29934.7 37391.2 42331.5 28052.3 27804.3 27647.6 47572.1 27194 27148.4 26091.7 25725.2
threshold=230878.00000000003 4.5000000000000009 2.5000000000000004 7.5000000000000009 1.0000000180025095e-35 98020.000000000015 20.0585278870949 3.5000000000000004 109.60003963333334 5.5000000000000009 1.0000000180025095e-35 4.5000000000000009 5.7134366480570717 44220.500000000007 3.5000000000000004 2726.5000000000005 6.5000000000000009 9.5000000000000018 3.5000000000000004 23.061267622958475 1.0000000180025095e-35 19.305103240028874 1797.5000000000002 7.5000000000000009 1785.0000000000002 1497.5000000000002 122368.50000000001 166101.00000000003 9.5000000000000018 6.5000000000000009
decision_type=2 2 2 2 2 2 2 2 2 2 2 2 2 2 2 2 2 2 2 2 2 2 2 2 2 2 2 2 2 2
left_child=1 3 -3 4 5 29 9 8 -7 22 11 -11 -12 -13 -14 -15 -9 26 -6 20 24 23 -4 -22 25 -2 -18 -10 -20 -1
right_child=19 2 6 -5 18 7 -8 16 27 10 12 13 14 15 -16 -17 17 -19 28 -21 21 -23 -24 -25 -26 -27 -28 -29 -30 -31
leaf_value=0.73676717077413478 0.97109631495550275 -3.5163133859634401 0.33457609498623275 0.42809309394939721 -1.9850077058553695 -0.57488752853870395 -0.87976777676115003 0.1253704556707986 -7.1061927152716597 1.1344332465506366 1.782850848318283 1.4919119467325321 -2.7272195977243512 0.10321230760928152 -0.17052023442916101 -1.7685746400645286 -0.09330495217194161 0.11218717445584658 -0.57579919537539659 -2.4292895977255666 -0.90025995405514403 -2.9381082656296593 0.85035395312577122 0.19988369709885809 -0.11817004338439485 -2.2886442838899241 -1.1747949260222526 -2.1925580696626144 -0.0036552377863464575 0.10187799946760101
leaf_weight=1180 64 31 2011 1545 125 100 276 2408 23 904 118 197 55 1928 2039 99 306 1367 2711 79 1323 90 2217 278 2294 149 968 22 1129 1390
leaf_count=1180 64 31 2011 1545 125 100 276 2408 23 904 118 197 55 1928 2039 99 306 1367 2711 79 1323 90 2217 278 2294 149 968 22 1129 1390
internal_value=0 0.0925206 0.330357 -0.0844141 -0.151924 0.00403495 0.34247 -0.188615 -1.85633 0.377727 0.197758 0.429456 -0.129888 0.142901 -0.237673 0.011793 -0.140721 -0.383337 -0.457313 -0.500762 -0.46447 -0.827857 0.60503 -0.709229 -0.219362 -1.30919 -0.915034 -4.70397 -0.407583 0.393384
internal_weight=0 23149 9875 13274 11729 7764 9844 5194 145 9568 5340 3128 2212 2224 2094 2027 5049 2641 3965 4277 4198 1691 4228 1601 2507 213 1274 45 3840 2570
internal_count=27426 23149 9875 13274 11729 7764 9844 5194 145 9568 5340 3128 2212 2224 2094 2027 5049 2641 3965 4277 4198 1691 4228 1601 2507 213 1274 45 3840 2570
is_linear=0
shrinkage=0.1


Tree=41
num_leaves=31
num_cat=0
split_feature=2 8 3 1 0 0 2 6 8 8 11 0 0 0 0 0 8 1 2 4 1 6 1 6 3 1 7 2 2 2
split_gain=103832 124730 67244.4 66572 58842.5 87218.9 57007.2 56875 55480 54493 105219 78034.4 81151.7 63665.1 54120.7 52157.1 43691.1 43651 44530.7 42072.4 37348.1 36859.2 35784.2 34806.4 32521 32272 31975.8 31771.7 97607.3 44338.3
threshold=16.384555321431392 107.53333300000001 5.5000000000000009 314184.00000000006 1797.5000000000002 1756.5000000000002 15.888779117351705 5.5000000000000009 58.249999500000008 71.261904000000015 1.0000000180025095e-35 2263.0000000000005 1992.5000000000002 2362.5000000000005 2726.5000000000005 1653.5000000000002 109.60003963333334 44220.500000000007 15.888779117351705 1.0000000180025095e-35 99694.000000000015 10.500000000000002 253257.50000000003 3.5000000000000004 4.5000000000000009 30322.000000000004 3.5000000000000004 8.5463133228274444 8.2119527516493402 14.217431932097645
decision_type=2 2 2 2 2 2 2 2 2 2 2 2 2 2 2 2 2 2 2 2 2 2 2 2 2 2 2 2 2 2
left_child=1 2 3 8 5 -2 14 19 -1 27 11 12 15 -13 16 -11 -3 -17 24 -6 -4 23 -9 -18 -19 -25 -7 28 -10 -29
right_child=4 6 20 -5 7 26 -8 22 9 10 -12 13 -14 -15 -16 17 21 18 -20 -21 -22 -23 -24 25 -26 -27 -28 29 -30 -31
leaf_value=-0.42771557725423021 -1.2724946338942809 0.45018981208273967 1.4239272856722689 -1.4441975850528077 0.13782505847744372 -0.96753275475764677 -0.65100115347682064 -0.76444462688018033 0.40151897241954182 -3.8477484242860664 0.53154650615050159 0.66351269717255446 -1.7802976527554126 -2.8766451870953595 -0.79183179822496397 0.61878918823228202 1.9489370508382491 -1.1517587241110903 0.39487965779692824 -1.3005356981366873 5.7635006686915524 2.352676926507788 -1.8599173985660713 4.5408255479552535 -0.3495827321099686 0.66031226499873441 0.10534227032156061 0.063732363008377313 2.9130029552222956 0.76813262552524997
leaf_weight=2229 560 841 144 311 1090 295 262 1471 1103 43 1839 857 489 54 176 409 347 884 460 250 23 295 374 22 1180 829 4763 4533 180 1113
leaf_count=2229 560 841 144 311 1090 295 262 1471 1103 43 1839 857 489 54 176 409 347 884 460 250 23 295 374 22 1180 829 4763 4533 180 1113
internal_value=0 0.133775 0.0255494 0.0042959 -0.283004 -0.0883364 0.752634 -0.626377 0.0335993 0.111831 -0.103161 -0.369895 -0.586422 0.453668 0.899149 -0.390251 1.02666 -0.339561 -0.494856 -0.130526 2.02159 1.35139 -0.986508 1.10482 -0.69315 0.760631 0.0427685 0.304668 0.753871 0.202591
internal_weight=0 18623 15851 15684 8803 5618 2772 3185 15373 13144 6215 4376 3465 911 2510 2976 2334 2933 2524 1340 167 1493 1845 1198 2064 851 5058 6929 1283 5646
internal_count=27426 18623 15851 15684 8803 5618 2772 3185 15373 13144 6215 4376 3465 911 2510 2976 2334 2933 2524 1340 167 1493 1845 1198 2064 851 5058 6929 1283 5646
is_linear=0
shrinkage=0.1


Tree=42
num_leaves=31
num_cat=0
split_feature=7 1 2 7 2 2 0 4 6 2 1 0 6 6 4 4 10 6 3 6 2 1 1 8 1 2 11 3 2 8
split_gain=95217.5 61669.9 51221.1 45759.5 41562 38482.2 36447.1 33247.8 45703.5 43714.4 39853.3 36505.9 31702.2 76329.8 35132.3 42028.3 33158.6 32527.5 31472.9 29899.4 28597.4 27722.2 26235.2 26133 25238.8 24720.3 23064.2 22723.1 22548.9 22222.7
threshold=4.5000000000000009 280005.50000000006 1.0000000180025095e-35 5.5000000000000009 3.713436701193165 20.0585278870949 2362.5000000000005 1.0000000180025095e-35 5.5000000000000009 7.1270211328533843 54015.000000000007 1799.0000000000002 4.5000000000000009 9.5000000000000018 1.0000000180025095e-35 4.5000000000000009 1.0000000180025095e-35 11.500000000000002 3.5000000000000004 9.5000000000000018 19.724395453491873 159058.50000000003 476144.00000000006 58.249999500000008 327740.00000000006 13.053048634429249 1.0000000180025095e-35 3.5000000000000004 16.469600906814225 72.65011893333336
decision_type=2 2 2 2 2 2 2 2 2 2 2 2 2 2 2 2 2 2 2 2 2 2 2 2 2 2 2 2 2 2
left_child=1 2 -1 24 -4 12 22 8 -5 11 -10 -9 14 16 18 -16 -14 23 21 -11 -12 -6 25 -15 27 -3 -20 29 -27 -2
right_child=3 6 4 7 5 -7 -8 9 10 19 20 -13 13 17 15 -17 -18 -19 26 -21 -22 -23 -24 -25 -26 28 -28 -29 -30 -31
leaf_value=-4.298602909877383 -3.9457057844508778 -1.7942486617949946 3.3500975557523116 0.67733122175636373 -4.1102060437202459 -0.70077183526009323 -4.5344357467614689 -0.19260701658619439 1.1386631937342395 -0.58779058254965677 -0.081464279391609329 1.9638779004952711 -0.27163679799721263 -0.61548854363834971 -0.91067057111268113 0.1344949890727529 -0.87217303800852308 -0.18375074280697262 0.45603085075481609 0.20808738403337507 -1.5562239300908773 0.13883980148855377 -2.5383721667450745 0.51439760938547485 -1.0764626133453348 0.28047449288752258 2.672540083527565 0.50934414594197019 -0.75817945759424143 -0.081480412703493377
leaf_weight=29 22 158 35 1452 28 994 26 157 257 1724 1949 157 4334 226 517 1504 1167 1517 2138 650 141 34 77 2172 106 298 48 4763 700 46
leaf_count=29 22 158 35 1452 28 994 26 157 257 1724 1949 157 4334 226 517 1504 1167 1517 2138 650 141 34 77 2172 106 298 48 4763 700 46
internal_value=0 -0.157434 -0.100066 0.220524 -0.0917913 -0.099998 -0.829218 0.045925 0.236357 -0.223216 -0.0364572 0.885635 -0.0563613 -0.158844 0.169682 -0.132873 -0.399037 0.178652 0.441686 -0.36988 -0.180958 -1.78008 -0.751087 0.407911 0.449939 -0.632038 0.504701 0.48343 -0.44804 -1.33167
internal_weight=0 16002 14743 11424 14714 14679 1259 6487 3799 2688 2347 314 13685 9416 4269 2021 5501 3915 2248 2374 2090 62 1233 2398 4937 1156 2186 4831 998 68
internal_count=27426 16002 14743 11424 14714 14679 1259 6487 3799 2688 2347 314 13685 9416 4269 2021 5501 3915 2248 2374 2090 62 1233 2398 4937 1156 2186 4831 998 68
is_linear=0
shrinkage=0.1


Tree=43
num_leaves=31
num_cat=0
split_feature=4 4 1 4 6 6 2 2 2 6 6 1 2 7 2 1 3 2 8 2 1 8 1 2 2 7 1 0 6 1
split_gain=85406.3 126829 100657 81657.7 66458.6 67278.2 59371.5 52382.7 51617.2 41982.6 53184 42442.1 33845.5 33685 31686.7 37527.4 31291.8 30833.3 27698.4 31815.4 41530.4 37176 31718.1 26370.7 44223.8 28017 42468.6 34010.6 30081.1 25724
threshold=7.5000000000000009 1.0000000180025095e-35 98801.500000000015 3.5000000000000004 6.5000000000000009 9.5000000000000018 18.973710536499187 5.4613818280218807 1.0000000180025095e-35 8.5000000000000018 3.5000000000000004 283673.50000000006 5.7956285023893859 2.5000000000000004 7.4641216448607572 80812.500000000015 2.5000000000000004 14.803847646761618 57.916666000000006 17.888778990853442 86308.000000000015 107.53333300000001 19772.000000000004 13.801107811053509 13.886039420354203 1.0000000180025095e-35 107303.50000000001 1785.0000000000002 3.5000000000000004 94137.500000000015
decision_type=2 2 2 2 2 2 2 2 2 2 2 2 2 2 2 2 2 2 2 2 2 2 2 2 2 2 2 2 2 2
left_child=1 2 7 -3 16 13 8 -1 -5 10 -10 14 -2 -6 -12 17 -4 -16 -9 21 -21 -20 -23 25 -25 28 -27 -28 -18 -11
right_child=12 3 4 6 5 -7 -8 18 9 29 11 -13 -14 -15 15 -17 23 -19 19 20 -22 22 -24 24 -26 26 27 -29 -30 -31
leaf_value=-4.3878149336034609 1.338805352911316 -2.0048356696863303 -3.2756676563849818 -4.7096939912209148 -1.665147865902294 0.037557717509253401 -1.5894583794076675 -0.12765803836494047 -0.0025808925747541024 -0.50839463962310272 0.20459799342747551 -2.0180906908379663 0.35842853518505824 -0.5377885559264054 -2.3653516099760026 -0.58381874470051842 1.3669089467184885 1.2974621520592617 0.53978310430075538 -1.379173827539669 0.95158888599765834 5.1210292252627285 1.2526714469595204 -2.8002003539067051 0.13355456710196265 -0.76216108578222774 -0.25001912750303745 1.5081746154620002 -2.3335102918289476 0.25128139158354457
leaf_weight=22 401 298 26 26 297 2785 352 609 1962 573 452 216 2890 2463 198 2282 35 26 3313 178 134 22 580 52 4321 135 136 576 59 2007
leaf_count=22 401 298 26 26 297 2785 352 609 1962 573 452 216 2890 2463 198 2282 35 26 3313 178 134 22 580 52 4321 135 136 576 59 2007
internal_value=0 -0.0651634 0.102206 -0.37914 -0.0667187 -0.309202 -0.319286 0.480704 -0.261536 -0.246548 -0.411872 -0.664874 0.477885 -0.659102 -0.566059 -0.70506 0.185073 -1.9402 0.502851 0.593691 -0.378141 0.67114 1.39404 0.202006 0.0986688 0.682231 0.864007 1.17234 -0.955695 0.0825626
internal_weight=0 24135 15743 8392 10885 5545 8094 4858 7742 7716 5136 3174 3291 2760 2958 2506 5340 224 4836 4227 312 3915 602 5314 4373 941 847 712 94 2580
internal_count=27426 24135 15743 8392 10885 5545 8094 4858 7742 7716 5136 3174 3291 2760 2958 2506 5340 224 4836 4227 312 3915 602 5314 4373 941 847 712 94 2580
is_linear=0
shrinkage=0.1


Tree=44
num_leaves=31
num_cat=0
split_feature=3 0 0 2 11 3 4 4 1 2 0 2 1 4 1 6 1 8 1 0 8 2 2 2 1 1 6 6 6 4
split_gain=76815 74313.9 77816.8 78828.4 73793.4 50337.5 42714.2 101689 42034.1 50731.2 43086.8 40982.2 40638.8 37887 35490.3 35042.2 43439.1 34352.6 26938.2 26855.5 56386.1 40377.1 31563.6 45203 26421.7 25401.1 25342.6 42992.8 37567.8 24890.3
threshold=3.5000000000000004 2726.5000000000005 2263.0000000000005 14.217432089598018 1.0000000180025095e-35 5.5000000000000009 1.0000000180025095e-35 4.5000000000000009 72401.000000000015 7.4641216448607572 1756.5000000000002 19.973710585790151 179827.00000000003 3.5000000000000004 327740.00000000006 5.5000000000000009 382001.50000000006 107.38750000000002 99694.000000000015 1799.0000000000002 107.53333300000001 15.888779117351705 14.551792934264737 7.0503087695433697 33771.500000000007 204115.50000000003 9.5000000000000018 7.5000000000000009 8.5000000000000018 2.5000000000000004
decision_type=2 2 2 2 2 2 2 2 2 2 2 2 2 2 2 2 2 2 2 2 2 2 2 2 2 2 2 2 2 2
left_child=-1 2 4 14 5 6 8 13 -2 -10 -11 29 19 -8 17 16 -12 24 -7 -9 -21 22 23 -22 -4 -6 27 -17 -29 -3
right_child=1 11 3 -5 25 18 7 12 9 10 15 -13 -14 -15 -16 26 -18 -19 -20 20 21 -23 -24 -25 -26 -27 -28 28 -30 -31
leaf_value=-1.0280804228963658 0.44401552995559612 -0.45011427717032726 3.0512033395469191 2.4038107031168274 1.4885873170478234 1.1965924676354618 -1.9248970367394245 0.22790766393915327 -3.9935939954593778 -0.45360985308573404 0.38886271098288816 -4.0098758776982626 -0.40222186697868834 -0.6358768191371813 -1.9985767288286178 0.03778878034884281 -2.0134583542873332 0.95425402264382686 4.9502179059115328 -2.152147371465007 1.3582347205992955 -1.1184523326732838 2.2446209695745023 -1.3198108399991229 0.15349033235003029 -1.3185510490621839 0.17660625337234312 -1.2015895064765634 -0.082202990535469284 -2.0445937788339728
leaf_weight=708 2414 379 32 208 408 146 255 4273 32 1790 3349 45 1973 2155 61 1909 77 887 22 151 134 195 94 119 1888 35 2331 699 525 132
leaf_count=708 2414 379 32 208 408 146 255 4273 32 1790 3349 45 1973 2155 61 1909 77 887 22 151 134 195 94 119 1888 35 2331 699 525 132
internal_value=0 0.0272431 0.0515559 0.524035 -0.0113976 -0.0364051 -0.049296 -0.212646 0.0670503 -0.0179006 -0.00598843 -1.11677 -0.0182831 -0.772267 0.387705 0.0841401 0.33487 0.439562 1.68814 0.134256 -0.443192 0.0329191 0.679943 0.0986006 0.201786 1.2668 -0.073071 -0.258835 -0.72146 -0.861995
internal_weight=0 26718 26162 3076 23086 22643 22475 9349 13126 10712 10680 556 6939 2410 2868 8890 3426 2807 168 4966 693 542 347 253 1920 443 5464 3133 1224 511
internal_count=27426 26718 26162 3076 23086 22643 22475 9349 13126 10712 10680 556 6939 2410 2868 8890 3426 2807 168 4966 693 542 347 253 1920 443 5464 3133 1224 511
is_linear=0
shrinkage=0.1


Tree=45
num_leaves=31
num_cat=0
split_feature=2 7 0 2 7 2 1 7 7 2 2 2 8 2 10 6 0 6 2 3 6 0 8 8 2 6 0 0 2 2
split_gain=70551.2 58676.5 37558.2 35585.9 35459.5 33380.4 33336.9 30555.3 46514.5 42751.6 92349.1 87271.4 36882.1 35092.4 29986.3 32407.8 30673.7 29585.2 26953 26820.8 26769.4 25513.8 38721.5 25188.9 75945.9 36687.3 30064.2 28535.8 37795.4 28823.4
threshold=20.0585278870949 4.5000000000000009 2726.5000000000005 1.0000000180025095e-35 5.5000000000000009 4.209212975448259 428727.50000000006 3.5000000000000004 1.5000000000000002 19.724395641745982 19.724395453491873 19.806587244436397 59.466666500000009 19.639464012347762 1.0000000180025095e-35 3.5000000000000004 1756.5000000000002 2.5000000000000004 17.551792881060628 3.5000000000000004 8.5000000000000018 2996.5000000000005 109.60003963333334 107.53333300000001 15.888779117351705 1.5000000000000002 2996.5000000000005 2263.0000000000005 18.055788322938849 14.217431932097645
decision_type=2 2 2 2 2 2 2 2 2 2 2 2 2 2 2 2 2 2 2 2 2 2 2 2 2 2 2 2 2 2
left_child=1 3 -2 -1 -3 -5 7 8 17 10 13 -11 -10 14 16 -16 -9 -7 -8 -17 -21 22 -14 26 -25 -26 27 28 -6 -29
right_child=2 4 -4 5 23 6 18 9 12 11 -12 -13 21 -15 15 19 -18 -19 -20 20 -22 -23 -24 24 25 -27 -28 29 -30 -31
leaf_value=-3.5894321844495582 -0.56498689863168639 0.42366343193157452 -3.6310378109536523 2.1958432020619512 -0.37421548929709436 0.63460470778874434 -3.1783988589332219 -0.64813984907608235 -0.26531119547636794 3.9892889456010203 -3.8605600732564924 0.13558721530669071 0.38463698544029601 2.0492000232724581 0.17173289084847165 -3.4279845494973031 -0.036953914218831881 -0.49689284058603339 -0.17725471624156885 -1.1243427729254971 -0.25357301171190655 -2.1486802565084924 1.6847860637784007 0.88419142915265769 1.4951226252046499 -0.42139202520443375 -3.2483921670913696 0.23290582025450068 0.85425181202991041 2.619094159018319
leaf_weight=29 1564 4679 41 64 2447 273 63 966 909 71 70 341 2736 68 441 38 5476 1505 57 792 637 37 250 1186 110 1086 30 1128 279 53
leaf_count=29 1564 4679 41 64 2447 273 63 966 909 71 70 341 2736 68 441 38 5476 1505 57 792 637 37 250 1186 110 1086 30 1128 279 53
internal_value=0 0.0399873 -0.64331 -0.0898604 0.214995 -0.0830004 -0.0929016 -0.0792675 0.101282 -0.195103 -0.24339 0.799696 0.293208 -0.213311 -0.231736 -0.579945 -0.128603 -0.323159 -1.75286 -0.805909 -0.736183 0.461152 0.493491 0.0604829 0.317163 -0.245124 -0.0948161 -0.0706013 -0.248485 0.339991
internal_weight=0 25821 1605 14823 10998 14794 14730 14610 5710 8900 8488 412 3932 8418 8350 1908 6442 1778 120 1467 1429 3023 2986 6319 2382 1196 3937 3907 2726 1181
internal_count=27426 25821 1605 14823 10998 14794 14730 14610 5710 8900 8488 412 3932 8418 8350 1908 6442 1778 120 1467 1429 3023 2986 6319 2382 1196 3937 3907 2726 1181
is_linear=0
shrinkage=0.1


Tree=46
num_leaves=31
num_cat=0
split_feature=4 4 1 4 6 6 2 2 2 6 6 1 7 2 0 1 3 2 1 2 0 0 2 2 2 1 7 2 0 6
split_gain=59406.2 96092.9 66735.9 54196.5 47043.3 47722.5 43381.7 41651.5 36432.6 34634.5 41133 31704 24089.6 23667.6 23629.3 23436.9 23260.7 22227.5 31378.5 25093.8 21942.4 21874.7 20773.3 20301.5 91927.2 26014.7 44297.7 30752.3 24121.8 23018.7
threshold=7.5000000000000009 1.0000000180025095e-35 98801.500000000015 3.5000000000000004 6.5000000000000009 9.5000000000000018 18.973710536499187 5.4613818280218807 1.0000000180025095e-35 8.5000000000000018 3.5000000000000004 283673.50000000006 2.5000000000000004 5.7956285023893859 1987.5000000000002 94137.500000000015 2.5000000000000004 7.4641216448607572 80812.500000000015 14.803847646761618 1998.5000000000002 2996.5000000000005 20.806587276778576 14.217432002575164 14.217431932097645 117811.00000000001 1.0000000180025095e-35 13.801107811053509 1785.0000000000002 3.5000000000000004
decision_type=2 2 2 2 2 2 2 2 2 2 2 2 2 2 2 2 2 2 2 2 2 2 2 2 2 2 2 2 2 2
left_child=1 2 7 -3 16 12 8 -1 -5 10 -10 17 -6 -2 -8 -11 -4 -12 19 -19 -9 -14 -7 24 25 27 29 -18 -28 -27
right_child=13 3 4 6 5 22 14 20 9 15 11 -13 21 -15 -16 -17 23 18 -20 -21 -22 -23 -24 -25 -26 26 28 -29 -30 -31
leaf_value=-3.9417578350413929 1.118489363103492 -1.6520643019211172 -2.8181305646896364 -3.9665552973747253 -1.39568830882058 0.10857942802576376 -0.87007669988413194 0.32924568480611133 -0.007139171454267507 -0.48207429437629917 0.14127873130867968 -1.7591517688568545 -0.41468732580382395 0.29866739743141052 -2.7219996155576505 0.2430441605236231 -0.070292362520345181 -2.1335715363423033 -0.5097341421378595 1.1707924586076002 0.92324034094983287 -3.6559962709744775 -1.0755606194305571 0.076773310369299075 5.8350270933471622 0.70606183638939501 -0.19737777445051408 -3.4996289080586926 1.2471857489375937 -2.3497281487308332
leaf_weight=22 401 298 26 26 297 2628 258 4103 1962 573 452 216 2442 2890 94 2007 266 198 2282 26 733 21 157 4151 32 39 144 29 586 67
leaf_count=22 401 298 26 26 297 2628 258 4103 1962 573 452 216 2442 2890 94 2007 266 198 2282 26 733 21 157 4151 32 39 144 29 586 67
internal_value=0 -0.0543469 0.0913368 -0.327643 -0.0462101 -0.250221 -0.278881 0.399529 -0.229516 -0.216924 -0.367084 -0.589584 -0.544914 0.398561 -1.36462 0.0820004 0.165633 -0.504179 -0.620599 -1.75003 0.419278 -0.442323 0.0418254 0.180232 0.549499 0.399952 0.684848 -0.407414 0.962231 -1.22543
internal_weight=0 24135 15743 8392 10885 5545 8094 4858 7742 7716 5136 3174 2760 3291 352 2580 5340 2958 2506 224 4836 2463 2785 5314 1163 1131 836 295 730 106
internal_count=27426 24135 15743 8392 10885 5545 8094 4858 7742 7716 5136 3174 2760 3291 352 2580 5340 2958 2506 224 4836 2463 2785 5314 1163 1131 836 295 730 106
is_linear=0
shrinkage=0.1


Tree=47
num_leaves=31
num_cat=0
split_feature=3 0 7 2 7 7 8 7 8 2 2 6 2 0 0 1 2 8 4 1 1 6 1 2 2 2 0 6 2 8
split_gain=55349.2 52891.8 53683.3 26676.6 25054.2 42822 29761.9 24831.9 26759 54260.3 28426.7 27601.2 21444.7 20950.3 25549.1 39417 23001.5 24609.5 22662.6 20937.1 20225.5 26297.3 20189.4 19834 24488.3 25479.2 30042.8 22195.6 19614.9 19078
threshold=3.5000000000000004 2726.5000000000005 4.5000000000000009 19.973710585790151 3.5000000000000004 1.5000000000000002 59.466666500000009 5.5000000000000009 107.53333300000001 15.888779117351705 15.384555342817711 1.5000000000000002 3.713436701193165 2263.0000000000005 1992.5000000000002 96502.500000000015 14.217432089598018 107.38750000000002 2.5000000000000004 428727.50000000006 95004.000000000015 6.5000000000000009 62100.500000000007 15.217431998125011 14.217432163543796 10.214692380248467 2263.0000000000005 10.500000000000002 16.721655872173638 109.60003963333334
decision_type=2 2 2 2 2 2 2 2 2 2 2 2 2 2 2 2 2 2 2 2 2 2 2 2 2 2 2 2 2 2
left_child=-1 2 4 20 5 19 -7 -4 13 10 23 -11 -6 14 -9 -16 17 22 -17 -2 21 -3 -15 24 25 -10 -27 -28 -21 -8
right_child=1 3 7 -5 12 6 29 8 9 11 -12 -13 -14 16 15 18 -18 -19 -20 28 -22 -23 -24 -25 -26 26 27 -29 -30 -31
leaf_value=-0.87268990778793742 -0.24207425790626436 3.0169857183771751 0.38315095174310426 -3.2761823353833623 -2.9413899762289866 -0.22795411226114554 0.34851493172639331 -0.13286577470610259 0.92438984442272309 1.479531509242952 2.211637296293774 -0.29711836989167756 -0.1698165264533476 1.4269597758187189 -2.7825687397271395 1.1418364375721717 3.3426313524444904 1.2339574579681669 -1.3614347370047319 -4.534221106225794 -0.97238458641804759 -1.0696870086714625 -0.1478257133630361 -1.4033877042206853 1.6108776304244996 -1.8459044762294401 -0.025237033355236055 3.4192566113038496 -0.67938063361428003 1.2354867867705295
leaf_weight=708 1892 31 4811 45 28 902 2745 2508 405 96 137 981 9403 90 96 69 24 196 76 22 448 32 853 44 250 88 125 22 33 266
leaf_count=708 1892 31 4811 45 28 902 2745 2508 405 96 137 981 9403 90 96 69 24 196 76 22 448 32 853 44 250 88 125 22 33 266
internal_value=0 0.0231254 0.0436367 -0.942014 -0.0771449 0.0852426 0.275926 0.213527 0.0788626 0.362446 0.866454 -0.138754 -0.178045 -0.0768472 -0.227369 -1.21083 0.278942 0.214387 -0.170223 -0.297985 -0.736461 0.941215 0.00247195 0.669141 0.771603 0.443761 -0.384556 0.490265 -2.22132 0.426872
internal_weight=0 26718 26162 556 15291 5860 3913 10871 6060 2148 1071 1077 9431 3912 2749 241 1163 1139 145 1947 511 63 943 934 890 640 235 147 55 3011
internal_count=27426 26718 26162 556 15291 5860 3913 10871 6060 2148 1071 1077 9431 3912 2749 241 1163 1139 145 1947 511 63 943 934 890 640 235 147 55 3011
is_linear=0
shrinkage=0.1


Tree=48
num_leaves=31
num_cat=0
split_feature=2 3 1 6 6 6 4 2 4 0 2 2 2 1 1 8 6 2 8 8 4 4 0 1 1 8 2 3 2 2
split_gain=48433.2 43072.5 37693 37259.3 72664.9 29100.7 34926.4 34036.8 24567.6 24009.2 23509.3 72172.4 35458.3 24212.4 22907.5 22820.4 22267 26213.7 23165.5 21777.1 21263.1 26941.2 22435 26714.8 28696.7 26701.4 25334.5 19893.1 19292.9 25908.2
threshold=20.0585278870949 5.5000000000000009 230878.00000000003 4.5000000000000009 9.5000000000000018 7.5000000000000009 1.0000000180025095e-35 9.2119526668970373 1.0000000180025095e-35 2726.5000000000005 19.724395641745982 19.724395453491873 19.891518691379733 178050.00000000003 99694.000000000015 60.141983933333343 8.5000000000000018 19.724395641745982 106.48277760000002 59.466666500000009 1.0000000180025095e-35 4.5000000000000009 2263.0000000000005 201367.00000000003 95771.000000000015 60.141983933333343 17.888778990853442 3.5000000000000004 15.469601034619256 13.466861198289314
decision_type=2 2 2 2 2 2 2 2 2 2 2 2 2 2 2 2 2 2 2 2 2 2 2 2 2 2 2 2 2 2
left_child=1 2 3 10 5 6 -5 -7 -4 27 11 20 -12 -14 -3 -10 17 18 -9 -6 22 -22 23 24 -1 -26 28 -2 29 -24
right_child=9 14 8 4 19 7 -8 16 15 -11 12 -13 13 -15 -16 -17 -18 -19 -20 -21 21 -23 26 -25 25 -27 -28 -29 -30 -31
leaf_value=0.61993661159742963 -1.7670308746092698 1.1247655976636739 -0.043690848781416818 0.12877311956506984 -0.23082235945594631 0.22919165341507625 -0.35980245679741479 -0.71308795687111659 -2.0234808052778246 -2.9218035953800854 3.719735711569689 -5.6136735166822165 -0.71647475179834452 3.0328947484493258 4.3897628435790539 -0.46486805961569477 -0.29251787070174129 1.9041355326771736 -1.6732825660554882 0.32176135153574148 -0.41733901428963444 0.24140641642354466 1.5262480844111896 1.3475271719897917 -1.3846665313834476 0.080527541507173478 -1.891733318567276 -0.372298492184306 3.3652506999965563 -0.091303828275865986
leaf_weight=1096 110 153 2100 3518 823 569 2505 854 100 41 49 21 61 24 25 1550 1033 32 356 5345 822 2537 317 234 137 1350 28 1454 38 144
leaf_count=1096 110 153 2100 3518 823 569 2505 854 100 41 49 21 61 24 25 1550 1033 32 356 5345 822 2537 317 234 137 1350 28 1454 38 144
internal_value=0 0.0331315 0.0223709 0.0725483 -0.0155589 -0.198915 -0.0744282 -0.462551 -0.270572 -0.533015 0.265708 0.239571 1.57725 0.342171 1.58333 -0.559329 -0.635562 -0.92088 -0.995591 0.24803 0.257909 0.0802011 0.436414 0.324382 0.231693 -0.0544634 1.03526 -0.470393 1.1995 1.02098
internal_weight=0 25821 25643 21893 15035 8867 6023 2844 3750 1605 6858 6724 134 85 178 1650 2275 1242 1210 6168 6703 3359 3344 2817 2583 1487 527 1564 499 461
internal_count=27426 25821 25643 21893 15035 8867 6023 2844 3750 1605 6858 6724 134 85 178 1650 2275 1242 1210 6168 6703 3359 3344 2817 2583 1487 527 1564 499 461
is_linear=0
shrinkage=0.1


Tree=49
num_leaves=31
num_cat=0
split_feature=4 4 1 4 6 6 2 1 2 1 6 2 2 6 0 2 2 7 1 8 6 7 2 0 1 3 1 1 8 2
split_gain=44698.6 72967.3 45547.1 43983.5 36687.3 38808.7 34238.9 27569.2 29624.1 25183.6 23686.2 25474.4 22665 22540.3 20473.7 22434.1 80816.7 26117.6 31017.4 21665 23646.7 19631.3 20099.9 17849.6 17388.4 18462.5 26640.4 17131.4 25173.3 22311.5
threshold=7.5000000000000009 1.0000000180025095e-35 94137.500000000015 4.5000000000000009 6.5000000000000009 9.5000000000000018 5.4613818280218807 71416.500000000015 7.6312448478793771 401850.00000000006 7.5000000000000009 11.886039350374089 19.05852795690133 3.5000000000000004 1756.5000000000002 14.217432002575164 14.217431932097645 2.5000000000000004 107303.50000000001 69.19642850000001 3.5000000000000004 4.5000000000000009 14.217432163543796 2726.5000000000005 98020.000000000015 4.5000000000000009 100001.00000000001 44220.500000000007 71.933333000000019 7.1270211328533843
decision_type=2 2 2 2 2 2 2 2 2 2 2 2 2 2 2 2 2 2 2 2 2 2 2 2 2 2 2 2 2 2
left_child=1 2 6 7 14 10 -1 8 -3 12 11 -6 -9 -8 -4 16 17 19 24 -16 -21 22 -17 -2 -19 26 -26 28 -15 -29
right_child=23 3 4 -5 5 -7 13 9 -10 -11 -12 -13 -14 27 15 21 -18 18 -20 20 -22 -23 -24 -25 25 -27 -28 29 -30 -31
leaf_value=-3.5863414547660137 0.36690236476715654 -0.79113586388283497 -0.34109272746011743 -0.11954662181153526 1.2790945234561439 0.053986170187404564 0.79352328889812229 -0.37427713589534944 -2.8243038169349788 -2.8918509655220568 -0.72704026302576963 -0.28683626430537029 -1.6187355081049297 0.28836678767114349 1.2750450197992655 -3.2043301510810851 6.0491738213433166 1.1384318158030511 0.98189208873172673 0.43217878158275902 -3.3559231151474851 0.42956325571947673 -0.021218257825806396 -2.2148864604808667 -5.0926357352215312 -0.13066250793635845 -0.53532038063838561 -2.9254515891273818 1.4053196891661615 0.13837881827251658
leaf_weight=22 3264 213 719 5506 114 2884 975 2366 108 43 1568 1171 156 729 29 20 27 48 693 26 45 1331 2444 27 23 80 29 24 279 2463
leaf_count=22 3264 213 719 5506 114 2884 975 2366 108 43 1568 1171 156 729 29 20 27 48 693 26 45 1331 2444 27 23 80 29 24 279 2463
internal_value=0 -0.0471418 0.0798072 -0.285292 -0.0276687 -0.204701 0.348999 -0.601507 -1.47519 -0.492168 -0.4662 -0.147913 -0.451254 0.368368 0.156524 0.23114 0.652512 0.502759 0.678108 -1.02804 -1.96873 0.120107 -0.0470552 0.345721 -0.491462 -1.08415 -2.55106 0.249762 0.597523 0.108812
internal_weight=0 24135 15743 8392 11251 5737 4492 2886 321 2565 2853 1285 2522 4470 5514 4795 1000 973 873 100 71 3795 2464 3291 180 132 52 3495 1008 2487
internal_count=27426 24135 15743 8392 11251 5737 4492 2886 321 2565 2853 1285 2522 4470 5514 4795 1000 973 873 100 71 3795 2464 3291 180 132 52 3495 1008 2487
is_linear=0
shrinkage=0.1


Tree=50
num_leaves=31
num_cat=0
split_feature=0 0 11 2 3 6 2 3 1 4 4 0 8 2 1 2 1 1 8 2 1 6 6 2 1 6 1 1 2 2
split_gain=42902.7 40835 56360.7 53455.3 32275.6 39603.6 29800.9 28520.7 27012.2 25950.3 53277.9 24912.1 42928.4 40276.7 26078.1 24499.2 24323.1 24164.8 21945.2 21286.3 20893.7 20619.8 27437.5 26345 21023.5 22865.2 18505.3 17784 25235.3 23372.6
threshold=2726.5000000000005 2263.0000000000005 1.0000000180025095e-35 14.217432089598018 3.5000000000000004 3.5000000000000004 14.384555310000369 5.5000000000000009 335267.50000000006 1.0000000180025095e-35 4.5000000000000009 1799.0000000000002 107.53333300000001 18.055788322938849 181717.00000000003 23.061267622958475 33771.500000000007 57800.500000000007 107.38750000000002 7.6312448478793771 101731.00000000001 6.5000000000000009 9.5000000000000018 6.5463134105686445 382001.50000000006 4.5000000000000009 99694.000000000015 126930.00000000001 14.803847646761618 12.968231088495889
decision_type=2 2 2 2 2 2 2 2 2 2 2 2 2 2 2 2 2 2 2 2 2 2 2 2 2 2 2 2 2 2
left_child=1 2 4 8 5 -1 -5 9 16 15 17 14 20 -14 -12 21 -3 19 -18 -11 -13 24 27 -24 -6 -26 -9 28 29 -23
right_child=-2 3 -4 6 7 -7 -8 26 -10 10 11 12 13 -15 -16 -17 18 -19 -20 -21 -22 22 23 -25 25 -27 -28 -29 -30 -31
leaf_value=0.54463581040848141 -0.85620931752780249 2.3713615317981351 1.0807438587699656 3.2879774925214322 0.22262872223635305 -1.2324128015477767 0.90861913146635964 0.86248819318740344 -1.8552169048289457 -1.0049710303394987 0.18190825786468956 -3.7285478024255663 0.11379017233353189 -1.9110315246392142 -0.29911751393681285 -1.363579354502938 0.05884044285426368 -0.47452692566717891 0.66407687628789291 -3.3384000925522934 -1.2434975455204647 -0.029111163957834835 -3.4786664271354675 0.16112852876824965 -2.4430904860458069 0.43109893655776982 3.9735918890346178 -0.47150191870212421 0.61833676756483269 -1.1920275264436551
leaf_weight=172 573 55 451 88 6097 463 131 146 60 149 4335 42 752 113 1523 121 1919 2208 871 53 174 806 20 3484 62 50 22 1814 452 220
leaf_count=172 573 55 451 88 6097 463 131 146 60 149 4335 42 752 113 1523 121 1919 2208 871 53 174 806 20 3484 62 50 22 1814 452 220
internal_value=0 0.0182701 -0.026474 0.358133 -0.0479258 -0.751071 1.86471 -0.0282068 0.244557 -0.0379101 -0.165233 -0.0245464 -0.465628 -0.150724 0.0568481 0.0527754 0.28884 -0.570303 0.247787 -1.61721 -1.7267 0.0659533 -0.0544037 0.140353 0.197689 -1.15997 1.26989 -0.261703 -0.00420936 -0.278469
internal_weight=0 26853 23729 3124 23278 635 219 22643 2905 22475 9349 6939 1081 865 5858 13126 2845 2410 2790 202 216 13005 6796 3504 6209 112 168 3292 1478 1026
internal_count=27426 26853 23729 3124 23278 635 219 22643 2905 22475 9349 6939 1081 865 5858 13126 2845 2410 2790 202 216 13005 6796 3504 6209 112 168 3292 1478 1026
is_linear=0
shrinkage=0.1


Tree=51
num_leaves=31
num_cat=0
split_feature=7 2 7 2 2 1 0 8 2 6 0 1 2 2 2 1 2 1 2 0 8 2 2 1 1 0 0 1 2 8
split_gain=37456.5 27572.6 26527.5 21734.2 27053.1 21407.7 23434.4 20740 45468 28285.6 21323.4 18385.3 17849.8 19521.9 17259.2 24596.4 21954.4 20937.8 19822.8 17913 16940.2 16779.9 23703.4 16560 16313.4 15923.3 22387.3 30956.6 17701.1 18577.7
threshold=4.5000000000000009 23.061267622958475 5.5000000000000009 1.0000000180025095e-35 3.713436701193165 280005.50000000006 2362.5000000000005 107.53333300000001 15.888779117351705 5.5000000000000009 2996.5000000000005 227867.50000000003 19.387295046844521 18.47234063215296 14.551792720749523 110802.50000000001 14.970970972167104 125301.00000000001 6.8832997178291313 1998.5000000000002 60.141983933333343 13.053048634429249 16.469600906814225 230878.00000000003 159903.00000000003 2263.0000000000005 1992.5000000000002 96502.500000000015 14.217432089598018 107.38750000000002
decision_type=2 2 2 2 2 2 2 2 2 2 2 2 2 2 2 2 2 2 2 2 2 2 2 2 2 2 2 2 2 2
left_child=3 2 20 -1 -5 -6 21 10 14 11 25 12 13 -10 18 16 -16 -17 -9 24 23 -7 -23 -2 -19 26 -4 -28 29 -27
right_child=1 -3 7 4 5 6 -8 8 9 -11 -12 -13 -14 -15 15 17 -18 19 -20 -21 -22 22 -24 -25 -26 28 27 -29 -30 -31
leaf_value=-2.8338767997149765 0.035431889754846235 -1.8843537714943956 -0.14395942384666108 2.6833641613061943 -0.065933744807900402 -1.3814874441538261 -3.4666522823847261 1.6008102521427678 0.84921167531118535 -0.59875569451997535 -2.7778083181381228 -0.53814692231624028 2.3506345827260922 -1.0209553003625971 4.6219169085366394 -1.8138298835073199 1.4292535066604615 2.713094719844078 0.1851890255585022 -0.73440783619880678 0.42268472534614587 0.43932826269240605 -0.59315743025037504 -2.3882314829990783 0.90438966040427882 -0.031531416588307673 -2.5446438911060496 -0.24197717984050715 2.839138765335083 1.0368140565877668
leaf_weight=29 1011 67 2579 35 14679 162 26 117 261 694 30 161 58 71 35 28 56 67 640 48 3851 315 756 29 195 960 96 149 25 196
leaf_count=29 1011 67 2579 35 14679 162 26 117 261 694 30 161 58 71 35 28 56 67 640 48 3851 315 756 29 195 960 96 149 25 196
internal_value=0 0.138312 0.150245 -0.0987426 -0.0937768 -0.0998754 -0.49561 0.0173227 0.248059 -0.174044 -0.121691 0.360892 0.732034 0.449266 0.69116 1.1979 2.6572 0.805013 0.403984 1.04155 0.325971 -0.43296 -0.289485 -0.032151 1.36692 -0.101795 -0.230741 -1.14425 0.20654 0.149607
internal_weight=0 11424 11357 16002 15973 15938 1259 6466 2431 1245 4035 551 390 332 1186 429 91 338 757 310 4891 1233 1071 1040 262 4005 2824 245 1181 1156
internal_count=27426 11424 11357 16002 15973 15938 1259 6466 2431 1245 4035 551 390 332 1186 429 91 338 757 310 4891 1233 1071 1040 262 4005 2824 245 1181 1156
is_linear=0
shrinkage=0.1


Tree=52
num_leaves=31
num_cat=0
split_feature=3 1 0 7 1 6 1 7 7 8 10 0 8 2 4 6 6 2 7 6 6 6 0 4 2 1 1 4 2 1
split_gain=35006.3 32386.5 32039.5 31635.5 25361.9 21832.7 19858.5 20234.8 34343.5 29140.3 17865.9 24388 21948.6 22422.4 19577.4 19250.1 18155.6 16818.9 16688.3 16636.4 16279.3 16182.2 15803.1 15520.1 24802.7 17091.2 17246.7 16761.9 15513.9 16587.9
threshold=2.5000000000000004 162301.50000000003 2726.5000000000005 4.5000000000000009 11640.500000000002 5.5000000000000009 476144.00000000006 3.5000000000000004 1.5000000000000002 109.60003963333334 1.0000000180025095e-35 1756.5000000000002 67.857142500000023 4.6285052552563881 6.5000000000000009 8.5000000000000018 6.5000000000000009 3.713436701193165 5.5000000000000009 4.5000000000000009 3.5000000000000004 2.5000000000000004 2263.0000000000005 1.0000000180025095e-35 14.217432002575164 191713.00000000003 103241.00000000001 5.5000000000000009 19.973710585790151 95004.000000000015
decision_type=2 2 2 2 2 2 2 2 2 2 2 2 2 2 2 2 2 2 2 2 2 2 2 2 2 2 2 2 2 2
left_child=1 5 3 6 -5 -1 7 8 19 17 11 16 -13 14 -14 -15 -9 -10 -6 -2 21 -12 -21 -19 25 26 27 -25 29 -4
right_child=2 -3 28 4 18 -7 -8 10 9 -11 20 12 13 15 -16 -17 -18 23 -20 22 -22 -23 -24 24 -26 -27 -28 -29 -30 -31
leaf_value=-2.9733986088074746 0.16535726770689538 -5.3486870129903163 0.92696275524795058 1.7139792804289791 0.27713880260138574 0.38492730962378641 -1.6706532843023927 -0.090941789356678571 2.6677578553005503 1.2483409933285281 -0.3343545834936521 -0.93308379909054173 -4.2301173860612122 -0.075642779774699798 -0.057496427405964251 0.299529007123919 -0.86263964504130264 0.38380217260440169 0.028556248966803879 -0.3717841742688639 -0.57440806563345048 0.89641900286530007 -1.9249561147413392 -1.2069331290148899 0.91986022993025696 -0.81390409358985016 0.31567024711009561 -0.068472262182443608 -2.5163917107052276 -0.79085560266202659
leaf_weight=32 647 21 64 103 4806 49 77 589 27 275 303 244 23 4077 22 2058 632 1697 6165 1295 1530 165 69 181 241 327 747 453 45 462
leaf_count=32 647 21 64 103 4806 49 77 589 27 275 303 244 23 4077 22 2058 632 1697 6165 1295 1530 165 69 181 241 327 747 453 45 462
internal_value=0 -1.84912 0.00690271 0.0227226 0.152115 -0.941819 -0.0686664 -0.0607602 0.08411 0.255448 -0.150284 -0.0806995 -0.00283235 0.033896 -2.19017 0.0502095 -0.490379 0.181109 0.137451 -0.252261 -0.416539 0.099572 -0.450354 0.162695 -0.0298243 -0.163825 -0.00989657 -0.39349 -0.734304 -0.581843
internal_weight=0 102 27324 26753 11074 81 15679 15602 5959 3948 9643 7645 6424 6180 45 6135 1221 3673 10971 2011 1998 468 1364 3646 1949 1708 1381 634 571 526
internal_count=27426 102 27324 26753 11074 81 15679 15602 5959 3948 9643 7645 6424 6180 45 6135 1221 3673 10971 2011 1998 468 1364 3646 1949 1708 1381 634 571 526
is_linear=0
shrinkage=0.1


Tree=53
num_leaves=31
num_cat=0
split_feature=2 2 4 4 4 6 2 2 2 2 6 2 6 2 3 1 2 1 6 6 1 2 0 2 1 1 1 2 0 1
split_gain=31610 77176.1 29221.4 53787.8 37519.7 32183.2 63961.1 32977.8 113903 35990.4 30546.7 27754.8 27519.5 35454.1 26484.9 34466.8 31434.6 26191.2 24882.1 28872 24012.8 22258.9 21746.4 21340.8 21127.2 20369.2 20045.4 19118.6 18637.1 32310.9
threshold=19.891518771549162 19.891518691379733 7.5000000000000009 1.0000000180025095e-35 3.5000000000000004 6.5000000000000009 19.806587244436397 19.724395641745982 19.724395453491873 19.639464012347762 8.5000000000000018 19.806587244436397 7.5000000000000009 10.80110782483724 4.5000000000000009 17338.500000000004 7.2119527352659629 177158.50000000003 8.5000000000000018 3.5000000000000004 283673.50000000006 1.0000000180025095e-35 1797.5000000000002 17.551792881060628 97279.500000000015 134991.00000000003 291515.00000000006 13.801107811053509 1785.0000000000002 81806.000000000015
decision_type=2 2 2 2 2 2 2 2 2 2 2 2 2 2 2 2 2 2 2 2 2 2 2 2 2 2 2 2 2 2
left_child=1 2 3 5 -5 7 10 8 9 14 12 -9 -7 -14 15 -1 -17 -11 19 -6 -21 -20 23 25 -23 -15 -2 -18 29 -16
right_child=26 -3 -4 4 18 6 -8 11 -10 17 -12 -13 13 22 28 16 27 -19 21 20 -22 24 -24 -25 -26 -27 -28 -29 -30 -31
leaf_value=-4.0657397317886348 -0.26404123262794094 2.7095145531903917 0.29728483683824236 -1.337155177055162 -0.014237005543516732 -0.025551151862153065 -3.9388285433252657 3.5355983795864243 -5.1595758046859359 0.096580203554847033 0.13030362005903995 0.2941199657917023 0.5393835012401853 -0.31698764691647796 0.51413021384168334 -3.5895513472349752 0.53306747226524243 4.5247133823002086 -3.0330593772556473 -0.42185688423561435 -1.4972156809450801 -0.42849569684303807 -1.5277528180992281 0.34538796413075795 0.24543875309027713 -1.868731289466222 -1.2127674551209588 -0.0018565612783369011 0.64172994470143641 -1.0659763563152713
leaf_weight=20 1669 107 3269 293 2021 1560 42 56 39 22 4616 50 196 194 397 23 862 34 23 3017 223 603 374 182 2035 150 257 2971 1929 192
leaf_count=20 1669 107 3269 293 2021 1560 42 56 39 22 4616 50 196 194 397 23 862 34 23 3017 223 603 374 182 2035 150 257 2971 1929 192
internal_value=0 0.0295046 0.0182116 -0.0230237 -0.225911 0.0968064 -0.0476366 0.256997 0.228417 0.260995 -0.0251627 2.0066 -0.295356 -0.679384 0.238889 0.0748488 0.0963249 2.78509 -0.184811 -0.310852 -0.495871 0.0643835 -0.944805 -0.530313 0.0913893 -0.99362 -0.390637 0.118442 0.491398 -0.00094697
internal_weight=0 25500 25393 22124 8215 13909 7314 6595 6489 6450 7272 106 2656 1096 6394 3876 3856 56 7922 5261 3240 2661 900 526 2638 344 1926 3833 2518 589
internal_count=27426 25500 25393 22124 8215 13909 7314 6595 6489 6450 7272 106 2656 1096 6394 3876 3856 56 7922 5261 3240 2661 900 526 2638 344 1926 3833 2518 589
is_linear=0
shrinkage=0.1


Tree=54
num_leaves=31
num_cat=0
split_feature=11 2 6 6 4 2 1 6 2 8 2 1 2 2 3 2 2 7 1 7 0 1 1 4 1 8 1 2 2 2
split_gain=27056.9 29840 24823 43868.2 33761.2 37218.3 36161.5 32627.6 31779.7 27962.7 31786.3 33128.5 26996 21463.6 19734.7 23991 32649 23321 19592.4 18824.2 23706.8 17824.3 16889.9 16374.3 19642.9 16056.5 15978.2 15816.5 30985.9 15642.4
threshold=1.0000000180025095e-35 9.2968841625024119 3.5000000000000004 9.5000000000000018 1.0000000180025095e-35 18.724395541713573 314184.00000000006 7.5000000000000009 1.0000000180025095e-35 107.38750000000002 18.220171687770605 327740.00000000006 3.713436701193165 21.639463947440642 3.5000000000000004 10.090034819712679 14.132500521688064 1.0000000180025095e-35 57800.500000000007 4.5000000000000009 2726.5000000000005 303942.50000000006 327740.00000000006 5.5000000000000009 87309.000000000015 59.466666500000009 8095.0000000000009 14.803847646761618 10.633984675926149 10.21469248208936
decision_type=2 2 2 2 2 2 2 2 2 2 2 2 2 2 2 2 2 2 2 2 2 2 2 2 2 2 2 2 2 2
left_child=2 -2 9 4 7 6 12 14 -5 26 11 -11 -6 25 15 -4 -17 -18 -9 20 -16 -12 -19 24 27 -10 -1 28 -14 -3
right_child=1 29 3 8 5 -7 -8 18 13 10 21 -13 23 -15 19 16 17 22 -20 -21 -22 -23 -24 -25 -26 -27 -28 -29 -30 -31
leaf_value=2.4447722134766758 0.90840737155575779 -1.0286693330692207 -4.1800320529937744 -3.3738422714746918 1.6964137711353713 -1.7296152876763076 -1.8695880928971123 0.38838652382221295 -0.25524616411705131 0.66570505505486255 0.032259074210346038 3.1188623522890029 -1.0627719701477216 -1.5889363906449743 -0.011764788656911929 3.2839969015121464 -3.0673764531205343 -0.81355886274734424 -0.52127815116037912 0.3356961985255123 -1.8984538635348571 -1.9021640174918706 2.3391561472415923 -0.17887956250085604 -0.42130252752698794 0.20407355273747407 0.0046289613745284734 1.3506462663412095 -3.9825030137192123 0.18915281119256722
leaf_weight=27 652 115 20 26 67 204 151 272 870 1082 404 58 209 72 3234 20 41 113 1828 2041 68 54 20 2714 1266 6078 4383 20 44 1273
leaf_count=27 652 115 20 26 67 204 151 272 870 1082 404 58 209 72 3234 20 41 113 1828 2041 68 54 20 2714 1266 6078 4383 20 44 1273
internal_value=0 0.35038 -0.0281563 -0.0832169 -0.196947 -0.4087 -0.34843 -0.0676601 0.115835 0.149434 0.507824 0.790515 -0.29526 0.128759 0.0592373 -0.882393 -0.542431 -0.98225 -0.403455 0.0969519 -0.0506185 -0.195817 -0.339466 -0.326636 -0.587203 0.146559 0.0195686 -1.35654 -1.57055 0.0882526
internal_weight=0 2040 25386 19378 12332 4675 4471 7657 7046 6008 1598 1140 4320 7020 5557 214 194 174 2100 5343 3302 458 133 4253 1539 6948 4410 273 253 1388
internal_count=27426 2040 25386 19378 12332 4675 4471 7657 7046 6008 1598 1140 4320 7020 5557 214 194 174 2100 5343 3302 458 133 4253 1539 6948 4410 273 253 1388
is_linear=0
shrinkage=0.1


Tree=55
num_leaves=31
num_cat=0
split_feature=3 2 0 0 2 11 1 2 8 0 2 2 2 2 2 8 2 2 2 2 2 4 2 2 1 4 2 6 2 2
split_gain=25206.1 27950.8 25001.1 26362.7 43432.6 38157.5 32117.5 29919.2 28259.6 50061.5 59775.1 117303 51982 50004.2 50278.4 90251.8 49771.2 42894.5 36849.6 34345.2 31831.5 28621.6 35757.7 26498.8 25876.7 25669.3 32959.1 24156.3 23903.6 31766.1
threshold=2.5000000000000004 8.2119527516493402 2726.5000000000005 2263.0000000000005 14.217431932097645 1.0000000180025095e-35 166101.00000000003 14.384555310000369 71.261904000000015 1756.5000000000002 14.551792934264737 10.466861190835731 18.055788322938849 14.217431932097645 8.5463133228274444 62.958333000000003 7.6312448478793771 14.217432002575164 12.053048408706305 8.2119527516493402 14.721655712234933 3.5000000000000004 14.636724334752968 11.886039350374089 14678.000000000002 1.0000000180025095e-35 14.217432163543796 10.500000000000002 13.801107811053509 13.886039253228642
decision_type=2 2 2 2 2 2 2 2 2 2 2 2 2 2 2 2 2 2 2 2 2 2 2 2 2 2 2 2 2 2
left_child=1 -1 3 5 28 8 27 -8 13 12 11 24 -10 14 15 16 -2 -15 23 -17 21 22 -12 -13 -11 26 -19 -6 -5 -30
right_child=2 -3 -4 4 6 -7 7 -9 9 10 20 18 -14 17 -16 19 -18 25 -20 -21 -22 -23 -24 -25 -26 -27 -28 -29 29 -31
leaf_value=0.99542366943011684 0.24793811986175865 -2.6376179233193398 -0.64889306583361872 0.26015354671887769 -0.27738011151290776 0.89892222657299681 3.8515547958287328 1.0158801545440737 -3.0039549492299558 1.5629224351419018 0.96074966012306939 -2.2079044971132524 -0.58209272799221612 3.2770176209387234 -0.10276829179930157 0.98803449169598268 -1.7731925545384488 -2.2915432161812741 -1.0737375582978237 2.6437700954808312 0.0092079205934622581 -0.68512090366137657 5.079393482889448 -5.9484243191423873 -0.13668898875768884 1.053601540366208 0.33742766948756969 2.9118295502662659 -3.8941098783036758 -0.357023207207813
leaf_weight=30 649 72 571 2592 114 447 77 72 108 94 53 193 494 61 6742 402 150 52 693 182 10187 38 35 21 1905 554 575 30 29 204
leaf_count=30 649 72 571 2592 114 447 77 72 108 94 53 193 494 61 6742 402 150 52 693 182 10187 38 35 21 1905 554 575 30 29 204
internal_value=0 -1.56908 0.00585733 0.0198319 0.293137 -0.0162234 1.45204 2.4813 -0.0338648 -0.124748 -0.0841331 -0.484728 -1.01658 0.100233 0.00989848 0.559139 -0.131498 0.691187 -1.42794 1.50403 0.0287467 1.60844 2.59885 -2.57496 -0.0567673 0.557626 0.119395 0.387039 0.17294 -0.797261
internal_weight=0 102 27324 26753 3118 23635 293 149 23188 13821 13219 2906 602 9367 8125 1383 799 1242 907 584 10313 126 88 214 1999 1181 627 144 2825 233
internal_count=27426 102 27324 26753 3118 23635 293 149 23188 13821 13219 2906 602 9367 8125 1383 799 1242 907 584 10313 126 88 214 1999 1181 627 144 2825 233
is_linear=0
shrinkage=0.1


Tree=56
num_leaves=31
num_cat=0
split_feature=3 3 8 8 0 2 2 2 2 2 2 4 2 1 2 2 2 11 2 2 2 4 2 6 6 2 1 6 2 1
split_gain=23485.4 21481.3 20209.5 26435.5 36068.1 35018.4 26888.9 42200.1 32836.3 62279.1 29524.9 26159.1 49864.8 37461.3 21973.2 21827.5 20699.9 18535 23823.9 23526 20597 19333.2 42730.8 31640.3 24398.3 21702.8 18851.9 21304.1 26892.5 27723.7
threshold=5.5000000000000009 3.5000000000000004 58.249999500000008 71.261904000000015 1756.5000000000002 18.055788322938849 14.217431932097645 14.217432002575164 8.5463133228274444 8.2119527516493402 7.6312448478793771 1.0000000180025095e-35 9.7983681816200612 70304.000000000015 10.381815680770794 14.132500521688064 14.053048602079505 1.0000000180025095e-35 1.0000000180025095e-35 6.1270212311059717 3.713436701193165 1.0000000180025095e-35 6.4641215585554699 9.5000000000000018 3.5000000000000004 24.809327049402182 38503.000000000007 4.5000000000000009 21.058527836621362 382001.50000000006
decision_type=2 2 2 2 2 2 2 2 2 2 2 2 2 2 2 2 2 2 2 2 2 2 2 2 2 2 2 2 2 2
left_child=1 -1 -3 6 5 -5 8 -8 9 10 -4 12 -10 -13 -15 16 -14 18 -6 -19 -20 22 -22 24 -23 26 -24 28 29 -28
right_child=-2 2 3 4 17 -7 7 -9 11 -11 -12 13 15 14 -16 -17 -18 19 20 -21 21 23 25 -25 -26 -27 27 -29 -30 -31
leaf_value=-0.55110134655599208 1.1449208180639852 -0.28151732291079884 0.44209081445840365 -2.4877854102589554 -2.7706091981381178 -0.44668006177021591 4.168890992619775 0.53924347901692948 -0.91550645034195799 2.3143615763868604 -1.412330994453836 -1.5690675624491028 0.40837741139617806 0.38462354084414008 -0.33699596989912606 -2.8751972055435182 3.3043050279617314 1.7583026094763889 1.6845852372654972 0.19953124433832997 -4.2669456766493132 -0.027801343504546119 0.92090363050081647 0.18199964848755226 -0.55801492639288908 -1.6125522744961274 0.26166561278650602 -0.063158722042121918 2.0636357552291438 -1.948264274103888
leaf_weight=708 178 2224 991 103 32 457 33 1092 330 175 94 198 1945 593 1463 20 25 102 69 1908 23 1388 249 1524 2316 78 2670 6299 81 58
leaf_count=708 178 2224 991 103 32 457 33 1092 330 175 94 198 1945 593 1463 20 25 102 69 1908 23 1388 249 1524 2316 78 2670 6299 81 58
internal_value=0 -0.0074793 0.00702275 0.0334133 -0.032608 -0.822098 0.198082 0.645713 0.111763 0.563783 0.281431 -0.0127543 0.222966 -0.255377 -0.128863 0.411758 0.445128 -0.00628697 -0.0450162 0.278633 -0.0391051 -0.0472036 0.0381002 -0.201527 -0.359328 0.0485948 0.0624421 0.0389729 0.267997 0.21468
internal_weight=0 27248 26540 24316 17357 560 6959 1125 5834 1260 1085 4574 2320 2254 2056 1990 1970 16797 14787 2010 14755 14686 9458 5228 3704 9435 9357 9108 2809 2728
internal_count=27426 27248 26540 24316 17357 560 6959 1125 5834 1260 1085 4574 2320 2254 2056 1990 1970 16797 14787 2010 14755 14686 9458 5228 3704 9435 9357 9108 2809 2728
is_linear=0
shrinkage=0.1


Tree=57
num_leaves=31
num_cat=0
split_feature=2 8 6 6 2 2 4 4 4 4 1 6 2 2 1 2 0 2 2 2 2 1 2 2 1 1 2 4 0 2
split_gain=21185.7 20087 20886.2 37017.8 19315 16909.4 15906 15619.9 22564.9 15605 23165.9 22677.3 32233.9 22400.1 26312.9 25338.1 20710 18163.3 15847.4 21805.1 18514 15169.7 15284.7 38062.4 18166.7 15283.4 14687.6 18681.7 15496.7 14742.9
threshold=20.0585278870949 58.249999500000008 9.5000000000000018 4.5000000000000009 1.0000000180025095e-35 8.5463133228274444 7.5000000000000009 1.0000000180025095e-35 4.5000000000000009 1.0000000180025095e-35 44220.500000000007 7.5000000000000009 7.2119527352659629 7.6312448478793771 80812.500000000015 14.803847646761618 1992.5000000000002 18.30510319022876 17.636724343307144 18.220171760026293 8.9654914915905461 476144.00000000006 10.633984675926149 13.466861198289314 183811.50000000003 26140.000000000004 20.135240272689973 2.5000000000000004 1992.5000000000002 23.061267622958475
decision_type=2 2 2 2 2 2 2 2 2 2 2 2 2 2 2 2 2 2 2 2 2 2 2 2 2 2 2 2 2 2
left_child=1 5 3 7 -4 -1 -6 21 -9 10 -5 12 -12 -11 15 16 -15 -16 20 -20 -13 22 24 25 -3 -24 28 29 -2 -28
right_child=26 2 4 9 6 -7 -8 8 -10 13 11 18 -14 14 17 -17 -18 -19 19 -21 -22 -23 23 -25 -26 -27 27 -29 -30 -31
leaf_value=-1.9633810415602568 -0.62747108029647614 -0.066401620586790014 -2.4193590067327024 0.65575761228267648 0.14946649684310362 -0.21887180796210137 0.5999257844582756 -0.40667661482072853 0.1580994293223601 0.15938365680141373 -3.7653749129988934 0.95413783370620675 0.07429372892158248 -1.2415964288090517 -0.2668067905045261 1.2703590604566761 -3.5269453606353363 -1.3168136703951117 1.0350810192897917 -0.35929554936091107 -0.70116004277841748 -2.2081877134740355 3.5400139371554058 0.22086667132211737 -3.1380039882659911 0.97069261645542759 -0.020712222234961483 -1.3758935354006807 -3.1744853489928779 -0.94471658814716819
leaf_weight=57 71 517 28 448 5580 2203 912 961 2681 846 22 72 3531 167 2576 31 52 176 160 375 1098 24 24 2605 20 655 1156 139 36 203
leaf_count=57 71 517 28 448 5580 2203 912 961 2681 846 22 72 3531 167 2576 31 52 176 160 375 1098 24 24 2605 20 655 1156 139 36 203
internal_value=0 0.0219125 0.0492292 -0.0090091 0.201444 -0.26287 0.212747 0.157484 0.00907423 -0.139482 -0.0345297 -0.0933446 0.0505187 -0.29511 -0.423191 -1.40547 -1.78424 -0.333958 -0.393137 0.0577143 -0.599296 0.298059 0.313801 0.394678 -0.1808 1.06151 -0.352525 -0.271676 -1.48441 -0.158735
internal_weight=0 25821 23561 17041 6520 2260 6492 7487 3642 9554 5706 5258 3553 3848 3002 250 219 2752 1705 535 1170 3845 3821 3284 537 679 1605 1498 107 1359
internal_count=27426 25821 23561 17041 6520 2260 6492 7487 3642 9554 5706 5258 3553 3848 3002 250 219 2752 1705 535 1170 3845 3821 3284 537 679 1605 1498 107 1359
is_linear=0
shrinkage=0.1


Tree=58
num_leaves=31
num_cat=0
split_feature=0 7 3 1 7 7 8 10 2 1 2 2 1 1 3 6 0 8 2 2 1 6 1 8 1 1 7 8 2 2
split_gain=19170.1 19605.7 15892.5 14575.3 13812.5 29808.6 20382.7 16448.8 18195.7 34429.5 24996.2 15229.5 17326.6 15174.9 15114.3 22701.8 15009.8 22000 26135.6 22123.2 15645 14780.5 16948.7 18077.5 13401.5 23297.9 12845.3 14743.3 37389.9 25113.6
threshold=2726.5000000000005 4.5000000000000009 2.5000000000000004 8095.0000000000009 3.5000000000000004 1.5000000000000002 109.60003963333334 1.0000000180025095e-35 15.888779117351705 123906.00000000001 15.469600909866509 20.220171779281831 136331.00000000003 257681.00000000003 3.5000000000000004 5.5000000000000009 1797.5000000000002 72.65011893333336 13.466861406196623 14.469600940678431 107303.50000000001 2.5000000000000004 382001.50000000006 109.60003963333334 59807.500000000007 32121.500000000004 5.5000000000000009 107.53333300000001 15.888779117351705 15.384555342817711
decision_type=2 2 2 2 2 2 2 2 2 2 2 2 2 2 2 2 2 2 2 2 2 2 2 2 2 2 2 2 2 2
left_child=1 4 -3 -4 5 21 -7 8 10 -10 16 12 -11 -13 15 -9 17 18 -6 -19 -21 -1 -23 -24 25 -18 -5 -28 29 -29
right_child=-2 2 3 26 7 6 -8 14 9 11 -12 13 -14 -15 -16 -17 24 19 -20 20 -22 22 23 -25 -26 -27 27 28 -30 -31
leaf_value=0.37197577131388965 -0.57233395363166806 -2.1113756434991955 1.7153509453592595 0.23421142834351946 -0.49054089957989977 0.15734093266858118 1.0452333424883566 -0.20465639024972915 0.71463382528779518 -0.79488733772685138 -1.4138419186367708 -0.23143742556320995 0.12088505381889286 -1.4064508677883583 -0.34262815784045891 -4.3309570153554287 0.58314567256805505 -2.7609411252576574 0.45855896014500808 0.73359722626411317 -1.1037933559286306 -0.27997829630452192 -2.3215471631073092 0.41614214918192699 0.18003084395751687 -1.0844421836496896 -0.098225873764463942 0.4471955139674485 -0.18393957419102991 1.8328179097728263
leaf_weight=324 573 32 57 4836 959 3695 278 30 703 225 170 475 2527 143 1956 24 129 65 416 59 216 1631 83 34 1366 239 3980 938 1111 152
leaf_count=324 573 32 57 4836 959 3695 278 30 703 225 170 475 2527 143 1956 24 129 65 416 59 216 1631 83 34 1366 239 3980 938 1111 152
internal_value=0 0.0122127 0.113958 0.120389 -0.0595461 0.0591043 0.219469 -0.133473 -0.0669129 0.0780651 -0.230078 -0.0547265 0.0460127 -0.503326 -0.388191 -2.03857 -0.171731 -0.381496 -0.203395 -1.10176 -0.70959 -0.24839 -0.363378 -1.52598 0.035736 -0.49988 0.112137 0.0166254 0.224308 0.64042
internal_weight=0 26853 11106 11074 15747 6045 3973 9702 7692 4073 3619 3370 2752 618 2010 54 3449 1715 1375 340 275 2072 1748 117 1734 368 11017 6181 2201 1090
internal_count=27426 26853 11106 11074 15747 6045 3973 9702 7692 4073 3619 3370 2752 618 2010 54 3449 1715 1375 340 275 2072 1748 117 1734 368 11017 6181 2201 1090
is_linear=0
shrinkage=0.1


Tree=59
num_leaves=31
num_cat=0
split_feature=4 4 4 1 0 2 2 2 1 2 8 0 6 2 0 2 2 2 1 2 2 6 2 1 2 2 1 2 2 1
split_gain=17784.9 36014.3 28650.1 19902.9 25095 31751.8 26467.1 22378.6 19942.1 18701.8 22991.1 20960.6 18133.3 25668.1 22346.7 21843.6 30650.2 22612.5 27465.4 20437.8 34261.1 23916.4 45037.2 23352 22562.4 42934.9 25736.1 22497.6 22398.9 31974
threshold=7.5000000000000009 1.0000000180025095e-35 3.5000000000000004 72401.000000000015 1756.5000000000002 7.798368263901204 9.0886649770041981 6.7161764293831849 123906.00000000001 18.387295049390378 109.60003963333334 2263.0000000000005 5.5000000000000009 9.7983681816200612 1799.0000000000002 14.217432002575164 14.217431932097645 14.384555445129317 102456.00000000001 18.30510319022876 13.968231261337571 10.500000000000002 13.801107811053509 283673.50000000006 15.80384752441468 15.721655897678408 287610.00000000006 13.381815532659425 13.381815532659425 134119.00000000003
decision_type=2 2 2 2 2 2 2 2 2 2 2 2 2 2 2 2 2 2 2 2 2 2 2 2 2 2 2 2 2 2
left_child=1 3 -3 9 -5 7 8 -6 -7 10 -1 -12 13 -8 -14 16 -15 -17 -19 20 21 28 27 -21 25 26 -22 -23 -16 -30
right_child=-2 2 -4 4 5 6 12 -9 -10 -11 11 -13 14 15 19 17 -18 18 -20 23 24 22 -24 -25 -26 -27 -28 -29 29 -31
leaf_value=0.27248364910360595 0.21807396862619371 -1.1599980962556482 -0.16159383876984221 -0.33286143545957814 0.30759880041534249 0.81908671190072835 -1.8330740069349607 -3.7000468517604626 3.7249366074552137 -1.3203044709989005 2.3860202449063461 -0.5354703099890189 0.12099847045663781 0.58332596499115519 -0.65767113039611091 -1.6256882713900673 4.2039377907911932 1.1744272950542978 0.079851906194473146 -0.44709144373963539 0.34659296928143712 0.43753694957958722 -3.9564957835457544 -1.9375143687256047 -0.10081994125567446 4.3080379217863083 3.5825908284920915 3.9103321802048456 -4.3407068077908013 -0.54772734071897433
leaf_weight=2731 3291 298 8094 1870 22 111 60 38 30 70 96 33 3605 907 497 72 24 249 2889 760 449 167 22 122 751 32 26 21 43 46
leaf_count=2731 3291 298 8094 1870 22 111 60 38 30 70 96 33 3605 907 497 72 24 249 2889 760 449 167 22 122 751 32 26 21 43 46
internal_value=0 -0.0297361 -0.197047 0.0594511 0.00568326 0.0635356 0.0761835 -2.23058 1.43735 0.29458 0.334105 1.63866 0.0583167 0.220438 -0.045807 0.250192 0.676661 0.126503 0.166706 -0.250621 -0.0777296 -0.591163 0.324489 -0.65325 0.247146 0.762574 0.523721 0.825456 -0.919298 -2.38029
internal_weight=0 24135 8392 15743 12813 10943 10883 60 141 2930 2860 129 10742 4201 6541 4141 931 3210 3138 2936 2054 796 210 882 1258 507 475 188 586 89
internal_count=27426 24135 8392 15743 12813 10943 10883 60 141 2930 2860 129 10742 4201 6541 4141 931 3210 3138 2936 2054 796 210 882 1258 507 475 188 586 89
is_linear=0
shrinkage=0.1


Tree=60
num_leaves=31
num_cat=0
split_feature=3 1 3 1 6 0 0 2 11 2 2 4 8 8 2 2 0 2 2 2 8 2 2 2 1 2 4 2 2 4
split_gain=16673.8 17414.3 16169.7 23737.1 16922.2 15248.2 18792.4 36641.4 26979.5 20988.4 50288.7 20712.7 18929.3 16335.6 44980 86559.5 37943.9 36711.8 36255.1 32543.9 31950.5 49913.4 28154.4 26191.2 25545.2 24673 21200.7 28508.8 21190.7 20437.7
threshold=5.5000000000000009 99694.000000000015 2.5000000000000004 162301.50000000003 5.5000000000000009 2726.5000000000005 2263.0000000000005 14.217432089598018 1.0000000180025095e-35 14.217432002575164 14.217431932097645 7.5000000000000009 107.38750000000002 71.261904000000015 14.551792934264737 10.466861190835731 1756.5000000000002 14.217431932097645 17.888779068679259 12.053048408706305 69.19642850000001 8.5463133228274444 14.217432002575164 8.2119527516493402 230878.00000000003 14.721655712234933 3.5000000000000004 14.636724334752968 11.886039350374089 1.0000000180025095e-35
decision_type=2 2 2 2 2 2 2 2 2 2 2 2 2 2 2 2 2 2 2 2 2 2 2 2 2 2 2 2 2 2
left_child=2 -2 3 4 -1 6 8 9 13 10 12 -9 -8 17 15 -15 18 20 -16 28 24 23 -19 -22 -4 26 27 -18 -17 -24
right_child=1 -3 5 -5 -6 -7 7 11 -10 -11 -12 -13 -14 14 16 19 25 22 -20 -21 21 -23 29 -25 -26 -27 -28 -29 -30 -31
leaf_value=-2.2748467549681664 0.56488105944948264 3.4116164942979816 -0.11274161568154012 -4.2590481257154833 0.68178539481394151 -0.5133367128735572 -0.04889242146926015 1.1791924307085386 0.74912269974102363 -2.158223636333759 3.944627223014832 4.5551653802394867 0.50495777339939751 -0.08237591637773678 -2.5683954771064847 -2.0137539468956578 0.81270677430449789 2.6674247866771261 -0.44668110031783581 -0.9319175240102 0.62030852566885508 0.06373597933136109 0.073243856695339546 2.1365568010644482 -1.0651461020608743 0.014996946033712941 -0.55099064425418254 4.4902599225725446 -5.3587128207797097 0.90683320209733642
leaf_weight=32 153 25 4597 21 49 570 1904 199 446 39 35 20 913 1950 96 193 53 61 500 696 323 2616 627 176 300 10184 38 35 21 554
leaf_count=32 153 25 4597 21 49 570 1904 199 446 39 35 20 913 1950 96 193 53 61 500 696 323 2616 627 176 300 10184 38 35 21 554
internal_value=0 0.964703 -0.00630201 -1.26302 -0.486267 -0.00157996 0.00939616 0.240382 -0.0212169 0.14591 0.177418 1.4875 0.130612 -0.0361419 -0.10521 -0.458194 -0.0126428 0.0666017 -0.788434 -1.26352 -0.0118185 0.238564 0.572482 1.1551 -0.171088 0.0322041 1.42298 2.27537 -2.342 0.464276
internal_weight=0 178 27248 102 81 27146 26576 3110 23466 2891 2852 219 2817 23020 13766 2860 10906 9254 596 910 8012 3115 1242 499 4897 10310 126 88 214 1181
internal_count=27426 178 27248 102 81 27146 26576 3110 23466 2891 2852 219 2817 23020 13766 2860 10906 9254 596 910 8012 3115 1242 499 4897 10310 126 88 214 1181
is_linear=0
shrinkage=0.1


Tree=61
num_leaves=31
num_cat=0
split_feature=7 2 7 8 2 6 2 2 2 0 1 1 3 1 6 2 2 1 1 2 6 6 2 1 2 1 0 0 8 2
split_gain=15292.7 14829.9 13044.2 15097.6 25866.6 20430.6 14418 13882.5 15965.4 13768 13532.4 13474.2 16855.2 13190.5 12817.2 19657.9 14158.2 29614.5 10237.4 9802.68 22472.6 16673.3 19117.9 15853.9 37468.4 22372.7 15591 13061.4 12036.2 12284.5
threshold=4.5000000000000009 23.061267622958475 5.5000000000000009 107.53333300000001 15.888779117351705 1.5000000000000002 16.469601019168781 15.384555342817711 15.217432200589348 2996.5000000000005 343597.00000000006 99694.000000000015 4.5000000000000009 23896.500000000004 10.500000000000002 5.2092129443060671 10.801107975961981 168653.50000000003 153970.50000000003 18.055788322938849 3.5000000000000004 1.5000000000000002 19.387295046844521 184891.00000000003 20.220171779281831 171314.00000000003 1785.0000000000002 2263.0000000000005 107.38750000000002 14.217431932097645
decision_type=2 2 2 2 2 2 2 2 2 2 2 2 2 2 2 2 2 2 2 2 2 2 2 2 2 2 2 2 2 2
left_child=-1 2 -2 9 7 6 -6 8 10 19 13 12 -7 -5 15 -15 -16 -18 -8 27 21 -21 -23 24 25 -22 -25 -4 29 -29
right_child=1 -3 3 4 5 11 18 -9 -10 -11 -12 -13 -14 14 16 -17 17 -19 -20 20 23 22 -24 26 -26 -27 -28 28 -30 -31
leaf_value=-0.063093284040056485 0.22035209979709452 -1.3950080684539099 -0.28094795726644639 2.9170281779766083 -1.1910156284059796 2.4218544643099715 3.5942821502685547 1.32577029885774 -2.2770883194424889 -2.2489812775452935 2.406963510022444 -0.34000730565576642 -0.48208172840949814 2.36692755971406 0.30504930777064826 0.00015413850195782476 3.4642127215018812 -0.31702639443032887 1.1169778892527455 1.5082663969560104 1.724001567136674 -0.26528046727180482 -3.4776500690728427 -1.0033317816257477 -2.8590807820811417 -1.9975283855199812 2.0088887504866864 -0.10263437383944096 0.83965384380853902 1.462499840754383
leaf_weight=16002 4891 67 2447 20 21 41 22 187 22 30 34 1053 39 37 118 681 53 34 69 22 84 44 32 20 33 20 122 932 196 53
leaf_count=16002 4891 67 2447 20 21 41 22 187 22 30 34 1053 39 37 118 681 53 34 69 22 84 44 32 20 33 20 122 932 196 53
internal_value=0 0.088377 0.0971281 0.00391929 0.200783 -0.117589 1.17084 0.534993 0.38697 -0.114687 0.446959 -0.244954 1.00619 0.376291 0.321237 0.122119 1.01864 1.98649 1.71589 -0.0986996 0.386627 -0.916074 -1.61786 0.844207 0.0767584 1.00832 1.58463 -0.149132 0.123988 -0.018419
internal_weight=0 11424 11357 6466 2431 1245 112 1186 999 4035 977 1133 80 943 923 718 205 87 91 4005 377 98 76 279 137 104 142 3628 1181 985
internal_count=27426 11424 11357 6466 2431 1245 112 1186 999 4035 977 1133 80 943 923 718 205 87 91 4005 377 98 76 279 137 104 142 3628 1181 985
is_linear=0
shrinkage=0.1


Tree=62
num_leaves=31
num_cat=0
split_feature=6 6 4 6 4 2 3 1 2 1 2 2 2 1 1 6 6 2 1 3 6 1 3 1 8 2 8 2 8 7
split_gain=14574.3 31672.6 29481.8 22203.1 21916.6 20851.5 18855.7 23635.4 20070.3 26994.6 23321.5 22969.5 18234.7 17569.5 16430.4 15686 15360.1 14202.1 13615.3 13478.4 13332.4 13750 13040.5 12748.8 17051 18379.8 13054.9 18443.4 12665.4 28293.8
threshold=9.5000000000000018 7.5000000000000009 1.0000000180025095e-35 8.5000000000000018 4.5000000000000009 10.21469248208936 4.5000000000000009 177158.50000000003 7.4641216448607572 23896.500000000004 12.381815600543819 12.466861404626991 20.220171779281831 52863.500000000007 274454.50000000006 4.5000000000000009 11.500000000000002 12.466861256192209 401850.00000000006 4.5000000000000009 6.5000000000000009 260217.00000000003 5.5000000000000009 277201.00000000006 97.499999500000015 18.220171687770605 107.53333300000001 15.636724168662615 70.380952000000022 1.5000000000000002
decision_type=2 2 2 2 2 2 2 2 2 2 2 2 2 2 2 2 2 2 2 2 2 2 2 2 2 2 2 2 2 2
left_child=1 2 6 5 12 19 8 22 13 -10 28 17 18 -1 -9 -6 23 -12 -4 -3 21 -17 -8 -2 -25 26 -26 -28 -11 -30
right_child=16 3 4 -5 15 -7 7 14 9 10 11 -13 -14 -15 -16 20 -18 -19 -20 -21 -22 -23 -24 24 25 -27 27 -29 29 -31
leaf_value=-0.24296027473781423 0.27580632896389518 1.2719959240068091 -0.36218388422163711 -0.044907269041610201 0.11241867702923124 -0.72538149558083242 0.21604093334164101 1.4886931366418019 -3.6274720895290375 1.0481020732824609 -0.75741731503914145 0.0038671801541487307 -2.529838699102402 -4.2955706518888475 -0.99238110621770215 -0.32750064193366746 -0.059625435493833645 -4.221281114220619 -2.7128991231918338 -0.19523857423841065 0.096383314230449643 -1.4943811056810783 1.9127077539329944 0.19378779983259942 -2.5287736347743444 -3.0913909104093911 2.8076130533218384 -1.0634672820568085 -3.2139067110808002 0.43082816774646449
leaf_weight=23 4313 77 1707 1609 2972 1480 2978 242 20 334 29 5289 41 20 30 1373 2962 20 25 335 785 109 46 183 21 40 20 32 23 288
leaf_count=23 4313 77 1707 1609 2972 1480 2978 242 20 334 29 5289 41 20 30 1373 2962 20 25 335 785 109 46 183 21 40 20 32 23 288
internal_value=0 -0.0450147 0.0134227 -0.31799 -0.141553 -0.550225 0.129746 0.322162 0.0248493 0.0402695 0.0525301 -0.0160991 -0.445456 -2.1279 1.21505 -0.0387052 0.118051 -2.17124 -0.396115 0.0789776 -0.236826 -0.413324 0.24185 0.232236 -0.40262 -1.36848 -0.424424 0.42541 0.620503 0.161282
internal_weight=0 19855 16354 3501 7012 1892 9342 3296 6046 6003 5983 5338 1773 43 272 5239 7571 49 1732 412 2267 1482 3024 4609 296 113 73 52 645 311
internal_count=27426 19855 16354 3501 7012 1892 9342 3296 6046 6003 5983 5338 1773 43 272 5239 7571 49 1732 412 2267 1482 3024 4609 296 113 73 52 645 311
is_linear=0
shrinkage=0.1


Tree=63
num_leaves=31
num_cat=0
split_feature=3 6 9 7 1 1 0 6 1 3 2 7 8 6 2 2 1 2 6 2 1 2 1 1 1 2 2 1 1 2
split_gain=12805.6 12993.2 28731.5 12691.1 11562.9 18990.4 21911.1 20608.6 19749.5 22117.9 10213.4 9910.95 12917.2 21347.2 19337.1 21984 17888.6 15103.1 14768.8 18938.9 34177.8 14292.4 13931.5 19438.7 20086.6 12040.7 16804.2 15543 11714.7 11646.3
threshold=3.5000000000000004 1.5000000000000002 1.0000000180025095e-35 4.5000000000000009 30322.000000000004 120905.00000000001 1797.5000000000002 5.5000000000000009 134991.00000000003 2.5000000000000004 23.061267622958475 5.5000000000000009 107.53333300000001 3.5000000000000004 19.806587244436397 18.724395419910739 335267.50000000006 15.803847657335021 8.5000000000000018 10.801107975961981 160614.00000000003 19.058527838769898 152246.00000000003 132501.00000000003 124703.50000000001 14.469601081753671 5.7134366480570717 94137.500000000015 382001.50000000006 16.217431962237601
decision_type=2 2 2 2 2 2 2 2 2 2 2 2 2 2 2 2 2 2 2 2 2 2 2 2 2 2 2 2 2 2
left_child=1 2 -1 -2 -3 6 -6 -8 -7 -10 11 28 -13 14 15 16 25 18 -15 -20 -21 -17 23 24 -19 26 -14 -27 -5 -29
right_child=3 4 -4 10 5 8 7 -9 9 -11 -12 12 13 17 -16 21 -18 22 19 20 -22 -23 -24 -25 -26 27 -28 29 -30 -31
leaf_value=-1.4239248665896329 -0.047338305849924572 1.7966445291042328 2.4794571177525953 0.22222640655373049 -3.7499242938481845 2.6094723684447154 -3.2592689024453811 0.48924268836324869 -3.5495189614917919 -0.37222259501358135 -1.1980491871716548 -0.093898428509102141 2.6965708380937579 -0.035387999586941256 3.2495660255695213 -3.1653596291487869 3.5642419649207073 0.28455729102776722 0.095272227498341577 2.7090830577129412 0.037214992534030565 -0.087353250384330755 -0.51616775095462797 1.5425501412815519 -2.2322889619320629 3.3214351490139964 -0.40936645287054563 1.6983898046016694 -1.455208562562863 0.33383576698645862
leaf_weight=33 15538 20 44 4768 39 21 22 44 23 462 61 3941 20 496 29 22 23 153 196 105 88 48 628 90 40 28 135 100 42 167
leaf_count=33 15538 20 44 4768 39 21 22 44 23 462 61 3941 20 496 29 22 23 153 196 105 88 48 628 90 40 28 135 100 42 167
internal_value=0 -0.419762 0.806579 0.0111233 -0.569411 -0.646859 -1.87071 -0.760261 -0.392899 -0.522899 0.0923734 0.0994528 0.0170167 0.20161 0.733638 0.59927 0.844047 0.0321667 0.326384 0.787666 1.49082 -1.05473 -0.253653 0.328888 -0.237069 0.705015 -0.00860035 1.07997 0.207579 0.844905
internal_weight=0 708 77 26718 631 611 105 66 506 485 11180 11119 6309 2368 572 543 473 1796 885 389 193 70 911 283 193 450 155 295 4810 267
internal_count=27426 708 77 26718 631 611 105 66 506 485 11180 11119 6309 2368 572 543 473 1796 885 389 193 70 911 283 193 450 155 295 4810 267
is_linear=0
shrinkage=0.1


Tree=64
num_leaves=31
num_cat=0
split_feature=8 8 0 2 1 2 2 2 2 2 1 4 2 1 2 1 2 2 2 2 2 2 7 6 11 2 2 2 2 2
split_gain=12453.5 17198.1 29254.2 30848.1 19555.7 19522.5 26396 22838.9 40073.8 21384.4 23655.5 16651.2 48013.8 31713.3 28936 27340.3 24457.6 18996.9 16896.1 14830.2 18769.9 14984.9 13209.3 17057.5 12700.8 15893.6 19249.2 15666.7 14182.2 39318.3
threshold=58.249999500000008 71.261904000000015 1653.5000000000002 18.055788322938849 219230.50000000003 14.217431932097645 14.217432002575164 8.5463133228274444 8.2119527516493402 7.6312448478793771 165007.50000000003 1.0000000180025095e-35 9.5463133949422865 55367.000000000007 8.8832996269561288 28188.500000000004 14.132500521688064 14.053048602079505 10.381815680770794 9.7983681816200612 12.299623792800263 14.217432089598018 3.5000000000000004 5.5000000000000009 1.0000000180025095e-35 1.0000000180025095e-35 3.713436701193165 9.2968841625024119 13.968231261337571 13.466861198289314
decision_type=2 2 2 2 2 2 2 2 2 2 2 2 2 2 2 2 2 2 2 2 2 2 2 2 2 2 2 2 2 2
left_child=19 5 3 4 -3 7 -7 8 9 10 -2 12 14 -13 -9 -16 17 -14 -15 -1 -21 -22 -17 -24 25 -4 -27 -26 29 -28
right_child=1 2 24 -5 -6 6 -8 11 -10 -11 -12 13 16 18 15 22 -18 -19 -20 20 21 -23 23 -25 27 26 28 -29 -30 -31
leaf_value=-0.82942028706351856 0.27087052301925568 -1.3941167409543869 -2.2656125009059909 -0.38258326742007881 -4.3686748370047539 3.3171136148048173 0.44720392594806357 0.53683109290591657 1.8003021147993596 -1.1984501786453208 3.0743657550504135 -1.9417910963155365 0.31591949470472203 0.29998531911409443 -4.6950425837721141 0.14289657824569277 -3.0020721673965456 3.0358487275930552 -0.31458997918873832 0.29481564016951778 -0.42116076873216129 1.5012857615947723 -3.5332215660810471 -0.92356956552213709 0.63058891391118799 1.5853119524374399 -0.11695820119891143 0.036317166103578845 0.011851336266548149 -1.3207929211630787
leaf_weight=344 1034 77 32 495 31 33 1111 73 187 97 31 102 2076 628 28 45 22 26 1555 703 1171 42 40 67 652 73 3378 1388 11590 295
leaf_count=344 1034 77 32 495 31 33 1111 73 187 97 31 102 2076 628 28 45 22 26 1555 703 1171 42 40 67 652 73 3378 1388 11590 295
internal_value=0 0.0201935 -0.0319103 -0.716674 -2.24793 0.151352 0.52999 0.079291 0.441655 0.223008 0.352475 -0.0255629 0.159733 -0.218319 -1.14249 -1.82355 0.314847 0.349563 -0.13779 -0.224863 -0.11632 -0.354596 -1.29459 -1.89914 -0.00819057 -0.0393111 -0.0346658 0.226251 -0.0424138 -0.213645
internal_weight=0 25166 18011 603 108 7155 1144 6011 1349 1162 1065 4662 2377 2285 253 180 2124 2102 2183 2260 1916 1213 152 107 17408 15368 15336 2040 15263 3673
internal_count=27426 25166 18011 603 108 7155 1144 6011 1349 1162 1065 4662 2377 2285 253 180 2124 2102 2183 2260 1916 1213 152 107 17408 15368 15336 2040 15263 3673
is_linear=0
shrinkage=0.1


Tree=65
num_leaves=31
num_cat=0
split_feature=0 0 2 2 7 8 11 1 8 6 2 1 8 2 2 0 2 2 2 8 2 1 2 2 2 1 4 2 1 2
split_gain=12145.8 15457.7 27608.3 20167.1 18929.4 17825.2 17186 15812 13201.5 13310.7 13067.3 12066.6 11313.3 31061.1 69346.3 25320.1 25497.8 25216.8 24936.5 23613.6 30504.8 21051.5 19915.8 19854.5 19215.6 33891.4 18931.2 23305.4 18933.6 18884.5
threshold=2726.5000000000005 2263.0000000000005 14.217432089598018 14.384555310000369 2.5000000000000004 106.48277760000002 1.0000000180025095e-35 33771.500000000007 107.38750000000002 3.5000000000000004 12.886039450031749 204115.50000000003 71.261904000000015 14.551792934264737 10.466861190835731 1756.5000000000002 17.888779068679259 14.217431932097645 12.053048408706305 69.19642850000001 8.5463133228274444 14678.000000000002 12.299623792800263 14.217432002575164 9.631244963703109 41364.500000000007 2.5000000000000004 14.132500521688064 55367.000000000007 10.466861428033431
decision_type=2 2 2 2 2 2 2 2 2 2 2 2 2 2 2 2 2 2 2 2 2 2 2 2 2 2 2 2 2 2
left_child=1 6 4 -4 5 -3 12 -6 -9 10 -10 -8 17 14 21 16 -15 19 -16 -1 -21 -14 -20 -19 25 -22 27 29 -28 -26
right_child=-2 2 3 -5 7 -7 11 8 9 -11 -12 -13 13 15 18 -17 -18 23 22 20 24 -23 -24 -25 26 -27 28 -29 -30 -31
leaf_value=-0.14489117120057135 -0.45556646871785222 -0.16826657626939856 2.4723724830895666 0.51502901288389258 1.8824147394961781 -2.8009387273613999 0.74823566394079721 0.0046802405339670698 0.91454216784861675 0.2563705858000726 3.6024904060363769 -1.1366262290928815 1.3967488879803569 -2.1260457977806171 -2.0406159525347309 0.026921950329089225 -0.35500999855330267 2.2337028292358898 0.74214047032433594 0.89323008869973464 -2.1123470780825375 -0.12074660947371284 -0.99278822505950937 0.38365554741268082 0.027853811150317653 -0.10135468520265033 -2.1736370001520431 -2.7018649372187529 -0.0035675897767250679 0.92393266443981781
leaf_weight=4983 573 69 88 131 54 41 414 1870 189 662 20 37 96 97 215 10339 502 61 74 534 99 1915 625 1183 376 546 42 22 941 628
leaf_count=4983 573 69 88 131 54 41 414 1870 189 662 20 37 96 97 215 10339 502 61 74 534 99 1915 625 1183 376 546 42 22 941 628
internal_value=0 0.00972106 0.218824 1.30154 0.137201 -1.14954 -0.017808 0.187842 0.154457 0.476023 1.17176 0.593602 -0.0296538 -0.0871055 -0.376564 -0.00969971 -0.641805 0.0549402 -1.0988 -0.00891666 0.203618 -0.0483053 -0.809119 0.474373 0.0648643 -0.410019 0.217328 0.517799 -0.0962867 0.588349
internal_weight=0 26853 3124 219 2905 110 23729 2795 2741 871 209 451 23278 13863 2925 10938 599 9415 914 8171 3188 2011 699 1244 2654 645 2009 1026 983 1004
internal_count=27426 26853 3124 219 2905 110 23729 2795 2741 871 209 451 23278 13863 2925 10938 599 9415 914 8171 3188 2011 699 1244 2654 645 2009 1026 983 1004
is_linear=0
shrinkage=0.1


Tree=66
num_leaves=31
num_cat=0
split_feature=6 6 4 2 6 1 3 2 2 2 6 6 1 2 6 1 0 11 2 2 2 2 1 2 2 2 2 1 8 7
split_gain=12118.8 25973.3 14633.7 18183.2 17419.8 15042.9 19740.5 20748.3 14534.2 24904.7 14236.7 12755 14313.2 12196.2 12087.3 11175.9 11117.1 10411.7 9908.3 32267 22368.5 14555.6 11927.5 21253.4 22428.6 15832.3 16798.4 16739.4 19771.3 16706.5
threshold=9.5000000000000018 4.5000000000000009 1.0000000180025095e-35 18.30510319022876 7.5000000000000009 79117.000000000015 4.5000000000000009 13.299623815287461 17.551792881060628 18.220171760026293 8.5000000000000018 6.5000000000000009 239481.50000000003 1.0000000180025095e-35 11.500000000000002 476144.00000000006 2362.5000000000005 1.0000000180025095e-35 18.806587243049698 18.724395541713573 18.891518692500075 18.639463939785717 248704.50000000003 18.387294947539335 18.47234063215296 16.888779169740797 17.384555350990386 314184.00000000006 109.60003963333334 5.5000000000000009
decision_type=2 2 2 2 2 2 2 2 2 2 2 2 2 2 2 2 2 2 2 2 2 2 2 2 2 2 2 2 2 2
left_child=1 15 4 11 18 6 -6 17 -7 -10 -9 12 -4 -2 16 -1 -15 -8 19 21 -20 22 23 -3 -25 27 -27 29 -29 -24
right_child=13 2 3 -5 5 8 7 10 9 -11 -12 -13 -14 14 -16 -17 -18 -19 20 -21 -22 -23 25 24 -26 26 -28 28 -30 -31
leaf_value=0.095777410516693751 -1.9755430751613208 0.034142589866722112 -0.32709932039177669 -1.1526830414472069 1.4219731486411322 -0.65962249105931725 -0.0066482983480871116 -3.6464172069843004 0.97593169958698889 -0.41219136875731732 -0.26890382654964923 -0.07467059395455275 -1.1715263087969421 0.24735564085070522 -0.042660274065012466 -1.5393899821099781 -0.57438221105009502 2.0418767522882533 -2.9458814760734295 3.9570041353052314 -0.13079865471317323 -1.4159529701608127 2.8040941084069866 3.1052181020696117 0.15447202063443369 -2.1084525662083782 0.50059557956112322 -1.1566796559927075 2.5866979689825151 -0.016453656128474645
leaf_weight=8699 28 3034 1626 230 105 1031 306 26 172 520 24 2182 229 4424 2948 42 171 27 29 22 1058 61 84 47 57 31 121 43 21 28
leaf_count=8699 28 3034 1626 230 105 1031 306 26 172 520 24 2182 229 4424 2948 42 171 27 29 22 1058 61 84 47 57 31 121 43 21 28
internal_value=0 -0.0410478 -0.14248 -0.287835 -0.0518952 -0.282862 0.20726 -0.125755 -0.421677 -0.0671666 -2.02521 -0.238562 -0.431344 0.107648 0.115381 0.0879205 0.216775 0.159448 0.0582573 0.139165 -0.205902 0.115351 0.142301 0.0823259 1.48798 0.716087 -0.0315129 1.36174 0.0716161 2.09896
internal_weight=0 19855 11114 4267 6847 2211 488 383 1723 692 50 4037 1855 7571 7543 8741 4595 333 4636 3549 1087 3527 3466 3138 104 328 152 176 64 112
internal_count=27426 19855 11114 4267 6847 2211 488 383 1723 692 50 4037 1855 7571 7543 8741 4595 333 4636 3549 1087 3527 3466 3138 104 328 152 176 64 112
is_linear=0
shrinkage=0.1


Tree=67
num_leaves=31
num_cat=0
split_feature=4 4 1 0 2 1 2 1 3 0 0 2 1 6 2 2 6 0 2 3 7 4 6 1 0 2 0 1 2 2
split_gain=11715.9 25028 25543.5 29519 38664.3 21441 18370 16205.7 18060.6 17377 15900.1 15494.7 17691.6 13880.8 17069.5 27682.9 19931 15349.7 29944.2 15186 12766.9 12295.8 11860.2 11831.8 11553.5 32500.6 14926.3 19295.8 11524.3 18992.2
threshold=7.5000000000000009 1.0000000180025095e-35 72401.000000000015 2263.0000000000005 7.7161764651601512 239481.50000000003 5.2092129443060671 51581.000000000007 2.5000000000000004 1992.5000000000002 1797.5000000000002 6.4641215585554699 120144.50000000001 6.5000000000000009 8.0503087296536204 9.2119525736375394 7.5000000000000009 2996.5000000000005 15.469601034619256 4.5000000000000009 1.0000000180025095e-35 4.5000000000000009 11.500000000000002 19772.000000000004 2263.0000000000005 17.888778990853442 2393.5000000000005 214811.50000000003 19.387295046844521 19.973710585790151
decision_type=2 2 2 2 2 2 2 2 2 2 2 2 2 2 2 2 2 2 2 2 2 2 2 2 2 2 2 2 2 2
left_child=1 6 3 21 -5 11 -1 9 10 22 -9 12 -4 24 16 19 -15 20 -19 -16 -17 -3 -8 -11 -10 26 -26 -28 -27 -30
right_child=-2 2 5 4 -6 -7 7 8 13 23 -12 -13 -14 14 15 17 -18 18 -20 -21 -22 -23 -24 -25 25 28 27 -29 29 -31
leaf_value=-2.6056710403699146 0.17699685256404107 -1.0103885934534895 0.24003020562460087 0.77137757193297152 -4.6365891777552095 -0.48103382814392293 0.30517947995077205 -3.7292440227840262 0.080598351197785037 2.7988234926672546 -0.54208517591564032 -0.053581276626442964 2.2132431438991005 -4.2657993960380551 3.4422462973101391 -0.50484457013763462 -0.59671318614692026 -3.4516323373124411 1.0283998794555664 0.81789382281510725 -0.022999563695591939 -0.24936998001838873 -0.61300479825937526 0.81601651753974336 0.45043819152649389 -2.4001691077066507 1.9202882952248026 -1.1322185148795447 1.3972531739870708 -2.5237958011173069
leaf_weight=26 3291 316 163 20 39 1223 1221 23 5891 34 49 5921 63 20 29 602 57 37 25 92 6352 647 159 262 592 46 151 24 30 21
leaf_count=26 3291 316 163 20 39 1223 1221 23 5891 34 49 5921 63 20 29 602 57 37 25 92 6352 647 159 262 592 46 151 24 30 21
internal_value=0 -0.0241349 -0.163611 -0.632118 -2.80338 -0.0986431 0.0502146 0.0546081 0.0195259 0.348516 -1.56021 -0.0225631 0.790085 0.0276682 -0.0687923 -0.0528147 -1.54972 -0.0786787 -1.64517 1.44687 -0.0647123 -0.499092 0.199389 1.04377 0.130683 0.472176 0.690286 1.50166 -1.25247 -0.217296
internal_weight=0 24135 8392 1022 59 7370 15743 15717 14041 1676 72 6147 226 13969 7214 7137 77 7016 62 121 6954 963 1380 296 6755 864 767 175 97 51
internal_count=27426 24135 8392 1022 59 7370 15743 15717 14041 1676 72 6147 226 13969 7214 7137 77 7016 62 121 6954 963 1380 296 6755 864 767 175 97 51
is_linear=0
shrinkage=0.1


Tree=68
num_leaves=31
num_cat=0
split_feature=2 2 6 6 4 6 4 2 0 1 7 1 3 1 2 1 2 2 1 7 1 8 0 2 1 2 2 1 1 2
split_gain=11109.3 18570.6 11844.6 20918.1 22392.7 17488.2 14743.3 14438.9 13982.8 19802.9 15661.8 13203.8 13173.1 19513.2 16403.5 22775.1 16991 18046.6 12997.2 12443.9 13780.5 11875.4 11375.4 11360.3 10818.5 10731.8 14979 10641.4 10452.5 21136.8
threshold=4.209212975448259 1.0000000180025095e-35 9.5000000000000018 7.5000000000000009 1.0000000180025095e-35 8.5000000000000018 4.5000000000000009 18.554532445437513 1992.5000000000002 291515.00000000006 3.5000000000000004 354438.50000000006 4.5000000000000009 177158.50000000003 7.4641216448607572 23896.500000000004 12.381815600543819 12.466861404626991 274454.50000000006 5.5000000000000009 64205.500000000007 107.53333300000001 1797.5000000000002 12.466861256192209 401850.00000000006 20.387294963465205 19.554532478955739 46916.000000000007 82801.500000000015 10.633984675926149
decision_type=2 2 2 2 2 2 2 2 2 2 2 2 2 2 2 2 2 2 2 2 2 2 2 2 2 2 2 2 2 2
left_child=1 22 3 4 12 8 7 24 9 25 -10 -11 14 28 -2 -16 -17 23 -15 -12 -21 -7 -1 -18 -6 26 -5 -19 29 -14
right_child=2 -3 -4 5 6 21 -8 -9 10 11 19 -13 13 18 15 16 17 27 -20 20 -22 -23 -24 -25 -26 -27 -28 -29 -30 -31
leaf_value=-2.6775781919558845 -2.0046428698301315 1.0387781349286713 0.10071813503531568 -0.21067214562886691 -0.27309083332149114 -0.16782259027686247 -0.050757005221899978 -1.3923400819753156 -1.9753331526270455 -3.2291963643721631 -0.13894066822481346 -0.25427905607223511 -0.038619274645527807 1.3169369075909136 -3.3417601585388184 0.5232128670638384 -0.66596072624469627 -2.0607253749966623 -0.88975110729535423 1.2025414316550547 -1.3641801461770937 0.50375236631733578 0.4345814502757529 -3.7639402103424078 -2.4121088345845543 -1.677739811450877 1.6122577646945384 0.0073107087264759401 -0.0094601629971190621 0.68974340278215296
leaf_weight=24 40 216 7494 1101 1598 1244 5132 132 106 37 251 25 722 242 20 645 29 25 30 23 231 334 23 20 24 47 47 5264 1411 889
leaf_count=24 40 216 7494 1101 1598 1244 5132 132 106 37 251 25 722 242 20 645 29 25 30 23 231 334 23 20 24 47 47 5264 1411 889
internal_value=0 0.646804 -0.00626255 -0.0470228 0.000506579 -0.27078 -0.1363 -0.38659 -0.477833 -0.287084 -0.870256 -2.02963 0.101401 0.262282 0.013706 0.0271549 0.0384165 -0.0201623 1.07355 -0.6383 -1.13176 -0.0256768 -1.15461 -1.93044 -0.304741 -0.196676 -0.13604 -0.00246447 0.189262 0.363314
internal_weight=0 263 27163 19669 16223 3446 6886 1754 1868 1257 611 62 9337 3294 6043 6003 5983 5338 272 505 254 1578 47 49 1622 1195 1148 5289 3022 1611
internal_count=27426 263 27163 19669 16223 3446 6886 1754 1868 1257 611 62 9337 3294 6043 6003 5983 5338 272 505 254 1578 47 49 1622 1195 1148 5289 3022 1611
is_linear=0
shrinkage=0.1


Tree=69
num_leaves=31
num_cat=0
split_feature=3 1 8 2 7 7 1 7 10 2 4 1 2 2 2 0 3 9 1 2 2 1 2 1 2 6 2 1 1 1
split_gain=10599.4 14792.4 9520.37 14598.7 10942.9 17965.3 16181.4 14745.9 16479.1 14618 18391.6 14541.6 16529.2 13069.8 16687.2 12410.7 14152.2 12123.8 11037.4 12515.3 29462.1 13324.1 10950 27189.1 20188.8 11526.7 10749 14363.1 11622.1 10264.2
threshold=5.5000000000000009 83725.500000000015 58.249999500000008 8.5463133228274444 2.5000000000000004 3.5000000000000004 51581.000000000007 4.5000000000000009 1.0000000180025095e-35 4.6285052552563881 6.5000000000000009 106543.50000000001 18.30510319022876 16.469601019168781 15.721655897678408 2996.5000000000005 3.5000000000000004 1.0000000180025095e-35 100802.00000000001 13.633984524932663 12.718916072251089 54015.000000000007 15.888779117351705 123906.00000000001 15.469600909866509 2.5000000000000004 20.220171779281831 136331.00000000003 257681.00000000003 112255.50000000001
decision_type=2 2 2 2 2 2 2 2 2 2 2 2 2 2 2 2 2 2 2 2 2 2 2 2 2 2 2 2 2 2
left_child=2 -2 3 -1 6 13 -4 8 9 10 -7 12 18 14 15 16 17 -6 19 20 21 -10 24 -24 -11 -26 27 -25 -28 -13
right_child=1 -3 4 -5 5 7 -8 -9 11 22 -12 29 -14 -15 -16 -17 -18 -19 -20 -21 -22 -23 23 26 25 -27 28 -29 -30 -31
leaf_value=-1.81129727081819 0.31015717423206168 2.5796757053997781 0.91730471025494964 -0.16178774976660359 3.6316230411114905 -3.4409192732402256 -0.28557594988553292 0.078773551735623032 0.83594827032089247 -0.088814145502972563 0.2169689001860442 1.0430865354008145 -2.1411992581152335 -2.1741043545983056 2.2281710813211841 -1.7145955307409169 0.23891635052710325 0.30830775953474499 -2.3181270348839464 0.3094833850860596 -4.5702126836776733 -1.2304826383220862 0.66495619318732846 -0.69972168466779927 -3.4050948188418433 -0.90155319607741125 -0.1576721794856222 0.13406435553165805 -1.1859779815156977 -0.25665500204338404
leaf_weight=55 142 36 119 2193 23 28 1857 10462 50 2952 27 63 82 22 43 32 2991 21 32 143 20 83 703 225 21 148 475 2527 143 1708
leaf_count=55 142 36 119 2193 23 28 1857 10462 50 2952 27 63 82 22 43 32 2991 21 32 143 20 83 703 225 21 148 475 2527 143 1708
internal_value=0 0.769161 -0.00502461 -0.202145 0.0127005 0.0320825 -0.213135 -0.00296843 -0.0936561 -0.0211457 -1.64523 -0.334659 -0.871315 0.254698 0.271879 0.244452 0.265107 2.0455 -0.553844 -0.363111 -0.991744 -0.453629 -0.00872921 0.0992679 -0.149669 -1.21264 -0.0187377 0.0658951 -0.395613 -0.210419
internal_weight=0 178 27248 2248 25000 23024 1976 19892 9430 7249 55 2181 410 3132 3110 3067 3035 44 328 296 153 133 7194 4073 3121 169 3370 2752 618 1771
internal_count=27426 178 27248 2248 25000 23024 1976 19892 9430 7249 55 2181 410 3132 3110 3067 3035 44 328 296 153 133 7194 4073 3121 169 3370 2752 618 1771
is_linear=0
shrinkage=0.1


Tree=70
num_leaves=31
num_cat=0
split_feature=2 2 2 8 1 2 6 6 4 1 6 1 2 2 8 2 2 0 1 7 1 7 1 6 3 1 7 1 0 0
split_gain=9273.4 13917.1 11153.9 9814.63 12343.4 11179.3 9652.81 18163 18709.9 13523.1 13125.9 11303.1 25030.4 33613.6 18020.6 13742.5 13240.2 11174.7 15804.8 12699.2 10691.7 10528.4 11162.2 10498.3 10395.7 9619.39 9390.8 14890.3 10594.9 9104.83
threshold=4.209212975448259 1.0000000180025095e-35 4.6285052552563881 111.21428550000002 125301.00000000001 5.4613818280218807 9.5000000000000018 7.5000000000000009 1.0000000180025095e-35 244969.00000000003 8.5000000000000018 81806.000000000015 7.6312448478793771 14.132500521688064 106.48277760000002 10.381815680770794 18.724395541713573 1992.5000000000002 291515.00000000006 3.5000000000000004 354438.50000000006 5.5000000000000009 64205.500000000007 11.500000000000002 5.5000000000000009 38503.000000000007 1.5000000000000002 260217.00000000003 1797.5000000000002 2445.5000000000005
decision_type=2 2 2 2 2 2 2 2 2 2 2 2 2 2 2 2 2 2 2 2 2 2 2 2 2 2 2 2 2 2
left_child=1 -1 25 6 5 -5 7 8 24 11 17 12 -10 14 15 -14 29 18 -9 -19 -20 -21 -23 26 -4 -2 27 -8 -29 -13
right_child=2 -3 3 4 -6 -7 23 10 9 -11 -12 16 13 -15 -16 -17 -18 19 20 21 -22 22 -24 -25 -26 -27 -28 28 -30 -31
leaf_value=-0.96851092602344269 -2.4427249474958943 0.93027465576650925 0.085950154917232624 2.0061155130065256 2.909843707581361 -0.24289977535024865 -0.014959431531420653 -0.17920726154187397 0.096596079352209013 -0.50825380903890338 -0.038069602532449592 0.061873129353083922 -0.50341071767302314 0.99905500216853049 -2.9482061858270683 -1.689409301741214 -0.75799752013766186 -1.7771831160305807 -2.8963162344855231 -0.11232982929944993 -0.21931585025787356 1.0744099156121196 -1.2356394532438997 -0.057422434622678778 1.5929770466588113 -0.39393231582144894 0.22699644324798621 -0.6940693236059613 -3.4417034854059638 -0.61689027382627781
leaf_weight=47 33 216 9287 31 24 77 276 1190 589 811 1560 4362 256 84 51 158 223 106 37 250 25 23 231 2900 46 75 4192 36 23 207
leaf_count=47 33 216 9287 31 24 77 276 1190 589 811 1560 4362 256 84 51 158 223 106 37 250 25 23 231 2900 46 75 4192 36 23 207
internal_value=0 0.590948 -0.00572173 -0.00167305 0.858504 0.402651 -0.00589039 -0.0428476 0.00168722 -0.12526 -0.252039 -0.0728806 -0.356189 -0.841963 -1.17453 -0.956038 -0.00560082 -0.431304 -0.260306 -0.782271 -1.81688 -0.573023 -1.02646 0.0911229 0.0933779 -1.01995 0.186281 -0.323207 -1.76518 0.0311215
internal_weight=0 263 27163 27055 132 108 26923 19496 16074 6741 3422 5930 1138 549 465 414 4792 1862 1252 610 62 504 254 7427 9333 108 4527 335 59 4569
internal_count=27426 263 27163 27055 132 108 26923 19496 16074 6741 3422 5930 1138 549 465 414 4792 1862 1252 610 62 504 254 7427 9333 108 4527 335 59 4569
is_linear=0
shrinkage=0.1


Tree=71
num_leaves=31
num_cat=0
split_feature=4 4 1 2 2 0 2 1 1 3 8 0 2 2 2 3 0 2 1 2 6 7 6 2 2 2 2 1 2 2
split_gain=9126.4 15577.7 21267.7 18167.3 23289.9 21556.6 15279.1 14018.2 11561.4 14394.8 13891 12733.3 10552.9 15604.1 23415 16114.1 11482.5 10552.5 16031.8 9886.18 9857.91 9336.3 9072.27 17835.6 18503.1 29258.5 24493.4 23967.1 17252.9 16423.5
threshold=7.5000000000000009 1.0000000180025095e-35 71416.500000000015 9.0886649770041981 14.217432002575164 1992.5000000000002 5.2092129443060671 239481.50000000003 51581.000000000007 2.5000000000000004 87.666666500000005 1797.5000000000002 7.4641216448607572 9.2119525736375394 8.2119527516493402 4.5000000000000009 1756.5000000000002 6.4641215585554699 120144.50000000001 16.551792737947281 11.500000000000002 4.5000000000000009 5.5000000000000009 9.7983681816200612 14.217432002575164 14.384555445129317 14.469600940678431 131131.50000000003 14.551792720749523 14.217431932097645
decision_type=2 2 2 2 2 2 2 2 2 2 2 2 2 2 2 2 2 2 2 2 2 2 2 2 2 2 2 2 2 2
left_child=1 6 3 -3 5 -5 -1 17 10 11 19 -10 -11 14 -14 -16 -15 18 -4 20 -8 -20 23 -18 29 27 -27 -26 -28 -25
right_child=-2 2 7 4 -6 -7 8 -9 9 12 -12 -13 13 16 15 -17 22 -19 21 -21 -22 -23 -24 24 25 26 28 -29 -30 -31
leaf_value=-2.3848090579876535 0.15621701270589208 -0.30880370045271166 0.14744351780063464 -1.2695341417073518 0.6394027576727026 -3.8985417428769567 0.28363416401122055 -0.38255824835783292 -3.3396527207416038 -1.2723187073828681 0.89037488110768148 -0.48749169707298279 -0.30995289934799075 -0.20348059466381405 2.8486496530081098 0.81981382881402975 -1.338735415046223 -0.03810774890265739 0.55697042116752038 -2.001296613329933 -0.56196404676406819 3.0296627808261563 -0.022426136415600907 0.48300117424294059 -3.69001759719607 3.4405643463134767 -2.6365378048108976 -0.17957472975661115 0.11221661459619925 2.9806333559530755
leaf_weight=26 3291 724 174 174 51 38 1186 1223 23 63 313 49 128 2145 57 125 78 5945 26 21 156 37 6994 1057 37 22 23 41 3172 27
leaf_count=26 3291 724 174 174 51 38 1186 1223 23 63 313 49 128 2145 57 125 78 5945 26 21 156 37 6994 1057 37 22 23 41 3172 27
internal_value=0 -0.0213014 -0.131339 -0.567384 -1.27922 -1.74077 0.0373552 -0.0732188 0.0413621 0.0117302 0.289608 -1.3986 0.0189995 0.0248497 0.726374 1.45522 0.00885434 -0.0120215 0.642337 0.151648 0.185338 2.00919 0.0486289 0.16013 0.186828 0.0689256 0.115326 -1.84478 0.092429 0.545212
internal_weight=0 24135 8392 987 263 212 15743 7405 15717 14041 1676 72 13969 13906 310 182 13596 6182 237 1363 1342 63 11451 4457 4379 3295 3217 78 3195 1084
internal_count=27426 24135 8392 987 263 212 15743 7405 15717 14041 1676 72 13969 13906 310 182 13596 6182 237 1363 1342 63 11451 4457 4379 3295 3217 78 3195 1084
is_linear=0
shrinkage=0.1


Tree=72
num_leaves=31
num_cat=0
split_feature=0 0 2 2 2 2 1 8 2 2 2 11 6 1 4 2 6 1 2 1 1 1 4 2 3 2 1 6 8 2
split_gain=7727.75 11874.8 24103.3 16811.2 16655.4 36410.5 13447.5 12476.8 12680.1 20221.8 13330.4 11930.3 11378.2 10133 9653.37 9388.66 12369.2 25508.7 19448 13768.8 22718.1 14038.3 13436.8 13064.5 9126.86 8963.05 8638.72 8450.95 8313.23 27863.4
threshold=2726.5000000000005 2263.0000000000005 14.217432089598018 14.384555310000369 14.217432002575164 14.217431932097645 401850.00000000006 107.38750000000002 11.718916097778036 11.381815582379001 11.129760971533949 1.0000000180025095e-35 6.5000000000000009 65402.500000000007 6.5000000000000009 17.888778990853442 3.5000000000000004 189584.50000000003 17.636724343307144 178957.00000000003 208009.00000000003 119404.00000000001 2.5000000000000004 15.721655897678408 4.5000000000000009 14.888779125697356 200343.50000000003 3.5000000000000004 71.261904000000015 14.551792934264737
decision_type=2 2 2 2 2 2 2 2 2 2 2 2 2 2 2 2 2 2 2 2 2 2 2 2 2 2 2 2 2 2
left_child=1 11 4 -4 5 6 7 13 9 10 -9 28 27 -3 15 16 17 24 19 21 -21 25 23 -23 -2 -18 -13 -5 -1 -30
right_child=14 2 3 12 -6 -7 -8 8 -10 -11 -12 26 -14 -15 -16 -17 18 -19 -20 20 -22 22 -24 -25 -26 -27 -28 -29 29 -31
leaf_value=0.046271138570745753 3.4905754510561628 0.63779165891633527 2.2716696166264061 0.69127811085094104 -1.9378644429720364 3.3483083779471259 -2.3051023472910344 0.15051050228108695 0.8805447962823445 -1.7965343546867372 1.9753055568445814 0.62769303810827948 1.4236982074150673 -0.10335634792426872 -1.7526586646619053 -0.766908640584544 -1.5400289645561807 -1.7869118667784194 2.1739108100019653 3.3733468651771545 -0.52659933142742865 -4.6615846157073975 0.028918375559151173 -1.4599217363275017 0.95629013644324423 0.88273307246130861 -0.929462946836765 -1.5718585260889748 -0.3496469766036886 -0.002179572820216608
leaf_weight=9415 30 207 88 33 39 35 23 444 368 50 44 412 65 1695 46 207 26 21 29 20 59 25 20 26 27 37 39 33 2925 10938
leaf_count=9415 30 207 88 33 39 35 23 444 368 50 44 412 65 1695 46 207 26 21 29 20 59 25 20 26 27 37 39 33 2925 10938
internal_value=0 0.007754 0.191028 1.20269 0.114762 0.142694 0.103063 0.122788 0.428205 0.118798 0.315041 -0.0163747 0.48459 -0.0226951 -0.363383 -0.242118 0.0973565 1.19246 -0.255611 -0.586391 0.460729 -1.20372 -2.16788 -3.02936 2.29012 -0.117137 0.493039 -0.44029 -0.0262443 -0.0754929
internal_weight=0 26853 3124 219 2905 2866 2831 2808 906 538 488 23729 131 1902 573 527 320 78 242 213 79 134 71 51 57 63 451 66 23278 13863
internal_count=27426 26853 3124 219 2905 2866 2831 2808 906 538 488 23729 131 1902 573 527 320 78 242 213 79 134 71 51 57 63 451 66 23278 13863
is_linear=0
shrinkage=0.1


Tree=73
num_leaves=31
num_cat=0
split_feature=2 2 0 2 4 7 6 6 2 7 4 2 1 2 7 0 2 2 2 9 2 2 6 1 2 0 8 2 1 3
split_gain=8042.1 11657.6 8695.97 8585.3 8259.01 10215.6 8110.96 15752.6 8795.8 13532.8 8586.94 12130.2 10951.6 11903 9651.91 26158.9 9484.6 14112.1 9448.01 14042.8 13779.1 11800.4 9352.27 9663.85 13713.1 19592.9 10292.2 9075.58 11479 9843.87
threshold=4.209212975448259 1.0000000180025095e-35 1797.5000000000002 4.6285052552563881 5.5000000000000009 4.5000000000000009 9.5000000000000018 4.5000000000000009 21.058527836621362 4.5000000000000009 1.0000000180025095e-35 18.30510319022876 36800.500000000007 7.1270211328533843 1.0000000180025095e-35 2263.0000000000005 11.29962391281787 15.469600909866509 14.721655870467067 1.0000000180025095e-35 12.38181576206251 12.968231088495889 6.5000000000000009 86308.000000000015 9.5463133949422865 1799.0000000000002 70.380952000000022 7.3790759488177686 51581.000000000007 4.5000000000000009
decision_type=2 2 2 2 2 2 2 2 2 2 2 2 2 2 2 2 2 2 2 2 2 2 2 2 2 2 2 2 2 2
left_child=1 2 -1 4 5 -2 7 -5 -8 -10 12 22 -9 -14 15 16 -15 18 19 20 -18 -21 27 24 -24 26 -26 29 -29 -12
right_child=3 -3 -4 6 -6 -7 8 10 9 -11 11 -13 13 14 -16 -17 17 -19 -20 21 -22 -23 23 -25 25 -27 -28 28 -30 -31
leaf_value=-2.2085283736387891 -3.6270702540874482 0.86088103039742081 0.5125334325044052 0.065578782774305774 -0.19754829208056135 -0.5043700635433197 0.10038924007702515 0.4654492386630949 0.085260582963625597 -2.1590487566861238 1.5846143181731063 -0.93470408589943599 -1.9437620802837259 -1.7593041919544341 -0.028459111793524658 -2.9545121419124118 -0.98656734284900482 -0.53876162548713824 1.635611285695008 0.79208730432120245 2.1506662485145389 -2.1324872169945692 -0.1049582460898128 0.066606387644646908 -1.2004811800803459 -3.3890267330934023 1.1992572128772736 -2.2462072915690285 -0.41355339554064874 -0.081718240091434996
leaf_weight=24 20 216 23 8621 66 22 7351 394 69 44 41 230 34 40 5819 39 21 340 56 22 42 37 316 1659 70 34 24 35 1455 262
leaf_count=24 20 216 23 8621 66 22 7351 394 69 44 41 230 34 40 5819 39 21 340 56 22 42 37 316 1659 70 34 24 35 1455 262
internal_value=0 0.550319 -0.876945 -0.00532835 -0.895146 -1.99137 -0.00177631 -0.0355727 0.0869301 -0.78863 -0.115065 -0.229013 -0.0463696 -0.0776342 -0.0677451 -0.450668 -0.275668 -0.161102 0.560271 0.0666718 1.10492 -1.04197 -0.187352 -0.0442916 -0.45866 -1.33186 -0.587782 -0.355147 -0.456602 0.143759
internal_weight=0 263 47 27163 108 42 27055 19591 7464 113 10970 4126 6844 6450 6416 597 558 518 178 122 63 59 3896 2103 444 128 94 1793 1490 303
internal_count=27426 263 47 27163 108 42 27055 19591 7464 113 10970 4126 6844 6450 6416 597 558 518 178 122 63 59 3896 2103 444 128 94 1793 1490 303
is_linear=0
shrinkage=0.1


Tree=74
num_leaves=31
num_cat=0
split_feature=8 2 2 2 8 0 2 1 2 2 2 2 2 1 1 1 2 4 1 1 6 1 1 2 2 2 0 4 1 2
split_gain=7641.92 10893.8 15801 10880.2 8558.24 17702.9 20453.8 14961.5 13826.2 16291.8 15260.1 28027.6 16135.3 17765.5 12575.5 12022.1 11779.8 12305.4 11360.4 22058.3 18455.1 12844.7 24506.2 10888.2 9672.11 11652.3 9437.79 9059.1 14596.6 12051.4
threshold=58.249999500000008 9.7983681816200612 11.886039350374089 14.217432089598018 71.261904000000015 1653.5000000000002 18.055788322938849 219230.50000000003 14.217431932097645 14.217432002575164 8.5463133228274444 8.2119527516493402 7.6312448478793771 165007.50000000003 314184.00000000006 11640.500000000002 15.384555342817711 4.5000000000000009 246705.50000000003 156507.00000000003 7.5000000000000009 124703.50000000001 112924.50000000001 19.724395453491873 11.053048419088016 12.38181576206251 1799.0000000000002 2.5000000000000004 129500.50000000001 14.217432163543796
decision_type=2 2 2 2 2 2 2 2 2 2 2 2 2 2 2 2 2 2 2 2 2 2 2 2 2 2 2 2 2 2
left_child=1 -1 -3 -4 8 6 7 -6 10 -10 11 12 13 -2 15 -12 27 -18 19 21 23 22 -8 -21 -16 -26 -17 29 -29 -11
right_child=4 2 3 -5 5 -7 18 -9 9 16 14 -13 -14 -15 24 26 17 -19 -20 20 -22 -23 -24 -25 25 -27 -28 28 -30 -31
leaf_value=-0.69429434890490638 0.20278456933504582 0.44207896322451212 -0.28663918282537715 1.3462910425095331 -1.0536721056351415 -0.0024850897000105229 -1.4070530394522045 -3.6554713972153206 2.616622352780718 -1.9363042414188385 -1.9166123681899272 1.4801365387929792 -1.0736912652235671 2.6323126985180765 -3.027835706689141 0.032007580411668818 -3.0717180347442632 0.25617526721954348 -1.2048511143348046 2.9198859502287475 -0.43528323818226256 -1.8492578774690629 2.1101765871047973 0.83743681233997147 0.8188766146859815 -1.7936330283942976 -0.63093176801911499 1.6824203475356105 0.42210987092825109 0.26535714605009891
leaf_weight=344 1034 441 1433 42 77 17408 52 31 33 26 33 187 97 31 22 4312 20 25 105 34 98 78 32 96 31 38 226 125 347 568
leaf_count=344 1034 441 1433 42 77 17408 52 31 33 26 33 187 97 31 22 4312 20 25 105 34 98 78 32 96 31 38 226 125 347 568
internal_value=0 -0.176146 -0.0831174 -0.240142 0.0158186 -0.0209368 -0.55362 -1.80048 0.108341 0.426986 0.0476977 0.343898 0.161044 0.273503 -0.038011 -0.0148375 0.361947 -1.22289 -0.281576 -0.0330024 0.600931 -0.925205 -0.067156 1.38208 -1.20204 -0.619897 -0.00100791 0.42885 0.755879 0.168988
internal_weight=0 2260 1916 1475 25166 18011 603 108 7155 1144 6011 1349 1162 1065 4662 4571 1111 45 495 390 228 162 84 130 91 69 4538 1066 472 594
internal_count=27426 2260 1916 1475 25166 18011 603 108 7155 1144 6011 1349 1162 1065 4662 4571 1111 45 495 390 228 162 84 130 91 69 4538 1066 472 594
is_linear=0
shrinkage=0.1


Tree=75
num_leaves=31
num_cat=0
split_feature=3 1 4 4 2 4 1 2 2 0 2 2 4 4 1 8 1 8 2 2 11 2 1 2 2 2 1 2 1 0
split_gain=7365.59 12984.8 6718.99 11278.3 21925.7 18837.7 15125.7 27277.9 40574.2 15859.2 15653.3 19640.4 16247.8 15292.2 14843.6 16017.5 12507.8 12343.1 10230.3 9787.73 9157.45 12391.2 10164 9936.21 13239.1 16687.5 9414.89 15539.2 17091.7 11062.1
threshold=5.5000000000000009 99694.000000000015 7.5000000000000009 1.0000000180025095e-35 5.2092129443060671 3.5000000000000004 94137.500000000015 14.469600940678431 11.214692389267986 1992.5000000000002 11.29962391281787 11.381815582379001 6.5000000000000009 5.5000000000000009 244969.00000000003 97.499999500000015 271216.00000000006 58.83333300000001 1.0000000180025095e-35 18.639463939785717 1.0000000180025095e-35 9.8832996391236865 77301.000000000015 23.061267622958475 21.058527836621362 20.891518752970089 19772.000000000004 7.0503087695433697 45619.500000000007 1992.5000000000002
decision_type=2 2 2 2 2 2 2 2 2 2 2 2 2 2 2 2 2 2 2 2 2 2 2 2 2 2 2 2 2 2
left_child=2 -2 3 4 -1 -5 7 8 -7 -10 17 -12 13 14 -13 16 -16 -8 -19 -9 23 22 -22 24 25 26 29 28 -28 -6
right_child=1 -3 -4 5 20 6 10 19 9 -11 11 12 -14 -15 15 -17 -18 18 -20 -21 21 -23 -24 -25 -26 -27 27 -29 -30 -31
leaf_value=-3.0575736501942514 0.29593102472280369 2.7541028456687928 0.13148401470470228 -0.89962476382183076 0.37755656017191352 -0.27375424841606461 -0.6376449679343128 1.1368924522822774 -1.2486706174061408 -3.190427133228098 -2.5486483846649981 -0.0096903927447227478 -0.44204449071816099 0.30056552557216998 -1.020148893031809 -1.3077311032542998 0.32505848196645581 -1.8399378256364303 0.33045697265676716 -1.0805084202276622 0.44045781903796732 0.22554581992039469 2.5904305591139685 -0.75876182491277788 0.85549715201138832 -0.92039618944286039 -0.17854321610252813 0.021948629851874995 -3.0260295303698097 2.4020563681920368
leaf_weight=23 153 25 3219 296 269 1256 152 148 169 56 33 1789 1063 1162 108 204 192 22 1692 23 45 641 43 164 189 189 53 13983 35 30
leaf_count=23 153 25 3219 296 269 1256 152 148 169 56 33 1789 1063 1162 108 204 192 22 1692 23 45 641 43 164 189 189 53 13983 35 30
internal_value=0 0.64118 -0.00418856 -0.0223637 0.0277014 -0.116114 -0.0873718 -0.357213 -0.49529 -1.73195 -0.0179036 -0.117912 -0.100158 0.00503011 -0.144735 -0.624091 -0.159216 0.226009 0.302599 0.838646 0.0322383 0.378305 1.49101 0.0153202 0.0239281 0.013133 0.0254112 0.013612 -1.31107 0.580684
internal_weight=0 178 27248 24029 15664 8365 8069 1652 1481 225 6417 4551 4518 3455 2293 504 300 1866 1714 171 15641 729 88 14912 14748 14559 14370 14071 88 299
internal_count=27426 178 27248 24029 15664 8365 8069 1652 1481 225 6417 4551 4518 3455 2293 504 300 1866 1714 171 15641 729 88 14912 14748 14559 14370 14071 88 299
is_linear=0
shrinkage=0.1


Tree=76
num_leaves=31
num_cat=0
split_feature=2 2 6 6 6 1 1 4 2 1 6 3 1 1 2 0 1 2 1 1 2 8 2 2 2 2 7 2 1 9
split_gain=6903 8603.6 6885.37 12828.5 7517.59 7862.94 7436.16 7275.21 9183.93 7701.59 7566.1 9051.81 27734.4 24780.8 36453.6 12794 17370.8 17144.2 13808.7 18431.3 12551.5 12354.2 12736 18315.3 24714.9 15959.8 11150.6 11026.8 14082.3 10742.9
threshold=4.209212975448259 1.0000000180025095e-35 9.5000000000000018 4.5000000000000009 11.500000000000002 26140.000000000004 476144.00000000006 1.0000000180025095e-35 18.724395541713573 17338.500000000004 7.5000000000000009 4.5000000000000009 72401.000000000015 161531.00000000003 14.803847494974701 1797.5000000000002 92447.500000000015 12.801107787393546 79117.000000000015 135651.50000000003 12.38181576206251 107.38750000000002 20.724395498857557 17.302363687926601 16.469601019168781 20.973710499035555 5.5000000000000009 18.472340708664809 114509.50000000001 1.0000000180025095e-35
decision_type=2 2 2 2 2 2 2 2 2 2 2 2 2 2 2 2 2 2 2 2 2 2 2 2 2 2 2 2 2 2
left_child=1 -1 3 6 -4 -6 -2 10 9 -9 -5 12 29 15 -15 16 17 -13 -17 -20 -18 22 23 24 -14 -24 27 -25 -29 -12
right_child=2 -3 4 7 5 -7 -8 8 -10 -11 11 13 21 14 -16 18 20 -19 19 -21 -22 -23 25 26 -26 -27 -28 28 -30 -31
leaf_value=-0.71628299025779085 0.061451328008645029 0.77665619647337336 0.15687911005863736 0.028261668077124425 -1.0660785504289576 -0.022004759095019612 -1.2723918858028593 -1.6585969645636423 -0.94084134450159884 -0.16865683539212128 0.81652107216277214 0.26630975689206804 -0.38649017740937675 0.67652510058495308 -3.6114967612786728 -0.093720403712652972 -0.77388787091924593 -1.6989255127998497 -1.6907727229742358 0.90209964423468625 1.7144399224416071 0.30188300986888961 -3.4421779963476911 0.80813018403580927 -2.4475142994347743 0.085204306892726733 1.7490638321096246 -2.9124970835447312 -0.12068638526660236 3.1148684306578205
leaf_weight=47 8624 216 4564 4636 74 2856 42 35 166 3956 53 140 403 31 55 218 26 65 162 33 92 406 29 122 68 23 44 20 187 33
leaf_count=47 8624 216 4564 4636 74 2856 42 35 166 3956 53 140 403 31 55 218 26 65 162 33 92 406 29 122 68 23 44 20 187 33
internal_value=0 0.509857 -0.00493658 -0.0360137 0.0766294 -0.0483739 0.0549868 -0.107686 -0.212037 -0.181723 -0.0443225 -0.196585 -0.0408406 -0.45957 -2.06581 -0.271884 0.199568 -0.356814 -0.640598 -1.25198 1.16616 -0.155724 -0.363078 -0.269495 -0.684048 -1.88199 0.253974 0.0540231 -0.390427 1.69845
internal_weight=0 263 27163 19669 7494 2930 8666 11003 4157 3991 6846 2210 1388 822 86 736 323 205 413 195 118 1302 896 844 471 52 373 329 207 86
internal_count=27426 263 27163 19669 7494 2930 8666 11003 4157 3991 6846 2210 1388 822 86 736 323 205 413 195 118 1302 896 844 471 52 373 329 207 86
is_linear=0
shrinkage=0.1


Tree=77
num_leaves=31
num_cat=0
split_feature=3 6 9 4 1 1 2 8 4 0 1 1 1 1 6 1 1 2 7 2 1 7 7 2 8 2 1 2 0 1
split_gain=6698.54 9629.38 21821.7 8785.74 8999.83 17022.1 17609.9 16508.9 13143.1 19357 20299.4 18700.8 21262.2 32059.9 11079.7 9257.74 13736.4 16692.7 7826.9 21884.3 7092.85 6971.92 7457.05 13495.3 18114.3 14872.1 14407.3 13305.2 13225.4 12838.3
threshold=3.5000000000000004 1.5000000000000002 1.0000000180025095e-35 4.5000000000000009 30322.000000000004 120905.00000000001 14.469600940678431 70.380952000000022 2.5000000000000004 1797.5000000000002 309061.00000000006 198289.00000000003 235706.00000000003 283673.50000000006 5.5000000000000009 166101.00000000003 220701.00000000003 18.220171687770605 2.5000000000000004 19.058527838769898 248704.50000000003 4.5000000000000009 3.5000000000000004 17.217432031575566 109.60003963333334 17.636724343307144 401850.00000000006 3.713436701193165 2445.5000000000005 62100.500000000007
decision_type=2 2 2 2 2 2 2 2 2 2 2 2 2 2 2 2 2 2 2 2 2 2 2 2 2 2 2 2 2 2
left_child=1 2 -1 4 -3 6 7 -6 9 11 15 14 -13 -14 -7 -11 -17 -18 -15 -20 -4 22 23 24 26 -25 27 -2 -26 -24
right_child=21 3 20 -5 5 8 -8 -9 -10 10 -12 12 13 18 -16 16 17 -19 19 -21 -22 -23 29 25 28 -27 -28 -29 -30 -31
leaf_value=-1.1917408418926327 2.0329935252666473 1.5413326704502106 3.4232311224159986 0.82593233041903558 -2.7626111415716319 3.4554138631820681 -3.6107396459579473 0.50755964380345853 -1.8594911640653244 -2.9768642824036737 1.426766069730123 -2.4586209349560018 2.5169914823897344 -1.744205725613313 0.8080429587253305 0.45548665854665971 -3.6474700355529786 -0.14870612871646882 1.9998983324535431 -1.5803880082933528 0.88130294212273186 0.068266360162572412 -0.46128788165537254 -2.1217064225155378 0.88663800039590857 -0.25174575350676659 -1.974463857497488 0.047792701693368148 -0.86729869171977048 -0.053777019660169081
leaf_weight=33 34 20 23 51 26 25 35 38 52 35 27 33 47 39 43 36 30 25 31 38 21 11180 848 46 412 564 35 4800 48 8751
leaf_count=33 34 20 23 51 26 25 35 38 52 35 27 33 47 39 43 36 30 25 31 38 21 11180 848 46 412 564 35 4800 48 8751
internal_value=0 -0.303595 0.752133 -0.432424 -0.543072 -0.617515 -1.80724 -0.820947 -0.362022 -0.171634 -1.06152 0.360209 -0.153818 0.336882 1.78134 -1.59472 -1.06312 -2.05712 -0.61187 0.0281464 2.21004 0.00804495 -0.0352859 0.052787 0.103788 -0.392759 0.0471186 0.0617556 0.703619 -0.0897776
internal_weight=0 708 77 631 580 560 99 64 461 409 153 256 188 155 68 126 91 55 108 69 44 26718 15538 5939 5329 610 4869 4834 460 9599
internal_count=27426 708 77 631 580 560 99 64 461 409 153 256 188 155 68 126 91 55 108 69 44 26718 15538 5939 5329 610 4869 4834 460 9599
is_linear=0
shrinkage=0.1


Tree=78
num_leaves=31
num_cat=0
split_feature=3 1 8 0 0 2 1 1 1 6 2 1 1 7 6 6 4 2 1 2 6 3 1 2 1 1 1 8 1 7
split_gain=6206.44 10757.6 5802.55 10623.1 19794.7 24188 10969.5 17193.5 17509.7 11952.1 10594.3 14944.9 26202.9 10387 9116.05 26175.5 12100 17026.1 17839.9 31673.5 13978.5 11885.6 19642.5 21149.2 18634.6 17010.6 14990.8 14354 12502.3 11851.8
threshold=5.5000000000000009 83725.500000000015 60.141983933333343 1497.5000000000002 1756.5000000000002 17.888779068679259 246705.50000000003 156507.00000000003 167004.00000000003 8.5000000000000018 20.806587276778576 129500.50000000001 110802.50000000001 4.5000000000000009 8.5000000000000018 7.5000000000000009 1.0000000180025095e-35 10.381815680770794 81806.000000000015 14.970970972167104 6.5000000000000009 4.5000000000000009 60999.500000000007 7.883299771119499 156507.00000000003 160614.00000000003 151399.00000000003 70.380952000000022 164102.00000000003 4.5000000000000009
decision_type=2 2 2 2 2 2 2 2 2 2 2 2 2 2 2 2 2 2 2 2 2 2 2 2 2 2 2 2 2 2
left_child=2 -2 -1 -4 5 13 7 10 -9 -10 11 12 -7 -5 15 16 21 -18 19 -19 -20 22 -6 -24 26 -26 -23 -25 -27 -29
right_child=1 -3 3 4 14 6 -8 8 9 -11 -12 -13 -14 -15 -16 -17 17 18 20 -21 -22 24 23 27 25 28 -28 29 -30 -31
leaf_value=-0.12693125147510048 0.19713887515622128 2.1325425783793133 0.30534686387779847 -1.4093014698961508 -1.2566312133272488 -1.3562920272350312 -1.1709307849974859 3.2190838141874836 0.8071906022508355 -0.77903525959955511 -2.5361824701572289 -1.6106992182135582 2.3573305353522302 -3.8280537101355465 0.10474642049870944 -0.42242372714100046 0.13519079791375407 -2.071613167667389 -0.2622067319133336 0.86520950765563898 0.31906601761161174 0.19117442547824254 -3.0557188359173861 0.68185100168962509 2.9703853097226887 -1.5139770984649659 -1.7631530737876895 -0.11703157410594792 0.84691241671149309 0.21298745663047525
leaf_weight=3358 142 36 1185 92 120 38 105 22 136 73 29 60 38 22 7353 1535 1991 125 2884 52 483 2091 22 337 36 24 40 2919 343 1735
leaf_count=3358 142 36 1185 92 120 38 105 22 136 73 29 60 38 22 7353 1535 1991 125 2884 52 483 2091 22 337 36 24 40 2919 343 1735
internal_value=0 0.588569 -0.00384488 0.0134563 -0.00177785 -0.561373 -0.262218 -0.0212717 0.53562 0.25315 -0.80092 -0.430901 0.500519 -1.87608 0.0138016 -0.0315751 0.013869 -0.098806 -0.230264 -1.20882 -0.178822 0.0952119 0.00773043 0.0379964 0.272419 0.896003 0.154491 0.0516333 0.692522 0.00599873
internal_weight=0 178 27248 23890 22705 615 501 396 231 209 165 136 76 114 22090 14737 13202 5535 3544 177 3367 7667 5133 5013 2534 403 2131 4991 367 4654
internal_count=27426 178 27248 23890 22705 615 501 396 231 209 165 136 76 114 22090 14737 13202 5535 3544 177 3367 7667 5133 5013 2534 403 2131 4991 367 4654
is_linear=0
shrinkage=0.1


Tree=79
num_leaves=31
num_cat=0
split_feature=0 0 2 4 2 2 6 2 4 4 2 2 1 6 1 1 6 6 1 4 8 1 2 2 2 4 11 4 8 1
split_gain=5847.94 9652.28 19281.6 15971.1 13582 29586.9 11624.2 20946.9 19051.5 14059.8 10219.2 23438.1 19026.2 15643.2 10132.6 12254.3 10568.3 15969.3 12165.9 9995.38 15028.1 9983.04 9558.42 14135.8 12718.9 9361.67 8347.17 8306.94 21402.3 20989.9
threshold=2726.5000000000005 2263.0000000000005 14.217432089598018 7.5000000000000009 14.217432002575164 14.217431932097645 10.500000000000002 14.469600940678431 2.5000000000000004 3.5000000000000004 13.801107811053509 13.886039253228642 205393.00000000003 6.5000000000000009 33771.500000000007 138057.50000000003 8.5000000000000018 7.5000000000000009 144059.00000000003 4.5000000000000009 97.499999500000015 131131.50000000003 14.053048458135965 13.968231261337571 13.968231083916526 3.5000000000000004 1.0000000180025095e-35 1.0000000180025095e-35 97.499999500000015 95004.000000000015
decision_type=2 2 2 2 2 2 2 2 2 2 2 2 2 2 2 2 2 2 2 2 2 2 2 2 2 2 2 2 2 2
left_child=1 26 4 6 5 10 7 9 -9 21 14 -12 22 -14 -3 27 17 18 -17 20 -18 -4 23 24 -13 -19 -1 -16 29 -29
right_child=-2 2 3 -5 -6 -7 -8 8 -10 -11 11 12 13 -15 15 16 19 25 -20 -21 -22 -23 -24 -25 -26 -27 -28 28 -30 -31
leaf_value=-0.023263995750618965 -0.31611087723175169 1.5320350121993285 0.63530894468228027 3.7705544435977938 -1.7498283049234979 3.0186544765744894 2.3064276334716052 -3.3970222949981692 0.55402063773228571 -0.068012327989753416 -3.2012660207419561 1.1398769692676824 -0.4013491913676262 -3.9138521994863242 0.12635780943624944 1.6870376027863601 -0.15979233435222082 -2.8479120981097221 0.17662547588731048 0.44609898554176852 2.3153732869683243 3.2683046831025018 -0.67273774990495649 2.60557126556124 -1.8406443400816486 -0.40380942920843765 0.4110945382413605 -4.7230599093437196 -0.13350677501261235 -0.93070037320808141
leaf_weight=23278 573 52 24 20 39 35 41 23 26 49 29 41 32 21 830 58 35 25 662 238 82 36 53 35 22 42 451 20 500 54
leaf_count=23278 573 52 24 20 39 35 41 23 26 49 29 41 32 21 830 58 35 25 662 238 82 36 53 35 22 42 451 20 500 54
internal_value=0 0.0067453 0.171981 1.07681 0.103768 0.128991 0.806082 0.416752 -1.30055 1.18875 0.093266 -0.541159 -0.163007 -1.7931 0.150164 0.12194 0.365198 0.160885 0.298298 0.818139 1.57494 2.21511 0.409144 0.994243 0.09906 -1.31579 -0.0150085 -0.0759227 -0.368419 -1.95566
internal_weight=0 26853 3124 219 2905 2866 199 158 49 109 2831 233 204 53 2598 2546 1142 787 720 355 117 60 151 98 63 67 23729 1404 574 74
internal_count=27426 26853 3124 219 2905 2866 199 158 49 109 2831 233 204 53 2598 2546 1142 787 720 355 117 60 151 98 63 67 23729 1404 574 74
is_linear=0
shrinkage=0.1


Tree=80
num_leaves=31
num_cat=0
split_feature=4 4 2 4 4 1 2 2 1 2 2 0 1 2 2 9 2 0 9 0 6 6 7 1 1 2 7 1 2 6
split_gain=5584.77 9073.24 14330.5 8191.42 14765.9 21376.4 12842.4 9901.47 11359.8 10343.5 9781.59 8981.99 8275.2 11450.5 12336.2 21412.5 12477.3 27211 12008.5 11374.1 10491.1 9967.75 9444.99 8506.34 13729.2 10789.2 8898.75 8874.15 18229.8 8344.95
threshold=7.5000000000000009 6.5000000000000009 11.29962391281787 5.5000000000000009 1.0000000180025095e-35 57800.500000000007 7.0503087695433697 14.217432002575164 123148.00000000001 14.302363621840827 5.2092129443060671 1785.0000000000002 70304.000000000015 7.4641216448607572 9.0886649770041981 1.0000000180025095e-35 9.379075990657304 1799.0000000000002 1.0000000180025095e-35 1756.5000000000002 3.5000000000000004 7.5000000000000009 4.5000000000000009 156507.00000000003 152246.00000000003 20.806587276778576 3.5000000000000004 162301.50000000003 14.302363621840827 11.500000000000002
decision_type=2 2 2 2 2 2 2 2 2 2 2 2 2 2 2 2 2 2 2 2 2 2 2 2 2 2 2 2 2 2
left_child=1 3 -3 4 10 6 -6 -5 -9 -10 -1 -11 29 18 15 22 17 -16 -14 23 -17 -22 -15 24 25 -18 -25 28 -28 -12
right_child=-2 2 -4 7 5 -7 -8 8 9 11 12 -13 13 14 16 20 19 -19 -20 -21 21 -23 -24 26 -26 -27 27 -29 -30 -31
leaf_value=-1.9111193400162918 0.12220275374890306 0.057004230168241965 -0.44821838103487333 0.022292156573984014 -0.48389654264405924 -0.1216388769146548 -1.820532802518072 1.3714659343997972 1.9844212419646128 -0.70087435366483508 0.25093262771230268 0.37278801280853935 0.19565534710884094 0.88521516124407451 -3.3051988910545003 1.721250463962555 -0.29248243582987798 1.3693313026428224 -3.1221466650565466 0.035756903582389019 -1.6135723225448442 0.53073603816148718 3.0925702299390521 0.59503353339834852 -2.3448571169376371 -2.5801503674969788 -1.1752680373191833 -0.33540293015275441 2.8080354073533305 -0.27572478572064169
leaf_weight=26 3291 1071 1180 1306 189 3743 116 119 35 91 2449 542 20 36 33 25 1127 20 24 10777 46 41 42 208 35 21 20 423 27 343
leaf_count=26 3291 1071 1180 1306 189 3743 116 119 35 91 2449 542 20 36 33 25 1127 20 24 10777 46 41 42 208 35 21 20 423 27 343
internal_value=0 -0.0166633 -0.207839 0.00300114 -0.0168949 -0.187236 -0.992257 0.191134 0.471322 0.310967 0.026905 0.218438 0.030111 -0.00361363 0.00188745 0.801699 -0.0100867 -1.54123 -1.61405 -0.00366558 -0.0842222 -0.603036 2.07379 -0.23196 -0.393813 -0.33433 0.0504471 -0.190561 1.11301 0.186232
internal_weight=0 24135 2251 21884 19791 4048 305 2093 787 668 15743 633 15717 12925 12881 190 12691 53 44 12638 112 87 78 1861 1183 1148 678 470 47 2792
internal_count=27426 24135 2251 21884 19791 4048 305 2093 787 668 15743 633 15717 12925 12881 190 12691 53 44 12638 112 87 78 1861 1183 1148 678 470 47 2792
is_linear=0
shrinkage=0.1


Tree=81
num_leaves=31
num_cat=0
split_feature=8 1 8 3 6 8 7 7 6 2 1 1 1 2 2 7 8 1 6 7 8 2 1 1 2 1 1 2 2 2
split_gain=5127.95 9521.81 6757.88 5400.26 8573.02 20842.8 23588.5 12407.7 9079.86 9024.94 7089.77 34124.6 24481.1 12276.2 12689.5 10089.6 11281 23257.8 8089.11 6471.79 6150.16 8992.89 7944.96 5908.56 4813.93 5145.45 6580.39 5084.95 36132.9 33402.7
threshold=111.21428550000002 124703.50000000001 112.82142850000001 3.5000000000000004 3.5000000000000004 87.666666500000005 4.5000000000000009 3.5000000000000004 4.5000000000000009 17.803847582043719 235706.00000000003 257681.00000000003 224602.50000000003 14.803847646761618 17.46960092852828 4.5000000000000009 106.48277760000002 110802.50000000001 6.5000000000000009 4.5000000000000009 70.380952000000022 15.721655695694279 166101.00000000003 291515.00000000006 24.809327049402182 223211.50000000003 178957.00000000003 14.217431932097645 14.217432002575164 14.217432089598018
decision_type=2 2 2 2 2 2 2 2 2 2 2 2 2 2 2 2 2 2 2 2 2 2 2 2 2 2 2 2 2 2
left_child=3 2 -2 4 5 6 7 -1 9 -6 12 -12 15 -13 -15 18 17 -17 -10 -7 -20 -22 -23 -16 27 26 -26 -5 -29 -30
right_child=1 -3 -4 24 8 19 -8 -9 10 -11 11 13 -14 14 23 16 -18 -19 20 -21 21 22 -24 -25 25 -27 -28 28 29 -31
leaf_value=1.9871926559342279 0.69575378908987418 2.3223087645494025 -0.91495893968118203 -0.035611819320671312 -2.6158094578498119 -0.43628293110264676 3.2354831882885531 -0.56316470118669359 1.5924934071879235 -0.34116651831251205 3.1242765948176388 -2.6499402224340223 -3.8478502254594456 1.4744664118700737 -1.8972980222311513 -4.184198436030635 0.16940761773209823 -0.13863502264022828 -1.7311868526718834 -2.6133085608482363 1.5187369308644727 -2.0413345813751222 0.30206027298401567 -0.19249951138215907 -0.45309459641575817 0.20660897271973747 -2.7312281778880529 1.8819841796549683 -1.7395863637789377 0.051485380973989248
leaf_weight=27 88 26 37 13770 37 36 35 65 31 33 32 22 22 37 29 27 38 30 22 22 31 23 39 68 32 35 21 107 105 12499
leaf_count=27 88 26 37 13770 37 36 35 65 31 33 32 22 22 37 29 27 38 30 22 22 31 23 39 68 32 35 21 107 105 12499
internal_value=0 0.581145 0.218983 -0.00321734 -0.276184 0.308602 1.02591 0.18531 -0.483834 -1.54348 -0.319366 0.149584 -0.654585 -0.460609 -0.101167 -0.363084 -1.16521 -2.05495 0.158847 -1.26205 -0.227614 0.12807 -0.567264 -0.702182 0.00403603 -0.734358 -1.35575 0.00648981 0.0520991 0.0365645
internal_weight=0 151 125 27275 706 185 127 92 521 70 451 188 263 156 134 241 95 57 146 58 115 93 62 97 26569 88 53 26481 12711 12604
internal_count=27426 151 125 27275 706 185 127 92 521 70 451 188 263 156 134 241 95 57 146 58 115 93 62 97 26569 88 53 26481 12711 12604
is_linear=0
shrinkage=0.1


Tree=82
num_leaves=31
num_cat=0
split_feature=3 1 0 4 2 2 6 1 2 2 1 4 1 0 2 4 7 8 1 2 1 2 2 4 6 1 4 1 1 6
split_gain=5111.22 9641.27 4612.45 7504.7 7674.81 12411 17874.1 18843 9437.13 13799.8 14253 11307.9 17108.1 7350.04 15286.1 12923 10848.4 12920.7 10923 27388.7 15410.5 14278 12320.7 10347.5 10336.5 10042.4 12644.1 8935.63 16935.6 9971.26
threshold=5.5000000000000009 99694.000000000015 2726.5000000000005 6.5000000000000009 17.721655738259763 16.721655872173638 3.5000000000000004 168653.50000000003 15.80384752441468 15.636724168662615 185821.00000000003 2.5000000000000004 119404.00000000001 2263.0000000000005 14.217432089598018 7.5000000000000009 2.5000000000000004 106.48277760000002 164102.00000000003 14.217431932097645 161531.00000000003 14.053048458135965 14.217432002575164 5.5000000000000009 6.5000000000000009 169498.50000000003 4.5000000000000009 130401.50000000001 184891.00000000003 3.5000000000000004
decision_type=2 2 2 2 2 2 2 2 2 2 2 2 2 2 2 2 2 2 2 2 2 2 2 2 2 2 2 2 2 2
left_child=2 -2 13 4 5 6 7 -4 9 10 11 12 -8 -1 16 24 17 23 20 21 22 25 -18 -15 27 26 -20 -16 -29 -30
right_child=1 -3 3 -5 -6 -7 8 -9 -10 -11 -12 -13 -14 14 15 -17 18 -19 19 -21 -22 -23 -24 -25 -26 -27 -28 28 29 -31
leaf_value=-0.016554019839019819 0.23662308485679376 2.3547964854240422 2.7874868583679202 -1.5093090803726861 -0.60734577044716165 1.3695814902132208 -0.65690148184376385 -0.94731148210438809 -2.0654951942272675 2.1246136569976808 0.98158964830286366 0.44914967255158866 -4.1728609862327577 1.0534334659576416 -1.487267696446386 3.3755406188964843 0.053695119170914352 -2.2940583159283894 3.3705115547180178 3.610032444389967 -2.1877965837717057 -1.55373633259382 -2.3269371780482206 -1.4084637288124331 1.4332509485158056 0.31064520948710517 0.3478640044889143 2.8270951789358389 0.90930436801910397 -1.9758016005806303
leaf_weight=23560 153 25 35 46 232 66 31 22 39 20 34 22 25 38 29 20 1836 41 25 26 32 39 22 31 99 776 31 23 25 23
leaf_count=23560 153 25 35 46 232 66 31 22 39 20 34 22 25 38 29 20 1836 41 25 26 32 39 22 31 99 776 31 23 25 23
internal_value=0 0.534119 -0.00348918 -0.28446 -0.177344 0.161978 -0.187592 1.34599 -0.698785 -0.294984 -0.727055 -1.47185 -2.22653 0.00253553 0.146871 0.95244 0.0859738 -0.888075 0.124419 0.411786 -0.0119671 0.316316 0.0255068 -0.0526363 0.708912 0.403975 1.69726 -0.00818402 0.595949 -0.473142
internal_weight=0 178 27248 572 526 294 228 57 171 132 112 78 56 26676 3116 219 2897 110 2787 897 1890 871 1858 69 199 832 56 100 71 48
internal_count=27426 178 27248 572 526 294 228 57 171 132 112 78 56 26676 3116 219 2897 110 2787 897 1890 871 1858 69 199 832 56 100 71 48
is_linear=0
shrinkage=0.1


Tree=83
num_leaves=31
num_cat=0
split_feature=2 1 9 2 1 8 3 8 6 6 6 7 1 6 7 2 1 8 8 2 4 1 7 2 7 1 2 1 1 4
split_gain=4750.47 7662.58 14269.6 6764.79 6949.31 5435.61 10271.8 7812.91 4489.96 9439.17 6404.83 6748.53 11365.6 8202.01 6380.06 6355.47 5873.89 18188.7 7568.25 5749.1 8006.15 6400.56 5455.24 22188.6 9390.96 10246.5 8887.97 10946.1 8421.14 7987.85
threshold=4.209212975448259 54015.000000000007 1.0000000180025095e-35 4.6285052552563881 38503.000000000007 111.21428550000002 4.5000000000000009 112.82142850000001 9.5000000000000018 4.5000000000000009 11.500000000000002 1.5000000000000002 255346.00000000003 10.500000000000002 5.5000000000000009 20.472340628661595 123906.00000000001 71.933333000000019 73.550118933333351 14.217432089598018 3.5000000000000004 162301.50000000003 4.5000000000000009 20.472340628661595 3.5000000000000004 303942.50000000006 14.551792934264737 229328.00000000003 242919.50000000003 3.5000000000000004
decision_type=2 2 2 2 2 2 2 2 2 2 2 2 2 2 2 2 2 2 2 2 2 2 2 2 2 2 2 2 2 2
left_child=1 -1 -3 4 -2 8 -7 -8 9 -5 11 12 16 -14 -13 -16 17 -10 -19 -18 21 -21 24 28 26 29 27 -12 -24 -26
right_child=3 2 -4 5 -6 6 7 -9 10 -11 22 14 13 -15 15 -17 19 18 -20 20 -22 -23 23 -25 25 -27 -28 -29 -30 -31
leaf_value=0.88063706381648199 -2.0032512563647646 1.1298156699408657 -1.1792320656590165 0.049238933144218726 -0.26186528105040391 2.559573217060255 0.89138249360463195 -0.8563434292630453 0.36173621989213506 -0.09094275190373774 0.0417566936883213 0.24246873969859123 -2.8272760190656068 -0.50753141777856015 -0.0051653742097144909 -1.6858893394470216 1.4231809270381928 -3.5618236490658357 -0.87707822776976097 1.8219841886449744 -1.2823969019181802 -0.069637524181941773 0.099159765821678292 -2.4860870227217675 -0.64929701391246619 0.93830522344274037 0.75681931576882189 -1.9356052509943646 1.0509370183535651 -0.085949405660475056
leaf_weight=153 33 46 64 8575 75 23 68 41 78 10921 419 3137 27 35 1032 23 40 21 21 27 33 53 1049 32 609 59 171 30 102 429
leaf_count=153 33 46 64 8575 75 23 68 41 78 10921 419 3137 27 35 1032 23 40 21 21 27 33 53 1049 32 609 59 171 30 102 429
internal_value=0 0.422959 -0.21363 -0.00409521 -0.793955 -0.00094219 0.639198 0.233981 -0.00408071 -0.0292861 0.0620839 0.13641 -0.295494 -1.51774 0.170925 -0.0418067 -0.0179143 -0.541679 -2.21945 0.392882 0.0281742 0.568785 -0.0539416 0.111293 -0.167787 -0.343605 0.143297 -0.090361 0.183505 -0.416468
internal_weight=0 263 110 27163 108 27055 132 109 26923 19496 7427 4527 335 62 4192 1055 273 120 42 153 113 80 2900 1183 1717 1097 620 449 1151 1038
internal_count=27426 263 110 27163 108 27055 132 109 26923 19496 7427 4527 335 62 4192 1055 273 120 42 153 113 80 2900 1183 1717 1097 620 449 1151 1038
is_linear=0
shrinkage=0.1


Tree=84
num_leaves=31
num_cat=0
split_feature=4 4 2 1 2 2 4 4 1 2 2 1 2 8 1 0 1 2 2 0 1 4 8 2 4 3 2 6 2 2
split_gain=4147.54 7370.91 11650.3 7201.82 10906.2 7060.88 7435.34 11902.8 17225.3 10795.8 10465.6 13426.4 10888 18800 16309.4 16312 15815.8 14933.4 14221.2 11199 10499 9494.81 14480.6 9116.55 8831.31 9962.71 7485.11 7422.32 7017.93 23812.5
threshold=7.5000000000000009 6.5000000000000009 11.29962391281787 95004.000000000015 5.2092129443060671 1.0000000180025095e-35 5.5000000000000009 1.0000000180025095e-35 56650.000000000007 5.2092129443060671 7.3790759488177686 120905.00000000001 14.217432002575164 72.65011893333336 97279.500000000015 1799.0000000000002 204115.50000000003 14.721655870467067 15.094144399223493 1992.5000000000002 283673.50000000006 3.5000000000000004 107.38750000000002 7.0503087695433697 4.5000000000000009 3.5000000000000004 15.384555342817711 6.5000000000000009 9.2119525736375394 9.379075990657304
decision_type=2 2 2 2 2 2 2 2 2 2 2 2 2 2 2 2 2 2 2 2 2 2 2 2 2 2 2 2 2 2
left_child=1 5 3 -3 -5 -1 7 9 23 -7 11 -10 14 -14 15 -12 17 19 20 -15 -18 22 -16 -9 25 -20 -27 -21 -11 -30
right_child=-2 2 -4 4 -6 6 -8 8 10 28 12 -13 13 16 21 -17 18 -19 24 27 -22 -23 -24 -25 -26 26 -28 -29 29 -31
leaf_value=-1.7872406032952395 0.10531098900115816 -0.24166563297830412 -0.40340857827246696 2.3258359508514403 0.19241138940719016 -2.0508907394409177 0.18482438348351682 -0.46855611171159484 0.067172166128765864 0.28668434421133526 -0.53579405442066486 1.6316860136953562 0.89811513469876536 -0.054833212670157942 -0.49009605295754766 -2.1963660675142562 -2.1601637993733607 0.028915130002471159 -2.6679956674575807 1.1932654880708264 -0.0050622401759028435 -0.13077124957101999 -3.4122408054091715 -1.6208517628747066 0.50213762344225599 1.3312094415227573 -0.49384872040397387 3.4843422981408931 -1.3914261061946551 0.023027486391745188
leaf_weight=22 3291 469 1180 25 577 25 2084 180 212 989 200 74 214 34 74 84 77 792 20 31 32 1361 22 111 115 24 353 26 120 14608
leaf_count=22 3291 469 1180 25 577 25 2084 180 212 989 200 74 214 34 74 84 77 792 20 31 32 1361 22 111 115 24 353 26 120 14608
internal_value=0 -0.01436 -0.186671 0.0521252 0.281009 0.00336399 0.0051659 -0.0137646 -0.166975 0.025516 -0.109387 0.471976 -0.157456 0.0211461 -0.333699 -1.02695 -0.103635 0.168313 -0.490319 1.38154 -1.52747 -0.19857 -1.15975 -0.908092 -0.269519 -0.493047 -0.377665 2.23832 0.0288188 0.0115029
internal_weight=0 24135 2251 1071 602 21884 21862 19778 4036 15742 3745 286 3459 1718 1741 284 1504 883 621 91 109 1457 96 291 512 397 377 57 15717 14728
internal_count=27426 24135 2251 1071 602 21884 21862 19778 4036 15742 3745 286 3459 1718 1741 284 1504 883 621 91 109 1457 96 291 512 397 377 57 15717 14728
is_linear=0
shrinkage=0.1


Tree=85
num_leaves=31
num_cat=0
split_feature=7 8 7 8 2 1 2 4 6 1 1 2 2 2 1 1 1 2 0 1 1 1 2 2 2 2 6 2 2 2
split_gain=4150.58 7742.4 7586.11 7867.89 19520.9 20024.4 13576.3 15744.4 13998.7 11270.1 11967.6 9998.82 17701.1 8439.53 10412.2 8329.44 15157 8218.27 8187.68 7969.53 27923.9 12651.5 9031.34 16908.3 7670.03 16314.4 11579.1 11389.1 9954.4 23951.5
threshold=4.5000000000000009 55.999999500000008 5.5000000000000009 107.53333300000001 17.803847582043719 143144.00000000003 17.970970864129132 3.5000000000000004 1.5000000000000002 335267.50000000006 368270.50000000006 17.721655850362616 17.721655738259763 18.47234063215296 134119.00000000003 123906.00000000001 110802.50000000001 17.551792881060628 2996.5000000000005 159058.50000000003 177158.50000000003 152246.00000000003 18.135240245599938 18.387294947539335 15.888779117351705 15.384555342817711 5.5000000000000009 15.217432200589348 16.888779169740797 17.46960092852828
decision_type=2 2 2 2 2 2 2 2 2 2 2 2 2 2 2 2 2 2 2 2 2 2 2 2 2 2 2 2 2 2
left_child=-1 -2 -3 18 9 13 7 -7 -8 11 -11 12 17 -6 15 16 -15 24 -4 21 -21 -10 -22 -24 25 27 28 -5 -26 -30
right_child=1 2 3 4 5 6 8 -9 19 10 -12 -13 -14 14 -16 -17 -18 -19 -20 20 22 -23 23 -25 26 -27 -28 -29 29 -31
leaf_value=-0.032869671562555845 -0.57867312299135409 0.15144542786597201 -0.089395266244041233 0.25284919434009079 1.7379348263436674 -3.5333967339247465 1.1447724498048122 0.043240549862384799 -0.39394360138819767 3.1925726617376013 0.50638282243595567 2.1221794375351499 -2.668308897245498 -1.1693168988451361 2.1705310130119324 -2.1450280013680461 2.1961763775866965 1.8662086163797686 -1.7477512590090436 1.6633226320147516 1.1709239159311566 -3.6940133781660176 -3.7833431959152222 -0.77404313307533912 -0.086482513255446494 1.2387551763612363 -0.54024511574841672 -2.1018376125643652 2.3093299963435192 -1.6062735483759927
leaf_weight=16002 195 4833 3914 940 51 32 49 20 26 27 43 28 21 32 20 20 23 31 30 52 21 21 20 281 137 180 274 21 61 21
leaf_count=16002 195 4833 3914 940 51 32 49 20 26 27 43 28 21 32 20 20 23 31 30 52 21 21 20 281 137 180 274 21 61 21
internal_value=0 0.0460417 0.0568904 -0.0145582 0.126106 -0.334999 -0.624555 -2.15777 -0.454923 0.298762 1.54248 0.247968 0.216842 0.700265 0.1432 -0.397422 0.238071 0.253231 -0.10201 -0.641111 -0.486874 -1.86844 -0.834111 -0.973997 0.22263 0.365044 -0.106973 0.201394 0.435111 1.30655
internal_weight=0 11424 11229 6396 2452 668 522 52 470 1784 70 1714 1686 146 95 75 55 1665 3944 421 374 47 322 301 1634 1141 493 961 219 82
internal_count=27426 11424 11229 6396 2452 668 522 52 470 1784 70 1714 1686 146 95 75 55 1665 3944 421 374 47 322 301 1634 1141 493 961 219 82
is_linear=0
shrinkage=0.1


Tree=86
num_leaves=31
num_cat=0
split_feature=2 1 9 2 1 7 6 1 0 1 1 4 2 7 2 1 2 1 2 1 3 2 8 2 1 4 2 0 1 8
split_gain=3977.09 6165.39 11185.9 5460.6 5433.23 4325.13 8497.96 9036.3 8378.15 9940.54 15050.2 17817.4 7863.84 7512.05 9008.73 15193.4 10287 10836 10710.4 10147.5 8530 17104 7566.44 10807.6 7350.2 7998.67 8664.09 8173.56 9277.49 6613.69
threshold=4.209212975448259 54015.000000000007 1.0000000180025095e-35 4.6285052552563881 38503.000000000007 1.5000000000000002 2.5000000000000004 476144.00000000006 2263.0000000000005 99694.000000000015 160614.00000000003 2.5000000000000004 20.639463998301956 3.5000000000000004 14.721655870467067 66503.500000000015 16.469601019168781 176301.00000000003 15.636724168662615 156507.00000000003 2.5000000000000004 8.5463133228274444 55.999999500000008 14.217432089598018 265638.00000000006 4.5000000000000009 15.384555342817711 1785.0000000000002 143144.00000000003 69.19642850000001
decision_type=2 2 2 2 2 2 2 2 2 2 2 2 2 2 2 2 2 2 2 2 2 2 2 2 2 2 2 2 2 2
left_child=1 -1 -3 4 -2 6 12 8 -8 -10 -11 -12 -5 14 29 -16 18 -18 24 -20 21 -15 23 -22 25 26 27 -17 -29 -7
right_child=3 2 -4 5 -6 13 7 -9 9 10 11 -13 -14 20 15 16 17 -19 19 -21 22 -23 -24 -25 -26 -27 -28 28 -30 -31
leaf_value=0.79753918215340258 -1.7826734712629611 1.00543955810692 -1.0389424726366998 0.50330474908204426 -0.24291274233783289 -0.07665611806529285 -0.13113449288680409 -1.7718004619753041 -2.6408530695097792 1.315577808334943 -2.5572646099467615 0.89096481800079352 -1.0444667916040165 0.93771321255227802 2.5293357849121096 0.36531996758731866 -2.7983212327957157 0.27272404034932457 0.55982005640461641 3.0125625025841498 -0.68971242623134166 -2.5349260616946867 -0.0024967246580442021 1.5236661950747172 1.6827189745174516 0.84375983896802687 -2.1434248781204226 0.5329764593215216 -2.2075249393781027 0.20341064726611724
leaf_weight=153 33 46 64 291 75 1541 1608 37 28 31 43 23 37 23 35 169 20 27 37 31 273 37 20649 24 36 122 20 21 30 1862
leaf_count=153 33 46 64 291 75 1541 1608 37 28 31 43 23 37 23 35 169 20 27 37 31 273 37 20649 24 36 122 20 21 30 1862
internal_value=0 0.387002 -0.184019 -0.00374706 -0.713395 -0.000914239 -0.138816 -0.225453 -0.192438 -0.981049 -0.501931 -1.35561 0.328709 0.0106784 0.137182 0.513468 0.375933 -1.0341 0.518147 1.67798 -0.0131155 -1.20375 -0.00970488 -0.510854 0.319985 0.184464 -0.150678 0.0304811 -1.07908 0.0765864
internal_weight=0 263 110 27163 108 27055 2098 1770 1733 125 97 66 328 24957 3951 548 513 47 466 68 21006 60 20946 297 398 362 240 220 51 3403
internal_count=27426 263 110 27163 108 27055 2098 1770 1733 125 97 66 328 24957 3951 548 513 47 466 68 21006 60 20946 297 398 362 240 220 51 3403
is_linear=0
shrinkage=0.1


Tree=87
num_leaves=31
num_cat=0
split_feature=3 2 0 4 1 6 6 2 0 2 3 0 2 2 7 2 1 1 1 2 7 1 4 0 1 2 2 2 2 1
split_gain=3863.51 8295.32 7416.2 6131.66 5887.43 4062.41 17304.2 7070.43 8738.15 7001.83 10559.4 7325.38 10792.2 17213 13591.7 11361.9 10467.8 11980.8 10430.9 10264.3 9240.14 8898.17 8650.77 8124.6 12040.7 7647.92 14046.9 9658.93 8160.39 10390
threshold=5.5000000000000009 4.9627517670015413 1992.5000000000002 1.0000000180025095e-35 19772.000000000004 8.5000000000000018 7.5000000000000009 20.806587276778576 1785.0000000000002 10.21469248208936 4.5000000000000009 1797.5000000000002 19.724395641745982 18.806587243049698 3.5000000000000004 12.214692322379818 80812.500000000015 101731.00000000001 291515.00000000006 12.968231088495889 5.5000000000000009 354438.50000000006 4.5000000000000009 2263.0000000000005 116165.50000000001 17.469601122514675 20.387294963465205 17.803847497836163 19.554532478955739 246705.50000000003
decision_type=2 2 2 2 2 2 2 2 2 2 2 2 2 2 2 2 2 2 2 2 2 2 2 2 2 2 2 2 2 2
left_child=5 -2 3 4 -3 6 -1 -7 -9 10 -8 18 13 14 19 16 -16 -18 25 -13 22 -20 23 24 -17 -11 27 -27 29 -29
right_child=1 2 -4 -5 -6 7 9 8 -10 11 -12 12 -14 -15 15 20 17 -19 21 -21 -22 -23 -24 -25 -26 26 -28 28 -30 -31
leaf_value=0.002879463453435583 2.3309537214892253 -0.068299739360809339 1.9637467157273065 -0.73677664333537451 1.8711365034182865 0.065451122191493266 1.1043940144119326 -1.9560848464284626 -0.23448807111079681 -0.35498965896035506 -0.19574830925986847 -0.55329916920772815 0.81790135847197643 -2.5446492190454522 0.23841027052300734 -1.7504546135663988 -3.6078869536519051 -1.060412889905274 -2.454356631072792 -2.6326552867889408 -0.59236980517638604 0.085236348076300192 -0.99625268002351131 2.2663149230182174 1.0455236701822992 2.2413301784545183 -1.2688155523640043 -0.35050022979417156 1.508185055725118 2.105698354244232
leaf_weight=16265 21 45 21 67 24 8875 77 35 187 514 331 43 45 51 41 20 24 80 37 53 149 22 30 32 67 32 47 124 47 20
leaf_count=16265 21 45 21 67 24 8875 77 35 187 514 331 43 45 51 41 20 24 80 37 53 149 22 30 32 67 32 47 124 47 20
internal_value=0 0.464373 0.214703 -0.0553695 0.606287 -0.00303356 -0.0303688 0.0515078 -0.505911 -0.317105 0.0496217 -0.418339 -0.674849 -0.788703 -0.622556 -0.388793 -1.11481 -1.64829 -0.22512 -1.70128 -0.0355289 -1.50739 0.521312 0.903891 0.40277 -0.128622 0.302314 0.633449 0.364066 -0.00936154
internal_weight=0 178 157 136 69 27248 18151 9097 222 1886 408 1478 635 590 539 443 145 104 843 96 298 59 149 119 87 784 270 223 191 144
internal_count=27426 178 157 136 69 27248 18151 9097 222 1886 408 1478 635 590 539 443 145 104 843 96 298 59 149 119 87 784 270 223 191 144
is_linear=0
shrinkage=0.1


Tree=88
num_leaves=31
num_cat=0
split_feature=0 1 6 1 1 1 6 4 6 3 1 1 1 2 2 0 1 2 2 1 1 6 1 8 6 2 6 2 8 3
split_gain=3710.6 6914.78 10647.8 8554.25 16989.9 20174.5 9654.02 10437.3 8622.33 7882.51 7471.65 18773.4 14402.8 13679.5 17531.3 6439.84 11757.3 18401 15742.3 12686.9 12282.2 10521 10453.5 10645.3 10085.8 14204.5 8722.45 8538.87 9874.39 14890
threshold=2726.5000000000005 95004.000000000015 6.5000000000000009 111574.50000000001 123148.00000000001 129500.50000000001 2.5000000000000004 6.5000000000000009 3.5000000000000004 4.5000000000000009 182816.00000000003 206687.00000000003 221889.50000000003 16.888779169740797 18.055788138460318 2263.0000000000005 165007.50000000003 14.217431932097645 14.384555310000369 335267.50000000006 160614.00000000003 4.5000000000000009 171314.00000000003 108.42500000000001 10.500000000000002 14.217432089598018 6.5000000000000009 14.469600940678431 107.38750000000002 4.5000000000000009
decision_type=2 2 2 2 2 2 2 2 2 2 2 2 2 2 2 2 2 2 2 2 2 2 2 2 2 2 2 2 2 2
left_child=15 2 -2 9 -5 -6 -7 8 -8 -3 13 -12 -13 -10 -15 -1 20 19 -19 22 24 -22 -18 -24 27 -26 -20 28 29 -17
right_child=1 3 -4 4 5 6 7 -9 10 -11 11 12 -14 14 -16 16 17 18 26 -21 21 -23 23 -25 25 -27 -28 -29 -30 -31
leaf_value=-0.012395698067411443 2.0221225974150001 -0.46578709975532862 -0.48489664428763923 1.7719420113061604 -3.1909804344177246 -1.4927654348720205 1.5295453795760467 -1.9533051773353858 -2.0008795343339445 -3.1802730560302734 2.1941628736693684 -2.6620715788432534 0.21621332004076185 2.5272081310098824 -0.89314981787762759 -0.7059929642769589 1.5017733453025282 2.408104060797752 -0.76782836505344942 -1.1643866461515426 0.23446692228317262 -2.4538855520454614 0.12333473614744948 1.4796765123094833 0.36431025182802368 3.1025411915779113 1.4202101707458497 -1.9771043549413267 0.29097187055418122 0.078722916037653579
leaf_weight=23729 32 23 36 38 25 55 37 27 48 20 41 21 101 22 47 394 71 79 35 60 24 37 710 63 359 20 38 23 585 626
leaf_count=23729 32 23 36 38 25 55 37 27 48 20 41 21 101 22 47 394 71 79 35 60 24 37 710 63 359 20 38 23 585 626
internal_value=0 -0.251802 0.694877 -0.379276 -0.253714 -0.435259 -0.262594 -0.0659099 0.0948461 -1.72834 -0.0947391 0.342912 -0.279229 -0.704459 0.197399 0.00537306 0.140339 0.411822 1.42983 0.240653 0.00170992 -1.39617 0.340537 0.233877 0.0441966 0.508808 0.371151 -0.0639653 -0.0365496 -0.224393
internal_weight=0 573 68 505 462 424 399 344 317 43 280 163 122 117 69 26853 3124 1056 152 904 2068 61 844 773 2007 379 73 1628 1605 1020
internal_count=27426 573 68 505 462 424 399 344 317 43 280 163 122 117 69 26853 3124 1056 152 904 2068 61 844 773 2007 379 73 1628 1605 1020
is_linear=0
shrinkage=0.1


Tree=89
num_leaves=31
num_cat=0
split_feature=7 2 10 2 2 2 2 2 1 0 2 7 1 1 2 2 1 3 2 2 1 1 1 1 2 4 1 6 2 2
split_gain=3490.11 6252.69 6217.88 15927.4 20015.6 27948.1 23351.2 19843 20377.1 18902.9 24705.4 17861.4 16798.1 16394.4 17128.8 28090.7 19002.4 16796.8 15817.6 13437.4 13409.3 11215 11013 14798.9 10509.7 10102.1 17290.9 9658.66 9919.17 9504.29
threshold=4.5000000000000009 23.061267622958475 1.0000000180025095e-35 18.220171760026293 19.724395641745982 19.724395453491873 19.806587244436397 14.217432089598018 303942.50000000006 2263.0000000000005 10.466861190835731 3.5000000000000004 49120.500000000007 401850.00000000006 15.803847657335021 15.721655897678408 164102.00000000003 3.5000000000000004 19.639464012347762 14.217432002575164 119404.00000000001 116165.50000000001 130401.50000000001 105104.00000000001 16.217431962237601 4.5000000000000009 83725.500000000015 11.500000000000002 14.384555310000369 15.80384752441468
decision_type=2 2 2 2 2 2 2 2 2 2 2 2 2 2 2 2 2 2 2 2 2 2 2 2 2 2 2 2 2 2
left_child=2 -2 -1 7 5 18 -6 8 9 10 12 22 -4 14 15 17 29 -9 21 20 25 -5 23 -12 -16 26 -11 28 -19 -17
right_child=1 -3 3 4 6 -7 -8 13 -10 19 11 -13 -14 -15 24 16 -18 27 -20 -21 -22 -23 -24 -25 -26 -27 -28 -29 -30 -31
leaf_value=0.0026116221877460354 0.047902216954085662 -0.92098502045247099 1.9118839898811921 -1.9807157714297805 2.6262618399027624 -3.7065090242773295 -0.15211833946961018 -1.7807408809661867 -2.8390545246191325 0.85603296228564618 -0.41706554960636866 -2.3032829673350359 -0.47843467100542425 2.3326851103040909 -1.2252105307799799 2.4928835494177686 4.1613996462388476 1.657271569490433 1.6918236548150027 -2.3296704530715941 0.63072508641782021 -0.62167248472630277 0.40042218480069763 -3.6683174133300782 -0.020852805971231698 -1.6498522568722163 -1.0557091429327312 1.8528540343708464 0.17125326984380773 -0.48133707344532017
leaf_weight=12540 11357 67 42 69 33 32 363 36 32 101 42 119 98 36 81 21 33 50 27 22 305 506 59 21 687 49 89 45 442 22
leaf_count=12540 11357 67 42 69 33 32 363 36 32 101 42 119 98 36 81 21 33 50 27 22 305 506 59 21 687 49 89 45 442 22
internal_value=0 0.0422198 -0.0301412 -0.148778 -0.478366 -0.826758 0.0794133 -0.00919087 -0.357178 -0.273313 -0.81786 -1.43161 0.238661 0.225276 0.171735 0.549949 2.35641 0.310348 -0.673682 0.0932453 0.191231 -0.784758 -0.581365 -1.50082 -0.147875 -0.36963 -0.0394673 0.450533 0.322271 0.971189
internal_weight=0 11424 16002 3462 1030 634 396 2432 979 947 381 241 140 1453 1417 649 76 573 602 566 544 575 122 63 768 239 190 537 492 43
internal_count=27426 11424 16002 3462 1030 634 396 2432 979 947 381 241 140 1453 1417 649 76 573 602 566 544 575 122 63 768 239 190 537 492 43
is_linear=0
shrinkage=0.1


Tree=90
num_leaves=31
num_cat=0
split_feature=8 8 2 2 1 2 1 1 0 1 2 0 2 1 2 4 2 2 1 1 2 1 4 1 7 2 6 1 6 1
split_gain=3355.88 8213.64 15659.1 15149.1 27727.9 12978.2 12089.3 10759.6 8878.16 8600.92 8499.55 8488.27 13927.6 11821.6 7729.66 9718.77 8008.15 12049.9 15270.7 14730.1 18155.6 21492.5 9930.26 22588.2 11935.3 10783.5 9545.79 27350.3 26461.6 12963.6
threshold=60.141983933333343 71.261904000000015 8.5463133228274444 9.631244963703109 17338.500000000004 8.2119527516493402 165007.50000000003 41364.500000000007 1799.0000000000002 44220.500000000007 13.21469228998698 1653.5000000000002 18.055788322938849 180783.00000000003 15.384555342817711 4.5000000000000009 13.466861406196623 11.801107770228134 32121.500000000004 274454.50000000006 11.801107947435719 133302.00000000003 2.5000000000000004 116959.50000000001 5.5000000000000009 12.801107923923267 7.5000000000000009 110802.50000000001 10.500000000000002 101731.00000000001
decision_type=2 2 2 2 2 2 2 2 2 2 2 2 2 2 2 2 2 2 2 2 2 2 2 2 2 2 2 2 2 2
left_child=-1 2 5 4 -4 6 -2 -6 14 -7 -10 12 13 -3 16 -16 17 18 -5 20 21 -19 24 -24 26 -26 29 -28 -29 -22
right_child=1 11 3 8 7 9 -8 -9 10 -11 -12 -13 -14 -15 15 -17 -18 19 -20 -21 22 -23 23 -25 25 -27 27 28 -30 -31
leaf_value=-0.092909221379975315 0.20067700103016348 -0.53413572538466692 -3.9724251417886642 1.4593609222072237 -1.3767283432758772 -0.027614470310509204 2.708836023807526 -0.12114280167329142 -0.26840894559209938 1.6262677472870366 -2.1427244213010588 -0.0078316680873279122 -0.16497803301221192 -2.6562713827027213 -2.798742166757584 0.15877253389358523 0.35078313123823618 -4.3119097926399927 0.15172848923203663 -1.7409987192032703 -0.26766355874852871 -0.06507284801739914 -1.5216125726215239 0.099807278545279265 0.55878573202169857 2.8508356255292893 0.50417956509373407 -4.149721896275878 -0.35194595499440684 1.1639838233057942
leaf_weight=3405 491 63 21 94 78 40 20 546 178 147 28 17408 495 45 20 25 1485 22 1789 59 127 26 123 285 65 30 110 32 43 126
leaf_count=3405 491 63 21 94 78 40 20 546 178 147 28 17408 495 45 20 25 1485 22 1789 59 127 26 123 285 65 30 110 32 43 126
internal_value=0 0.01317 0.114399 0.0558868 -0.398372 0.559693 0.298844 -0.278091 0.118667 1.2725 -0.52317 -0.0206085 -0.389464 -1.41836 0.148306 -1.15568 0.161594 0.0657407 0.217006 -0.206046 -0.114477 -2.01154 -0.0177083 -0.389003 0.26651 1.28259 0.0461271 -0.499811 -1.97233 0.445331
internal_weight=0 24021 6010 5312 645 698 511 624 4667 187 206 18011 603 108 4461 45 4416 2931 1883 1048 989 48 941 408 533 95 438 185 75 253
internal_count=27426 24021 6010 5312 645 698 511 624 4667 187 206 18011 603 108 4461 45 4416 2931 1883 1048 989 48 941 408 533 95 438 185 75 253
is_linear=0
shrinkage=0.1


Tree=91
num_leaves=31
num_cat=0
split_feature=0 1 6 1 1 1 6 4 6 2 1 1 1 2 6 1 0 1 2 2 1 1 2 6 4 6 2 2 8 2
split_gain=3107.87 5359.12 8688.34 6686.53 13720 16701.7 7755.7 8469.09 6862.49 6363.07 6032.29 14939.8 12040.3 11068.2 16431.4 7616.22 4855.72 9304.12 14658.3 12393.3 10262.6 9741.02 12552.6 22537.7 7877.31 7811.36 10818.5 9077.78 8882.93 16020.7
threshold=2726.5000000000005 95004.000000000015 6.5000000000000009 111574.50000000001 123148.00000000001 129500.50000000001 2.5000000000000004 6.5000000000000009 3.5000000000000004 16.803847552855448 182816.00000000003 206687.00000000003 229328.00000000003 16.888779169740797 9.5000000000000018 274454.50000000006 2263.0000000000005 165007.50000000003 14.217431932097645 14.384555310000369 161531.00000000003 171314.00000000003 13.801107811053509 8.5000000000000018 4.5000000000000009 10.500000000000002 13.381815532659425 14.469600940678431 107.38750000000002 11.801107947435719
decision_type=2 2 2 2 2 2 2 2 2 2 2 2 2 2 2 2 2 2 2 2 2 2 2 2 2 2 2 2 2 2
left_child=16 2 -2 9 -5 -6 -7 8 -8 -3 13 -12 -13 -10 -15 -14 -1 20 21 -20 25 24 -23 -24 -19 27 -27 28 -18 -30
right_child=1 3 -4 4 5 6 7 -9 10 -11 11 12 15 14 -16 -17 17 18 19 -21 -22 22 23 -25 -26 26 -28 -29 29 -31
leaf_value=-0.010511945696781783 1.8018877163529397 -2.7804857957930795 -0.46273908283975396 1.5886631742904063 -2.9021448388099671 -1.3403064414587889 1.3633395037135563 -1.7615558430000586 -1.7997227936983109 -0.34690106348557909 1.9589623459955541 -1.813748323917389 1.3510989824930828 1.4915977476537228 -1.6347180395290772 -0.52130035609006886 -0.21092278201332909 2.5317100947903053 2.1402160643022272 0.33287709379849373 -1.4463416486978531 0.25593629098932624 -0.080281550753606518 -3.6127137889464702 0.40794090569019326 0.1662797706665787 1.4746135032176972 -1.9922291338443756 -0.12422838716534271 0.95436373962319065
leaf_weight=23729 32 21 36 38 25 55 37 27 48 22 41 35 42 40 29 45 1025 31 79 73 48 736 73 24 40 301 80 24 371 219
leaf_count=23729 32 21 36 38 25 55 37 27 48 22 41 35 42 40 29 45 1025 31 79 73 48 736 73 24 40 301 80 24 371 219
internal_value=0 -0.230446 0.602968 -0.342668 -0.231657 -0.394799 -0.237697 -0.0614074 0.0834002 -1.5354 -0.0857346 0.307509 -0.247488 -0.633586 0.177639 0.382617 0.00491735 0.122114 0.363619 1.27222 -0.0012077 0.210845 0.11501 -0.954285 1.33522 0.0331321 0.440996 -0.0616793 -0.03299 0.27613
internal_weight=0 573 68 505 462 424 399 344 317 43 280 163 122 117 69 87 26853 3124 1056 152 2068 904 833 97 71 2020 381 1639 1615 590
internal_count=27426 573 68 505 462 424 399 344 317 43 280 163 122 117 69 87 26853 3124 1056 152 2068 904 833 97 71 2020 381 1639 1615 590
is_linear=0
shrinkage=0.1


Tree=92
num_leaves=31
num_cat=0
split_feature=6 6 6 2 3 2 4 9 4 6 1 6 2 4 2 1 1 8 3 2 8 0 2 1 8 6 6 1 2 1
split_gain=3103.64 8296.54 7735.3 6483.65 7885.79 7172.49 7030.4 7168.49 6159.3 12161.5 6801.2 9943.09 7586.37 7509.37 6706.31 11675.9 6419.5 6305.42 8688.57 6896.03 6196.33 8791.64 6084.66 12895.4 5834.64 17750.7 21555.1 17730.2 17384.6 14600.6
threshold=4.5000000000000009 8.5000000000000018 7.5000000000000009 10.80110782483724 4.5000000000000009 12.299623792800263 3.5000000000000004 1.0000000180025095e-35 1.0000000180025095e-35 6.5000000000000009 239481.50000000003 5.5000000000000009 12.801107923923267 4.5000000000000009 12.466861404626991 168653.50000000003 124703.50000000001 72.65011893333336 4.5000000000000009 7.798368263901204 70.380952000000022 1799.0000000000002 7.1270211328533843 32121.500000000004 107.38750000000002 3.5000000000000004 2.5000000000000004 299250.00000000006 17.803847582043719 202896.50000000003
decision_type=2 2 2 2 2 2 2 2 2 2 2 2 2 2 2 2 2 2 2 2 2 2 2 2 2 2 2 2 2 2
left_child=24 2 8 4 6 -5 7 -4 22 10 11 -10 20 -13 15 17 -16 -15 -19 -20 -12 -22 23 -2 -1 26 28 -27 29 -26
right_child=1 -3 3 5 -6 -7 -8 -9 9 -11 12 13 -14 14 16 -17 -18 18 19 -21 21 -23 -24 -25 25 27 -28 -29 -30 -31
leaf_value=0.0018157736972277316 0.11853761382793125 0.044795707062100849 0.48707431875742402 -0.93421186966449032 -0.16919811368563184 -0.28718372586530061 0.033483461904944035 2.8586780109405519 0.0082099056110606274 0.12693005537701163 -2.6080418846823954 -1.0422720963954109 -0.37677845920577197 0.0034695898099764162 -0.76796273953384819 -1.7382125396387917 0.40490032340917326 0.67699915463370941 -0.77232800019638881 -2.5844604845841728 0.68328009518710053 -1.8541047975420952 0.041563581658849977 -2.9692053519544146 0.11529483770038568 -0.11865501899279328 0.82854129965432355 -2.107982481742392 -0.49533178305045245 1.2154637991250317
leaf_weight=6542 38 9180 26 200 389 1195 57 25 872 1007 33 182 165 219 63 70 180 28 70 30 22 36 4577 21 510 523 610 49 349 158
leaf_count=6542 38 9180 26 200 389 1195 57 25 872 1007 33 182 165 219 63 70 180 28 70 30 22 36 4577 21 510 523 610 49 349 158
internal_value=0 -0.0230085 -0.0884943 -0.269453 0.0406869 -0.379948 0.796661 1.64963 -0.043522 -0.155768 -0.300274 -0.228466 -0.781052 -0.473574 -0.316751 -0.560086 0.100825 -0.322424 -0.880006 -1.31597 -1.51408 -0.891648 0.0285564 -0.98049 0.0491836 0.190102 0.358564 -0.289069 0.0766695 0.375514
internal_weight=0 18685 9505 1892 497 1395 108 51 7613 2977 1970 1714 256 842 660 417 243 347 128 100 91 58 4636 59 8741 2199 1627 572 1017 668
internal_count=27426 18685 9505 1892 497 1395 108 51 7613 2977 1970 1714 256 842 660 417 243 347 128 100 91 58 4636 59 8741 2199 1627 572 1017 668
is_linear=0
shrinkage=0.1


Tree=93
num_leaves=31
num_cat=0
split_feature=11 2 2 2 2 1 1 1 2 2 2 2 1 1 2 3 4 4 7 2 1 2 2 1 1 2 1 4 1 3
split_gain=3216.84 7439.65 7851.62 16407 14173.3 9302.13 6844.42 6212.45 6370.42 7771.18 6146.22 10868.1 11589.7 11374.3 10131.8 6011.56 5899.62 4814.96 16974.9 8454.7 9130.35 4714.58 10587 8754.83 6625.82 6487.64 5101.48 7877.7 9092.11 8249.27
threshold=1.0000000180025095e-35 5.7956285023893859 12.718916187160282 12.718916072251089 12.801107787393546 255346.00000000003 156507.00000000003 201367.00000000003 12.801107923923267 12.968231088495889 13.214692413115907 13.299623815287461 107303.50000000001 159903.00000000003 13.21469228998698 4.5000000000000009 4.5000000000000009 1.0000000180025095e-35 3.5000000000000004 12.299623792800263 143144.00000000003 11.886039350374089 11.29962391281787 220701.00000000003 126930.00000000001 11.466861230384714 177158.50000000003 7.5000000000000009 65402.500000000007 4.5000000000000009
decision_type=2 2 2 2 2 2 2 2 2 2 2 2 2 2 2 2 2 2 2 2 2 2 2 2 2 2 2 2 2 2
left_child=-1 -2 3 17 -4 7 -5 8 -6 16 14 -12 -13 15 -11 -14 -10 18 -3 21 -21 22 26 24 -23 -24 27 -19 -29 -30
right_child=1 2 4 6 5 -7 -8 -9 9 10 11 12 13 -15 -16 -17 -18 19 -20 20 -22 23 25 -25 -26 -27 -28 28 29 -31
leaf_value=-0.0097084830913593372 1.126481830612035 2.47996763586998 2.6327779105731421 -3.3203580617904667 -1.1018983670643399 1.6021772951799997 -0.7355063847133092 -0.71974127370378249 2.2679750085279751 0.32684186609352339 1.9349243399500846 -1.8360856221272397 0.66700677673021957 -0.71615911599917292 -2.5096746632456779 2.905228332281113 0.22847813523334004 -0.49957701433999846 0.1302562724881702 -2.9216352534294128 -0.4691998817144879 -0.14580609364943073 -2.164768116538589 -0.62007332170331808 1.9569272775916344 -0.29211437154460596 0.57200307546974094 1.2306351554225869 0.9912320268356194 -0.35513987678978309
leaf_weight=25386 71 33 28 20 28 49 21 69 37 34 40 26 30 39 20 20 23 271 450 20 63 22 37 37 47 37 139 71 59 199
leaf_count=25386 71 33 28 20 28 49 21 69 37 34 40 26 30 39 20 20 23 271 450 20 63 22 37 37 47 37 139 71 59 199
internal_value=0 0.120814 0.0845502 -0.0230422 0.455173 0.30825 -1.99641 0.13502 0.333601 0.48302 0.195036 0.515118 0.0212725 0.563872 -0.72372 1.5623 1.48617 0.0314414 0.290796 -0.0935767 -1.06015 -0.00628021 -0.0880648 0.620992 1.28649 -1.22844 0.0261272 -0.100334 0.228526 -0.0472486
internal_weight=0 2040 1969 1526 443 415 41 366 297 269 209 155 115 89 54 50 60 1485 483 1002 83 919 813 106 69 74 739 600 329 258
internal_count=27426 2040 1969 1526 443 415 41 366 297 269 209 155 115 89 54 50 60 1485 483 1002 83 919 813 106 69 74 739 600 329 258
is_linear=0
shrinkage=0.1


Tree=94
num_leaves=31
num_cat=0
split_feature=3 1 2 2 3 2 2 2 1 2 1 2 3 2 2 2 2 1 2 0 2 2 6 2 1 2 1 9 6 2
split_gain=3057.33 7017.53 3028.52 28726.6 28148.8 23792.5 42209.7 23637.8 21169.7 20010.8 24165.6 22370.8 19434 17307.8 17255 28328.9 22081.1 16908.2 15319.1 13704.5 13403.3 30467.6 13351.3 13076.4 12772.2 12534.8 11551.8 11161.5 11653.5 10653.2
threshold=5.5000000000000009 79880.000000000015 14.217431932097645 14.217432002575164 4.5000000000000009 14.053048458135965 13.968231261337571 14.217432089598018 118503.00000000001 17.888778990853442 86308.000000000015 17.721655850362616 3.5000000000000004 18.055788322938849 14.469601081753671 15.217431998125011 14.469600940678431 141508.00000000003 20.973710499035555 1992.5000000000002 14.384555445129317 14.384555310000369 10.500000000000002 18.47234063215296 110069.50000000001 17.803847497836163 145066.50000000003 1.0000000180025095e-35 9.5000000000000018 12.299623792800263
decision_type=2 2 2 2 2 2 2 2 2 2 2 2 2 2 2 2 2 2 2 2 2 2 2 2 2 2 2 2 2 2
left_child=2 -2 5 4 17 6 29 22 9 11 13 12 -9 -11 16 24 20 -4 19 -12 21 -14 -5 -15 27 -13 -8 -16 -29 -1
right_child=1 -3 3 7 -6 -7 26 8 -10 10 18 25 14 23 15 -17 -18 -19 -20 -21 -22 -23 -24 -25 -26 -27 -28 28 -30 -31
leaf_value=0.020075641056824176 0.080504161542911332 1.598472046546447 1.6604277119636537 -2.0015368665429367 0.21165999126931034 -0.8849241028013437 1.1441763986240734 -2.5914728686923074 -0.029211358090889979 -3.2580523057778681 0.47418920692474215 4.2691663617673132 0.46290798297394881 1.1694035723805427 1.7742908458086859 0.26117380712737986 -2.5335901193129713 5.4173722764720091 2.2233305546972488 -0.62787730217665094 1.7322126523042336 -3.3575622104936174 0.80780345655622954 -1.0585926557847318 0.035948719633252996 1.1880358745974879 3.2814100658021328 1.1399200669254166 -1.3620118493835132 -0.18587301856765068
leaf_weight=10146 139 39 25 87 60 322 66 21 10763 30 321 23 92 32 289 870 39 23 36 174 39 27 21 149 76 31 41 83 24 3338
leaf_count=10146 139 39 25 87 60 322 66 21 10763 30 321 23 92 32 289 870 39 23 36 174 39 27 21 149 76 31 41 83 24 3338
internal_value=0 0.413093 -0.00269856 0.031355 1.65565 -0.0353374 -0.0152088 0.0180924 0.0302217 0.301732 -0.128096 0.499335 0.430069 -1.03342 0.471298 0.599589 -0.402641 3.46063 0.231646 0.0867961 0.123352 -0.403921 -1.45528 -0.664693 1.22336 2.50037 1.96312 1.45125 0.578739 -0.0309075
internal_weight=0 178 27248 13335 108 13913 13591 13227 13119 2356 742 1614 1560 211 1539 1342 197 48 531 495 158 119 108 181 472 54 107 396 107 13484
internal_count=27426 178 27248 13335 108 13913 13591 13227 13119 2356 742 1614 1560 211 1539 1342 197 48 531 495 158 119 108 181 472 54 107 396 107 13484
is_linear=0
shrinkage=0.1


Tree=95
num_leaves=31
num_cat=0
split_feature=7 6 1 0 1 1 4 6 2 2 1 7 3 2 2 0 8 1 4 1 2 2 1 1 2 2 2 2 2 2
split_gain=2908.31 6824.1 7131.39 6855.3 7687.68 11672.9 13643.4 6689.02 15925.6 11090.9 5971.65 5692.76 9074.1 15971.2 8193.92 6895.28 8154.41 8593.78 8161.21 7923.76 8404.19 7863.29 7471.63 10237 6903.63 6277.14 97981.4 95997.2 50623.2 30820.4
threshold=1.5000000000000002 2.5000000000000004 476144.00000000006 2263.0000000000005 99694.000000000015 160614.00000000003 2.5000000000000004 1.5000000000000002 20.0585278870949 16.551792737947281 97279.500000000015 3.5000000000000004 2.5000000000000004 8.2119527516493402 1.0000000180025095e-35 2996.5000000000005 109.60003963333334 156507.00000000003 5.5000000000000009 182816.00000000003 15.721655695694279 15.384555342817711 138057.50000000003 123906.00000000001 3.713436701193165 19.724395641745982 19.806587244436397 19.724395453491873 19.639464012347762 19.472340637515984
decision_type=2 2 2 2 2 2 2 2 2 2 2 2 2 2 2 2 2 2 2 2 2 2 2 2 2 2 2 2 2 2
left_child=1 7 3 -3 -5 -6 -7 8 -1 10 -9 15 13 -13 -14 16 21 22 19 -19 -21 24 23 -18 -2 27 -27 28 29 -16
right_child=11 2 -4 4 5 6 -8 9 -10 -11 -12 12 14 -15 25 -17 17 18 -20 20 -22 -23 -24 -25 -26 26 -28 -29 -30 -31
leaf_value=0.32935721479310581 1.7008435399444015 -0.10593570986390573 -1.5638616154322753 -2.3341511726379394 1.1474867863039817 -2.2564967875563822 0.7609214311060698 1.520555099003293 -2.1106804136303254 2.2416570228338242 -0.23363423641177195 0.96406544772061431 -1.5150063104099698 -2.3758533637698105 -0.0022247786763269096 -1.2401398314012064 0.064154167667031289 2.0215746337717233 2.6202197612235043 -1.0044193886220456 1.4160542552287763 -1.2524876710980439 -1.2046168491244318 2.3639581238230067 0.095868573875327046 3.2644767410054651 0.0014048708019995251 -3.2099866108691439 2.2153886372552196 -1.0188651519240473
leaf_weight=163 27 1622 37 28 31 43 23 27 32 40 69 22 36 41 18811 37 100 33 33 32 26 43 32 24 3625 97 1793 94 102 303
leaf_count=163 27 1622 37 28 31 43 23 27 32 40 69 22 36 41 18811 37 100 33 33 32 26 43 32 24 3625 97 1793 94 102 303
internal_value=0 -0.112652 -0.190024 -0.160927 -0.874498 -0.453155 -1.20497 0.304362 -0.0710592 0.842651 0.259732 0.00941326 -0.0111697 -1.20953 -0.00761455 0.118684 0.131333 0.651635 1.27303 0.784483 0.0806205 0.0919051 0.157709 0.509278 0.107734 -0.00505483 0.168875 -0.0220785 -0.00648401 -0.0183408
internal_weight=0 2115 1784 1747 125 97 66 331 195 136 96 25311 21299 63 21236 4012 3975 280 124 91 58 3695 156 124 3652 21200 1890 19310 19216 19114
internal_count=27426 2115 1784 1747 125 97 66 331 195 136 96 25311 21299 63 21236 4012 3975 280 124 91 58 3695 156 124 3652 21200 1890 19310 19216 19114
is_linear=0
shrinkage=0.1


Tree=96
num_leaves=31
num_cat=0
split_feature=11 2 2 2 2 1 1 1 1 1 3 6 2 6 1 6 2 2 2 1 6 2 6 2 4 2 4 1 2 7
split_gain=2848.12 5890.84 6874.42 13031.5 11549.2 7464.72 5543.98 5084.37 5856.15 12099.9 10214.1 10234 5495.58 4999.86 8013.74 6125.62 4347.09 11310.7 12347.5 6322.63 4482.45 9007.79 11142.2 7044.64 14367.4 13312.1 9718.9 6542.98 5749.01 5251.16
threshold=1.0000000180025095e-35 5.7956285023893859 12.718916187160282 12.718916072251089 12.801107787393546 255346.00000000003 156507.00000000003 201367.00000000003 129500.50000000001 142344.50000000003 4.5000000000000009 8.5000000000000018 13.299623815287461 2.5000000000000004 184891.00000000003 9.5000000000000018 12.633984527642399 12.466861256192209 12.466861404626991 102456.00000000001 5.5000000000000009 12.053048408706305 3.5000000000000004 9.4641216408759963 3.5000000000000004 9.8832996391236865 4.5000000000000009 129500.50000000001 8.9654914915905461 5.5000000000000009
decision_type=2 2 2 2 2 2 2 2 2 2 2 2 2 2 2 2 2 2 2 2 2 2 2 2 2 2 2 2 2 2
left_child=-1 -2 3 16 -4 7 -5 8 10 -10 11 -6 -12 -11 15 -15 17 20 -19 -18 21 29 27 24 -22 -25 -26 -23 -28 -3
right_child=1 2 4 6 5 -7 -8 -9 9 13 12 -13 -14 14 -16 -17 19 18 -20 -21 23 22 -24 25 26 -27 28 -29 -30 -31
leaf_value=-0.0091351561116680604 1.0085637787698021 0.36936593608158397 2.3939127360071457 -2.9695123600959779 -1.9913088656873221 1.454688545270842 -0.64314595177060085 -0.63287500242392225 2.4225821438957666 -1.0100010961294175 1.0753261770520892 0.67111572135578512 -0.73069036525228759 0.70744835138320927 2.3788742791116237 -1.3693118965625763 -0.22103791009812129 -2.9893850950094372 0.036972783432741255 2.2048011898994448 1.6193031082230231 1.3864906257390976 2.2765335917472842 -2.7573195457458497 -1.8265495138508934 -0.23559428012791883 -0.062746856978778673 -1.0625351876020432 1.2213622750305548 -0.3052065330007418
leaf_weight=25386 71 287 28 20 42 49 21 69 34 24 63 22 23 49 20 20 21 26 28 22 62 20 46 22 28 432 233 24 41 193
leaf_count=25386 71 287 28 20 42 49 21 69 34 24 63 22 23 49 20 20 21 26 28 22 62 20 46 22 28 432 233 24 41 193
internal_value=0 0.113679 0.0814104 -0.0192642 0.428203 0.295577 -1.77796 0.140396 0.320045 0.768599 -0.119538 -1.0761 0.592322 0.27094 0.616362 0.105489 0.0292924 -0.000252854 -1.42016 1.02009 0.0549886 0.270268 1.18833 -0.0950226 0.232718 -0.357792 -0.0519455 0.0506584 0.129401 0.0981316
internal_weight=0 2040 1969 1526 443 415 41 366 297 147 150 64 86 113 89 69 1485 1442 54 43 1388 570 90 818 364 454 302 44 274 480
internal_count=27426 2040 1969 1526 443 415 41 366 297 147 150 64 86 113 89 69 1485 1442 54 43 1388 570 90 818 364 454 302 44 274 480
is_linear=0
shrinkage=0.1


Tree=97
num_leaves=31
num_cat=0
split_feature=2 1 4 2 2 3 2 1 2 2 2 8 2 2 2 2 2 1 1 7 1 1 2 2 2 2 4 1 0 1
split_gain=2796.79 9512.37 2881.31 2782.43 23233.5 22855.1 19066.7 17192.5 16719 33176.2 16525.6 17805.5 19424.8 16448.9 15924.1 18961.9 17600.4 13843.9 13390.3 13738.5 12815.4 12140.7 28973.9 17490.5 13556.8 32730.4 16293 11697 10863.4 10492.6
threshold=3.713436701193165 55367.000000000007 6.5000000000000009 14.217431932097645 14.217432002575164 4.5000000000000009 14.217432089598018 118503.00000000001 14.053048458135965 13.968231261337571 17.217432031575566 109.60003963333334 17.469601122514675 17.888778990853442 14.469601081753671 14.469600940678431 15.217431998125011 145066.50000000003 110802.50000000001 5.5000000000000009 181717.00000000003 119404.00000000001 13.968231083916526 8.3790759070046743 12.299623792800263 12.29962396241517 1.0000000180025095e-35 97279.500000000015 1785.0000000000002 109076.00000000001
decision_type=2 2 2 2 2 2 2 2 2 2 2 2 2 2 2 2 2 2 2 2 2 2 2 2 2 2 2 2 2 2
left_child=1 -1 -3 8 5 17 20 10 9 21 14 18 -13 -14 15 -8 29 -5 19 -12 -6 22 24 -23 -2 -26 -27 -21 -28 -16
right_child=3 2 -4 4 6 -7 7 -9 -10 -11 11 12 13 -15 16 -17 -18 -19 -20 27 -22 23 -24 -25 25 26 28 -29 -30 -31
leaf_value=1.0461541828356291 -0.035780209682125051 -1.3821100692749024 0.023505961384092059 1.5552414151338432 -1.9338687138792912 0.18985971407343946 0.15999171991366895 -0.024366223456271433 -0.74360504986051434 1.7289466626114316 0.20847520064562561 -2.9661032930016518 1.5708154152882727 -0.64784862307986302 1.3222767891677527 -2.2503958923060718 0.32171467021209876 4.9636527755043724 1.1411256548526476 -0.10778689751258264 0.58180322823701081 0.60352504558204234 -3.1583159158787422 0.023333342192404731 -3.3511576943927341 -0.1109003991220595 -0.11179229847748172 -3.2036678272744887 -1.3345805038236709 0.08404870478503676
leaf_weight=95 6734 25 35 26 81 60 160 10765 324 108 420 32 38 277 390 41 729 22 139 26 27 584 31 4711 36 1080 110 23 214 83
leaf_count=95 6734 25 35 26 81 60 160 10765 324 108 420 32 38 277 390 41 729 22 139 26 27 584 31 4711 36 1080 110 23 214 83
internal_value=0 0.423578 -0.562167 -0.00240749 0.0302368 1.491 0.0183131 0.0292033 -0.0336623 -0.0167589 0.273765 -0.0471091 -0.61867 -0.3802 0.492178 -0.331679 0.629945 3.11743 0.279094 0.0236093 -1.30495 -0.0307245 -0.106906 0.0873243 -0.0953334 -0.373827 -0.297486 -1.56096 -0.919436 1.105
internal_weight=0 155 60 27271 13339 108 13231 13123 13932 13608 2358 955 347 315 1403 201 1202 48 608 469 108 13500 8205 5295 8174 1440 1404 49 324 473
internal_count=27426 155 60 27271 13339 108 13231 13123 13932 13608 2358 955 347 315 1403 201 1202 48 608 469 108 13500 8205 5295 8174 1440 1404 49 324 473
is_linear=0
shrinkage=0.1


Tree=98
num_leaves=31
num_cat=0
split_feature=7 7 1 2 6 1 2 8 2 1 0 2 2 1 1 2 1 4 1 0 8 1 2 6 8 1 2 6 1 1
split_gain=2794.91 6050.43 6867.37 9897.96 9024.78 6434.83 8453.59 11059.8 18499 7698.01 8247.93 10766.2 11075.1 7436.52 6353.16 7045.22 6157.75 6068.03 11028.9 6067.86 6388.13 11438.3 8368.53 7552.85 5992.53 9851.34 12231 14762.3 11016.2 9533.33
threshold=4.5000000000000009 5.5000000000000009 343597.00000000006 12.88603928035703 4.5000000000000009 99694.000000000015 17.803847497836163 108.42500000000001 7.883299771119499 70304.000000000015 2263.0000000000005 13.381815532659425 14.384555445129317 100802.00000000001 327740.00000000006 19.973710585790151 248704.50000000003 3.5000000000000004 368270.50000000006 1785.0000000000002 103.01666650000001 257681.00000000003 15.469601034619256 5.5000000000000009 107.53333300000001 230878.00000000003 17.055788337721371 1.5000000000000002 237605.00000000003 219230.50000000003
decision_type=2 2 2 2 2 2 2 2 2 2 2 2 2 2 2 2 2 2 2 2 2 2 2 2 2 2 2 2 2 2
left_child=-1 5 24 -4 -5 6 7 9 -9 10 11 -2 -13 -7 16 -16 -15 18 -6 -18 21 -21 -22 -24 -3 29 -27 -28 -29 -26
right_child=1 2 3 4 17 13 -8 8 -10 -11 -12 12 -14 14 15 -17 19 -19 -20 20 22 -23 23 -25 25 26 27 28 -30 -31
leaf_value=-0.026972716598591431 0.11071420083638583 -0.11732437717713072 2.2197622260259045 -0.71932293699498773 3.4294936186075216 1.5392516672611238 -1.4525499656796457 -0.16296429894187237 2.6057053511918977 -0.30351359972582875 1.199896449302182 -3.2215935349464417 -0.035344307621320091 0.1770103281838126 -0.97797075958833801 1.0322747046297247 -0.50587433309931507 -0.15892326956795111 0.35486333029610773 2.7699219380815823 1.7532631658727216 0.76533497105188231 0.64049122381210333 -1.7716638180944657 0.12708359746693834 0.28616108238740368 1.4842711935043336 -3.2031499778682537 -0.84257669017865122 1.1297230666875839
leaf_weight=16002 1132 3971 31 57 20 42 40 55 43 695 66 20 24 2431 84 22 38 31 28 36 21 136 25 27 1835 172 25 22 195 100
leaf_count=16002 1132 3971 31 57 20 42 40 55 43 695 66 20 24 2431 84 22 38 31 28 36 21 136 25 27 1835 172 25 22 195 100
internal_value=0 0.0377816 -0.0257066 0.607249 0.239691 0.121202 -0.0128772 0.0154211 1.05186 -0.0370162 0.112111 0.0510615 -1.48364 0.218413 0.19874 -0.56075 0.228404 0.931638 1.63596 0.669878 0.852239 1.1849 0.0684368 -0.611974 -0.0424319 0.0841743 -0.358563 -0.816797 -1.0819 0.1789
internal_weight=0 11424 6487 167 136 4937 2075 2035 98 1937 1242 1176 44 2862 2820 106 2714 79 48 283 245 172 73 52 6320 2349 414 242 217 1935
internal_count=27426 11424 6487 167 136 4937 2075 2035 98 1937 1242 1176 44 2862 2820 106 2714 79 48 283 245 172 73 52 6320 2349 414 242 217 1935
is_linear=0
shrinkage=0.1


Tree=99
num_leaves=31
num_cat=0
split_feature=8 2 2 2 1 4 2 2 1 1 6 6 7 1 2 1 2 8 2 2 1 4 2 1 2 1 2 1 7 4
split_gain=2650.49 7287.97 9976.3 14304.1 10281.9 9641.59 11998.3 9712.84 8637.38 9690.74 7930.31 8713.81 13096.7 8197.38 7879.12 9794.64 7810.42 7479.57 12910.3 16050.7 16512.2 23681.7 18300.2 14452.6 14225.3 14146.9 13875.7 10999.5 13998.2 11880.7
threshold=71.261904000000015 14.217431932097645 14.053048458135965 13.968231261337571 145066.50000000003 1.0000000180025095e-35 14.217432002575164 14.217432163543796 82801.500000000015 262950.00000000006 9.5000000000000018 4.5000000000000009 4.5000000000000009 173202.00000000003 14.217432163543796 129500.50000000001 14.132500521688064 69.19642850000001 8.5463133228274444 10.633984675926149 255346.00000000003 2.5000000000000004 10.718916046322917 291515.00000000006 13.886039420354203 11640.500000000002 10.718916175791751 229328.00000000003 2.5000000000000004 2.5000000000000004
decision_type=2 2 2 2 2 2 2 2 2 2 2 2 2 2 2 2 2 2 2 2 2 2 2 2 2 2 2 2 2 2
left_child=1 2 3 17 -5 6 -3 -8 -9 -10 11 13 16 -4 -7 -16 -13 27 -19 23 22 -22 -21 25 26 -20 -24 -1 -29 -30
right_child=-2 5 10 4 -6 14 7 8 9 -11 -12 12 -14 -15 15 -17 -18 18 19 20 21 -23 24 -25 -26 -27 -28 28 29 -31
leaf_value=-0.022653343992741926 -0.022476199696422172 1.3580753832933357 0.73427686802176551 0.48553270101547241 3.1728781084219619 1.5396596283526034 -1.4198155175034817 0.76217556248108553 -0.2921873547683615 1.9071084578831989 0.38019050814603506 -0.065391481959301487 -3.2921317823471563 -1.4412807372920537 1.1965031818036109 0.16450458565057163 -2.3223261429563813 0.58573032144791959 -2.7503359109163288 2.0349504704828614 4.6622227538199654 0.67217427997612489 -1.287413932879766 -2.4850520097292388 -1.3896041999783433 -0.073551274410022557 0.38083524067241414 -2.444622689956113 0.96152589561847535 -0.73173934515638683
leaf_weight=4580 18011 61 43 35 24 74 52 120 436 21 57 46 31 29 124 356 23 534 20 54 21 51 54 26 57 1542 650 38 52 204
leaf_count=4580 18011 61 43 35 24 74 52 120 436 21 57 46 31 29 124 356 23 534 20 54 21 51 54 26 57 1542 650 38 52 204
internal_value=0 0.0429972 0.00866787 0.0274308 1.57869 0.268484 0.0190273 -0.110833 0.00713459 -0.191126 -0.642052 -0.980819 -1.58478 -0.141989 0.579178 0.431104 -0.817703 0.0158204 0.139793 0.0435781 0.384318 1.83594 0.256077 -0.146747 0.129849 -0.107825 0.252873 -0.0607147 -0.653643 -0.387795
internal_weight=0 9415 8171 7942 59 1244 690 629 577 457 229 172 100 72 554 480 69 7883 3009 2475 887 72 815 1588 761 1562 704 4874 294 256
internal_count=27426 9415 8171 7942 59 1244 690 629 577 457 229 172 100 72 554 480 69 7883 3009 2475 887 72 815 1588 761 1562 704 4874 294 256
is_linear=0
shrinkage=0.1


end of trees

feature_importances:
YM_MFG=919
NUM_TRAVEL=605
CAREVU=354
EXHAUST=271
SalesMonth=226
AveragePrice=209
INSIDEVU=177
COLOR=157
BRAND_TYPE_TOYOTA_RAV4=63
BRAND_TYPE_TOYOTA_ALTIS=13
BRAND_TYPE_TOYOTA_CAMRY=6

parameters:
[boosting: gbdt]
[objective: regression]
[metric: l2]
[tree_learner: serial]
[device_type: cpu]
[linear_tree: 0]
[data: ]
[valid: ]
[num_iterations: 100]
[learning_rate: 0.1]
[num_leaves: 31]
[num_threads: -1]
[deterministic: 0]
[force_col_wise: 0]
[force_row_wise: 0]
[histogram_pool_size: -1]
[max_depth: -1]
[min_data_in_leaf: 20]
[min_sum_hessian_in_leaf: 0.001]
[bagging_fraction: 1]
[pos_bagging_fraction: 1]
[neg_bagging_fraction: 1]
[bagging_freq: 0]
[bagging_seed: 3]
[feature_fraction: 1]
[feature_fraction_bynode: 1]
[feature_fraction_seed: 2]
[extra_trees: 0]
[extra_seed: 6]
[early_stopping_round: 0]
[first_metric_only: 0]
[max_delta_step: 0]
[lambda_l1: 0]
[lambda_l2: 0]
[linear_lambda: 0]
[min_gain_to_split: 0]
[drop_rate: 0.1]
[max_drop: 50]
[skip_drop: 0.5]
[xgboost_dart_mode: 0]
[uniform_drop: 0]
[drop_seed: 4]
[top_rate: 0.2]
[other_rate: 0.1]
[min_data_per_group: 100]
[max_cat_threshold: 32]
[cat_l2: 10]
[cat_smooth: 10]
[max_cat_to_onehot: 4]
[top_k: 20]
[monotone_constraints: ]
[monotone_constraints_method: basic]
[monotone_penalty: 0]
[feature_contri: ]
[forcedsplits_filename: ]
[refit_decay_rate: 0.9]
[cegb_tradeoff: 1]
[cegb_penalty_split: 0]
[cegb_penalty_feature_lazy: ]
[cegb_penalty_feature_coupled: ]
[path_smooth: 0]
[interaction_constraints: ]
[verbosity: -1]
[saved_feature_importance_type: 0]
[max_bin: 255]
[max_bin_by_feature: ]
[min_data_in_bin: 3]
[bin_construct_sample_cnt: 200000]
[data_random_seed: 1]
[is_enable_sparse: 1]
[enable_bundle: 1]
[use_missing: 1]
[zero_as_missing: 0]
[feature_pre_filter: 1]
[pre_partition: 0]
[two_round: 0]
[header: 0]
[label_column: ]
[weight_column: ]
[group_column: ]
[ignore_column: ]
[categorical_feature: ]
[forcedbins_filename: ]
[objective_seed: 5]
[num_class: 1]
[is_unbalance: 0]
[scale_pos_weight: 1]
[sigmoid: 1]
[boost_from_average: 1]
[reg_sqrt: 0]
[alpha: 0.9]
[fair_c: 1]
[poisson_max_delta_step: 0.7]
[tweedie_variance_power: 1.5]
[lambdarank_truncation_level: 30]
[lambdarank_norm: 1]
[label_gain: ]
[eval_at: ]
[multi_error_top_k: 1]
[auc_mu_weights: ]
[num_machines: 1]
[local_listen_port: 12400]
[time_out: 120]
[machine_list_filename: ]
[machines: ]
[gpu_platform_id: -1]
[gpu_device_id: -1]
[gpu_use_dp: 0]
[num_gpu: 1]

end of parameters

pandas_categorical:[]
